!।
#####जिलाधिकारी
####_अमरीकी_ओपन_टेनिस_प्रतियोगिता
####_अमरीकी_ओपन_टेनिस_प्रतियोगिता_
####_आर_सी_ए_प्रतियोगिता
####_आर_सी_ए_प्रतियोगिता_
####_इंडियन_वेल्स_मास्टर्स
####_इंडियन_वेल्स_मास्टर्स_
####_एशियाई_खेल
####_ऑस्ट्रेलियाई_ओपन_टेनिस_प्रतियोगिता
####_ऑस्ट्रेलियाई_ओपन_टेनिस_प्रतियोगिता_
####_कतर_एक्सॉन_मोबिल_ओपन_
####_कनाडा_मास्टर्स
####_कनाडा_मास्टर्स_
####_क्रैमलिन_कप
####_क्रैमलिन_कप_
####_ग्रांड_प्रिक्स_डे_टेनिस_डे_ल्योन
####_ग्रांड_प्रिक्स_डे_टेनिस_डे_ल्योन_
####_चीन_ओपन
####_चीन_ओपन_
####_थाइलैंड_ओपन_
####_दुबई_टेनिस_प्रतियोगिता
####_दुबई_टेनिस_प्रतियोगिता_
####_पायलट_पेन_टेनिस
####_पायलट_पेन_टेनिस_
####_पेरिस_मास्टर्स
####_पेरिस_मास्टर्स_
####_फ़िल्म
####_फ़्रेंच_ओपन_टेनिस_प्रतियोगिता
####_फ़्रेंच_ओपन_टेनिस_प्रतियोगिता_
####_बैंक_ऑफ_द_वेस्ट_क्लासिक
####_बैंक_ऑफ_द_वेस्ट_क्लासिक_
####_मियामी_मास्टर्स
####_मियामी_मास्टर्स_
####_मैड्रिड_मास्टर्स
####_मैड्रिड_मास्टर्स_
####_मोंटे_कार्लो_मास्टर्स
####_मोंटे_कार्लो_मास्टर्स_
####_रोम_मास्टर्स
####_रोम_मास्टर्स_
####_लेग_मेसन_टेनिस_क्लासिक_प्रतियोगिता
####_विम्बलडन_टेनिस_प्रतियोगिता
####_विम्बलडन_टेनिस_प्रतियोगिता_
####_सिनसिनाटी_मास्टर्स
####_सिनसिनाटी_मास्टर्स_
####_सेंट_पीटर्सबर्ग_ओपन
####_सेंट_पीटर्सबर्ग_ओपन_
####_सेंट_पीटर्सबर्ग_ओपेन_
####_स्टुटगार्ट_मास्टर्स_
####_हैमबर्ग_मास्टर्स
####_हैमबर्ग_मास्टर्स_
####ई
####ई#
####ए
####के
####को
####जिलाधिकारी
####मी
####में
###ई
###ईआर
###ए
###एफ
###एलआर
###डिग्री
###बी
###रू
###वाँ
###वां
###वीं
###वें
###वॉ
##.#ऽ
##_ए
##_एन_बी_ए_सीज़न
##ए
##किमी
##के
##डिग्री
##थ
##बी
##मिनट
##रू
##वा
##वाँ
##वां
##वी
##वीं
##वे
##वें
##वॉ
##ऽ
#.#ऽ
#_गाँव
#ए
#एम
#के
#जी
#ठी
#डी
#था
#थी
#बजे
#बी
#री
#वाँ
#वां
#वी
#वीं
#वें
%।
'ना
'।
(एनएसजी)
,।
...।
...॥
..।
.ा,
.।
.३०
.३०३
11वां
12वीं
14वीं
16वीं
17वीं
17वें
1993ए
1993बी
19वीं
1बजे
25ए
304ए
5वीं
6सी
:।
:।।
_गभाना_
_पुरुष_एकल
_पुरुष_युगल
_महिला_एकल
_महिला_युगल
_मिश्रित_युगल
}।
ँ
ं
ः
ः?
अ
अ#
अ.ज.जा
अ.जा
अ.भा
अ.भा.तृ.कां
अ.शा
अँ
अँगरेज
अँगरेज़
अँगरेज़ी
अँगरेजी
अँगरेजों
अँगुलियाँ
अँगुलियों
अँगुली
अँगूठा
अँगूठी
अँगूठे
अँगूठों
अँग्रेज
अँग्रेज़ी
अँग्रेजी
अँग्रेजी़
अँग्रेजों
अँतड़ियों
अँधा
अँधेरा
अँधेरी
अँधेरे
अं
अंक
अंकगणित
अंकगणितीय
अंकन
अंकल
अंकारा
अंकित
अंकिता
अंकीय
अंकुर
अंकुरण
अंकुरार्बुद
अंकुरित
अंकुरों
अंकुश
अंकेक्षण
अंको
अंकों
अंकोर
अंकोरवाट
अंक्षाश
अंग
अंगकोर
अंगच्छेदन
अंगद
अंगदेश
अंगना
अंगभंग
अंगभूत
अंगमाली
अंगरक्षक
अंगरक्षकों
अंगरखा
अंगराग
अंगरागों
अंगराज
अंगरेज
अंगरेज़ी
अंगरेजी
अंगरेजों
अंगार
अंगारक
अंगारकाटा
अंगारा
अंगारे
अंगारों
अंगिका
अंगिरस
अंगिरा
अंगी
अंगीकरण
अंगीकार
अंगीकृत
अंगीठी
अंगीभूत
अंगुठी
अंगुत्तर
अंगुत्तरनिकाय
अंगुल
अंगुलि
अंगुलिपटल
अंगुलियाँ
अंगुलियां
अंगुलियों
अंगुली
अंगुष्ठ
अंगूठा
अंगूठियां
अंगूठियों
अंगूठी
अंगूठे
अंगूठों
अंगूर
अंगूरी
अंगूरों
अंगेजी
अंगो
अंगों
अंगोरा
अंगोला
अंग्कोरथोम
अंग्कोरवात
अंग्मार
अंग्रजी
अंग्रजो
अंग्रजों
अंग्रेज
अंग्रेज़
अंग्रेज़ी
अंग्रेज़ीकरण
अंग्रेज़ीभाषी
अंग्रेज़ो
अंग्रेज़ों
अंग्रेजियत
अंग्रेजी
अंग्रेजीकरण
अंग्रेजीभाषी
अंग्रेजी़
अंग्रेजो
अंग्रेजों
अंचल
अंचलका
अंचलों
अंजन
अंजना
अंजनी
अंजनेयस्वामी
अंजलि
अंजली
अंजान
अंजाना
अंजाम
अंजीर
अंजुमन
अंजू
अंटार्कटिक
अंटार्कटिका
अंड
अंडकोश
अंडकोष
अंडकोषों
अंडग्रंथि
अंडज
अंडप
अंडमान
अंडमानी
अंडमानीज
अंडर
अंडरकवर
अंडरगारमेंट
अंडरग्राउंड
अंडरग्रेजुएट
अंडरटेकर
अंडरटो
अंडरवर्लड
अंडरवर्ल्ड
अंडरवल्र्रर्ड
अंडरवाटर
अंडरवियर
अंडरवुड
अंडरवैल्यूड
अंडरस्टैंडिंग
अंडरस्टोरी
अंडरोपक
अंडा
अंडाकार
अंडाणु
अंडाणुओं
अंडाशय
अंडी
अंडे
अंडो
अंडों
अंडोत्सर्ग
अंडोरा
अंत
अंत:करण
अंत:कला
अंत:काष्ठ
अंत:क्रिया
अंत:क्षेत्र
अंत:परमाणवीय
अंत:पुर
अंत:प्रजनन
अंत:शिरा
अंत:श्वसन
अंत:स्तर
अंत:स्थ
अंत:स्राव
अंत:स्रावी
अंतः
अंतःउपकला
अंतःकरण
अंतःकरणीं
अंतःकरणें
अंतःक्रिया
अंतःक्रियाओं
अंतःक्षिप्त
अंतःक्षेत्र
अंतःक्षेपी
अंतःपुर
अंतःयोद्धा
अंतःवस्त्र
अंतःविषय
अंतःशल्य
अंतःशिरा
अंतःस्थ
अंतःस्थापित
अंतःस्राव
अंतःस्रावी
अंतक
अंतकरण
अंतकला
अंतकाष्ठ
अंतक्रिया
अंतक्षेत्र
अंतगर्त
अंतड़ियों
अंतत
अंततः
अंततोगत्वा
अंतनिर्हित
अंतपरमाणवीय
अंतपाल
अंतपुर
अंतप्रजनन
अंतर
अंतरंग
अंतरंगता
अंतरंगियों
अंतरंगी
अंतरखगोलीय
अंतरगत
अंतरजातीय
अंतरजाल
अंतरण
अंतरतारकीय
अंतरपणन
अंतरफलक
अंतरफलकों
अंतरमहाद्वीपीय
अंतरराज्यीय
अंतरराष्ट्रीय
अंतरराष्ट्रीयता
अंतरर्राष्ट्रीय
अंतरा
अंतरात्मा
अंतरापृष्ठ
अंतराफलक
अंतराबंध
अंतराल
अंतरालीय
अंतरालों
अंतराष्ट्रीय
अंतरिक्ष
अंतरिक्षयात्रियों
अंतरिक्षयान
अंतरिक्षीय
अंतरित
अंतरिम
अंतरी
अंतरीं
अंतरीक्ष
अंतरीप
अंतरीय
अंतरे
अंतरों
अंतर्कलीय
अंतर्कोशिकीय
अंतर्क्रिया
अंतर्खण्डात्मक
अंतर्गत
अंतर्गत्त
अंतर्गमन
अंतर्गर्भाशयी
अंतर्गामी
अंतर्ग्रह
अंतर्ग्रहण
अंतर्जनस्तर
अंतर्जात
अंतर्जातीय
अंतर्जाल
अंतर्ज्ञान
अंतर्दर्शन
अंतर्दहन
अंतर्दृष्टि
अंतर्देशीय
अंतर्धान
अंतर्धारा
अंतर्ध्यान
अंतर्नियमों
अंतर्निर्मित
अंतर्निहित
अंतर्प्रद्रव्य
अंतर्भाग
अंतर्भाव
अंतर्भुक्त
अंतर्भूत
अंतर्मध्यस्थ
अंतर्मन
अंतर्मुक्त
अंतर्मुख
अंतर्मुखी
अंतर्यामी
अंतर्युति
अंतर्राज्यीय
अंतर्राषट्रीय
अंतर्राष्टीय
अंतर्राष्ट्रीय
अंतर्राष्ट्रीयकरण
अंतर्वयन
अंतर्वर्ती
अंतर्वस्तु
अंतर्वाह
अंतर्वाही
अंतर्विरोध
अंतर्विरोधों
अंतर्विवाह
अंतर्विवाही
अंतर्विषयक
अंतर्विष्ट
अंतर्वेशन
अंतर्वेशित
अंतर्वैयक्तिक
अंतर्शिरा
अंतर्संबंध
अंतर्हित
अंतलिखित
अंतशिरा
अंतश्चेतना
अंतश्वसन
अंतस
अंतस्तर
अंतस्तल
अंतस्थ
अंतस्था
अंतस्राव
अंतस्रावी
अंतहीन
अंताल्या
अंतिओक
अंतिम
अंती
अंतु
अंतुले
अंतों
अंतोनियो
अंतोनी
अंत्य
अंत्यंत
अंत्याधार
अंत्याधारों
अंत्यावस्था
अंत्येष्टि
अंत्र
अंदमान
अंदर
अंदरुनी
अंदरूनी
अंदल
अंदलीब
अंदाज
अंदाजन
अंदाज़
अंदाज़न
अंदाज़ा
अंदाज़े
अंदाजा
अंदेशा
अंदोलन
अंध
अंधक
अंधकार
अंधकारपूर्ण
अंधकारमय
अंधकों
अंधता
अंधत्व
अंधनाल
अंधविश्वास
अंधविश्वासी
अंधविश्वासों
अंधा
अंधाधुंध
अंधानुकरण
अंधापन
अंधी
अंधे
अंधेपन
अंधेर
अंधेरा
अंधेरी
अंधेरे
अंधेरों
अंधों
अंधड़
अंपायर
अंपायरों
अंबर
अंबरीश
अंबा
अंबानी
अंबार
अंबाला
अंबिका
अंबिकादत्त
अंबिकापुर
अंबुड्समान
अंबुमणि
अंबूवकी
अंबेडकर
अंबेडकरवादी
अंर्तगत
अंश
अंशक
अंशकालिक
अंशकालीन
अंशत
अंशतः
अंशदाता
अंशदान
अंशधारकों
अंशधारियों
अंशधारी
अंशमात्र
अंशशोधन
अंशशोधित
अंशांकन
अंशांकित
अंशाकित
अंशाणु
अंशी
अंशु
अंशुमन
अंशुमान
अंशो
अंशों
अंसकंठिका
अंसतुष्ट
अंसफलक
अंसाभिवर्तनी
अंसारी
अंहकार
अइमग
अइमाक़
अइयर
अइसिन
अई
अउ
अक
अकड़
अकड़न
अकथनीय
अकबर
अकबरनामा
अकबरपुर
अकबराबादी
अकबरी
अकमोला
अकरम
अकरा
अकर्ता
अकर्मक
अकर्मण्य
अकर्मण्यता
अकल
अकलंक
अकलुष
अकल्पनीय
अकल्पित
अकशेरुकी
अकसर
अकस्मात
अकस्मात्
अक़ाबा
अक़्ल
अका
अकाउंट
अकाउंटेंट
अकाउन्ट
अकाट्य
अकाडमी
अकात्सुकी
अकादमिक
अकादमियाँ
अकादमियों
अकादमी
अकादेमी
अकामाई
अकार
अकारण
अकारांत
अकारादि
अकार्बनिक
अकाल
अकालियों
अकाली
अकालों
अकाश
अकिता
अकिनास
अकिरा
अकिलीज़
अकी
अकीरा
अकुशल
अकुशलता
अकूत
अकूस्टिक
अकृत्रिम
अकेडमी
अकेडेमी
अकेम्प्रोसेट
अकेला
अकेलापन
अकेली
अकेले
अकेलेपन
अकैडमी
अकैडेमी
अकॉस्टिक
अकोला
अकोशिकीय
अक्कद
अक्कदी
अक्का
अक्कादी
अक्कादेवी
अक्खड़
अक्टुबर
अक्टूबर
अक्तुबर
अक्तूबर
अक्यूट
अक्रा
अक्रिय
अक्रियाशील
अक्रिस्टलीय
अक्रूर
अक्रॉस
अक्रोबेटिक
अक्विलाए
अक्विस
अक्वेरियम
अक्ष
अक्षत
अक्षतंतु
अक्षतन्तु
अक्षतिग्रस्त
अक्षपाद
अक्षम
अक्षमता
अक्षमताओं
अक्षम्य
अक्षय
अक्षयकुमार
अक्षयवट
अक्षर
अक्षरग्राम
अक्षरधाम
अक्षरमाला
अक्षरश
अक्षरशः
अक्षरा
अक्षराकृति
अक्षरात्मक
अक्षरी
अक्षरु
अक्षरें
अक्षरो
अक्षरों
अक्षांश
अक्षांशीय
अक्षांशों
अक्षांस
अक्षि
अक्षिदोलन
अक्षिबिंब
अक्षीय
अक्षुण
अक्षुण्ण
अक्षों
अक्षोभ्य
अक्षौहिणी
अक्स
अक्सब्रिज
अक्सर
अक्साई
अक्सोडा
अखंड
अखंडता
अखंडित
अखण्ड
अखण्डता
अखनिजीकरण
अखनिजीकृत
अखनूर
अखबार
अखबारी
अखबारों
अखरोट
अख़बार
अख़बारों
अख़रोट
अख़्तर
अखा
अखाड़ा
अखाड़े
अखाड़ों
अखाडा
अखाद्य
अखाड़े
अखिल
अखिलेश
अखेनातेन
अखैसिंह
अख्तर
अख्तियार
अख्नूर
अग
अगणनीय
अगणित
अगत्ती
अगप
अगम
अगम्य
अगर
अगरकर
अगरचे
अगरतला
अगरबत्ती
अगरिया
अगल
अगला
अगली
अगले
अगवा
अगवानपुर
अगवानी
अगस्टाइन
अगस्टे
अगस्त
अगस्तस
अगस्ति
अगस्त्य
अगस्त्यमुनि
अगहन
अगा
अगाऊ
अगाटा
अगाथा
अगाध
अगामेम्नन
अगासी
अगुआ
अगुआई
अगुणित
अगुम्बे
अगुल
अगुवा
अगुवाई
अगेंस्ट
अगेन
अगेन्स्ट
अगोचर
अग्नये
अग्नाशय
अग्नाशयशोथ
अग्नाशयी
अग्नि
अग्निकांड
अग्निदीपक
अग्निदेव
अग्निपथ
अग्निपुराण
अग्निबाण
अग्निमित्र
अग्नियाँ
अग्नियों
अग्निरेखा
अग्निवंशी
अग्निवर्ण
अग्निवेश
अग्निशमक
अग्निशमन
अग्निशामक
अग्निशामकों
अग्निष्टोम
अग्निसह
अग्निहोत्र
अग्निहोत्री
अग्ने
अग्नेल्ली
अग्न्याधान
अग्न्याशय
अग्न्याशयी
अग्र
अग्रखंड
अग्रगण्य
अग्रगामी
अग्रचर्वणक
अग्रज
अग्रणियों
अग्रणी
अग्रणीय
अग्रत्वचा
अग्रदास
अग्रदूत
अग्रदूतों
अग्रपक्ष
अग्रपाद
अग्रप्रदेश
अग्रबाहु
अग्रभाग
अग्रभूमि
अग्रवर्ती
अग्रवाल
अग्रसर
अग्रसारित
अग्रसेन
अग्रस्थ
अग्रहार
अग्रांत
अग्रानुक्रम
अग्राह्य
अग्रिप्पा
अग्रिम
अग्रिमों
अग्रीमेंट
अग्रेजी
अग्रेषण
अग्रेषित
अग्रोहा
अग्ली
अग्ले
अघरिया
अघात
अघिक
अघीक्षक
अघुलनशील
अघोर
अघोष
अघोषित
अङ्क
अङ्ग
अङ्गुलीयक
अङ्ग्रेज
अङ्ग्रेज़ी
अङ्ग्रेजी
अचंचल
अचंभित
अचंभे
अचम्भे
अचर
अचरज
अचरी
अचरेकर
अचल
अचलगढ़
अचलताकारक
अचलपुर
अचलविहार
अचला
अचानक
अचार
अचारन
अचारों
अचार्य
अचालक
अचिंत्य
अचिन्त्य
अचिह्नित
अचीवमेंट
अचुंबकीय
अचूक
अचूकता
अचेत
अचेतन
अचेतनता
अचेतनावस्था
अचेतावस्था
अच्
अच्छ
अच्छा
अच्छाइयाँ
अच्छाइयों
अच्छाई
अच्छादित
अच्छी
अच्छे
अच्युत
अच्युतानंदन
अछबल
अछा
अछाम
अछि
अछूत
अछूता
अछूती
अछूते
अछूतों
अछे
अज
अजंता
अजगर
अजजा
अजटेक
अजनबियों
अजनबी
अजनाभवर्ष
अजनाला
अजन्ता
अजन्मा
अजन्मे
अजब
अजम
अजमल
अजमीढ़
अजमेर
अजमेर_एक्स्प्रेस_####
अजमेरएक्स्प्रेस
अजमेरी
अजमोद
अजय
अजयगढ़
अजयपाल
अजर
अजरबैजान
अजल
अजवंत
अजवाइन
अजवायन
अजस्र
अजहर
अजहरुद्दीन
अज़
अज़गिरी
अज़रबेजान
अज़रबैजान
अज़ान
अज़ाब
अज़ीज़
अज़ीम
अज़ें
अज़ेरी
अज़ोरेस
अज़्काबान
अजा
अजाओकूता
अजाक्स
अजात
अजातशत्रु
अजान
अजामिल
अजायब
अजायबघर
अजित
अजिन
अजिल्द
अजी
अजीक्कल
अजीगर्त
अजीज
अजीजन
अजीत
अजीतनाथ
अजीतसिंह
अजीब
अजीबो
अजीबोगरीब
अजीम
अजीमाबाद
अजीर्ण
अजीव
अजीज़
अजूबा
अजूबों
अजेय
अजैव
अजैविक
अज्ञात
अज्ञातवास
अज्ञातव्यक्तिभीति
अज्ञातहेतुक
अज्ञान
अज्ञानता
अज्ञानमय
अज्ञानवश
अज्ञानी
अज्ञेय
अज्ञेयवाद
अज्ञेयवादी
अज्बकान
अज्युरियस
अज्र
अज्लाफ़
अझ़दहा
अझ़दहे
अझीक्कल
अञ्चल
अटक
अटकने
अटकल
अटकलबाजी
अटकलें
अटकलों
अटका
अटकाए
अटकाने
अटकाव
अटके
अटचाला
अटपटा
अटरिया
अटल
अटलजी
अटलांटा
अटलांटिक
अटलांटिस
अटवाल
अटा
अटाकामा
अटारी
अटार्नी
अटाला
अटूट
अटॅर्नी
अटे
अटेंडेंट
अटेंशन
अटेक
अटेनडेंस
अटैक
अटैक्स
अटैच
अटैचमेंट
अटैची
अटैच्ड
अटॉर्नी
अटोर्नी
अट्टकथा
अट्टहास
अट्टालिका
अट्टालिकाओं
अट्ठकथा
अट्ठकथाएँ
अट्ठकथाओं
अट्ठाइसवें
अट्ठाईस
अट्ठारह
अट्ठारहवीं
अट्ठारहवें
अठखेलियाँ
अठखेलियों
अठाइस
अठारवीं
अठारह
अठारहवी
अठारहवीं
अठारहवें
अठावले
अडडा
अडवांस्ड
अड़
अड़चन
अड़चनें
अड़तालीस
अड़तीस
अड़ियल
अड़ी
अड़े
अडा
अडिग
अडूर
अडॉबी
अडोब
अडोल्फ
अडोल्फ़
अड्डा
अड्डे
अड्डों
अड्यार
अढ़ाई
अणिमा
अणु
अणुओं
अणुकणिका
अणुकणिकाओं
अणुबम
अणुभार
अणुवाद
अणुव्रत
अणुसूत्र
अणे
अण्ड
अण्डकोष
अण्डज
अण्डमान
अण्डरग्राउंड
अण्डरलैण्ड
अण्डवाही
अण्डा
अण्डाकार
अण्डाणु
अण्डे
अण्डेमान
अण्डों
अण्डोत्सर्ग
अण्डोरा
अण्णा
अत
अतं
अतंर्गत
अतंर्राष्ट्रीय
अतः
अतएव
अततः
अतर
अतरजीत
अतरिक्त
अतरी
अतरौली
अतर्गत
अतर्रा
अतल
अतलास
अता
अतातुर्क
अतानू
अतार्किक
अतालता
अति
अतिआवश्यक
अतिकाल
अतिक्रमण
अतिगलग्रंथिता
अतिचार
अतिचालक
अतिचालकता
अतिच्छादन
अतितप्त
अतिताप
अतिथि
अतिथिगृह
अतिथियों
अतिथिशाला
अतिदेश
अतिनूतन
अतिन्द्रिय
अतिपरवलयज
अतिपाती
अतिप्रवाह
अतिप्राचीन
अतिभार
अतिभारित
अतिम
अतिमहत्वपूर्ण
अतिमात्रा
अतिमानव
अतिमानवीय
अतियथार्थवाद
अतियथार्थवादी
अतिरंजना
अतिरंजित
अतिरक्त
अतिरिक
अतिरिकत
अतिरिक्त
अतिरिक्तउष्णकटिबंधीय
अतिरिक्तता
अतिरेक
अतिवसारक्तता
अतिवाद
अतिवादी
अतिविशिष्ट
अतिवृद्धि
अतिवृष्टि
अतिव्यापन
अतिव्यापी
अतिशय
अतिशयोक्ति
अतिशयोक्तिपूर्ण
अतिशीघ्र
अतिश्योक्ति
अतिसंवेदनशील
अतिसंवेदनशीलता
अतिसक्रिय
अतिसक्रियता
अतिसार
अतिसारीय
अतिसूक्ष्म
अतिसूक्ष्मदर्शी
अतिसूक्ष्मवाद
अतिहसित
अतींद्रिय
अतीत
अतीन्द्रिय
अतीव
अतीस
अतुकांत
अतुल
अतुलनीय
अतुलित
अतुल्य
अतुल्यकालिक
अतृप्त
अते
अतैव
अत्
अत्ता
अत्तार
अत्तिरिक्त
अत्तिला
अत्यंत
अत्यंतनूतन
अत्यत
अत्यधिक
अत्यन्त
अत्यल्प
अत्याचार
अत्याचारपूर्ण
अत्याचारियों
अत्याचारी
अत्याचारों
अत्याधिक
अत्याधुनिक
अत्यावश्यक
अत्यावश्यकता
अत्युक्ति
अत्युच्च
अत्युत्तम
अत्र
अत्रि
अत्रिअल
अत्रियम
अत्री
अत्रे
अथ
अथक
अथमलगोला
अथरी
अथर्व
अथर्ववेद
अथर्ववेदीय
अथर्वा
अथव
अथवर्०
अथवा
अथारटी
अथारिटी
अथार्त
अथाह
अथिति
अथीना
अथॅरिटी
अथेरोस्लेरोसिस
अथॉरटी
अथॉरिटी
अथोरिटी
अद
अदंर
अदत्त
अदद
अदन
अदनान
अदनानी
अदब
अदबाडी
अदभुत
अदभुद
अदभूत
अदम्य
अदर
अदरक
अदरख
अदर्स
अदल
अदला
अदह
अदा
अदाऊँगा
अदाकर्ता
अदाकारा
अदाकारी
अदाकारों
अदाम
अदायगी
अदालत
अदालती
अदालतें
अदालतों
अदावत
अदि
अदिक
अदिति
अदिलाबादु
अदिश
अदिस
अदीस
अदूर
अदृश्य
अदृश्यता
अदृष्ट
अदृष्य
अद्
अद्धा
अद्भुत
अद्भुत्
अद्भुद
अद्भूत
अद्य
अद्यतन
अद्यतनीकरण
अद्यतनों
अद्यतित
अद्यावधि
अद्वय
अद्वितिय
अद्वितीय
अद्वितीयता
अद्वैत
अद्वैतवाद
अद्वैतवादी
अद्वैताचार्य
अध
अध:पतन
अध:श्चेतक
अध:स्तर
अधः
अधःस्तर
अधपके
अधपतन
अधम
अधमरा
अधययन
अधर
अधरों
अधर्म
अधर्मी
अधश्चेतक
अधस्तर
अधातु
अधातुओं
अधात्विक
अधार
अधारित
अधार्मिक
अधि
अधिक
अधिकंश
अधिकतः
अधिकतम
अधिकतर
अधिकता
अधिकमास
अधिकर
अधिकरण
अधिकरणों
अधिकाँश
अधिकांश
अधिकांशत
अधिकांशतः
अधिकांशतया
अधिकाधिक
अधिकान्श
अधिकार
अधिकारक्षेत्र
अधिकारपत्र
अधिकारपूर्ण
अधिकारपूर्वक
अधिकारवादी
अधिकारिक
अधिकारिणी
अधिकारिता
अधिकारियों
अधिकारी
अधिकारीगण
अधिकारीयों
अधिकारॉ
अधिकारो
अधिकारों
अधिकाश
अधिकृत
अधिक्तर
अधिक्रमण
अधिक्रमित
अधिगण
अधिगम
अधिगृहित
अधिगृहीत
अधिग्रहण
अधिग्रहण##
अधिग्रहणों
अधिग्रहित
अधिग्रहीत
अधिचर्म
अधिजठर
अधित
अधित्यका
अधिदाब
अधिदेवता
अधिदेश
अधिदैव
अधिन
अधिनस्थ
अधिनायक
अधिनायकत्व
अधिनायकवाद
अधिनायकवादी
अधिनियम
अधिनियमन
अधिनियमित
अधिनियमों
अधिनियिम
अधिनिर्णय
अधिपति
अधिपतियों
अधिपत्य
अधिप्राप्ति
अधिभार
अधिभावी
अधिभोग
अधिभौतिक
अधिमात्रा
अधिमान
अधिमानतः
अधिमान्य
अधिमास
अधिमिश्रण
अधिमिश्रित
अधियज्ञ
अधियोग
अधिरचना
अधिरथ
अधिराजेंद्र
अधिराज्य
अधिरोपित
अधिवक्ता
अधिवक्ताओं
अधिवक्तृत्व
अधिवर्ष
अधिवास
अधिवासियों
अधिवासी
अधिवृक्क
अधिवृक्कीय
अधिवेशन
अधिवेशनों
अधिशासी
अधिशेष
अधिशोषण
अधिशोषित
अधिष्ठाता
अधिष्ठात्री
अधिष्ठान
अधिष्ठापन
अधिष्ठित
अधिसंख्य
अधिसूचना
अधिसूचित
अधिस्नातक
अधिहृषता
अधीं
अधीक
अधीक्षक
अधीक्षकों
अधीक्षण
अधीत
अधीन
अधीनता
अधीनस्थ
अधीनस्थों
अधीर
अधीरता
अधीश्वर
अधुनातन
अधुरा
अधूरा
अधूरी
अधूरे
अधेड़
अधो
अधोगति
अधोगामी
अधोजत्रुक
अधोबिंदु
अधोमुख
अधोमुखी
अधोरक्त
अधोलिखित
अधोलोक
अधोवर्ती
अधोवस्त्र
अधोसंरचना
अधोस्नातक
अधोहनु
अधोहन्वस्थि
अधौडा
अध्धयन
अध्यक्ष
अध्यक्षता
अध्यक्षपद
अध्यक्षा
अध्यक्षीय
अध्यक्षों
अध्यन
अध्ययन
अध्ययनकर्ता
अध्ययनरत
अध्ययनशील
अध्ययनशीलता
अध्ययनाध्यापन
अध्ययनार्थ
अध्ययनों
अध्यवसाय
अध्यवसायी
अध्यात्म
अध्यात्मवाद
अध्यात्मवादियों
अध्यात्मवादी
अध्यात्मिक
अध्यादेश
अध्यादेशों
अध्यान
अध्यापक
अध्यापकों
अध्यापन
अध्यापिका
अध्यापिकाओं
अध्याय
अध्यायों
अध्यारोप
अध्यारोपण
अध्यारोपित
अध्यास
अध्येता
अध्येताओं
अध्येतावृत्ति
अध्रुवित
अध्रुवीय
अध्वर्यु
अन
अनंग
अनंगपाल
अनंङगपाल
अनंत
अनंतकुमार
अनंतता
अनंतनाग
अनंतपुर
अनंतमूर्ति
अनंतर
अनंतराम
अनंतस्पर्शी
अनंता
अनंतिम
अनंतु
अनकही
अनक़रीब
अनके
अनगढ़
अनगिनत
अनगढ़
अनघ
अनङगपाल
अनचाहे
अनछुए
अनजान
अनजाना
अनजानी
अनजाने
अनटचेबल्स
अनडिस्प्यूटेड
अनत
अनथक
अनदर
अनदेखा
अनदेखी
अनदेखे
अनधिकार
अनधिकृत
अननोन
अनन्त
अनन्तता
अनन्तर
अनन्तस्पर्शी
अनन्नास
अनन्य
अनन्यता
अनन्या
अनपढ़
अनपरा
अनपेक्षित
अनपेव्ड
अनप्लग्ड
अनफ़रगिवेन
अनफॉरगिवेन
अनबन
अनबिलिवेबल
अनबू
अनब्रेकेबल
अनभिज्ञ
अनभिज्ञता
अनभिप्रेत
अनभ्यस्त
अनमास्क्ड
अनमोल
अनम्य
अनय
अनरण्य
अनरसे
अनर्गल
अनर्थ
अनल
अनलंकृत
अनलिमिटेड
अनलॉक
अनवर
अनवरत
अनवार
अनशन
अनसाइक्लोपीडिया
अनसुइया
अनसुना
अनसुनी
अनसुलझी
अनसुलझे
अनसूइया
अनसूचित
अनसूया
अनहद
अनहुइ
अनहोनी
अनहोली
अना
अनाइट्रीकरण
अनाईमलाई
अनाकर्षक
अनाकार
अनाक्रामक
अनागत
अनाग्राम
अनाचार
अनाच्छादित
अनाज
अनाजों
अनाड़ी
अनातोलिया
अनात्म
अनात्मवाद
अनात्मवादी
अनात्मा
अनाथ
अनाथालय
अनाथालयों
अनाथों
अनादर
अनादरण
अनादि
अनादिकाल
अनाधिकारिक
अनाधिकृत
अनानास
अनाप
अनापत्ति
अनाबोलिक
अनाम
अनामक
अनामिका
अनामी
अनायास
अनायासें
अनार
अनारकली
अनारक्षित
अनारा
अनारिसें
अनार्य
अनार्यों
अनालिसिस
अनावरण
अनावर्ती
अनावश्यक
अनावृत
अनावृतबीजी
अनावृत्त
अनावृष्टि
अनावेशित
अनाश्रित
अनासक्त
अनासक्ति
अनास्था
अनाहत
अनिगमित
अनिच्छा
अनिच्छापूर्वक
अनिच्छुक
अनिता
अनित्य
अनित्यता
अनित्यत्व
अनिद्रा
अनिमे
अनियंत्रण
अनियंत्रित
अनियत
अनियन्त्रित
अनियमित
अनियमितता
अनियमितताएं
अनियमितताओं
अनियोजित
अनिरुद्ध
अनिर्णायक
अनिर्णित
अनिर्णीत
अनिर्दिष्ट
अनिर्धारित
अनिर्धार्य
अनिर्मित
अनिर्वचनीय
अनिल
अनिवार्य
अनिवार्यत
अनिवार्यतः
अनिवार्यता
अनिवासी
अनिश्चय
अनिश्चयवाचक
अनिश्चित
अनिश्चितकाल
अनिश्चितकालीन
अनिश्चितता
अनिश्चितताओं
अनिषेक
अनिषेकजनन
अनिष्ट
अनिष्टकारी
अनी
अनीता
अनीति
अनीश
अनीश्वरवाद
अनीश्वरवादी
अनीस
अनु
अनुकंपा
अनुकंपी
अनुकम्पा
अनुकरण
अनुकरणात्मक
अनुकरणीय
अनुकलन
अनुकार
अनुकुल
अनुकूल
अनुकूलक
अनुकूलतम
अनुकूलता
अनुकूलन
अनुकूलनीय
अनुकूलनों
अनुकूलित
अनुकूली
अनुकृत
अनुकृति
अनुकृतियाँ
अनुक्रम
अनुक्रमण
अनुक्रमणिका
अनुक्रमणी
अनुक्रमानुपाती
अनुक्रमिक
अनुक्रमित
अनुक्रमों
अनुक्रिया
अनुक्रियाओं
अनुखंड
अनुखंडित
अनुखंडों
अनुगमन
अनुगामी
अनुगीत
अनुगुल
अनुगूँज
अनुगूंज
अनुगृहीत
अनुग्रह
अनुचर
अनुचरों
अनुचित
अनुच्छेद
अनुच्छेदों
अनुज
अनुज्ञप्ति
अनुज्ञा
अनुज्ञापत्र
अनुतोष
अनुत्क्रमणीय
अनुत्तर
अनुत्तरित
अनुत्तीर्ण
अनुत्पादक
अनुदान
अनुदानों
अनुदार
अनुदित
अनुदिश
अनुदेश
अनुदेशक
अनुदेशात्मक
अनुदेशों
अनुदैर्ध्य
अनुनय
अनुनाद
अनुनादक
अनुनादी
अनुनासिक
अनुनासिकता
अनुपचारित
अनुपजाऊ
अनुपद
अनुपम
अनुपमा
अनुपयुक्त
अनुपयोगी
अनुपर्ण
अनुपलब्ध
अनुपलब्धता
अनुपलब्धि
अनुपस्थित
अनुपस्थिति
अनुपात
अनुपातहीन
अनुपातिक
अनुपाती
अनुपातों
अनुपालन
अनुपूरक
अनुपूरण
अनुप्रमाणित
अनुप्रयुक्त
अनुप्रयोग
अनुप्रयोगात्मक
अनुप्रयोगों
अनुप्रवाह
अनुप्रस्थ
अनुप्राणित
अनुप्रास
अनुप्रेरित
अनुप्रेषित
अनुबंध
अनुबंधन
अनुबंधात्मक
अनुबंधित
अनुबंधों
अनुबद्ध
अनुबन्ध
अनुबन्धित
अनुभव
अनुभवजन्य
अनुभववाद
अनुभववादियों
अनुभववादी
अनुभवसिद्ध
अनुभवहीन
अनुभवहीनता
अनुभवातीत
अनुभवी
अनुभवें
अनुभवो
अनुभवों
अनुभाग
अनुभागीय
अनुभागों
अनुभाव
अनुभूत
अनुभूति
अनुभूतियाँ
अनुभूतियां
अनुभूतियों
अनुमंडल
अनुमंडलों
अनुमत
अनुमतांक
अनुमति
अनुमती
अनुमन्य
अनुमस्तिष्क
अनुमान
अनुमानत
अनुमानतः
अनुमानानुसार
अनुमानित
अनुमानों
अनुमापन
अनुमार्गण
अनुमित
अनुमिति
अनुमितियों
अनुमेय
अनुमोदक
अनुमोदन
अनुमोदित
अनुयाइयों
अनुयाई
अनुयाईयों
अनुयायिओं
अनुयायियों
अनुयायी
अनुयोग
अनुरक्त
अनुरक्ति
अनुरक्षण
अनुरक्षित
अनुराग
अनुरागी
अनुराधा
अनुराधापुर
अनुराधापुरा
अनुरुप
अनुरूप
अनुरूपक
अनुरूपण
अनुरूपता
अनुरूपतावाद
अनुरूपी
अनुरेख
अनुरेखक
अनुरेखण
अनुरेखन
अनुरोध
अनुरोधित
अनुरोधों
अनुर्वरता
अनुलंब
अनुलग्न
अनुलग्नक
अनुलाप
अनुलिपि
अनुलोम
अनुवंश
अनुवर्तन
अनुवर्ती
अनुवांशिक
अनुवांशिकता
अनुवांशिकी
अनुवाक
अनुवाक्
अनुवाद
अनुवादक
अनुवादकों
अनुवादित
अनुवादों
अनुवासन
अनुविधि
अनुविभाग
अनुवीक्षण
अनुवृत्ति
अनुशंसा
अनुशंसाओं
अनुशंसित
अनुशरण
अनुशासक
अनुशासन
अनुशासनप्रिय
अनुशासनहीन
अनुशासनहीनता
अनुशासनात्मक
अनुशासनिक
अनुशासनों
अनुशासित
अनुशिथिलक
अनुशिथिलन
अनुशीर्षक
अनुशीलन
अनुश्रवण
अनुश्रुति
अनुश्रुतियाँ
अनुश्रुतियों
अनुषंगी
अनुषा
अनुषांगिक
अनुष्का
अनुष्टान
अनुष्टुप
अनुष्टुप्
अनुष्ठान
अनुष्ठानकर्ता
अनुष्ठानपरक
अनुष्ठानों
अनुष्ठित
अनुष्ठेय
अनुसंधान
अनुसंधानकर्ता
अनुसंधानकर्ताओं
अनुसंधानशाला
अनुसंधानात्मक
अनुसंधानाधीन
अनुसंधानों
अनुसंशा
अनुसचिवीय
अनुसन्धान
अनुसमर्थन
अनुसर
अनुसरण
अनुसरणकर्ता
अनुसा
अनुसार
अनुसुइया
अनुसूचित
अनुसूची
अनुसूया
अनुसृजन
अनुस्थापन
अनुस्नातक
अनुस्मारक
अनुस्यूत
अनुस्वार
अनुहरण
अनूठा
अनूठी
अनूठे
अनूदित
अनूप
अनूपपुर
अनूपशहर
अनूपसिंह
अनृत
अने
अनेक
अनेकता
अनेकरूपता
अनेकविध
अनेकांतवाद
अनेकानेक
अनेकार्थ
अनेकार्थक
अनेकार्थी
अनेको
अनेकों
अनेक्स
अनेन
अनेस्थेटिस्ट
अनैच्छिक
अनैतिक
अनैतिकता
अनैतिहासिक
अनोखा
अनोखी
अनोखे
अनोर्गास्मिया
अनौचित्य
अनौपचारिक
अन्
अन्कित
अन्कुर
अन्ग
अन्ग्रेज़ी
अन्ग्रेजी
अन्चल
अन्जाम
अन्टार्कटिका
अन्टूराज़
अन्त
अन्त:करण
अन्त:शल्यता
अन्तः
अन्तःकरण
अन्तःक्रिया
अन्तःपुर
अन्तःश्वसन
अन्तःसंयोग
अन्तक
अन्तकरण
अन्तकाल
अन्तत
अन्ततः
अन्ततोगत्वा
अन्तर
अन्तरंग
अन्तरक्रियाशीलता
अन्तरजाल
अन्तरण
अन्तरफलक
अन्तरमहाद्वीपीय
अन्तरराष्ट्रीय
अन्तरात्मा
अन्तराल
अन्तराष्ट्रीय
अन्तरिक्ष
अन्तरिक्षीय
अन्तरिम
अन्तरीप
अन्तरों
अन्तर्क्रिया
अन्तर्गत
अन्तर्गत्त
अन्तर्ग्रथन
अन्तर्ग्रहण
अन्तर्जात
अन्तर्जाल
अन्तर्दशा
अन्तर्दहन
अन्तर्दृष्टि
अन्तर्देशीय
अन्तर्द्वन्द
अन्तर्धान
अन्तर्ध्यान
अन्तर्निमित
अन्तर्निर्मित
अन्तर्निहित
अन्तर्मुखी
अन्तर्यामी
अन्तर्राज्यीय
अन्तर्राष्ट्रीय
अन्तर्वस्तु
अन्तर्विरोध
अन्तर्वेशन
अन्तर्सम्बन्धों
अन्तशल्यता
अन्तस्थ
अन्तिम
अन्त्य
अन्त्येष्टि
अन्त्रग्रंथन
अन्थोनी
अन्थ्रोपोगेनिक
अन्द
अन्दर
अन्दरुनी
अन्दरूनी
अन्दाज
अन्दाज़
अन्दीझ़ान
अन्देशा
अन्दोलन
अन्ध
अन्धक
अन्धकार
अन्धविश्वास
अन्धविश्वासों
अन्धाधुन्ध
अन्धे
अन्धेरा
अन्धेरे
अन्न
अन्नपूर्णा
अन्नप्राशन
अन्नम
अन्ना
अन्नादि
अन्नादुरई
अन्नादुरै
अन्नाद्रमुक
अन्नान
अन्नापोलिस
अन्नामलाई
अन्नामाचार्य
अन्नाल्स
अन्नू
अन्नों
अन्य
अन्यतम
अन्यत्र
अन्यथा
अन्यदेशीय
अन्यमनस्कता
अन्या
अन्यान्य
अन्याय
अन्यायपूर्ण
अन्यायी
अन्यायों
अन्ये
अन्यों
अन्योक्ति
अन्योन्य
अन्योन्यक्रिया
अन्योन्यता
अन्योन्याश्रित
अन्वय
अन्वरत
अन्विति
अन्वेषक
अन्वेषकों
अन्वेषण
अन्वेषणों
अन्वेषित
अन्वेषी
अप
अपंग
अपंगता
अपंजीकृत
अपकर्ष
अपकर्षण
अपकर्षी
अपकार
अपकीर्ति
अपकृति
अपकृष्ट
अपकेंद्रण
अपकेंद्रित्र
अपकेंद्री
अपक्व
अपक्षय
अपक्षयी
अपक्षरण
अपग्रेड
अपग्रेडिंग
अपघटन
अपघटनी
अपघटित
अपघट्य
अपघर्षक
अपघर्षण
अपघर्षित
अपच
अपचय
अपचयन
अपचयित
अपचायक
अपचित
अपजनन
अपटाउन
अपटेक
अपठनीय
अपडेट
अपतटीय
अपतृण
अपत्य
अपदस्थ
अपद्रव्य
अपद्रव्यीकरण
अपद्रव्यों
अपन
अपनत्व
अपना
अपनाई
अपनाए
अपनाएं
अपनाएगी
अपनाकर
अपनाता
अपनाती
अपनाते
अपनाना
अपनानी
अपनाने
अपनापन
अपनाया
अपनायी
अपनाये
अपनि
अपनी
अपने
अपनें
अपनेआप
अपनेपन
अपनों
अपप्रयोग
अपबीट
अपभ्रंश
अपभ्रंशों
अपमान
अपमानजनक
अपमानित
अपमार्जक
अपमिश्रण
अपयश
अपर
अपरंपरागत
अपरकट
अपरकेस
अपरदन
अपरदनात्मक
अपरदित
अपरब्रह्म
अपररूप
अपरस
अपरा
अपरांत
अपराजित
अपराजिता
अपराजितो
अपराजेय
अपराध
अपराधबोध
अपराधशास्त्र
अपराधिक
अपराधियों
अपराधी
अपराधीकरण
अपराधों
अपरान्ह
अपराह्न
अपरिग्रह
अपरिचय
अपरिचित
अपरिणत
अपरिपक्व
अपरिपक्वता
अपरिभाषित
अपरिमित
अपरिमेय
अपरिवर्तनशील
अपरिवर्तनीय
अपरिवर्तित
अपरिवर्ती
अपरिष्कृत
अपरिहार्य
अपरीक्षित
अपरूप
अपरूपक
अपरूपण
अपरॉक
अपरोक्ष
अपर्णा
अपर्याप्त
अपर्याप्तता
अपलाप
अपलिंक
अपलिंकिंग
अपलॊड
अपलोड
अपलोडिंग
अपवंचकों
अपवर्ग
अपवर्जन
अपवर्जित
अपवर्तक
अपवर्तन
अपवर्तनांक
अपवर्तनी
अपवर्तित
अपवाद
अपवादस्वरूप
अपवादों
अपवाह
अपवाहित
अपवाही
अपविकास
अपवित्र
अपवित्रता
अपवृक्कता
अपव्यय
अपशकुन
अपशब्द
अपशब्दों
अपशिष्ट
अपशिष्टों
अपष्टि
अपसंस्कृति
अपसड़
अपसरण
अपसामान्य
अपसारण
अपसारित
अपसारी
अपसौर
अपस्टेयर्स
अपस्ट्रीम
अपस्थानिक
अपस्फीत
अपस्फीति
अपस्फीतिकर
अपस्मार
अपहरण
अपहरणकर्ता
अपहरणकर्ताओं
अपहरणों
अपहर्ता
अपहर्ताओं
अपहृत
अपांग
अपाचियों
अपाची
अपाचे
अपाच्य
अपात्रता
अपादना
अपादान
अपान
अपार
अपारंपरिक
अपारगम्य
अपारदर्शक
अपारदर्शिता
अपारदर्शी
अपारम्परिक
अपारें
अपार्टमेंट
अपार्टमेंटों
अपार्टमेन्ट
अपार्थिव
अपाहारी
अपाहिज
अपि
अपितु
अपिर्त
अपील
अपीली
अपीलीय
अपीलें
अपीलों
अपील्स
अपु
अपुंबा
अपुष्ट
अपूरणीय
अपूर्ण
अपूर्णता
अपूर्णांक
अपूर्व
अपृष्ठवंशी
अपेक्षतया
अपेक्षया
अपेक्षा
अपेक्षाएँ
अपेक्षाएं
अपेक्षाओं
अपेक्षाकृत
अपेक्षित
अपेण्ड
अपेनाइंस
अपॉन
अपोजी
अपोन
अपोलो
अपोलोजी
अपोलोजेटिक्स
अपोलोनियस
अपोहक
अपोहन
अपोहित
अपौरुषेय
अप्
अप्नवान
अप्ने
अप्पन
अप्पय
अप्पर
अप्पा
अप्पू
अप्रकट
अप्रकाशित
अप्रगामी
अप्रचलित
अप्रतिबंधित
अप्रतिम
अप्रत्यक्ष
अप्रत्याशित
अप्रत्यास्थ
अप्रधान
अप्रभावित
अप्रभावी
अप्रभेद्य
अप्रमाणिक
अप्रमाणित
अप्रयुक्त
अप्रवर्तनीय
अप्रवास
अप्रवासन
अप्रवासियों
अप्रवासी
अप्रशिक्षित
अप्रसन्न
अप्रसन्नता
अप्रसार
अप्रसिद्ध
अप्रस्तुत
अप्राकृतिक
अप्राप्त
अप्राप्य
अप्रामाणिक
अप्रारूपिक
अप्रासंगिक
अप्रिय
अप्रिल
अप्रिलिया
अप्रेंटिस
अप्रेल
अप्रैल
अप्रोच
अप्रौढ़
अप्लाइंसेज़
अप्लाइड
अप्लिकेशन
अप्स
अप्सरा
अप्सराएँ
अप्सराएं
अप्सराओं
अफगान
अफगानियों
अफगानिस्तान
अफगानिस्तानियों
अफगानी
अफगानों
अफजल
अफज़ल
अफजाई
अफरा
अफरीदी
अफलातून
अफवाह
अफवाहें
अफवाहों
अफशां
अफसर
अफसरों
अफसोस
अफ़ग़ान
अफ़ग़ानिस्तान
अफ़ग़ानों
अफ़गान
अफ़गानिस्तान
अफ़गानों
अफ़ज़ल
अफ़र
अफ़राद
अफ़रीदी
अफ़लातून
अफ़वाज
अफ़वाह
अफ़वाहें
अफ़वाहों
अफ़सर
अफ़सरों
अफ़सोस
अफ़ीम
अफ़्ग़ान
अफ़्ग़ानिस्तान
अफ़्गान
अफ़्गानिस्तान
अफ़्रीकन
अफ़्रीका
अफ़्रीकी
अफीम
अफीमयुक्त
अफेक्टिव
अफेयर
अफेयर्स
अफ्गानिस्तान
अफ्तार
अफ्तारी
अफ्रिकन
अफ्रिका
अफ्रिकी
अफ्रीकन
अफ्रीका
अफ्रीकाई
अफ्रीकियों
अफ्रीकी
अफ्लेक
अब
अबकी
अबतक
अबदुर्राब
अबनी
अबरख
अबराहम
अबरोल
अबला
अबव
अबसे
अबाउट
अबाध
अबाधित
अबाबा
अबाबील
अबाया
अबी
अबीजीय
अबीर
अबीसीनिया
अबु
अबुझमाद
अबुझमादिया
अबुर्द
अबुल
अबुलफ़ज्ल
अबू
अबूझ
अबूझमाड़
अबूधाबी
अबे
अबेरदीन
अबोटी
अबोध
अबोमिनेबल
अबोर
अब्जर्वर
अब्द
अब्दाली
अब्दुन्नवी
अब्दुर
अब्दुर्रहमान
अब्दुल
अब्दुल्ला
अब्दुल्लाह
अब्देल
अब्बाजान
अब्बास
अब्बासिद
अब्बासियों
अब्बासी
अब्बू
अब्बे
अब्रामोविक
अब्राहम
अब्राहमिक
अब्राह्मण
अभंग
अभक्ष्य
अभद्र
अभद्रता
अभय
अभयदान
अभयपुरी
अभयमित्र
अभयसिंह
अभयारण्य
अभयारण्यों
अभा
अभागी
अभागे
अभाज्य
अभातृकां
अभाव
अभावग्रस्त
अभावात्मक
अभावों
अभि
अभिकथन
अभिकरण
अभिकरणों
अभिकर्ता
अभिकर्ताओं
अभिकर्मक
अभिकर्मकों
अभिकलन
अभिकलनात्मक
अभिकलित्र
अभिकल्प
अभिकल्पक
अभिकल्पन
अभिकल्पना
अभिकल्पित
अभिकल्पों
अभिकारक
अभिकारकों
अभिकेन्द्रीय
अभिक्रय
अभिक्रिया
अभिक्रियाएँ
अभिक्रियाएं
अभिक्रियाओं
अभिगम
अभिगमन
अभिगमित
अभिगम्य
अभिगम्यता
अभिगृहीत
अभिग्रहण
अभिग्राहक
अभिग्राहकों
अभिग्राही
अभिघात
अभिघातज
अभिघातजन्य
अभिचार
अभिजन
अभिजात
अभिजाततंत्र
अभिजात्य
अभिजित
अभिजित्
अभिजीत
अभिज्ञता
अभिज्ञात
अभिज्ञान
अभिज्ञानशाकुन्तल
अभिज्ञानशाकुन्तलम्
अभिज्ञापक
अभिज्ञेय
अभितापन
अभिदान
अभिदृश्य
अभिदृश्यक
अभिधम्म
अभिधम्मपिटक
अभिधर्म
अभिधर्मकोश
अभिधा
अभिधान
अभिधानप्पदीपिका
अभिधारणा
अभिनंदन
अभिनत
अभिनति
अभिनन्दन
अभिनय
अभिनयों
अभिनव
अभिनवगुप्त
अभिनवभारती
अभिनित
अभिनिवेश
अभिनीत
अभिनेता
अभिनेताओं
अभिनेत्रियां
अभिनेत्रियों
अभिनेत्री
अभिनेय
अभिन्न
अभिन्नता
अभिन्यास
अभिप्रमाणन
अभिप्राय
अभिप्रायों
अभिप्रावो
अभिप्रेत
अभिप्रेरक
अभिप्रेरण
अभिप्रेरणा
अभिप्रेरित
अभिभावक
अभिभावकीय
अभिभावकों
अभिभावी
अभिभाषण
अभिभूत
अभिमंत्रित
अभिमत
अभिमन्त्रित
अभिमन्यु
अभिमान
अभिमानी
अभिमानु
अभिमुख
अभिमुखता
अभियंता
अभियंताओं
अभियंत्रण
अभियंत्रिकी
अभियंत्रित
अभियन्ता
अभियाँत्रिकी
अभियांत्रिक
अभियांत्रिकी
अभियान
अभियानो
अभियानों
अभियान्त्रिकी
अभियुक्त
अभियुक्तों
अभियोक्ता
अभियोग
अभियोगी
अभियोगों
अभियोजक
अभियोजकों
अभियोजन
अभियोज्य
अभिरंजन
अभिरंजित
अभिरक्षा
अभिराम
अभिरुचि
अभिरुचियों
अभिरूचि
अभिलंब
अभिलक्षण
अभिलक्षणों
अभिलक्षित
अभिलम्ब
अभिलषित
अभिलाक्षणिक
अभिलाष
अभिलाषा
अभिलाषाओं
अभिलाषी
अभिलिखित
अभिलेख
अभिलेखक
अभिलेखन
अभिलेखागार
अभिलेखागारों
अभिलेखित
अभिलेखीय
अभिलेखों
अभिवादन
अभिवाह
अभिवाही
अभिविन्यस्त
अभिविन्यास
अभिवृत्ति
अभिवृत्तियाँ
अभिवृत्तियों
अभिवृद्धि
अभिव्यंजक
अभिव्यंजना
अभिव्यंजनावाद
अभिव्यंजनावादी
अभिव्यक्त
अभिव्यक्तता
अभिव्यक्ति
अभिव्यक्तिपरक
अभिव्यक्तिपूर्ण
अभिव्यक्तियाँ
अभिव्यक्तियां
अभिव्यक्तियों
अभिव्यक्तिवाद
अभिशप्त
अभिशाप
अभिशासन
अभिश्लेषण
अभिषिक्त
अभिषेक
अभिसमय
अभिसरण
अभिसरित
अभिसार
अभिसारिका
अभिसारी
अभिसिंचन
अभिस्थापन
अभिस्थापनों
अभिस्वीकृत
अभिस्वीकृति
अभिहित
अभी
अभीतक
अभीप्सित
अभीष्ट
अभुक्त
अभूतपूर्व
अभे
अभेद
अभेद्य
अभौतिक
अभ्यंकर
अभ्यंतर
अभ्यर्थना
अभ्यर्थियों
अभ्यर्थी
अभ्यस्त
अभ्यागतों
अभ्यारण
अभ्यारण्य
अभ्यारण्यों
अभ्यावेदन
अभ्यास
अभ्यासकर्ता
अभ्यासकर्ताओं
अभ्यासी
अभ्यासों
अभ्युदय
अभ्र
अभ्रक
अम
अमंग
अमंगल
अमगडी
अमजद
अमणिभीय
अमत्र्य
अमन
अमनदीप
अमनप्रीत
अमर
अमरकंटक
अमरकांत
अमरकान्त
अमरकोश
अमरकोष
अमरजीत
अमरता
अमरत्व
अमरदास
अमरदीप
अमरनाथ
अमरपक्षी
अमरपुर
अमरमणि
अमरसर
अमरसागर
अमरसिंह
अमरावती
अमरिंदर
अमरिका
अमरिकी
अमरीक
अमरीकन
अमरीका
अमरीकियों
अमरीकी
अमरीकीओपनटेनिसप्रतियोगिता
अमरीश
अमरुद
अमरूक
अमरूद
अमरोहा
अमरोही
अमर्त्य
अमर्यादित
अमल
अमलगम
अमलतास
अमला
अमली
अमलीजामा
अमले
अमवा
अमांडा
अमांत
अमाइनो
अमाइलोज
अमाटो
अमात्य
अमात्र
अमादलपुर
अमान
अमानत
अमानवीय
अमानी
अमानुल्ला
अमानुल्लाह
अमानुषिक
अमान्य
अमावस
अमावस्या
अमाशय
अमास
अमिट
अमित
अमिता
अमिताभ
अमिय
अमी
अमीचंद
अमीटर
अमीती
अमीन
अमीना
अमीनो
अमीबा
अमीर
अमीरात
अमीरी
अमीरों
अमीषी
अमु
अमुक
अमुन
अमुर
अमू
अमूमन
अमूर
अमूर्त
अमूर्तन
अमूर्तीकरण
अमूल
अमूल्य
अमृत
अमृतत्व
अमृतपान
अमृतपुर
अमृतयोग
अमृतराज
अमृतराय
अमृतलाल
अमृतसर
अमृतसर_एक्स्प्रेस_####
अमृतसरएक्स्प्रेस
अमृतसरी
अमृता
अमृताचा
अमृतानंदमयी
अमृतापुरी
अमृतेश्वर
अमेंडमेंट
अमेंडा
अमेच्योर
अमेजन
अमेज़न
अमेज़िंग
अमेजिंग
अमेठी
अमेथिस्ट
अमेदिओ
अमेरिक
अमेरिकन
अमेरिकन्स
अमेरिका
अमेरिकाज़
अमेरिकाना
अमेरिकास
अमेरिकासंयुक्त
अमेरिकियों
अमेरिकी
अमेरिकेन
अमेरिगो
अमेरीका
अमेरीकी
अमेल
अमेलिया
अमैंडा
अमोघ
अमोघवर्ष
अमोठा
अमोढ़ा
अमोनियम
अमोनिया
अमोल
अमोली
अमौखिक
अमौसी
अम्पायर
अम्पीयर
अम्बर
अम्बरीश
अम्बरीष
अम्बर्टो
अम्बलम
अम्बष्ठ
अम्बा
अम्बानी
अम्बार
अम्बाला
अम्बालिका
अम्बिका
अम्बिकापुर
अम्बिग्राम
अम्बु
अम्बुमणि
अम्बूवाची
अम्बे
अम्बेडकर
अम्बैसेडर
अम्ब्रिअल
अम्ब्रिज
अम्ब्रेला
अम्ब्रोसियन
अम्मन
अम्मवरु
अम्मा
अम्माँ
अम्मान
अम्माल
अम्मास
अम्मी
अम्मेम्बल
अम्यूजमेंट
अम्र
अम्ल
अम्लता
अम्लपित्त
अम्लरक्तता
अम्लराज
अम्लीकरण
अम्लीय
अम्लीयता
अम्लों
अय
अयंगर
अयंगार
अयतोल्ला
अयथार्थ
अयन
अयनगति
अयनांत
अयनांश
अयनों
अयप्पन
अयप्पा
अयस्क
अयस्कों
अयाचक
अयाची
अयाज़
अयातुल्ला
अयाद
अयान
अयाल
अयुक्त
अयुगल
अयुग्म
अयुग्मित
अयुर्वेद
अयूक्लिडीय
अयूथया
अयूब
अयोग्य
अयोग्यता
अयोध्या
अयोध्याकाण्ड
अयोध्यावासियों
अयोध्यासिंह
अयोरा
अय्यप्पन
अय्यर
अय्यूब
अर
अरंडी
अरंबद
अरकंसास
अरकांसास
अरक्तता
अरक्षणीय
अरक्षित
अरक्षितता
अरखाम
अरण्डी
अरण्य
अरण्यक
अरतिमिस
अरदास
अरनोद
अरपा
अरब
अरबपति
अरबपतियों
अरबाज़
अरबियन
अरबिया
अरबियों
अरबी
अरबील
अरबो
अरबों
अरमबाम
अरमान
अरमानी
अरमानों
अररिया
अरल
अरलीन
अरवल
अरविंद
अरविन्द
अरवी
अरशद
अरसा
अरसे
अरस्तु
अरस्तू
अरहंत
अरहई
अरहर
अरा
अराउंड
अराकान
अराजक
अराजकता
अराजकताओं
अराजकतावाद
अराजकतावादियों
अराजकतावादी
अराजनैतिक
अराजी
अराधना
अराध्य
अराफ़ात
अराफात
अराफुरा
अरामको
अरामी
अरायटिस
अरारत
अरारूट
अरारोट
अराल
अरावली
अरि
अरिंजय
अरिजीत
अरिपन
अरिफीन
अरिष्ट
अरिहंत
अरी
अरीना
अरीय
अरु
अरुंडेल
अरुंधति
अरुंधती
अरुचि
अरुचिकर
अरुण
अरुणा
अरुणांचल
अरुणाचल
अरुन्धती
अरुप
अरुल्मोज्हिवर्मन
अरुषा
अरू
अरूचि
अरूण
अरूणा
अरूणाचल
अरूणेश
अरूबा
अरे
अरेंजमेंट
अरेखित
अरेखीय
अरेना
अरेबिका
अरेबियन
अरेबिया
अरेरा
अरेराज
अरेस्ट
अरैंट्क्सा
अरैखिक
अरों
अरोड़
अरोड़ा
अरोरा
अरोड़ा
अर्
अर्क
अर्काट
अर्कान्तोस
अर्कान्सास
अर्कोट
अर्ख़ान्गेल्स्की
अर्ग
अर्गला
अर्गुन
अर्घ
अर्घ्य
अर्चन
अर्चना
अर्चिन
अर्ज
अर्जक
अर्जन
अर्ज़
अर्ज़ी
अर्जित
अर्जियां
अर्जियों
अर्जी
अर्जुन
अर्जुनलाल
अर्जुनसिंह
अर्जुना
अर्जुनु
अर्जुनें
अर्जुमंद
अर्जेंटाइना
अर्जेंटिनोस
अर्जेंटीना
अर्जेंटीनी
अर्जेटीना
अर्जेण्टीनी
अर्जेन्टीना
अर्णोराज
अर्तेक्ज़ेरेक्सेस
अर्थ
अर्थगत
अर्थज्ञान
अर्थतंत्र
अर्थदंड
अर्थदण्ड
अर्थनिर्देश
अर्थनीति
अर्थपूर्ण
अर्थबोध
अर्थर
अर्थवत्ता
अर्थवयवस्था
अर्थवाद
अर्थविज्ञान
अर्थव्यवस्था
अर्थव्यवस्थाएँ
अर्थव्यवस्थाएं
अर्थव्यवस्थाओं
अर्थव्यस्था
अर्थशास्त्र
अर्थशास्त्रियों
अर्थशास्त्री
अर्थशास्त्रीय
अर्थशास्री
अर्थसाइन
अर्थहीन
अर्थहीनता
अर्था
अर्थात
अर्थातः
अर्थात्
अर्थापत्ति
अर्थाभाव
अर्थालंकार
अर्थालंकारों
अर्थिक
अर्थी
अर्थुरियन
अर्थो
अर्थों
अर्थ्व्यवस्था
अर्थ्स
अर्दबील
अर्द्ध
अर्द्धगोलाकर
अर्द्धचन्द्राकार
अर्द्धनारीश्वर
अर्द्धमंडप
अर्द्धशतक
अर्द्धसैनिक
अर्द्धांगिनी
अर्ध
अर्धकुंभ
अर्धगोलाकार
अर्धचंद्र
अर्धचंद्राकार
अर्धचन्द्राकार
अर्धचालक
अर्धचालकों
अर्धजीवन
अर्धठोस
अर्धनारीश्वर
अर्धभाग
अर्धमंडप
अर्धमागधी
अर्धरात्रि
अर्धविराम
अर्धवृत्ताकार
अर्धव्यास
अर्धशतक
अर्धशुष्क
अर्धसत्य
अर्धसूत्र
अर्धसूत्रण
अर्धसूत्री
अर्धसूत्रीविभाजन
अर्धसैनिक
अर्धा
अर्धांगिनी
अर्धांश
अर्धायु
अर्ध्य
अर्नस्ट
अर्नाल्ड
अर्नेस्ट
अर्नेस्टो
अर्नोल्ड
अर्न्तगत
अर्न्तराष्ट्रीय
अर्न्स्ट
अर्पण
अर्पित
अर्बन
अर्बुद
अर्बुदों
अर्बोर
अर्मावीर
अर्मेनिया
अर्मेनियाई
अर्राकिस
अर्ल
अर्लिंग्टन
अर्ली
अर्ल्स
अर्वाचीन
अर्विन
अर्श
अर्से
अर्सेनल
अर्ह
अर्हक
अर्हत
अर्हता
अर्हताओं
अर्हत्
अल
अलंकरण
अलंकरणों
अलंकार
अलंकारशास्त्र
अलंकारशेखर
अलंकारसर्वस्व
अलंकारिक
अलंकारिता
अलंकारों
अलंकृत
अलंकृति
अलंग
अलकतरा
अलकतरे
अलकनंदा
अलकनन्दा
अलका
अलकाजी
अलकापुरी
अलकायदा
अलकोहल
अलक्षित
अलख
अलखनंदा
अलग
अलगप्पा
अलगाव
अलगाववाद
अलगाववादियों
अलगाववादी
अलगावादियों
अलजजीरा
अलताफ
अलपुझा
अलप्पड
अलप्पुझा
अलफराक
अलफुर
अलफ्रेड
अलबत्ता
अलबदर
अलबनी
अलबम
अलबरदेई
अलबरुनी
अलबर्ट
अलबर्टा
अलबामा
अलबेला
अलभ्य
अलमंसूरियन
अलमगारी
अलमस्त
अलमाती
अलमारियों
अलमारी
अलम्बुष
अलर्ट
अलवण
अलवणीकरण
अलवर
अलवा
अलविदा
अलविरा
अलसी
अलहदादपुरा
अला
अलांग
अलाइक
अलाइड
अलाइव
अलाई
अलाउड
अलाउद्दीन
अलाकवामी
अलाक्षणिक
अलादीन
अलान
अलापते
अलापा
अलाप्पुज्हा
अलाबामा
अलाभ
अलाभकारी
अलाम
अलामी
अलामीन
अलामेलु
अलाय
अलायंस
अलायन्स
अलारिक
अलार्म
अलार्मों
अलाव
अलावा
अलावी
अलावे
अलास्कन
अलास्का
अलाहाबाद
अलि
अलिंग
अलिंगसूत्र
अलिंगसूत्री
अलिंगसूत्रीय
अलिंगी
अलिंद
अलिंदी
अलिंदीय
अलिखित
अलिपुर
अलिप्त
अलिफ़
अली
अलीगंज
अलीगढ
अलीगढ़
अलीगढ़
अलीनगर
अलीपुर
अलीपुरद्वार
अलीम
अलीराजपुर
अलीवर्दी
अलीशा
अलीशाह
अलुमिनियम
अलुवा
अलूर
अले
अलेंदे
अलेक्ज़ेंडर
अलेक्ज़ैंडर
अलेक्जेंडर
अलेक्जेंड्रिया
अलेक्स
अलेक्सा
अलेक्सांदर
अलेक्सांद्रिया
अलेक्सान्द्र
अलेक्सेय
अलेन
अलेप्पो
अलैंगिक
अलैह
अलैहि
अलैहिस
अलैहिस्सलाम
अलॉट
अलॉय
अलो
अलोंग
अलोंसो
अलोइस
अलोकतांत्रिक
अलोकप्रिय
अलोन
अलोन्सो
अलोपी
अलोह
अलौकिक
अलौकिकता
अलौली
अलौह
अल्
अल्कलाइन
अल्केन
अल्कोहल
अल्कोहलिक
अल्कोहॉल
अल्कोहोल
अल्कोहोलिक
अल्गोरिद्म
अल्ज़ाइमर
अल्जाइमर
अल्जीरिया
अल्जेब्रा
अल्झाइमर
अल्टमैन
अल्टरनेटर
अल्टरनेटिव
अल्टिमेट
अल्टीमेट
अल्टीमेटम
अल्टेयर
अल्टो
अल्ट्रा
अल्ट्रावायलेट
अल्ट्रासाउंड
अल्ट्रासॉनिक
अल्ट्रासोनोग्राफी
अल्तमश
अल्ताई
अल्ताफ
अल्ताविस्ता
अल्प
अल्पकाल
अल्पकालिक
अल्पकालीन
अल्पक्रियता
अल्पजीवी
अल्पज्ञात
अल्पतम
अल्पता
अल्पदाब
अल्पना
अल्पनूतन
अल्पप्राण
अल्पबुद्धिता
अल्पमत
अल्परक्तकणरंजक
अल्पवयस्क
अल्पविकसित
अल्पविराम
अल्पशिक्षित
अल्पसंख्य
अल्पसंख्यक
अल्पसंख्यकों
अल्पसंख्या
अल्पाइन
अल्पायु
अल्पार्थक
अल्पावधि
अल्पावधिक
अल्पावस्था
अल्पाहार
अल्फ़ा
अल्फ़्रेड
अल्फा
अल्फांसो
अल्फाबेट
अल्फाल्फा
अल्फाज़
अल्फोंस
अल्फ्रेड
अल्फ्रेडो
अल्बम
अल्बर्ट
अल्बर्टा
अल्बर्टो
अल्बा
अल्बानिया
अल्बानियाई
अल्बानी
अल्बामा
अल्बुकर्क
अल्बुला
अल्बूकर्क
अल्बेनियाई
अल्ब्रेक्ट
अल्मा
अल्मागेस्ट
अल्माटी
अल्मोड़ा
अल्मोडा
अल्युमिनियम
अल्ला
अल्लाउद्दीन
अल्लापट
अल्लामा
अल्लाह
अल्लू
अल्लूरी
अल्वा
अल्सर
अल्स्टर
अल्हड़
अल्हुमदुइल्लाह
अल्हुम्दुलिल्लाह
अलक़ायदा
अव
अवं
अवंति
अवंतिका
अवंतिसुंदरी
अवंती
अवकरण
अवकल
अवकलज
अवकलन
अवकारक
अवकाश
अवकाशकालीन
अवकाशप्राप्त
अवकाशिका
अवकाशु
अवकाशों
अवकास
अवकृत
अवक्रमण
अवक्रमणीय
अवक्रमित
अवक्षय
अवक्षिप्त
अवक्षेप
अवक्षेपण
अवक्षेपित
अवगत
अवगति
अवगाह
अवगाहन
अवगुण
अवग्रह
अवचटें
अवचेतन
अवजालतनिका
अवज्ञा
अवटु
अवटुका
अवटुग्रंथि
अवतरण
अवतरणों
अवतरित
अवतल
अवताननी
अवतार
अवतारणा
अवतारवाद
अवतारी
अवतारों
अवतीर्ण
अवतु
अवदान
अवदानशतक
अवध
अवधान
अवधारण
अवधारणा
अवधारणाएँ
अवधारणाएं
अवधारणाओं
अवधारणात्मक
अवधारणायें
अवधारा
अवधारी
अवधारीं
अवधि
अवधियाँ
अवधियों
अवधी
अवधूत
अवधेश
अवन
अवनत
अवनति
अवनद्ध
अवनमन
अवनमित
अवनी
अवनीश
अवन्ति
अवन्तिका
अवन्ती
अवपात
अवमंदन
अवमंदित
अवमन्दन
अवमानना
अवमाननाजनक
अवमूल्यन
अवयव
अवयवी
अवयवों
अवयस्क
अवर
अवरक्त
अवरस्नातक
अवरुद्ध
अवरूद्ध
अवरोध
अवरोधक
अवरोधकों
अवरोधन
अवरोधित
अवरोधी
अवरोधों
अवरोह
अवरोहण
अवरोही
अवर्गीकृत
अवर्ण
अवर्णनीय
अवर्स
अवलंब
अवलंबन
अवलंबित
अवलम्ब
अवलम्बन
अवलम्बित
अवलेह
अवलोक
अवलोकन
अवलोकनात्मक
अवलोकनीय
अवलोकनों
अवलोकित
अवलोकितेश्वर
अवशिष्ट
अवशेष
अवशेषो
अवशेषों
अवशोषक
अवशोषण
अवशोषणकारी
अवशोषित
अवश्य
अवश्यंभावी
अवश्यक
अवश्यकता
अवश्यमेव
अवसंरचना
अवसंरचनात्मक
अवसर
अवसरवादिता
अवसरवादी
अवसरीं
अवसरें
अवसरों
अवसर्पिणी
अवसाद
अवसादक
अवसादग्रस्त
अवसादग्रस्तता
अवसादन
अवसादरोधी
अवसादी
अवसादीय
अवसादों
अवसान
अवस्ता
अवस्ताई
अवस्था
अवस्थांतर
अवस्थाएँ
अवस्थाएं
अवस्थाओं
अवस्थान
अवस्थापन
अवस्थायें
अवस्थावाले
अवस्थाविशेष
अवस्थित
अवस्थिति
अवस्थी
अवह
अवहट्ट
अवहट्ठ
अवहसित
अवहेलना
अवा
अवांछनीय
अवांछित
अवांतर
अवाक
अवान्तर
अवाम
अवामी
अवायवीय
अवायुजीवी
अवार्ड
अवार्डस
अवार्डों
अवार्ड्स
अवास्ट
अवास्तविक
अविकल
अविकसित
अविकारी
अविचल
अविच्छिन्न
अविछिन्न
अविजित
अविद्यमान
अविद्या
अविध
अविनाश
अविनाशिता
अविनाशी
अविनियमन
अविनियमित
अविभक्त
अविभाजित
अविभाज्य
अविभेदित
अविमुक्त
अविरत
अविरल
अविराम
अविरोध
अविरोधवाद
अविलंब
अविलम्ब
अविलेय
अविवादित
अविवाहित
अविवेक
अविवेकपूर्ण
अविवेकी
अविशिष्ट
अविश्वसनीय
अविश्वसनीयता
अविश्वास
अविष्कार
अविष्कारक
अविष्कारों
अविष्कृत
अविस्मरणीय
अवीव
अवीवा
अवृंत
अवे
अवेंजर्स
अवेक
अवेकनिंग
अवेध्य
अवेयर
अवेस्तन
अवेस्ता
अवैज्ञानिक
अवैतनिक
अवैदिक
अवैध
अवैधता
अवैधानिक
अवॉर्ड
अवॉर्ड्स
अवोगाद्रो
अवोर्ड
अव्
अव्यक्त
अव्यय
अव्ययीभाव
अव्ययों
अव्यवसायिक
अव्यवस्था
अव्यवस्थित
अव्यवहारिक
अव्यवहार्य
अव्यवहित
अव्याकरणिक
अव्याकृत
अव्यावसायिक
अव्यावहारिक
अव्वल
अव्स्थित
अव्हांटा
अश
अशक्त
अशक्तता
अशनि
अशफ़ाक़
अशफाक
अशर
अशरफ
अशरफ़
अशरीरी
अशा
अशांत
अशांति
अशान्त
अशान्ति
अशाब्दिक
अशासकीय
अशासनात्मक
अशिक्षा
अशिक्षित
अशिव
अशिष्ट
अशिष्टता
अशीष
अशुद्ध
अशुद्धता
अशुद्धताओं
अशुद्धि
अशुद्धियाँ
अशुद्धियां
अशुद्धियों
अशुभ
अशून्य
अशेष
अशोक
अशोककालीन
अशोकवाटिका
अशोका
अशोभनीय
अशौच
अश्क
अश्क़ाबाद
अश्मक
अश्मन्
अश्मरी
अश्मलेखन
अश्माका
अश्मीभूत
अश्रु
अश्रुधारा
अश्रुपूरित
अश्लिष्ट
अश्लील
अश्लीलता
अश्व
अश्वगंधा
अश्वघोष
अश्वत्थ
अश्वत्थामा
अश्वत्थु
अश्वधावन
अश्वनी
अश्वपति
अश्वमेघ
अश्वमेध
अश्वशक्ति
अश्वसेन
अश्वारुढ़
अश्वारोही
अश्विन
अश्विनी
अश्विनीकुमार
अश्वेत
अश्वेतों
अश्वों
अषाढ़
अष्ट
अष्टक
अष्टकोण
अष्टकोणीय
अष्टगन्ध
अष्टछाप
अष्टधातु
अष्टपदी
अष्टप्रधान
अष्टबाहु
अष्टभुजी
अष्टम
अष्टमी
अष्टविनायक
अष्टांग
अष्टांगसंग्रह
अष्टांगहृदय
अष्टांगिक
अष्टादश
अष्टाधारी
अष्टाध्यायी
अष्टापद
अष्टावक्र
अष्टावर्ण
अष्ठाना
अस
असंक्रमित
असंख्य
असंग
असंगठित
असंगत
असंगति
असंगतियाँ
असंगतियों
असंतत
असंतुलन
असंतुलित
असंतुष्ट
असंतुष्टि
असंतुष्टों
असंतृप्त
असंतोष
असंतोषजनक
असंदिग्ध
असंपीड्य
असंपूर्ण
असंबंधित
असंबद्ध
असंभव
असंभावना
असंभावित
असंभाव्य
असंयम
असंयमित
असंयुक्त
असंयोजी
असंरचित
असंवेदक
असंवेदनता
असंवेदनशील
असंवेदनशीलता
असंवैधानिक
असंशयवादी
असंशोधित
असंसेचित
असंस्कृत
असके
असक्रिय
असक्षम
असगंध
असगर
असग़र
असणें
असत
असतत
असता
असतां
असती
असतृप्त
असतो
असत्
असत्य
असत्यता
असत्यापित
असद
असन
असन्तुष्ट
असन्तोष
असफल
असफलता
असफलताओं
असफ़ल
असबाब
असभ्य
असभ्यों
असम
असमंजस
असमतल
असमता
असममित
असमय
असमर्थ
असमर्थता
असमर्थित
असमां
असमान
असमानता
असमानताएं
असमानताओं
असमान्य
असमिया
असमी
असम्बंधित
असम्बद्ध
असम्भव
असम्भाव्य
असम्मति
असर
असरकारी
असरगंज
असरदार
असरानी
असल
असलम
असलियत
असली
असलेल्या
असवत
असहज
असहनीय
असहमत
असहमति
असहयोग
असहयोगात्मक
असहाय
असहायता
असहिष्णु
असहिष्णुता
असह्य
असह्यता
असा
असाइलम
असादुदीन
असादुद्दीन
असाधरण
असाधारण
असाध्य
असाध्यता
असान
असानी
असामयिक
असामाजिक
असामान्य
असामान्यता
असामान्यताएँ
असामान्यताएं
असामान्यताओं
असामियों
असारता
असावटी
असावधान
असावधानी
असावधानीवश
असि
असिजे
असित
असिद्ध
असिद्धि
असिन
असिमोव
असिमोव्स
असिस्ट
असिस्टेंट
असिस्टेड
असी
असीम
असीमित
असीर
असीरियन
असीरिया
असीरियाई
असीरी
असीसी
असुंदर
असुर
असुरक्षा
असुरक्षित
असुरता
असुरो
असुरों
असुविधा
असुविधाएँ
असुविधाओं
असुविधाजनक
असूरी
असे
असें
असेंबली
असेंब्ली
असेट
असेम्बल
असेम्बलियों
असेम्बली
असेम्ब्ली
असेसमेंट
असैनिक
असैनिकों
असैन्य
असो
असोटा
असोसिएशन
असोसिएष्ण
असोसियेशन
असौ
अस्करी
अस्टोरिया
अस्ड्स
अस्त
अस्तबल
अस्तर
अस्तव्यस्त
अस्तव्यस्तता
अस्ताचल
अस्ताना
अस्ति
अस्तित्त्व
अस्तित्व
अस्तित्वपरक
अस्तित्ववाद
अस्तित्ववादी
अस्तित्वहीन
अस्तित्वों
अस्तु
अस्तेय
अस्तोर
अस्त्र
अस्त्रों
अस्थमा
अस्थाई
अस्थानिक
अस्थायित्व
अस्थायी
अस्थि
अस्थिकोरक
अस्थिपंजर
अस्थिबंध
अस्थिभंग
अस्थिमज्जा
अस्थियाँ
अस्थियां
अस्थियों
अस्थिर
अस्थिरता
अस्पताल
अस्पतालों
अस्पष्ट
अस्पष्टता
अस्पष्टीकृत
अस्पृश्य
अस्पृश्यता
अस्पेर्गेर
अस्फाल्ट
अस्बरी
अस्बाब
अस्माकं
अस्मिता
अस्य
अस्र
अस्वच्छ
अस्वच्छता
अस्वस्थ
अस्वस्थता
अस्वाभाविक
अस्वास्थ्यकर
अस्वीकरण
अस्वीकार
अस्वीकार्य
अस्वीकृत
अस्वीकृति
अस्सक
अस्सलाम
अस्सी
अस०३
अस०४
अस०५
अह
अहं
अहंकार
अहंकारी
अहंकारु
अहंभाव
अहंवाद
अहद
अहदनामा
अहम
अहमद
अहमदनगर
अहमदपुर
अहमदशाह
अहमदाबाद
अहमदाबाद_एक्स्प्रेस_####
अहमदाबादएक्स्प्रेस
अहमदिया
अहमदी
अहमदीनेजाद
अहमियत
अहम्
अहर्ता
अहर्निश
अहलुवालिया
अहलूवालिया
अहले
अहल्या
अहसान
अहसास
अहस्तक्षेप
अहस्ताक्षरित
अहा
अहाते
अहानिकर
अहार
अहि
अहिंदी
अहिंदीभाषी
अहिंसक
अहिंसा
अहिंसात्मक
अहिंसावादी
अहिछत्र
अहित
अहितकर
अहिन्दी
अहिम
अहिरावण
अहिरौरी
अहिल्या
अहिल्याबाई
अहीर
अहीरों
अहुर
अहुरमज़्द
अहुरमज्द
अहुरा
अहुरिरी
अहेड
अहो
अहोई
अहोम
अहोरात्र
अ्फ्रीका
अक़बर
अख़बार
अज़हर
अज़ीज़
अड़ंगा
अड़कर
अड़चन
अड़चनें
अड़चनों
अड़ा
अड़ियल
अड़े
अफ़गानिस्तान
अफ़सोस
अफ़ग़ान
अफ़ग़ानियों
अफ़ज़ाई
अ०
अ०प०
अ०प०३
अ०व०
अ०व०१
अ०व०२
आ
आ#
आँ
आँक
आँकड़ा
आँकड़े
आँकड़ों
आँकने
आँकलन
आँका
आँकी
आँकड़ा
आँकड़ें
आँकड़ों
आँख
आँखा
आँखे
आँखें
आँखो
आँखों
आँगन
आँग्ल
आँच
आँचल
आँत
आँतरगुहियों
आँतरिक
आँतों
आँदोलन
आँधियों
आँधी
आँवला
आँवले
आँसुओं
आँसू
आं
आंक
आंकड़ा
आंकड़े
आंकड़ें
आंकड़ो
आंकड़ों
आंकडा
आंकडे
आंकडो
आंकडों
आंकता
आंकते
आंकना
आंकने
आंकलन
आंकलित
आंका
आंकिक
आंकी
आंकें
आंकड़ा
आंकड़े
आंकड़ों
आंख
आंखे
आंखें
आंखो
आंखों
आंग
आंगन
आंगनबाड़ी
आंगलांग
आंगलोंग
आंगा
आंगिक
आंगिरस
आंगी
आंगीं
आंगें
आंग्रे
आंग्ल
आंच
आंचल
आंचलिक
आंचलिकता
आंटलजी
आंटी
आंत
आंतकवाद
आंतकवादियों
आंतकवादी
आंतकियों
आंतभौंम
आंतर
आंतरगुहियों
आंतरगुही
आंतरराष्ट्रीय
आंतराक्षि
आंतरायिक
आंतरिक
आंतु
आंतो
आंतों
आंतोनियो
आंत्र
आंत्रनाल
आंत्रमार्ग
आंत्रयोजनी
आंत्रशोथ
आंत्रिक
आंदालुसिया
आंदोलन
आंदोलनकारियों
आंदोलनकारी
आंदोलनों
आंदोलित
आंद्रे
आंद्रेई
आंधारें
आंधियां
आंधियों
आंधी
आंध्र
आंध्रप्रदेश
आंनद
आंबेकर
आंबेडकर
आंभस
आंरभ
आंरभिक
आंवला
आंवले
आंशका
आंशिक
आंसर
आंसुओं
आंसू
आइ
आइंटहॉवन
आइंसटाइन
आइंस्टाइन
आइंस्टाईन
आइंस्टीन
आइऍमई
आइए
आइएसडीएन
आइएसबी
आइओऍस
आइओबी
आइओवा
आइक
आइकन
आइका
आइके
आइकें
आइकॉन
आइकॉनिक
आइकोनिक
आइगर
आइची
आइज
आइजक
आइज़
आइज़क
आइज़नहावर
आइज़ेक
आइज़ैक
आइजैक
आइजोल
आइटम
आइटमों
आइट्यून्स
आइट्राँस
आइड
आइडल
आइडिया
आइडी
आइडेंटिटी
आइन
आइनस्टाइन
आइना
आइनू
आइने
आइन्ज़िगर
आइन्सटाइन
आइन्सटीन
आइन्स्टाइन
आइन्स्टीन
आइपीए
आइपीवी
आइपैड
आइपॉड
आइफा
आइफोन
आइबेरियन
आइबेरिया
आइये
आइरंस
आइरन
आइरनी
आइरिश
आइरिस
आइरोक्युइस
आइल
आइलेट
आइलेटों
आइलेट्स
आइलैंड
आइलैंडर
आइलैंड्स
आइलैण्ड
आइल्स
आइवर
आइवरी
आइवी
आइवोर
आइव्स
आइस
आइसक्रीम
आइसलैंड
आइसलैंडिक
आइसलैण्ड
आइसिंग
आइसिस
आइसो
आइसोटाइप
आइसोटोप
आइसोथियोसाइनेट
आइसोनियाज़िड
आइसोप्रीन
आइसोमर
आइसोलेट्स
आइसोलेशन
आइसोसाइनेट
आइस्ड
आई
आई#सी
आई.
आई.आई.एल
आई.आई.टी
आई.ए.एस
आई.एस.सी.ए
आई.टी
आई.टी.आई
आई.पी
आई.बी.एम
आई.बी.एस
आई.वी
आई.सी.एस
आई.सी.एस.ई
आईं
आईआईए
आईआईएम
आईआईएल
आईआईएससी
आईआईटी
आईआईबी
आईआर
आईआरईएल
आईआरए
आईआरएस
आईआरडीए
आईआरबी
आईआरबीएम
आईआरसीटीसी
आईइडी
आईई
आईई#
आईईईई
आईईटी
आईईडी
आईईसी
आईएआई
आईएईए
आईएएण्डएएस
आईएएनएस
आईएएस
आईएचईयू
आईएचएस
आईएनए
आईएनएच
आईएनएस
आईएनजी
आईएनसी
आईएफएस
आईएफबीडीओ
आईएम
आईएमई
आईएमईआई
आईएमए
आईएमएफ
आईएमएफ़
आईएमटी
आईएमडी
आईएमडीटी
आईएमसी
आईएल
आईएलएस
आईएलओ
आईएस
आईएसआई
आईएसएपी
आईएसएम
आईएसएस
आईएसओ
आईएसओसी
आईएसटी
आईएसडी
आईएसपी
आईएसबीएन
आईएसबीटी
आईएससीए
आईओएन
आईओएल
आईओएससीओ
आईओसी
आईकलग्रीन
आईक्यू
आईगूगल
आईगेट
आईज
आईज़ैक
आईजी
आईजी,
आईजीए
आईजीएन
आईजीएम
आईजीजी
आईजीडी
आईजीबीटी
आईजे
आईजेएफ
आईजेके
आईजोल
आईटी
आईटीआई
आईटीआईएल
आईटीईएस
आईटीएफ
आईटीजेड
आईटीडीसी
आईटीबीपी
आईटीयू
आईटीवी
आईटीवी#
आईटीसी
आईट्यून
आईट्यून्स
आईडब्लूजीपी
आईडी
आईडी#
आईडीई
आईडीए
आईडीबीआई
आईन
आईना
आईने
आईपी
आईपीए
आईपीएच
आईपीएल
आईपीएस
आईपीओ
आईपीकेएफ
आईपीटीवी
आईपीयू
आईपीवी
आईपीवी#
आईपीस
आईपीसी
आईपीसीएल
आईपीसीसी
आईपॉड
आईपोड
आईफोन
आईबी
आईबीएन
आईबीएम
आईबीएस
आईबीडी
आईबीपी
आईमैक्स
आईयूएमएल
आईयूपीएसी
आईयूसीएन
आईये
आईरिस
आईलेंड
आईलैंड
आईव़ोल
आईवी
आईवीएफ
आईवीएफ़
आईवॉल
आईवोर
आईस
आईसी
आईसीआईसीआई
आईसीएआर
आईसीएमआर
आईसीएल
आईसीएस
आईसीएसई
आईसीजी
आईसीजे
आईसीटी
आईसीडी
आईसीडीएस
आईसीपीएस
आईसीयू
आईसीसी
आई०
आई०ए०एस०
आउंस
आउट
आउटडोर
आउटपुट
आउटपेशेंट
आउटफिट
आउटफील्ड
आउटर
आउटरीच
आउटलाइन
आउटलुक
आउटलेट
आउटलेटों
आउटलेट्स
आउटलॉ
आउटसाइड
आउटसोर्स
आउटसोर्सिंग
आउटस्टैंडिंग
आउल
आऊँगा
आऊंगा
आऊंगी
आए
आएँ
आएँगी
आएँगे
आएं
आएंगी
आएंगे
आएगा
आएगी
आऐपिटस
आओ
आओगे
आक
आकंलन
आकड़ा
आकड़े
आकड़ों
आकर
आकरनार
आकर्मण
आकर्ष
आकर्षक
आकर्षण
आकर्षणों
आकर्षिक
आकर्षित
आकलन
आकलनकर्ता
आकलनों
आकलित
आकलैंड
आकल्प
आकल्पन
आकषर्ण
आकस्मिक
आकस्मिकता
आकस्मिकवाद
आक़्सू
आका
आकांक्षा
आकांक्षाएँ
आकांक्षाएं
आकांक्षाओं
आकांक्षित
आकांक्षी
आकाओं
आकार
आकारकीय
आकारमान
आकारवाले
आकारहीन
आकारांत
आकारिकी
आकारित
आकारीय
आकारु
आकारों
आकाश
आकाशगंगा
आकाशगंगाएँ
आकाशगंगाएं
आकाशगंगाओं
आकाशगंगीय
आकाशदीप
आकाशमार्ग
आकाशवाणी
आकाशा
आकाशी
आकाशीं
आकाशीय
आकाशें
आकिन
आकिल
आकिलखान
आकुंचन
आकुंचनी
आकुल
आकूति
आकृति
आकृतिक
आकृतियाँ
आकृतियां
आकृतियों
आकृष्ट
आके
आकोनीटुम
आक्टोपस
आक्मेनीड
आक्रमक
आक्रमण
आक्रमणकारियों
आक्रमणकारी
आक्रमणों
आक्रांत
आक्रांता
आक्रांताओं
आक्रान्ताओं
आक्रामक
आक्रामकता
आक्रामकों
आक्रोश
आक्रोशित
आक्र्ति
आक्षरिक
आक्षेप
आक्षेपों
आक्सफोर्ड
आक्सस
आक्साइड
आक्साइडों
आक्साईड
आक्सिजन
आक्सिम
आक्सिमों
आक्सी
आक्सीकरण
आक्सीकारक
आक्सीकृत
आक्सीजन
आक्सीहीमोग्लोबिन
आक्सैलिक
आखन
आखर
आखरी
आख़री
आख़ाल
आख़िर
आख़िरकर
आख़िरकार
आख़िरी
आख़ेरत
आखिर
आखिरकार
आखिरी
आखि़र
आखि़रत
आखें
आखेट
आखेटक
आखेटि
आखों
आख्या
आख्यात
आख्यान
आख्यानक
आख्यानों
आख्यायिका
आग
आगंतुक
आगंतुकों
आगए
आगजनी
आगज़नी
आगणन
आगत
आगन्तुक
आगबबूला
आगम
आगमन
आगमनात्मक
आगमिक
आगमों
आगया
आगयी
आगर
आगरकर
आगरा
आगरे
आगवानी
आगस्ट
आगस्टस
आगस्त
आग़ा
आगा
आगाज
आगाज़
आगामी
आगार
आगाह
आगी
आगे
आगोश
आग्नीध्र
आग्नेय
आग्नेयास्त्र
आग्नेयास्त्रों
आग्रह
आग्रही
आग्रहों
आघवा
आघवांचि
आघवी
आघवे
आघवें
आघवेंचि
आघात
आघातों
आघूर्ण
आचमन
आचरण
आचरणशास्त्र
आचरणों
आचार
आचारदर्शन
आचारनीति
आचारशास्त्र
आचारसंहिता
आचारों
आचार्य
आचार्यपीठ
आचार्यो
आचार्यों
आचे
आच्छन्न
आच्छादन
आच्छादित
आज
आजकल
आजतक
आजन्म
आजम
आजमगढ
आजमगढ़
आजमगढ़
आजमा
आजमाए
आजमाते
आजमाना
आजमाने
आजमाया
आजमी
आज़म
आज़मगढ़
आज़माइश
आज़माए
आज़माया
आज़मी
आज़ाद
आज़ादी
आज़ोइक
आज़ोव
आजा
आजाता
आजाद
आजादी
आजाये
आजि
आजीवन
आजीविक
आजीविका
आजु
आज्ञप्ति
आज्ञा
आज्ञाओं
आज्ञाकारिता
आज्ञाकारी
आज्ञानुसार
आज्ञापत्र
आज्ञापालन
आट
आटविक
आटा
आटाखास
आटे
आटो
आटोक्लेव
आटोमेटिक
आटोमोबाइल
आटोमोबिली
आटोरिक्शा
आट्टुकाल
आठ
आठवा
आठवाँ
आठवां
आठवी
आठवीं
आठवे
आठवें
आठो
आठों
आड
आडंबर
आडंबरपूर्ण
आडंबरों
आडम्बर
आडम्बरहीन
आडवाणी
आड़
आड़ा
आड़ी
आड़ू
आड़े
आडिटोरियम
आडियो
आडू
आडे
आड्री
आढ़
आण
आणंद
आणविक
आणि
आणिक
आणिकही
आणिलें
आणी
आणीकही
आणुविक
आण्विक
आत
आतंक
आतंकवाद
आतंकवादरोधी
आतंकवादियों
आतंकवादी
आतंकित
आतंकियों
आतंकी
आतंरिक
आततायी
आतप
आतपन
आता
आतां
आतांचि
आतानक
आतिथेय
आतिथ्य
आतिश
आतिशबाज़ी
आतिशबाजियों
आतिशबाजी
आतिश्बाजी
आती
आतीं
आतुर
आते
आतें
आतेशगाह
आत्म
आत्मकथा
आत्मकथाओं
आत्मकथात्मक
आत्मकथ्य
आत्मकल्याण
आत्मकेंद्रित
आत्मगत
आत्मगौरव
आत्मग्लानि
आत्मघात
आत्मघाती
आत्मचरित
आत्मचिंतन
आत्मचेतना
आत्मज
आत्मजयी
आत्मजीवनी
आत्मज्ञान
आत्मज्ञानी
आत्मतत्त्व
आत्मतत्व
आत्मत्याग
आत्मदाह
आत्मनियंत्रण
आत्मनिरीक्षण
आत्मनिर्णय
आत्मनिर्भर
आत्मनिर्भरता
आत्मनिवेदन
आत्मनिष्ठ
आत्मपरक
आत्मपीड़न
आत्मबल
आत्मबोध
आत्मरक्षा
आत्मरति
आत्मवाद
आत्मविकास
आत्मविद्या
आत्मविमोह
आत्मविश्वास
आत्मविश्वासी
आत्मशुद्धि
आत्मश्लाघा
आत्मसंयम
आत्मसमर्पण
आत्मसम्मान
आत्मसात
आत्मसात्
आत्मस्थ
आत्मस्वरूप
आत्महत्या
आत्महत्याएँ
आत्महत्याएं
आत्महत्याओं
आत्महस्ती
आत्मा
आत्माएँ
आत्माएं
आत्माओं
आत्मानन्द
आत्मानुभूति
आत्माभिव्यक्ति
आत्माराम
आत्मिक
आत्मीकरण
आत्मीय
आत्मीयता
आत्मोत्सर्ग
आत्मोन्नति
आत्यंतिक
आत्रेय
आथि
आथिला
आथी
आद
आदत
आदतन
आदतें
आदतों
आदम
आदमकद
आदमखोर
आदमखोरों
आदमपुर
आदमियों
आदमी
आदर
आदरणीय
आदरपूर्वक
आदरभाव
आदरसूचक
आदरें
आदर्श
आदर्शतः
आदर्शवाद
आदर्शवादिता
आदर्शवादी
आदर्शो
आदर्शों
आदर्शोन्मुख
आदाता
आदाद
आदान
आदानप्रदान
आदानों
आदार
आदि
आदिक
आदिकवि
आदिकाल
आदिकालीन
आदिकाव्य
आदिगुरु
आदिग्रंथ
आदिग्रन्थ
आदिग्रह
आदित्य
आदित्यनाथ
आदित्यसेन
आदित्यों
आदिदेव
आदिनाथ
आदिनाथजी
आदिनूतन
आदिपर्व
आदिपाप
आदिपुराण
आदिपुरुष
आदिबुद्ध
आदिभूमि
आदिम
आदिमवाद
आदिमानव
आदिरूप
आदिल
आदिलशाह
आदिलशाही
आदिलाबाद
आदिवर्णिक
आदिवासियों
आदिवासी
आदिवासीय
आदिश
आदिशक्ति
आदिस
आदिस्थानम
आदी
आदेश
आदेशात्मक
आदेशानुसार
आदेशित
आदेशों
आद्य
आद्यंत
आद्यक्षर
आद्यमुखी
आद्यरूप
आद्या
आद्याक्षर
आद्याक्षरों
आद्योद्भिद
आद्योपांत
आद्योपान्त
आद्र
आद्रता
आद्रा
आद्र्र
आद्र्रता
आध
आधर
आधरित
आधा
आधात
आधात्रि
आधान
आधानित
आधानों
आधार
आधारभूत
आधारभूमि
आधाररेखा
आधारशिला
आधारशिलाओं
आधारस्तंभ
आधारहीन
आधारांक
आधारिक
आधारित
आधारी
आधारीत
आधारीय
आधारें
आधारों
आधि
आधिक
आधिकार
आधिकारिक
आधिकारियों
आधिक्य
आधिदैविक
आधिनिक
आधिपत्य
आधिभौतिक
आधी
आधीं
आधींच
आधींचि
आधीन
आधुनिक
आधुनिकतम
आधुनिकता
आधुनिकतावाद
आधुनिकतावादियों
आधुनिकतावादी
आधुनिकीकरण
आधुनिकोत्तर
आधृत
आधे
आधों
आध्यात्म
आध्यात्मवादी
आध्यात्मिक
आध्यात्मिकता
आध्यामिक
आन
आनंद
आनंदजी
आनंददायक
आनंददायी
आनंदपाल
आनंदपुर
आनंदपूर्ण
आनंदबोध
आनंदमठ
आनंदमणि
आनंदमय
आनंदमयी
आनंदराव
आनंदवर्धन
आनंदानुभूति
आनंदित
आनंदीबाई
आनंदोत्सव
आनद
आनन
आननी
आनन्द
आनन्दघन
आनन्ददायक
आनन्दपुर
आनन्दपूर्वक
आनन्दमय
आनन्दवन
आनन्दवर्धन
आनन्दित
आनर्त
आनर्स
आनलाइन
आना
आनाकानी
आनातोलिया
आनी
आनुक्रमिक
आनुपातिक
आनुभविक
आनुमानिक
आनुवंशिक
आनुवंशिकता
आनुवंशिकी
आनुवांशिक
आनुवांशिकता
आनुवांशिकी
आनुषंगिक
आनुषांगिक
आनुष्ठानिक
आने
आनें
आनेवाला
आनेवाली
आनेवाले
आनेवालों
आन्तरिक
आन्त्र
आन्दोलन
आन्दोलनकारियों
आन्दोलनकारी
आन्दोलनों
आन्द्रे
आन्द्रेई
आन्ध्र
आन्ध्रप्रदेश
आन्नद
आन्वीक्षिकी
आन्सर्स
आप
आपका
आपकी
आपके
आपको
आपटे
आपण
आपणचि
आपणपयां
आपणपां
आपणपांचि
आपणपें
आपणपेंचि
आपणपेयां
आपणयां
आपतन
आपति
आपतित
आपत्कालीन
आपत्ति
आपत्तिजनक
आपत्तियाँ
आपत्तियां
आपत्तियों
आपत्ती
आपदा
आपदाएं
आपदाओं
आपन
आपनत्सेल
आपना
आपनी
आपने
आपमें
आपराधिक
आपरेटर
आपरेटिंग
आपरेशन
आपरेशनल
आपरेशनों
आपला
आपली
आपलें
आपलोग
आपस
आपसी
आपसे
आपस्तंब
आपस्तंबधर्मसूत्र
आपस्तम्ब
आपा
आपात
आपातकाल
आपातकालीन
आपातत
आपाती
आपाधापी
आपिशलि
आपु
आपुला
आपुलालिया
आपुलिया
आपुलिये
आपुली
आपुले
आपुलें
आपुलेनि
आपूरित
आपूर्ति
आपूर्तिकर्ता
आपूर्तिकर्ताओं
आपूर्तियां
आपूर्तियों
आपूर्ती
आपे
आपेक्षिक
आपेक्षिकता
आपेरा
आपैसे
आपैसें
आपो
आप्टिक
आप्टिकल
आप्टे
आप्त
आप्तोपदेश
आप्रवास
आप्रवासन
आप्रवासियों
आप्रवासी
आप्रेटर
आप्लावन
आप्लावित
आफ
आफताब
आफ़
आफ़ताब
आफ़िस
आफिस
आफ्टर
आफ्टरनून
आफ्टरमाथ
आफ्टरमार्केट
आब
आबंटन
आबंटित
आबंध
आबकारी
आबद्ध
आबनूस
आबरू
आबसू
आबाद
आबादियां
आबादियों
आबादी
आबादीवाले
आबिद
आबू
आबे
आबोहवा
आभा
आभार
आभारी
आभाव
आभास
आभासित
आभासी
आभासीकरण
आभासीय
आभासे
आभिजात्य
आभियांत्रिकी
आभीर
आभीरों
आभूषण
आभूषणों
आभोग
आभ्यंतर
आभ्यंतरिक
आभ्यांतरिक
आम
आमंत्रण
आमंत्रित
आमचुनाव
आमजन
आमटे
आमतौर
आमद
आमदनी
आमना
आमने
आमन्त्रित
आमरण
आमलक
आमलकी
आमवात
आमवाती
आमसहमति
आमा
आमादा
आमापन
आमार
आमारान्थूस्
आमाल
आमाशय
आमिऐं
आमिर
आमी
आमीन
आमुचा
आमुचें
आमू
आमूल
आमेंट
आमेर
आमों
आमोद
आमोर
आम्नाय
आम्बेर
आम्र
आम्रपाली
आम्हां
आम्ही
आम्हीं
आय
आयंगर
आयकर
आयकरदाताओं
आयडाहो
आयत
आयतन
आयतनों
आयताकार
आयती
आयतें
आयतों
आयन
आयनन
आयनमंडल
आयनिक
आयनित
आयनीकरण
आयनीकृत
आयनों
आयपीएल
आयर
आयरन
आयरनडेक्वायट
आयरलैंड
आयरलैंडआयरलैंड
आयरलैण्ड
आयरिश
आयरिस
आयरी
आयरे
आयरॉन्स
आयर्टन
आयर्स
आयल
आयलर
आयलैंड
आयवर्ग
आयवर्गवालों
आयशा
आया
आयात
आयातक
आयातकों
आयातित
आयातीत
आयातों
आयाम
आयामी
आयामों
आयी
आयीं
आयु
आयुक्त
आयुक्तों
आयुध
आयुधों
आयुपर्यन्त
आयुर्विज्ञान
आयुर्वेद
आयुर्वेदाचार्य
आयुर्वेदिक
आयुर्वेदीय
आयुर्वैदिक
आयुवर्ग
आयुवाले
आयुष
आयुष्मान
आयुष्य
आयू
आये
आयें
आयेंगी
आयेंगे
आयेगा
आयेगी
आयो
आयोग
आयोगों
आयोजक
आयोजकों
आयोजन
आयोजना
आयोजनों
आयोजित
आयोटा
आयोडाइड
आयोडिक
आयोडिन
आयोडीन
आयोनिक
आयोनियन
आयोवा
आयौ
आर
आर#
आर.
आर.ए
आर.एन.ए
आर.एस
आर.एस.एस
आर.के
आर.डी
आर.बी
आर.वी
आर.सी
आरंग
आरंभ
आरंभक
आरंभकाल
आरंभवाद
आरंभस्थान
आरंभिक
आरआईएए
आरआईएल
आरआईडीएफ
आरआर
आरईएम
आरईएल
आरईवी
आरईसी
आरए
आरएंडडी
आरएंडबी
आरएएफ
आरएएफ़
आरएच
आरएन
आरएनए
आरएनएआई
आरएनयू
आरएफआईडी
आरएफसी
आरएमपी
आरएस
आरएसएस
आरएसपी
आरएसपुरा
आरओआई
आरओएलएम
आरओसी
आरके
आरकेपुरम
आरक्ष
आरक्षण
आरक्षणों
आरक्षित
आरक्षी
आरज़ू
आरजीबी
आरजेडी
आरटिस
आरटी
आरटीआई
आरटीएस
आरडी
आरडीएक्स
आरडीएस
आरडीएसओ
आरण्य
आरण्यक
आरण्यकों
आरत
आरती
आरपार
आरपीआई
आरपीएफ
आरपीएम
आरपीओ
आरपीसी
आरबी
आरबीआई
आरबीएन
आरबीएस
आरबीसी
आरमाइक
आरमेइक
आरम्भ
आरम्भिक
आरलेकर
आरवी
आरसी
आरसीए
आरसीएप्रतियोगिता
आरसीएफ
आरहा
आरा
आरागॉन
आरागॉर्न
आराधक
आराधन
आराधना
आराध्य
आराम
आरामगाह
आरामदायक
आरामदेह
आरामाई
आरिक़
आरिफ
आरिफ़
आरियस
आरिसा
आरी
आरुणि
आरुषि
आरूढ़
आरे
आरेख
आरेखण
आरेखन
आरेखों
आरोग्य
आरोन
आरोप
आरोपण
आरोपमुक्त
आरोपित
आरोपियों
आरोपी
आरोपों
आरोह
आरोहण
आरोहित
आरोहियों
आरोही
आर्क
आर्कटिक
आर्कबिशप
आर्कषण
आर्काइव
आर्कादिया
आर्काना
आर्किटेक्चर
आर्किटेक्चरल
आर्किटेक्ट
आर्किटेक्ट्स
आर्किड
आर्किमिडिज़
आर्किमिडीज
आर्किमिडीज़
आर्कियन
आर्किया
आर्कियोप्टेरिक्स
आर्कियोप्टैरिक्स
आर्कीटेक्चर
आर्केड
आर्केस्ट्रा
आर्को
आर्क्यूएट
आर्गन
आर्गनाइज़ेशन
आर्गेनाइजर
आर्गेनाइजेशन
आर्गेनिक
आर्गोनॉट
आर्च
आर्चबिशप
आर्चर
आर्ची
आर्चीबाल्ड
आर्चेस
आर्ट
आर्टफुल
आर्टरी
आर्टवर्क
आर्टस
आर्टस्
आर्टिकल
आर्टिकल्स
आर्टिफिशियल
आर्टिमीसिनिन
आर्टिलरी
आर्टिलेरी
आर्टिस्ट
आर्टिस्ट्स
आर्टी
आर्टेमिस
आर्टेसियन
आर्ट्स
आर्डर
आर्डेन
आर्डेनेस
आर्त
आर्तनाद
आर्तव
आर्ति
आर्थर
आर्थराइटिस
आर्थिक
आर्थोडॉक्स
आर्थोपेडिक
आर्थ्रोपोडा
आर्द्र
आर्द्रता
आर्द्रताग्राही
आर्द्रतामापी
आर्द्रभूमि
आर्द्रभूमियों
आर्द्रा
आर्नल्ड
आर्नॉद
आर्नोल्ड
आर्प
आर्बर
आर्म
आर्मंड
आर्मगेडन
आर्मचेयर
आर्मर
आर्मर्ड
आर्मस्ट्रांग
आर्मस्ट्रॉन्ग
आर्मस्ट्रोंग
आर्मागेडन
आर्माडिलोज़
आर्मी
आर्मीनिया
आर्मीनियाई
आर्मीनी
आर्मेचर
आर्मेनिया
आर्मेनियाई
आर्म्ड
आर्म्स
आर्य
आर्यक
आर्यन
आर्यपुत्र
आर्यभट
आर्यभटीय
आर्यभट्ट
आर्यभट्टीय
आर्यभाषा
आर्यभाषाओं
आर्यमार्ग
आर्यसत्य
आर्यसमाज
आर्यसमाजी
आर्या
आर्याओं
आर्यानां
आर्यावर्त
आर्यासप्तशती
आर्यिका
आर्येतर
आर्यो
आर्यों
आर्लिंग्टन
आर्वेन
आर्शीवाद
आर्ष
आर्षेय
आर्सनल
आर्सिनेट
आर्सीन
आर्सीनियस
आर्सेन
आर्सेनल
आर्सेनाइट
आर्सेनाइड
आर्सेनिक
आर्सेलर
आर०
आर१ए
आर२
आल
आलंकारिक
आलंकारिकों
आलंब
आलंबन
आलंबित
आलप्पुष़ा
आलम
आलमआरा
आलमगीर
आलमपुर
आलमशाही
आलमारी
आलमी
आलम्बन
आलय
आलराउंडर
आलवार
आलवारों
आलवेज़
आलस
आलसी
आलस्य
आला
आलाकमान
आलानिया
आलाप
आलावा
आलिंगन
आलिंद
आलिकखान
आलिम
आलिमों
आलिया
आली
आलीशान
आलु
आलुओं
आलू
आलूबालू
आलूबुखारा
आले
आलें
आलेख
आलेखन
आलेखित
आलेखी
आलेखों
आलैंड
आलो
आलों
आलोक
आलोकित
आलोचक
आलोचकों
आलोचना
आलोचनाएँ
आलोचनाएं
आलोचनाओं
आलोचनाकुछ
आलोचनात्मक
आलोचित
आलोच्य
आलौकिक
आल्चीना
आल्ट
आल्टरनेटिव
आल्टा
आल्टो
आल्पस
आल्प्स
आल्मेरिया
आल्ह
आल्हखण्ड
आल्हा
आव
आवंटन
आवंटित
आवंती
आवक
आवडी
आवडे
आवत
आवधिक
आवन
आवभगत
आवर
आवरण
आवरणों
आवरित
आवर्त
आवर्तक
आवर्तकाल
आवर्तन
आवर्तनकाल
आवर्ती
आवर्धक
आवर्धन
आवर्धित
आवर्न
आवर्स
आवशयकता
आवश्कता
आवश्कताओं
आवश्य
आवश्यक
आवश्यकता
आवश्यकताएँ
आवश्यकताएं
आवश्यकताओं
आवश्यकतानुसार
आवश्यक्ता
आवश्यता
आवह
आवा
आवां
आवागमन
आवाज
आवाज़
आवाज़ें
आवाज़ों
आवाजाही
आवाजे
आवाजें
आवाजों
आवाम
आवामी
आवार
आवारा
आवार्ड
आवास
आवासन
आवासी
आवासीय
आवासों
आवाहन
आवाहयामि
आवाज़
आविर्भाव
आविर्भूत
आविष्कर्ता
आविष्कार
आविष्कारक
आविष्कारकों
आविष्कारी
आविष्कारों
आविष्कृत
आविष्ट
आवृत
आवृतबीजी
आवृति
आवृतियों
आवृत्त
आवृत्ति
आवृत्तिदर्शी
आवृत्तियाँ
आवृत्तियां
आवृत्तियों
आवृत्तिवाली
आवृत्तिवाले
आवृत्तिसंख्या
आवे
आवें
आवेग
आवेगी
आवेगों
आवेदक
आवेदकों
आवेदन
आवेदनपत्र
आवेदनों
आवेदित
आवेलां
आवेश
आवेशक
आवेशित
आवेशों
आवेष्टन
आवेष्टित
आवै
आवैसी
आवो
आवोगाड्रो
आव्
आव्यूह
आव्रजक
आव्रजकों
आव्रजन
आव्हान
आशंका
आशंकाओं
आशंकित
आशय
आशयों
आशा
आशाएँ
आशाएं
आशाओं
आशाजनक
आशातीत
आशान
आशान्
आशान्वित
आशावाद
आशावादी
आशावान
आशिक
आशिक़
आशिकी
आशियाना
आशिर्वाद
आशिष
आशीर्वचन
आशीर्वाद
आशीष
आशु
आशुतोष
आशुरचना
आशुलिपि
आशूबातकरें
आशूरी
आश्चर्य
आश्चर्यचकित
आश्चर्यजनक
आश्चर्यो
आश्चर्यों
आश्मिक
आश्रम
आश्रमयह
आश्रमवासियों
आश्रमों
आश्रय
आश्रयदाता
आश्रयदाताओं
आश्रयस्थल
आश्रयो
आश्रयों
आश्रव
आश्रित
आश्रितों
आश्लेषण
आश्वलायन
आश्वस्त
आश्वासन
आश्वासनों
आश्विन
आषाढ
आषाढ़
आषाढ़ी
आस
आसंजक
आसंजकों
आसंजन
आसंजी
आसंधि
आसक्त
आसक्ति
आसक्ते
आसन
आसनसोल
आसनी
आसनों
आसन्न
आसपास
आसफ
आसफउद्दौला
आसफ़
आसफ़ुद्दौला
आसमाटिक
आसमान
आसमानी
आसमानों
आसरा
आसरे
आसव
आसवक
आसवन
आसवनी
आसवित
आसा
आसांगथांग
आसाधारण
आसान
आसानियाँ
आसानी
आसाम
आसामी
आसार
आसारामजी
आसावरी
आसिफ
आसिफनगर
आसिफ़
आसियान
आसिलेटर
आसीत्
आसीन
आसुत
आसुर
आसुरि
आसुरी
आसू
आसूचना
आसूचे
आसो
आसोज
आस्क
आस्कर
आस्की
आस्के
आस्टिन
आस्ट्रिक
आस्ट्रियन
आस्ट्रिया
आस्ट्रियाई
आस्ट्रेलियन
आस्ट्रेलिया
आस्ट्रेलियाई
आस्ट्रो
आस्ट्रोनेशियन
आस्ति
आस्तिक
आस्तिकता
आस्तिकों
आस्तित्व
आस्तियां
आस्तियों
आस्तीन
आस्तुरियास
आस्त्राख़ान
आस्थगित
आस्था
आस्थाओं
आस्थापन
आस्थावान
आस्रव
आस्वाद
आस्वादन
आह
आहट
आहत
आहर
आहरण
आहरित
आहर्ता
आहलूवालिया
आहवान
आहाच
आहाड़ा
आहाति
आहाती
आहार
आहारनली
आहारनाल
आहारीय
आहारों
आहार्य
आहासि
आहासी
आहिताग्नि
आहिस्ता
आहुति
आहुतियाँ
आहुतियां
आहूजा
आहूत
आहूति
आहे
आहें
आहेत
आह्लाद
आह्वान
आॅफ
आ॓परेटिव
आख़िरकार
आज़ाद
आज़ादी
आड़े
आफ़ताब
इ
इ.स
इंक
इंकमबेंसी
इंकलाब
इंकलाबी
इंक़िलाब
इंका
इंकार
इंक्वायरी
इंग
इंगलिश
इंगलैंड
इंगलैण्ड
इंगित
इंग्लिश
इंग्लिस्तान
इंग्लॅण्ड
इंग्लेंड
इंग्लैंड
इंग्लैड
इंग्लैण्ड
इंच
इंचार्ज
इंची
इंचों
इंज
इंजन
इंजनो
इंजनों
इंजिन
इंजिनियर
इंजिनियरिंग
इंजिनियरों
इंजिनियर्स
इंजिनीयरिंग
इंजिनों
इंजीनियर
इंजीनियरिंग
इंजीनियरी
इंजीनियरों
इंजीनियर्स
इंजील
इंजेक्ट
इंजेक्शन
इंजेक्शनों
इंटक
इंटनेट
इंटर
इंटरएक्टिव
इंटरकांटिनेंटल
इंटरकान्टिनेंटल
इंटरकॉन्टिनेंटल
इंटरचेंज
इंटरटेंमेंट
इंटरटेनमेंट
इंटरटेन्मेंट
इंटरनल
इंटरनेट
इंटरनेशनल
इंटरनेशनेल
इंटरनेश्नल
इंटरनैट
इंटरनैशनल
इंटरनॉट
इंटरपोल
इंटरप्ट
इंटरप्राइज
इंटरप्राइज़
इंटरप्राइजेज
इंटरप्रिटेशन
इंटरप्रेटर
इंटरफ़ेस
इंटरफेरॉन
इंटरफेस
इंटरफेसेस
इंटरफेसों
इंटरफ्रेम
इंटरमीडिएट
इंटरमीडियट
इंटरमीडिया
इंटरमीडियेट
इंटरमोडल
इंटरलेकन
इंटरलेस्ड
इंटरलॉकिंग
इंटरल्यूड
इंटरवल
इंटरव्यू
इंटरसिटी
इंटरसिटी_एक्स्प्रेस_####
इंटरसिटीएक्स्प्रेस
इंटरसेप्ट
इंटरसेप्टर
इंटरस्कोप
इंटरस्टेट
इंटरेक्टिव
इंटरेक्शन
इंटरेस्ट
इंटरैक
इंटरैक्टिव
इंटर्नशिप
इंटर्नेट
इंटिग्रेटेड
इंटीग्रल
इंटीग्रेटिंग
इंटीग्रेटेड
इंटीग्रेशन
इंटीरियर
इंटू
इंटेंसिव
इंटेक
इंटेल
इंटेलिजेंट
इंटेलिजेंस
इंटेलीजेंस
इंटेलेक्चुअल
इंटैग्लियो
इंट्रा
इंट्रानेट
इंट्राफ्रेम
इंट्रावेनस
इंट्री
इंट्रेस्ट
इंट्रोडक्शन
इंड
इंडक्शन
इंडस्ट्रियल
इंडस्ट्री
इंडस्ट्रीज
इंडस्ट्रीज़
इंडस्ट्रीयल
इंडस्ट्रीज़
इंडिक
इंडिकप्लस
इंडिकस
इंडिका
इंडिकेटर
इंडिकेटर्स
इंडिकॉम
इंडिगो
इंडिपेंडेंट
इंडिपेंडेंस
इंडियंस
इंडियन
इंडियनऑयल
इंडियनवेल्समास्टर्स
इंडियनों
इंडियन्स
इंडिया
इंडियाज
इंडियाना
इंडियानापोलिस
इंडी
इंडीज
इंडीज़
इंडीपेंडेंट
इंडेक्स
इंडेपेंडेंट
इंडो
इंडोचाइना
इंडोचायना
इंडोचीन
इंडोनीशिया
इंडोनेशिया
इंडोनेशियाई
इंडोर
इंतख़ाबात
इंतज़ाम
इंतज़ार
इंतजाम
इंतजामात
इंतजामों
इंतजार
इंतहाई
इंतज़ार
इंदर
इंदिरा
इंदिरागांधी
इंदु
इंदुमती
इंदू
इंदौर
इंदौर_एक्स्प्रेस_####
इंदौरएक्स्प्रेस
इंदौरा
इंद्र
इंद्रजाल
इंद्रजीत
इंद्रदेव
इंद्रधनुष
इंद्रधनुषी
इंद्रप्रस्थ
इंद्रलोक
इंद्रवर्मन्
इंद्रा
इंद्राणी
इंद्रायन
इंद्रावती
इंद्रिय
इंद्रियजन्य
इंद्रियाँ
इंद्रियां
इंद्रियांचे
इंद्रिये
इंद्रियें
इंद्रियों
इंद्री
इंधन
इंधनों
इंपायर
इंपीरियल
इंपैक्ट
इंफाइनाइट
इंफाल
इंफोकॉम
इंफोसिस
इंफ्रारेड
इंफ्रास्ट्रक्चर
इंफ्लुएंजा
इंफ्लूएंजा
इंशा
इंशाअल्लाह
इंश्योरेंश
इंश्योरेंस
इंस
इंसपेक्टर
इंसाइक्लोपीडिया
इंसान
इंसानियत
इंसानी
इंसानों
इंसाफ
इंसाफ़
इंसिडेंट
इंसुलिन
इंसुलेटर
इंसुलेशन
इंसेप्शन
इंस्टा
इंस्टाल
इंस्टालर
इंस्टालेशन
इंस्टिंक्ट
इंस्टिटयूट
इंस्टिट्यूट
इंस्टीच्युट
इंस्टीच्यूट
इंस्टीटयूट
इंस्टीट्युट
इंस्टीट्यूट
इंस्टीट्यूशन
इंस्टेंट
इंस्टैंट
इंस्टॉल
इंस्टॉलेशन
इंस्ट्रक्शन
इंस्ट्रुमेंट
इंस्ट्रुमेंटल
इंस्ट्रुमेंटेशन
इंस्ट्रुमेंट्स
इंस्ट्रूमेंट
इंस्ट्रूमेंटल
इंस्ट्रूमेंट्स
इंस्पेक्टर
इंस्पेक्शन
इअर
इअर्स
इआन
इए
इएमबी
इक
इकट्ठा
इकट्ठी
इकट्ठे
इकठा
इकठ्ठा
इकठ्ठी
इकठ्ठे
इकतालीस
इकतीस
इकत्तीस
इकनॉमिक
इकनॉमिक्स
इकबाकिया
इकबाल
इकबालिया
इकलिप्स
इकलौता
इकलौती
इकलौते
इकसठ
इकसिंगा
इकसिंगे
इकसिंगों
इकहत्तर
इकहरी
इकहरे
इक़बाल
इक़रार
इकाइयाँ
इकाइयां
इकाइयों
इकाई
इकाईयाँ
इकाईयां
इकाईयों
इके
इकॉनामिक
इकॉनॉमिक्स
इकॉनोमिक
इको
इकोकार्डियोग्राफी
इकोकार्डियोग्राम
इकोनॅमिक्स
इकोनॉमिक
इकोनॉमिक्स
इकोनोमिक
इकोनोमिक्स
इकोनोमिस्ट
इकोनोमी
इकोल
इकोले
इकोलॉजी
इकोस
इकोसिस्टम
इक्का
इक्कीस
इक्कीसवी
इक्कीसवीं
इक्के
इक्केस
इक्कों
इक्टोपिया
इक्ट्ठा
इक्ठटा
इक्यावन
इक्लेस्टोन
इक्वाडोर
इक्विटी
इक्विटेबल
इक्विनॉक्स
इक्विनोक्स
इक्विपमेंट
इक्वीटेविल
इक्वेटर
इक्वेटोरियल
इक्वेडोर
इक्वेशन
इक्षु
इक्षुरस
इक्ष्वाकु
इखलास
इख़्तेयार
इगतपुरी
इगलास
इगी
इगु़नोडोन
इगो
इगोर
इग्नारो
इग्निशन
इग्नू
इग्नोर
इग्लू
इग्लेसिआस
इग्लेसियस
इग्लैंड
इच
इचान
इच्छा
इच्छाएँ
इच्छाएं
इच्छाओं
इच्छाधारी
इच्छानुसार
इच्छापत्र
इच्छापूर्ति
इच्छामृत्यु
इच्छाशक्ति
इच्छित
इच्छुक
इछावर
इज
इजराइल
इजराइली
इजरायल
इजरायली
इजहार
इज़
इज़मिर
इज़राइल
इज़राइली
इज़रायल
इज़रायली
इज़हार
इज़ाज़त
इज़ाडोरा
इज़ाफ़ा
इज़ाफा
इज़ी
इज़्ज़त
इजाज
इजाजत
इजाज़त
इजाद
इजाफा
इजाफे
इजाज़त
इजिप्ट
इजिप्त
इजिप्शियन
इज्जत
इज्ज़त
इज्ज़ी
इज्तिमा
इञ्जन
इट
इटन
इटप्पल्लि
इटरनल
इटरेटर
इटर्नल
इटली
इटहरा
इटहरी
इटाउ
इटारसी
इटालियन
इटालिया
इटालियाना
इटावा
इटिंग
इटेलियन
इटैलिक
इटैलियन
इटो
इट्'स
इट्ज़
इट्ज़कॉफ़
इट्ज़ा
इट्रस्केन
इट्रियम
इट्स
इट्सीजैम
इठलाती
इड
इडली
इड़ा
इडा
इडाइअस
इडियट
इडियोफोन
इडुक्की
इडेन
इड०३
इड०४
इण
इण्टर
इण्टरचेंज
इण्टरनेट
इण्टरनेशनल
इण्टरफेस
इण्टरमिडिएट
इण्टरमीडिएट
इण्डस
इण्डिक
इण्डिका
इण्डियन
इण्डिया
इण्डो
इण्डोनेशिया
इण्डोनेशियाई
इत
इतजा
इतना
इतनी
इतने
इतर
इतरा
इतवार
इताअत
इतालवियों
इतालवी
इतालियन
इतालिया
इताली
इतालीय
इतावली
इति
इतियादी
इतिवृत्त
इतिवृत्तात्मक
इतिश्री
इतिहास
इतिहास#
इतिहास##
इतिहास###
इतिहास####
इतिहास##वीं
इतिहासआज
इतिहासआधुनिक
इतिहासइतिहास
इतिहासइस
इतिहासइसका
इतिहासइसकी
इतिहासएक
इतिहासऐतिहासिक
इतिहासऐसा
इतिहासकहा
इतिहासकार
इतिहासकारो
इतिहासकारों
इतिहासज्ञ
इतिहासदृष्टि
इतिहासपहला
इतिहासप्रथम
इतिहासप्रसिद्ध
इतिहासप्राचीन
इतिहासप्राचीनकाल
इतिहासभारत
इतिहासभारतीय
इतिहासमाना
इतिहासमुख्य
इतिहासयह
इतिहासलेखक
इतिहासवर्तमान
इतिहासविद
इतिहासविदों
इतिहासविद्
इतिहासविश्व
इतिहासवीं
इतिहासवेत्ता
इतिहासवेत्ताओं
इतिहाससन
इतिहाससन्
इतिहाससबसे
इतिहासहालांकि
इतिहासों
इतेहादुल
इतोसु
इत्
इत्तफाक
इत्तला
इत्तेफ़ाक
इत्तेफाक
इत्तेहाद
इत्तेहादुल
इत्यादि
इत्यादी
इत्र
इत्रों
इत्सिंग
इथन
इथर
इथरनेट
इथाइल
इथाइलीन
इथाका
इथियोपियन
इथियोपिया
इथियोपियाई
इथिलीन
इथेन
इथेनॉल
इथेल
इथोपिया
इथोस
इदं
इदमग्नये
इदम्
इदरीस
इदरीसी
इदारों
इदाहो
इदी
इधर
इन
इनक
इनकम
इनका
इनकार
इनकी
इनके
इनको
इनकों
इनकोड
इनकोडर
इनकोडिंग
इनक्यूबस
इनक्यूबेटर
इनक्रेडिबल
इनटू
इनटेक
इनडोर
इनपर
इनपुट
इनफ
इनफ़्लुएंज़ा
इनफाइनाइट
इनफिनिटी
इनफेंट्री
इनफेक्शन
इनफॉरमेशन
इनबाउंड
इनबिल्ट
इनबॉक्स
इनमे
इनमें
इनर
इनर्जी
इनलाइन
इनलेट
इनवर्टर
इनवार
इनवेसिव
इनवेस्ट
इनवेस्टमेंट
इनसाइक्लोपीडिया
इनसाइट
इनसाइड
इनसाइडर
इनसान
इनसानी
इनसास
इनसीड
इनसे
इनस्क्रिप्ट
इनस्टॉल
इनहिबिटर्स
इनाम
इनामी
इनायत
इनिंग्स
इनिशिएटिव
इनी
इनीशिएटिव
इनुइट
इनुइत
इने
इनेलो
इनैमल
इनोकी
इनोवेशन
इनोसान्टो
इनोसेंट
इन्
इन्कलाब
इन्कलाबी
इन्का
इन्कार
इन्क्वायरर
इन्क्वायरी
इन्च
इन्चैनटेड
इन्चैन्टेड
इन्जाइम
इन्जिनियरिङ
इन्जीनियर
इन्जीनियरिंग
इन्टर
इन्टरनल
इन्टरनेट
इन्टरनेशनल
इन्टरनैशनल
इन्टरप्रेटर
इन्टरफेस
इन्टरस्टॅलर
इन्टर्न
इन्टर्नेट
इन्टर्नेशनल
इन्टाली
इन्टीग्रेटेड
इन्टू
इन्टेल
इन्टेलीसेन्स
इन्टोनेशन
इन्डस्ट्री
इन्डियन
इन्डियन्स
इन्डिया
इन्डोनेशियाई
इन्तज़ार
इन्तजार
इन्दिरा
इन्दु
इन्दौर
इन्द्र
इन्द्रजी
इन्द्रजीत
इन्द्रदेव
इन्द्रद्युम्न
इन्द्रधनुष
इन्द्रपुरी
इन्द्रप्रस्थ
इन्द्रलोक
इन्द्रसभा
इन्द्रादि
इन्द्रावती
इन्द्रिय
इन्द्रियबोध
इन्द्रियाँ
इन्द्रियां
इन्द्रियों
इन्पुट
इन्फनिट
इन्फर्नो
इन्फ़ोसिस
इन्फ़्रारॅड
इन्फ़्लुएन्ज़ा
इन्फार्मेशन
इन्फिनिटी
इन्फेक्शन
इन्फेरियर
इन्फैंट्री
इन्फैण्ट्री
इन्फैन्ट्री
इन्फॉर्मेशन
इन्फो
इन्फोकॉम
इन्फोटेक
इन्फोर्मेशन
इन्फोर्समेंट
इन्फोसिस
इन्फोसेट
इन्फ्रारेड
इन्फ्रास्ट्रक्चर
इन्फ्लुएंजा
इन्फ्लूएंज़ा
इन्फ्लूएंजा
इन्युमरेबल
इन्लाईटेनमेंट
इन्वरकारगिल
इन्वरनेस
इन्वर्टर
इन्वर्स
इन्विज़िबिलिटी
इन्वेंटरी
इन्वेंशन
इन्वेस्टमेंट
इन्वेस्टमेंट्स
इन्वेस्टर
इन्वेस्टिगेशन
इन्स
इन्सटाल
इन्सटीट्यूट
इन्साइक्लोपीडिया
इन्सान
इन्सानी
इन्सानों
इन्साफ
इन्साफ़
इन्सुलिन
इन्सुलीन
इन्सुलेशन
इन्सेफेलाइटिस
इन्स्क्रिप्ट
इन्स्टार
इन्स्टिट्यूट
इन्स्टीट्यूट
इन्स्टॉल
इन्स्पेक्टर
इन्ही
इन्हीं
इन्हे
इन्हें
इन्हेरिटेंस
इन्हेल
इन्हेलर
इन्हों
इन्होंने
इन्होने
इन्होनें
इपस्विच
इपाइनेफ्राइन
इपी
इप्टा
इप्पोन
इप्सम
इफ
इफको
इफ़
इफ़ेक्ट
इफीशंसी
इफीसेंसी
इफेक्ट
इफेक्ट्स
इफ्तखार
इफ्तार
इफ्तिखार
इबन
इबने
इबरार
इबराहीम
इबादत
इबारत
इबिज़ा
इबीजा
इबुप्रोफेन
इबेट्सन
इबेरिया
इबेरियाई
इबेलिन
इब्न
इब्ने
इब्नेर
इब्रानी
इब्राहिम
इब्राहिमपुर
इब्राहीम
इब्राहीमी
इब्रे
इब्सन
इम
इमदाद
इमपॉसिबल
इमरजेंसी
इमरसन
इमरान
इमराना
इमरोज
इमर्सन
इमली
इमल्शन
इमादपुर
इमान
इमानदारी
इमानुएल
इमाम
इमामगंज
इमामबाड़ा
इमामबाड़े
इमामबाड़ा
इमामशाह
इमामों
इमारत
इमारती
इमारते
इमारतें
इमारतों
इमारात
इमिग्रेंट
इमिग्रेशन
इमीग्रेशन
इमे
इमेज
इमेजर
इमेजरी
इमेजिंग
इमेजिन
इमेजेज़
इमेजों
इमेल
इमैजिन
इमैनुएल
इमोशन
इम्तहान
इम्तियाज़
इम्तिहान
इम्पीडेंस
इम्पीडेन्स
इम्पीरियल
इम्पुरिटी
इम्पेरियल
इम्पैक्ट
इम्पॉसिबल
इम्प्रूवमेंट
इम्प्रेशन
इम्प्लांट
इम्प्लांटोलॉजी
इम्प्लान्ट्स
इम्फाल
इम्मानुअल
इम्मेल्ट
इम्मोर्टल
इम्युन
इम्युनोग्लोबुलिन
इम्यून
इम्यूनो
इम्यूनोफ्लोरेसेंस
इयं
इयन
इयर
इयरफ़ोन
इयर्स
इया
इयाद
इयान
इयूक्लिडियन
इये
इयें
इयॉन
इयोमी
इयोसीन
इरकक
इरकान
इरकुत्स्क
इरकॉन
इरक्वॉइ
इरतिश
इरना
इरफ़ान
इरफान
इरविंग
इरविन
इरशाद
इरा
इराक
इराक़
इराक़ी
इराकियों
इराकी
इरादतन
इरादा
इरादे
इरादों
इरान
इरानी
इरावती
इरावदी
इरास्मस
इराक़
इरिट्रिया
इरिडनस
इरिडियम
इरीट्रिया
इरीडियम
इरुसिक
इरूसिक
इरेक्टस
इरेनी
इरोटिका
इरोड
इर्जीकैन
इर्द
इर्दगिर्द
इर्धंन
इर्विन
इर्ष्या
इरफ़ान
इल
इलख़ानी
इलज़ाम
इलस्ट्रेटर
इलस्ट्रेटेड
इलहाम
इला
इलांगो
इलाक़ा
इलाक़े
इलाक़ों
इलाका
इलाके
इलाको
इलाकों
इलाचंद्र
इलाज
इलाज़
इलाना
इलाम
इलायची
इलावर
इलावा
इलावृत
इलास्टिक
इलाहबाद
इलाहाबाद
इलाहाबादी
इलाही
इलाक़े
इलिनाय
इलिनॉइस
इलिनॉय
इलिनॉयस
इलिनोइस
इलियट
इलियड
इलिया
इलियाड
इलियाना
इलियास
इलियासी
इली
इलीन
इलेक्ट्रा
इलेक्ट्रान
इलेक्ट्रानिक
इलेक्ट्रानिकी
इलेक्ट्रानिक्स
इलेक्ट्रानों
इलेक्ट्रिक
इलेक्ट्रिकल
इलेक्ट्रिकल्स
इलेक्ट्रिसिटी
इलेक्ट्रीक
इलेक्ट्रीशियन
इलेक्ट्रॅनिक्स
इलेक्ट्रेट
इलेक्ट्रॉन
इलेक्ट्रॉनिक
इलेक्ट्रॉनिका
इलेक्ट्रॉनिकी
इलेक्ट्रॉनिक्स
इलेक्ट्रॉनीय
इलेक्ट्रॉनों
इलेक्ट्रो
इलेक्ट्रोकार्डियोग्राम
इलेक्ट्रोड
इलेक्ट्रोडों
इलेक्ट्रोन
इलेक्ट्रोनिक
इलेक्ट्रोनिक्स
इलेक्ट्रोन्स
इलेक्ट्रोमैग्नेटिक
इलेक्ट्रोलाइट
इलेक्ट्रोलाइट्स
इलेक्ट्रोलीटिक
इलेक्ट्रोस्टैटिक
इलेक्ट्रौनिक
इलेक्शन
इलेवन
इलैंड
इलैक्टिव
इलैक्ट्रानिक
इलैक्ट्रिक
इलैक्ट्रॉन
इलैक्ट्रॉनिक
इलैक्ट्रॉनिकी
इलैक्ट्रॉनिक्स
इलैयाराजा
इलैवेन
इलोईस
इल्ज़ाम
इल्जाम
इल्तुतमिश
इल्म
इल्मेनाइट
इल्या
इल्यूज़न
इल्लम
इल्लियाँ
इल्लियों
इल्ली
इल्लुमिनेटी
इल्सनर
इल्स्ले
इव
इवनिंग
इवल
इवा
इवांस
इवाज
इवाते
इवान
इवानिसेविक
इवानिसेविच
इवानोविक
इवानोविच
इवान्स
इविल
इवेंट
इवेंट्स
इवेन्ट
इवैल्युएशन
इवॉल्व्ड
इवो
इवोलव्ड
इवोल्यूशन
इश
इशरत
इशान
इशारा
इशारे
इशारों
इशिकावा
इशिमुरा
इश्क
इश्क़
इश्किया
इश्तहार
इश्तिहार
इश्तेहार
इश्यू
इश्यूज़
इश्वर
इष्ट
इष्टतम
इष्टतमीकरण
इष्टदेव
इष्टलिंग
इष्टि
इस
इसक
इसका
इसकारण
इसकि
इसकी
इसके
इसको
इसने
इसपर
इसप्रकार
इसबार
इसमे
इसमेँ
इसमें
इसमै
इसरतजहां
इसराइल
इसराइली
इसरायल
इसरायली
इसरो
इसला
इसलाम
इसलामी
इसलिए
इसलिय
इसलिये
इसवी
इससे
इसहाक
इसा
इसाइयों
इसाई
इसाईयों
इसाक
इसापूर्व
इसाबेल
इसाबेला
इसिक
इसिडोर
इसिलिए
इसिलिये
इसिस
इसी
इसीके
इसीलिए
इसीलिये
इसीसे
इसे
इसें
इस्
इस्का
इस्कान
इस्की
इस्कीमिक
इस्के
इस्केप
इस्केमिक
इस्कैरियट
इस्कॉन
इस्को
इस्ट
इस्टर
इस्टर्न
इस्टीमेट
इस्टेट
इस्टोनिया
इस्तखर
इस्तमाल
इस्तांबुल
इस्तानबुल
इस्ताम्बुल
इस्तिमाल
इस्तीफ़ा
इस्तीफा
इस्तीफे
इस्तीफों
इस्तीफ़ा
इस्तीफ़े
इस्तेमाल
इस्त्राइल
इस्त्री
इस्थमस
इस्पात
इस्पाती
इस्पातों
इस्फ़हान
इस्मत
इस्माइल
इस्माइली
इस्माईल
इस्मे
इस्राइल
इस्राइली
इस्राईल
इस्राएल
इस्राएलियों
इस्ला
इस्लाम
इस्लामपुर
इस्लामशाह
इस्लामाबाद
इस्लामिक
इस्लामिया
इस्लामी
इस्लामीकरण
इस्लिंगटन
इस्लेरो
इस्वी
इस्सर
इस्से
इह
इहलीला
इहलोक
इहीं
इज़राइल
इज़ाफा
इज़ाफ़े
ई
ई#
ई#टी#जी#
ई#पू#
ई.
ई.आर
ई.एम.यू
ई.कोलाई
ई.टी
ई.प
ई.पू
ई.पू.
ई.में
ई.यू
ई.स
ई.सं
ई.सी
ईं
ईंजन
ईंट
ईंटें
ईंटो
ईंटों
ईंथोवेन
ईंधन
ईंधनों
ईआईआईएलएम
ईआईए
ईआईएम
ईआर
ईआरडीसीआईटीवीएम
ईआरडीसीआईटीवीएम.
ईआरपी
ईआरसीपी
ईई
ईईजी
ईईसी
ईए
ईएन
ईएनआईएसी
ईएनटी
ईएनवी
ईएमआई
ईएमएस
ईएमयू
ईएसए
ईएसटी
ईएसपी
ईएसपीएन
ईएसपीएनक्रिकइन्फो
ईओएन
ईक
ईकाइयां
ईकाइयों
ईकाई
ईकेजी
ईको
ईकोलाई
ईक्वस
ईक्वाडोर
ईक्विटी
ईक्वीटोरियल
ईक्षण
ईख
ईगल
ईगल्स
ईगो
ईगोन
ईच्छा
ईज़
ईज़ी
ईजाद
ईजिप्ट
ईजियन
ईजियाई
ईजी
ईट
ईटं
ईटन
ईटर
ईटर्स
ईटली
ईटा
ईटानगर
ईटिंग
ईटी
ईटीएफ
ईटीजी
ईटीवी
ईटीसी
ईटें
ईटों
ईडन
ईडा
ईडी
ईडीआईडी
ईडीएमएस
ईडीएस
ईडीसी
ईतिहास
ईथर
ईथरनेट
ईथाका
ईथेन
ईद
ईदगाह
ईदरी
ईदिपस
ईदी
ईदृ
ईदो
ईधंन
ईधन
ईन
ईनाम
ईन्ग
ईप
ईपी
ईपीआई
ईपीए
ईपीएफ
ईपीएफओ
ईपीएस
ईपीसी
ईपू
ईबी
ईबे
ईमान
ईमानदार
ईमानदारी
ईमानदारों
ईमारत
ईमें
ईमेल
ईमेलों
ईयर
ईयर्स
ईयाद
ईयू
ईरा
ईराक
ईराक़
ईराकी
ईरान
ईरानियन
ईरानियों
ईरानी
ईरी
ईरोड
ईर्द
ईर्षा
ईर्ष्या
ईर्ष्यालु
ईल
ईलम
ईलाज
ईलाम
ईलिंग
ईलियट
ईलियद
ईलियन
ईल्म
ईव
ईवनिंग
ईवा
ईवान
ईविल
ईवी
ईवीएम
ईवेंट
ईव्ह
ईश
ईशदूत
ईशनिंदक
ईशपुर
ईशवर
ईशा
ईशान
ईश्वर
ईश्वरकृष्ण
ईश्वरत्व
ईश्वरदास
ईश्वरभक्ति
ईश्वरवाद
ईश्वरवादी
ईश्वरी
ईश्वरीय
ईषत्
ईषा
ईष्ट
ईष्या
ईष्र्या
ईस
ईसं
ईसप
ईसर
ईसराइल
ईसवी
ईसवीं
ईसा
ईसाइयत
ईसाइयों
ईसाई
ईसाईकरण
ईसाईयत
ईसाईयों
ईसापूर्व
ईसाबेला
ईसामसीह
ईसिस
ईसी
ईसीआर
ईसीएम
ईसीजी
ईसीडब्लू
ईसीडब्ल्यू
ईसीडी
ईसीबी
ईसीसीई
ईसुरी
ईसे
ईस्ट
ईस्टमैन
ईस्टर
ईस्टर्न
ईस्टवुड
ईस्टवेस्ट
ईस्माइलपुर
ईस्वी
ईस्वीं
ईहामृग
ई०
उ
उ#प्र#
उ.अ
उ.प्र
उ.प्र.
उँगलियाँ
उँगलियों
उँगली
उँचा
उँचाई
उँची
उँचे
उंगलियाँ
उंगलियां
उंगलियों
उंगली
उंच
उंचा
उंचाई
उंची
उंचे
उंड
उअ
उइग़ुर
उइग़ुरों
उईग़ुर
उऋण
उकलाना
उकसा
उकसाकर
उकसाता
उकसाती
उकसाने
उकसाया
उकसाव
उकसावे
उकार
उकेर
उकेरते
उकेरा
उकेरी
उकेरे
उक्त
उक्ति
उक्तियाँ
उक्तियां
उक्तियों
उक्रांद
उक्राइना
उक्राद
उक्रेनी
उखड़
उखड़ी
उखड़े
उखरूल
उखाड
उखाड़
उखाड़कर
उखाड़ना
उखाड़ने
उखाड़
उखाड़ने
उखीमठ
उखड़
उग
उगता
उगती
उगते
उगना
उगने
उगनेवाले
उगल
उगलते
उगलने
उगलवा
उगला
उगा
उगाई
उगाए
उगाकर
उगाणा
उगाते
उगादि
उगाना
उगाने
उगाया
उगायी
उगाये
उगाहने
उगाही
उगी
उगे
उगेगा
उग्र
उग्रता
उग्रवाद
उग्रवादियों
उग्रवादी
उग्रसेन
उघड
उघाड़
उघोग
उच
उचकुदुक
उचट
उचाई
उचारण
उचित
उचे
उच्
उच्च
उच्चकोटि
उच्चतम
उच्चतर
उच्चता
उच्चतापीय
उच्चदाब
उच्चपदस्थ
उच्चभूमि
उच्चरक्तचाप
उच्चरक्तचापरोधी
उच्चरित
उच्चवर्ग
उच्चवर्गीय
उच्चवेग
उच्चस्तरीय
उच्चा
उच्चाटन
उच्चाधिकार
उच्चाधिकारियों
उच्चाधिकारी
उच्चायुक्त
उच्चायोग
उच्चायोगों
उच्चार
उच्चारण
उच्चारणः
उच्चारणों
उच्चारित
उच्चावच
उच्चावचन
उच्चावृत्ति
उच्चिष्ट
उच्चिष्ठ
उच्च्
उच्छवास
उच्छिष्ट
उच्छृंखल
उच्छेद
उच्छेदन
उच्छ्वास
उच्छ्वासों
उच्छ्श्वसन
उच्य
उच्यते
उछल
उछलकर
उछलता
उछलती
उछलते
उछलना
उछलने
उछला
उछाल
उछालते
उछालने
उछाला
उछाली
उजड़
उजड़ने
उजड़ी
उजड़े
उजबेक
उजबेकिस्तान
उजरी
उजला
उजली
उजले
उज़
उज़बेक
उज़बेकिस्तान
उज़्बेक
उज़्बेकिस्तान
उजागर
उजाड़
उजामा
उजाला
उजाले
उजास
उजू
उज्जयंता
उज्जयिनी
उज्जवल
उज्जैन
उज्जैनी
उज्ज्वल
उज्ज्वलता
उज्बेकिस्तान
उज्वल
उजड़ा
उजड़े
उझवुर
उटाह
उठ
उठकर
उठता
उठती
उठतीं
उठते
उठना
उठने
उठा
उठाइएगा
उठाई
उठाए
उठाएँ
उठाएँगे
उठाएं
उठाएंगे
उठाएगा
उठाएगी
उठाओ
उठाकर
उठाता
उठाती
उठाते
उठान
उठाना
उठानी
उठाने
उठानेवाले
उठापटक
उठाया
उठायी
उठाये
उठायें
उठाव
उठी
उठीं
उठूँ
उठे
उठें
उठेंगे
उठेगा
उठेगी
उठो
उड
उडद
उडने
उड़
उड़कर
उड़ता
उड़ती
उड़ते
उड़द
उड़न
उड़नशील
उड़ना
उड़ने
उड़नेवाला
उड़नेवाली
उड़नेवाले
उड़ा
उड़ाई
उड़ाए
उड़ाकर
उड़ाका
उड़ाता
उड़ाती
उड़ाते
उड़ान
उड़ानपट्टी
उड़ाना
उड़ाने
उड़ानें
उड़ानों
उड़ाया
उड़िया
उड़िसा
उड़ी
उड़ीसा
उड़े
उड़ेल
उडा
उडान
उडाने
उडानें
उडा़न
उडिया
उडियार
उडियारी
उडी
उडीसा
उडुपी
उड्डयन
उणादि
उणें
उण्णायि
उत
उतक
उतकों
उतना
उतनी
उतने
उतपत्ति
उतपन्न
उतम
उतर
उतरकर
उतरता
उतरती
उतरते
उतरना
उतरने
उतरा
उतराई
उतराती
उतराधिकारी
उतरार्ध
उतराव
उतरी
उतरे
उतरेंगे
उतरेगा
उतार
उतारकर
उतारता
उतारती
उतारते
उतारना
उतारने
उतारा
उतारी
उतारू
उतारे
उतारेंगी
उतारेंगे
उतारेगा
उतावली
उतीर्ण
उत्
उत्कंठा
उत्कट
उत्कर्ष
उत्कर्षकाल
उत्कल
उत्कीर्ण
उत्कीर्णन
उत्कीर्णित
उत्कृष्ट
उत्कृष्टतम
उत्कृष्टता
उत्कृष्ठ
उत्केंद्रक
उत्क्रम
उत्क्रमण
उत्क्रमणीय
उत्क्रष्ट
उत्खनन
उत्खननों
उत्खनित
उत्तक
उत्तकों
उत्तम
उत्तमता
उत्तमराजा
उत्तमा
उत्तर
उत्तरआधुनिक
उत्तरआधुनिकता
उत्तरआधुनिकतावाद
उत्तरकथा
उत्तरकाण्ड
उत्तरकाल
उत्तरकालीन
उत्तरकाशी
उत्तरकिरीट
उत्तरखंड
उत्तरजीविता
उत्तरजीवी
उत्तरतम
उत्तरदाई
उत्तरदाता
उत्तरदाताओं
उत्तरदायित्व
उत्तरदायित्वों
उत्तरदायी
उत्तरदेशांतर
उत्तरपद
उत्तरपश्चिम
उत्तरपश्चिमी
उत्तरपुराण
उत्तरपूर्व
उत्तरपूर्वी
उत्तरपूर्वीय
उत्तरप्रदेश
उत्तरभारत
उत्तरभृङ्ग
उत्तरमीमांसा
उत्तररामचरित
उत्तरवर्ती
उत्तरवैदिक
उत्तरा
उत्तरांचल
उत्तराखंड
उत्तराखण्ड
उत्तराखण्डी
उत्तराञ्चल
उत्तराधिकार
उत्तराधिकारिणी
उत्तराधिकारियों
उत्तराधिकारी
उत्तरापथ
उत्तराभिमुख
उत्तरायण
उत्तरायणी
उत्तरार्द्घ
उत्तरार्द्ध
उत्तरार्ध
उत्तरी
उत्तरीय
उत्तरों
उत्तरोतर
उत्तरोत्तर
उत्तल
उत्तानपाद
उत्तापमापी
उत्तीर्ण
उत्तुंग
उत्तेजक
उत्तेजकों
उत्तेजन
उत्तेजना
उत्तेजनाओं
उत्तेजनात्मक
उत्तेजनीय
उत्तेजित
उत्तोलक
उत्तोलन
उत्तोलित
उत्त्पत्ति
उत्त्पन्न
उत्त्पात
उत्थान
उत्थापक
उत्थापन
उत्थित
उत्थुप
उत्पति
उत्पत्ति
उत्पत्ति####
उत्पत्तिस्थान
उत्पत्ती
उत्पन
उत्पन्न
उत्पन्ना
उत्परिवर्तजन
उत्परिवर्तन
उत्परिवर्तनों
उत्परिवर्तित
उत्परिवर्ती
उत्पल
उत्पात
उत्पाती
उत्पाद
उत्पादक
उत्पादकता
उत्पादकों
उत्पादन
उत्पादन####
उत्पादनों
उत्पादित
उत्पादो
उत्पादों
उत्पाद्य
उत्पीडन
उत्पीड़क
उत्पीड़न
उत्पीड़ित
उत्पीड़न
उत्प्रवास
उत्प्रवाही
उत्प्रेक्षा
उत्प्रेरक
उत्प्रेरकीय
उत्प्रेरकों
उत्प्रेरण
उत्प्रेरणा
उत्प्रेरित
उत्प्लव
उत्प्लवन
उत्प्लवों
उत्प्लावकता
उत्प्लावन
उत्प्लावी
उत्स
उत्सर्ग
उत्सर्गी
उत्सर्जक
उत्सर्जकों
उत्सर्जन
उत्सर्जित
उत्सर्जी
उत्सव
उत्सवों
उत्साह
उत्साहजनक
उत्साहपूर्ण
उत्साहपूर्वक
उत्साहवर्धक
उत्साहवर्धन
उत्साहित
उत्साहियों
उत्साही
उत्सुक
उत्सुकता
उत्सुकतावश
उत्स्रुत
उथर
उथल
उथलपुथल
उथला
उथली
उथले
उद
उदंत
उदक
उदगम
उदग्र
उदघाटन
उदघाटित
उदघोषक
उदघोषणा
उदजन
उदजारेय
उदधृत
उदन्त
उदप्रांगार
उदप्रांगारों
उदभव
उदमूर्त
उदय
उदयकरण
उदयगिरि
उदयन
उदयनाचार्य
उदयनारायण
उदयपुर
उदयपुरी
उदयराज
उदयशंकर
उदयसिंग
उदयसिंह
उदयांतर
उदयादित्य
उदयेश्वर
उदर
उदरगुहा
उदरस्थ
उदरावरणीय
उदरीय
उदहारण
उदा
उदात्त
उदात्तता
उदात्तीकरण
उदान
उदानों
उदार
उदारता
उदारतापूर्वक
उदारतावाद
उदारतावादी
उदारवाद
उदारवादियों
उदारवादी
उदारहण
उदारीकरण
उदास
उदासी
उदासीन
उदासीनता
उदासीनीकरण
उदाहरण
उदाहरणः
उदाहरणउदाहरण
उदाहरणत
उदाहरणतः
उदाहरणतया
उदाहरणस्वरुप
उदाहरणस्वरूप
उदाहरणार्थ
उदाहरणों
उदा०
उदित
उदीच्य
उदीयमान
उदुमलपेट
उदुम्बर
उदेश्य
उदो
उद्
उद्गम
उद्गमों
उद्गाता
उद्गार
उद्गारों
उद्ग्रहण
उद्घधाटन
उद्घव
उद्घाटन
उद्घाटित
उद्घृत
उद्घोष
उद्घोषक
उद्घोषकों
उद्घोषणा
उद्घोषित
उद्दंड
उद्दंडता
उद्दाम
उद्दालक
उद्दीन
उद्दीपक
उद्दीपन
उद्दीपनों
उद्दीप्त
उद्देश
उद्देशिका
उद्देशीय
उद्देश्य
उद्देश्य#
उद्देश्यइस
उद्देश्यपरक
उद्देश्यपूर्ण
उद्देश्ययह
उद्देश्यात्मक
उद्देश्यीय
उद्देश्यों
उद्दोग
उद्ध
उद्धत
उद्धधाटन
उद्धरण
उद्धरणों
उद्धव
उद्धाटन
उद्धार
उद्धारक
उद्धृत
उद्धेश्य
उद्बुद्ध
उद्बोधक
उद्बोधन
उद्भट
उद्भव
उद्भवन
उद्भवित
उद्भावना
उद्भासन
उद्भिद
उद्भुत
उद्भूत
उद्भेदन
उद्भ्रांत
उद्यत
उद्यम
उद्यमशील
उद्यमशीलता
उद्यमिता
उद्यमियों
उद्यमी
उद्यमों
उद्यान
उद्यानों
उद्यापन
उद्येश्य
उद्योग
उद्योगपति
उद्योगपतियों
उद्योगो
उद्योगों
उद्योत
उद्योतकर
उद्रेक
उद्रोध
उद्वर्ध
उद्विकास
उद्विग्न
उद्वेग
उद्वेलित
उद्वेष्ट
उधम
उधमपुर
उधमसिंह
उधमसिंहनगर
उधर
उधार
उधारकर्ता
उधारकर्ताओं
उधारदाताओं
उधारी
उधास
उधृत
उधेड़बुन
उधेड़ी
उधोग
उन
उनई
उनक
उनका
उनकि
उनकी
उनके
उनकें
उनको
उनकों
उनचास
उनतीस
उनने
उनपर
उनबन
उनमे
उनमें
उनलोगों
उनसे
उनहे
उनहें
उनहोंने
उनहोने
उना
उनियाणा
उनी
उनींदापन
उने
उनोदर
उन्की
उन्के
उन्को
उन्गुजा
उन्नत
उन्नतशील
उन्नतांश
उन्नति
उन्नतियों
उन्नतिशील
उन्नती
उन्नयन
उन्नायक
उन्नाव
उन्नीकृष्णन
उन्नीस
उन्नीसवां
उन्नीसवी
उन्नीसवीं
उन्नीसवें
उन्मत्त
उन्माद
उन्मादपूर्ण
उन्मादी
उन्मुक्त
उन्मुक्तता
उन्मुक्ति
उन्मुख
उन्मुखता
उन्मुखी
उन्मुखीकरण
उन्मूलन
उन्मूलनवादी
उन्मेष
उन्मोचन
उन्हां
उन्ही
उन्हीं
उन्हे
उन्हेँ
उन्हें
उन्हेड़ी
उन्हों
उन्होंन
उन्होंने
उन्होंनें
उन्होने
उन्होनें
उन्हौंने
उप
उपइकाई
उपकथा
उपकप्तान
उपकर
उपकरण
उपकरणिका
उपकरणो
उपकरणों
उपकला
उपकार
उपकारक
उपकार्यधिकारी
उपकुल
उपकुलपति
उपकृत
उपकेंद्र
उपकेंद्रों
उपक्रम
उपक्रमों
उपक्षार
उपक्षेत्र
उपक्षेत्रों
उपखंड
उपखंडों
उपखण्ड
उपगण
उपगणों
उपगुप्त
उपग्रह
उपग्रही
उपग्रहीय
उपग्रहों
उपग्रह्
उपघात
उपचय
उपचयन
उपचयित
उपचर्या
उपचार
उपचारक
उपचारात्मक
उपचारिका
उपचारिकाओं
उपचारित
उपचारों
उपचुनाव
उपचुनावों
उपज
उपजत
उपजता
उपजती
उपजते
उपजने
उपजा
उपजाई
उपजाऊ
उपजाए
उपजात
उपजाति
उपजातियाँ
उपजातियां
उपजातियों
उपजाते
उपजाने
उपजाया
उपजिला
उपजी
उपजीविका
उपजीव्य
उपजे
उपजों
उपडोमेन
उपतंत्र
उपतहसील
उपत्यका
उपत्यकाओं
उपदंश
उपदानव
उपदिष्ट
उपदेश
उपदेशक
उपदेशात्मक
उपदेशों
उपदेष्टा
उपद्रव
उपद्रवियों
उपद्रवी
उपद्रवों
उपधातु
उपधारा
उपनगर
उपनगरी
उपनगरीय
उपनगरों
उपनदियाँ
उपनदियों
उपनदी
उपनय
उपनयन
उपनाम
उपनामों
उपनिदेशक
उपनियम
उपनियमों
उपनिवेश
उपनिवेशकों
उपनिवेशण
उपनिवेशन
उपनिवेशवाद
उपनिवेशवादियों
उपनिवेशवादी
उपनिवेशवासियों
उपनिवेशियों
उपनिवेशी
उपनिवेशीकरण
उपनिवेशीय
उपनिवेशों
उपनिषद
उपनिषदो
उपनिषदों
उपनिषद्
उपनिहिति
उपने
उपनेता
उपनैदानिक
उपन्यास
उपन्यासकार
उपन्यासकारों
उपन्यासिका
उपन्यासीकरण
उपन्यासों
उपपति
उपपत्ति
उपपत्ती
उपपद
उपपरिवार
उपपर्व
उपपुराण
उपपुराणों
उपपृष्ठ
उपप्रकार
उपप्रकारों
उपप्रजाति
उपप्रजातियों
उपप्रधान
उपप्रधानमंत्री
उपप्रांतीय
उपप्रान्त
उपबंध
उपबंधों
उपबन
उपबोलियाँ
उपबोली
उपबौने
उपभाग
उपभाषा
उपभाषाएँ
उपभाषाओं
उपभेद
उपभेदों
उपभोक्ता
उपभोक्ताओं
उपभोक्तावाद
उपभोक्तावादी
उपभोग
उपभोगताओं
उपभोग्य
उपमंडल
उपमंत्री
उपमंदिर
उपमन्यु
उपमहाद्वीप
उपमा
उपमाएँ
उपमाओं
उपमान
उपमानों
उपमार्ग
उपमुख्यमंत्री
उपयाग
उपयाज
उपयुक्त
उपयुक्तता
उपयॊग
उपयोक्ता
उपयोक्ताओं
उपयोग
उपयोगएक
उपयोगकर्ता
उपयोगकर्ताओं
उपयोगार्थ
उपयोगिता
उपयोगिताएँ
उपयोगिताएं
उपयोगिताओं
उपयोगितावाद
उपयोगितावादी
उपयोगी
उपयोगों
उपर
उपरति
उपरहर
उपरहार
उपरांत
उपराजधानी
उपराजा
उपराज्यपाल
उपरान्त
उपराष्ट्रपति
उपरि
उपरिक
उपरिचर
उपरिलिखित
उपरिशायी
उपरी
उपरूपक
उपरोक्त
उपरोपिका
उपर्त्वचीय
उपर्युक्त
उपर्लिखित
उपलक्ष
उपलक्षित
उपलक्ष्य
उपलबध
उपलब्घ
उपलब्द
उपलब्द्ध
उपलब्ध
उपलब्धता
उपलब्धि
उपलब्धियाँ
उपलब्धियां
उपलब्धियों
उपलब्धी
उपलभ्द
उपले
उपल्ब्ध
उपवंश
उपवन
उपवनों
उपवर्ग
उपवर्गों
उपवास
उपवासों
उपविजेता
उपविजेताओं
उपविभाक
उपविभाग
उपविभागों
उपविभाजन
उपविभाजित
उपविषय
उपवेद
उपशब्द
उपशमन
उपशाखा
उपशाखाएँ
उपशाखाओं
उपशामक
उपशास्त्रीय
उपशीर्षक
उपशीर्षकों
उपशैली
उपश्रेणियाँ
उपश्रेणी
उपसंघ
उपसंपादक
उपसंस्कृति
उपसंहार
उपसभापति
उपसमिति
उपसमुच्चय
उपसमुदाय
उपसमूह
उपसमूहों
उपसर्ग
उपसर्गों
उपसहसंयोजक
उपसहसंयोजकता
उपसाधन
उपसाधनों
उपसाला
उपसौर
उपस्कर
उपस्करों
उपस्तंभ
उपस्तिथि
उपस्थापन
उपस्थित
उपस्थिति
उपस्थितियों
उपस्थिती
उपहार
उपहारकर
उपहारस्वरूप
उपहारों
उपहास
उपहासात्मक
उपांग
उपांगों
उपांत्र
उपाख्य
उपाख्यान
उपाख्यानात्मक
उपाख्यानों
उपागम
उपादान
उपादानों
उपादेय
उपादेयता
उपाधि
उपाधिधारी
उपाधियाँ
उपाधियां
उपाधियों
उपाधी
उपाधीक्षक
उपाध्यक्ष
उपाध्याय
उपाध्ाि
उपापचय
उपापचयी
उपाय
उपायुक्त
उपायों
उपार्जन
उपार्जित
उपालंभ
उपालम्भ
उपासक
उपासकों
उपासना
उपासनाओं
उपासनागृह
उपासरे
उपासिती
उपास्थि
उपास्थिदार
उपास्थियों
उपास्य
उपीपक
उपेंद्र
उपेंद्रनाथ
उपेंद्रभंज
उपेक्षणीय
उपेक्षा
उपेक्षित
उपेक्षिता
उपेगा
उपेन्द्र
उपेन्द्रनाथ
उपोत्पाद
उपोत्पादों
उपोद्घात
उपोलु
उपोष्ण
उपोष्णकटिबंधीय
उप्पर
उप्युक्त
उप्योग
उप्र
उप्लब्ध
उप्साला
उफनती
उफनने
उफान
उबकाई
उबटन
उबड़
उबर
उबरकर
उबरते
उबरना
उबरने
उबरे
उबल
उबलता
उबलते
उबलने
उबला
उबली
उबले
उबाऊ
उबार
उबारने
उबारा
उबाल
उबालकर
उबालते
उबालना
उबालने
उबाला
उबाले
उबैद
उभड़
उभय
उभयचर
उभयचरों
उभयदिश
उभयधर्मी
उभयनिष्ठ
उभयलिंगत्व
उभयलिंगी
उभयलैंगिकता
उभयहस्त
उभर
उभरकर
उभरता
उभरती
उभरते
उभरना
उभरने
उभरा
उभरी
उभरीं
उभरे
उभरेगी
उभा
उभाड़
उभार
उभारता
उभारती
उभारते
उभारना
उभारने
उभारा
उभे
उभें
उम
उमंग
उमटे
उमड़
उमड़ती
उमड़ते
उमड़ने
उमड़ी
उमय्यद
उमय्यदों
उमर
उमरकोट
उमरा
उमराव
उमरिया
उमरी
उमवी
उमस
उमा
उमाकांत
उमागा
उमापति
उमाबाई
उमामहेश्वर
उमाशंकर
उमेद
उमेश
उम्दा
उम्मयद
उम्मयदों
उम्मा
उम्मीद
उम्मीदवार
उम्मीदवारी
उम्मीदवारों
उम्मीदें
उम्मीदों
उम्मीद्वार
उम्मेद
उम्मेदपुर
उम्मेदसिंह
उम्र
उम्रकैद
उम्रदराज
उम्रदराज़
उम्रवाले
उमड़ने
उमड़ा
उमड़ी
उर
उर:कर्णमूलिका
उरई
उरकर्णमूलिका
उरग
उरगेंच
उरगेन्च
उरगों
उरद
उरलें
उरश्छद
उरस्
उराँव
उरी
उरु
उरुक
उरुग्वे
उरुभंग
उरुवेला
उरू
उरूक
उरूग्वे
उरूसा
उरे
उरोस्थि
उर्जा
उर्जावान
उर्दु
उर्दू
उर्ध्व
उर्ध्वपातन
उर्ध्वाधर
उर्फ
उर्फ़
उर्फ़ी
उर्मिला
उर्राको
उर्रुटिया
उर्वर
उर्वरक
उर्वरकता
उर्वरकों
उर्वरण
उर्वरता
उर्वरा
उर्वरित
उर्वशी
उर्वारुकमिव
उर्स
उर्सुला
उर्सुस
उर्फ़
उल
उलंघन
उलझ
उलझते
उलझन
उलझना
उलझने
उलझनें
उलझनों
उलझा
उलझाकर
उलझाने
उलझाव
उलझी
उलझे
उलट
उलटकर
उलटते
उलटने
उलटपुलटकर
उलटफेर
उलटवाँसियों
उलटा
उलटी
उलटे
उलमा
उलान
उलार
उलाहना
उलियेट
उलूक
उलूखल
उलूपी
उलूम
उलेमा
उलेमा-
उलेमाओं
उल्का
उल्काओं
उल्कापात
उल्कापिंड
उल्कापिंडों
उल्टा
उल्टियाँ
उल्टियां
उल्टियों
उल्टी
उल्टे
उल्फत
उल्फा
उल्ब
उल्म
उल्लंघन
उल्लंघनों
उल्लंधन
उल्लघंन
उल्लसित
उल्ला
उल्लास
उल्लासपूर्ण
उल्लाह
उल्लिखित
उल्लू
उल्लेख
उल्लेखनीय
उल्लेखनीयता
उल्लेखानुसार
उल्लेखित
उल्लेखीय
उल्लेखों
उल्लेख्य
उल्हास
उल्हासनगर
उवर्रक
उवर्रकों
उवर्रता
उवाच
उश
उशीनर
उषा
उषाकाल
उष्ण
उष्णकटिबंध
उष्णकटिबंधीय
उष्णकटिबन्धीय
उष्णकटीबंधीय
उष्णता
उष्णदेशीय
उष्णीय
उष्म
उष्मक
उष्मा
उष्माक्षेपक
उष्मागतिकी
उष्माधारिता
उष्मामापी
उष्मायन
उष्मीय
उस
उसक
उसका
उसकी
उसके
उसको
उसने
उसनें
उसपर
उसमान
उसमानी
उसमे
उसमें
उसय
उसलान
उससे
उसिया
उसी
उसीके
उसुई
उसूलों
उसे
उस्का
उस्के
उस्को
उस्तरा
उस्ता
उस्ताद
उस्तादों
उस्तीनवा
उस्ने
उस्पेन्सकी
उस्मान
उस्मानाबाद
उस्मानिया
उस्मानियों
उस्मानी
उस्मानों
उह
उहुरू
उड़
उड़ता
उड़ती
उड़न
उड़ने
उड़ा
उड़ाई
उड़ाकर
उड़ान
उड़ाना
उड़ाने
उड़ानें
उड़ानों
उड़ाया
उड़ी
उड़ीसा
उड़ेंगी
उ०
उ०त०
उ०त०२
उ०त०३
उ०प्र०
उ०प०
उ०मौंदा०
उ०मौ०
उ०म०
उ०म०४
उ०म०५
उ०व०
ऊ
ऊँ
ऊँगली
ऊँच
ऊँचा
ऊँचाइयाँ
ऊँचाइयों
ऊँचाई
ऊँचाईयों
ऊँची
ऊँचे
ऊँट
ऊँटों
ऊं
ऊंच
ऊंचा
ऊंचाइयां
ऊंचाइयों
ऊंचाई
ऊंचाईयों
ऊंचाहार
ऊंची
ऊंचे
ऊंट
ऊंटनी
ऊंटों
ऊखीमठ
ऊचाई
ऊची
ऊझी
ऊटा
ऊटान
ऊटी
ऊतक
ऊतकक्षय
ऊतकों
ऊतिकी
ऊत्तक
ऊत्तकों
ऊद
ऊदबिलाव
ऊदल
ऊदा
ऊधम
ऊधमपुर
ऊधमसिंह
ऊध्र्व
ऊध्र्वाधर
ऊन
ऊना
ऊनी
ऊन्होने
ऊपजाऊ
ऊपर
ऊपरवाली
ऊपरवाले
ऊपरी
ऊप्स
ऊफ़ा
ऊब
ऊबकर
ऊबड़
ऊर
ऊरु
ऊर्जा
ऊर्जाएँ
ऊर्जावान
ऊर्जाशक्ति
ऊर्जास्तर
ऊर्ध्व
ऊर्ध्वगामी
ऊर्ध्वपातन
ऊर्ध्वमुखी
ऊर्ध्वहनु
ऊर्ध्वाधर
ऊर्ध्वीं
ऊर्मि
ऊर्मियों
ऊर्वशी
ऊल
ऊषा
ऊष्ण
ऊष्णकटिबंधीय
ऊष्म
ऊष्मक
ऊष्मकों
ऊष्मप्रवैगिकी
ऊष्मसह
ऊष्मा
ऊष्मागतिक
ऊष्मागतिकी
ऊष्माघात
ऊष्मातापी
ऊष्मीकरण
ऊष्मीय
ऊसन्धि
ऊसर
ऊह
ऊहात्मक
ऊहापोह
ऋ
ऋंगवेरपुर
ऋंगी
ऋक्
ऋक्ष
ऋक्संहिता
ऋगवेद
ऋग्वेद
ऋग्वेदसंहिता
ऋग्वेदीय
ऋग्वैदिक
ऋचा
ऋचाएँ
ऋचाओं
ऋचीक
ऋजु
ऋजुकरण
ऋजुकारी
ऋण
ऋणकर्ताओं
ऋणग्रस्तता
ऋणदाता
ऋणदाताओं
ऋणपत्र
ऋणपात्रता
ऋणराशि
ऋणाग्र
ऋणात्मक
ऋणात्मकता
ऋणायन
ऋणी
ऋणों
ऋत
ऋतम्भरा
ऋतिक
ऋतु
ऋतुएँ
ऋतुएं
ऋतुओं
ऋतुकाल
ऋतुपरिवर्तन
ऋतुपर्ण
ऋतुराज
ऋतुविज्ञान
ऋतुसंहार
ऋतू
ऋत्विक
ऋत्विज
ऋत्विजों
ऋत्विज्
ऋद्धि
ऋषभ
ऋषभदेव
ऋषि
ऋषिकेश
ऋषिकेष
ऋषिगण
ऋषियों
ऋषिवर
ऋष्यमूक
ऋष्यशृंग
ऌ
ऍ
ऍक्लिप्टिक
ऍक्स
ऍक्सटेंशन
ऍक्सपी
ऍक्सप्रैशन
ऍक्सप्लोरर
ऍग्रीगेटर
ऍचआइवी
ऍचटीऍमऍल
ऍचडी
ऍट्रीब्यूशन
ऍट्रेइडीज़
ऍडवर्ड
ऍडीटर
ऍण्ड
ऍण्डज़ोन
ऍण्ड्रॉइड
ऍन
ऍनजीसी
ऍनसॅलअडस
ऍन्ड्रॉइड
ऍपल
ऍप्लिकेशन
ऍप्लिकेशनों
ऍप्लीकेशन
ऍप्लीकेशनों
ऍप्स
ऍप्सिलन
ऍफ़
ऍम
ऍरिअल
ऍरिडानी
ऍरिस
ऍल
ऍलजी
ऍलिफ़स
ऍलॅक्ट्रॉन
ऍल३
ऍस
ऎ
ऎतिहासिक
ऎसा
ऎसी
ऎसे
ए
ए#
ए##
ए###
ए.
ए.आई.ए.डी.एम.के
ए.आर
ए.आर.रहमान
ए.ए
ए.एम.आई.ई
ए.एस
ए.के
ए.टी
ए.टी.पी
ए.डबल्यू.डबल्यू.ए.
ए.वी
ए.सी
एं
एंकर
एंकल
एंकात
एंकि
एंक्लेव
एंक्लोजर
एंगर
एंगल
एंगलहार्ट
एंगल्स
एंगस
एंगिल
एंगुइला
एंगेल
एंगेल्स
एंग्री
एंग्लिकन
एंग्लिया
एंग्लो
एंग्स्ट्रम
एंग्स्ट्रॉम
एंजल
एंजलिस
एंजलीस
एंजल्स
एंज़ाइम
एंज़ो
एंजाइम
एंजाइमिक
एंजाइमों
एंजाइम्स
एंजियोग्राफी
एंजियोग्राम
एंजियोजिनेसिस
एंजियोटेनसिन
एंजियोप्लास्टी
एंजिल
एंजिलिस
एंजिलो
एंजिल्स
एंजेल
एंजेलस
एंजेला
एंजेलिना
एंजेलीना
एंजेलेस
एंजेलो
एंजेल्स
एंटन
एंटनी
एंटर
एंटरटेनमेंट
एंटरटेनर
एंटरटेन्मेंट
एंटरप्राइज
एंटरप्राइज़
एंटरप्राइजेज
एंटवर्प
एंटविसल
एंटिकोगुलेशन
एंटिजेन
एंटिटी
एंटिफॉलस
एंटिवायरल
एंटी
एंटीऑक्सिडेंट
एंटीऑक्सीडेंट
एंटीक
एंटीगुआ
एंटीजन
एंटीजनों
एंटीजेन
एंटीट्रस्ट
एंटीना
एंटीपायरेटिक
एंटीबाडियों
एंटीबायोटिक
एंटीबायोटिक्स
एंटीबॉडियों
एंटीबॉडी
एंटीबॉयटिक
एंटीबॉयोटिक
एंटीमनी
एंटीमीटर
एंटीमैटर
एंटीरियर
एंटीरेट्रोवायरल
एंटीलिज
एंटीवायरस
एंटीसिपेटर
एंटीसेप्टिक
एंटेना
एंटोइन
एंटोन
एंटोनियो
एंटोनी
एंट्री
एंट्रेंस
एंट्रोपी
एंड
एंडगेम
एंडमीबा
एंडरसन
एंडर्स
एंडलेस
एंडिंग
एंडियन
एंडी
एंडीज़
एंडेड
एंडेवर
एंडोक्राइन
एंडोडर्म
एंडोमेट्रियल
एंडोरा
एंडोर्फिन
एंडोर्स
एंडोवर
एंडोस्कोप
एंडोस्कोपी
एंड्रयू
एंड्रयूज
एंड्रयूज़
एंड्रिया
एंड्रियु
एंड्री
एंड्रू
एंड्रे
एंड्रेअस
एंड्रॉयड
एंड्रोइड
एंड्रोजेनिक
एंड्रोमेंडा
एंड्रोमेडा
एंड्रोयड्स
एंड्र्यू
एंड्स
एंतिस्थिनीज़
एंथनी
एंथोनी
एंथ्रेक्स
एंबुलेंस
एंबेसडर
एंबेसेडर
एंव
एंशिएंट
एंशेंट
एअर
एअरपोर्ट
एअरलाइंस
एअरवेज
एअरोनॉटिकल
एआई
एआईआर
एआईएडीएमके
एआईएफ
एआईएम
एआईएमआईएम
एआईएमए
एआईजी
एआईसी
एआईसीईटी
एआईसीटीई
एआईसीसी
एआर
एआरटी
एआररहमान
एआरवाई
एइट
एई
एउटा
एए
एएआई
एएए
एएएडवांटेज
एएएस
एएक्स
एएचजे
एएन
एएनए
एएनएसआई
एएनसी
एएपीआई
एएफएसपीए
एएफपी
एएफसी
एएम
एएमआईई
एएमए
एएमएल
एएमजी
एएमटी
एएमडी
एएमपी
एएमसी
एएलएच
एएवी
एएस
एएसआई
एएसए
एएसजी
एएसटीएम
एएसडी
एएसयूसीएलए
एओएल
एओप
एक
एकं
एकक
एककलीय
एककों
एककोशकीय
एककोशिक
एककोशिकीय
एककोशीय
एकघात
एकचारी
एकचि
एकछत्र
एकजुट
एकजुटता
एकटक
एकड
एकड़
एकत
एकतंत्र
एकतरफ़ा
एकतरफा
एकता
एकतारा
एकत्र
एकत्रण
एकत्रित
एकत्रीकरण
एकत्व
एकदम
एकदा
एकदिवसीय
एकदिश
एकदेशीय
एकध्रुव
एकध्रुवीय
एकनाथ
एकनिष्ठ
एकपक्षीय
एकपदी
एकबार
एकबारगी
एकबीजपत्री
एकभाषी
एकभिक्तिका
एकभित्तिका
एकमत
एकमात्र
एकमुश्त
एकमेव
एकम्
एकम्बेंस
एकयुग्मनज
एकर
एकरंगा
एकरमैन
एकरस
एकरसता
एकरूप
एकरूपता
एकर्ट
एकल
एकलअसंतृप्त
एकलक
एकलव्य
एकला
एकलिंग
एकलिंगजी
एकलिंगी
एकलों
एकलौता
एकलौते
एकवचन
एकवट
एकवर्ण
एकवर्णी
एकवर्षीय
एकसदनीय
एकसम
एकसमान
एकसरें
एकसा
एकसाथ
एकसार
एकसूत्रता
एकस्व
एकही
एका
एकां
एकांक
एकांकियों
एकांकी
एकांग
एकांगी
एकांत
एकांतप्रिय
एकांतर
एकांतरण
एकांतरित
एकांतवास
एकांतवासी
एकांतिक
एकाउंट
एकाउंटिंग
एकाउंटेंट
एकाउंटेंट्स
एकाउंटेबिलिटी
एकाउंट्स
एकाएक
एकाकार
एकाकी
एकाकीपन
एकाक्षर
एकाक्षरी
एकाग्र
एकाग्रचित्त
एकाग्रता
एकाचि
एकाडमी
एकाडेमी
एकात्म
एकात्मक
एकात्मकता
एकात्मता
एकादश
एकादशियाँ
एकादशी
एकाध
एकाधिक
एकाधिकार
एकाधिकारवादी
एकाधिकारी
एकाधिनायक
एकाधिनायकत्व
एकाधिपत्य
एकान्त
एकायन
एकालाप
एकालापों
एकाश्म
एकिकरण
एकिकृत
एकिडना
एकियाई
एकिलीज़
एकी
एकीं
एकीकरण
एकीकृत
एकीपरि
एकु
एके
एकें
एकेचि
एकेडमिक
एकेडमी
एकेडेमी
एकेश्वरवाद
एकेश्वरवादी
एकेसी
एकै
एकैक
एकैडमी
एकॉडमी
एकॉन
एकॉस्टिक
एको
एकोन
एक्
एक्का
एक्ज़िट
एक्ज़िबिट
एक्ज़ीक्यूटिव
एक्जिक्यूटिव
एक्जिमा
एक्जीक्यूटिव
एक्ट
एक्टर
एक्टर्स
एक्टिंग
एक्टिन
एक्टिनाइड्स
एक्टिव
एक्टिविटी
एक्टिवेशन
एक्टीवेशन
एक्ट्रेस
एक्ट्स
एक्युमुलेटर
एक्यूट
एक्यूपंक्चर
एक्यूप्रेशर
एक्यूरेटर
एक्रिलामाइड
एक्रिलिक
एक्रो
एक्रोपोलिस
एक्लंपशिया
एक्लिप्स
एक्वा
एक्वाटिंट
एक्वामरीन
एक्विटेबल
एक्वेरियम
एक्वैरियम
एक्शन
एक्स
एक्स#
एक्सएचटीएमएल
एक्सएम
एक्सएमआरवी
एक्सएमएल
एक्सकिरण
एक्सक्लूसिव
एक्सचेंज
एक्सचेंजर
एक्सचेंजों
एक्सटर्नल
एक्सटिंक्शन
एक्सटेंडेड
एक्सटेंशन
एक्सटेसी
एक्सट्रा
एक्सट्रीम
एक्सडी
एक्सपर्ट
एक्सपर्ट्स
एक्सपी
एक्सपी#
एक्सपीरिएंस
एक्सपीरियंस
एक्सपेंशन
एक्सपेडिएशन
एक्सपेरिमेंटल
एक्सपो
एक्सपोजर
एक्सपोज़र
एक्सपोर्ट
एक्सप्रेशन
एक्सप्रेस
एक्सप्रेसवे
एक्सप्लोरर
एक्सप्लोरेशन
एक्सबॉक्स
एक्सरे
एक्सल
एक्सा
एक्साइज
एक्साइटिंग
एक्सियॉम
एक्सिस
एक्सीलरेटर
एक्सीलेंस
एक्सेंचर
एक्सेंट
एक्सेटर
एक्सेल
एक्सेलसियर
एक्सेस
एक्सेसरीज
एक्सॉन
एक्सॉम
एक्सॉसिस्ट
एक्सोजेनस
एक्सोडस
एक्सोन
एक्स्चेंज
एक्स्टर्नल
एक्स्टेंडेड
एक्स्टेंशन
एक्स्टेंसिबल
एक्स्ट्रा
एक्स्ट्राऑर्डिनरी
एक्स्ट्रासोलर
एक्स्ट्रीम
एक्स्पेक्टैशन
एक्स्पो
एक्स्प्रेस
एक्स्प्रेसवे
एक्स्प्लोरर
एकड़
एखनहु
एग
एगनी
एगलस्टोन
एगिलसन
एगुइलेरा
एगुलस
एगेव
एगोराफोबिया
एग्जिट
एग्नेस
एग्न्यू
एग्मोर
एग्रीकल्चर
एग्रीकल्चरल
एग्रीगेटर
एग्रीमेंट
एग्रो
एग्रोफिजिक्स
एग्ज़िबिशन
एच
एच#
एच#एन#
एच#बी
एच.
एच.आई.वी
एच.आर
एच.एच
एच.जी
एच.टी.एम.एल
एच.डी
एचआइवी
एचआईवी
एचआर
एचआरसी
एचईएमआरएल
एचएएल
एचएच
एचएन
एचएमए
एचएमएस
एचएलए
एचएसआईडीसी
एचएसएसटी
एचएसबीसी
एचएसवी
एचऐई
एचजी
एचजीएच
एचटी
एचटीएमएल
एचटीएमएल#
एचटीटीपी
एचडी
एचडीआई
एचडीएफसी
एचडीएमआई
एचडीएल
एचडीटीवी
एचडीपीई
एचपी
एचपीएल
एचपीवी
एचपीसीएल
एचबी
एचबीए
एचबीए#सी
एचबीएसी
एचबीओ
एचबीवी
एचवी
एचसी
एचसीआई
एचसीएल
एचसीवी
एचिंग
एचीवमेंट
एचोकर्दिओग्रम
एच०
एच०आर०ए०
एज
एजंट
एजंसियां
एजरा
एजरिन
एज़
एज़टेक
एज़रा
एज़रिन
एज़ाज़
एज़्टेक
एजाइल
एजाज
एजाज़
एजार
एजिंकोर्ट
एजिंग
एजिग्लियो
एजियन
एजिस
एजी
एजीएम
एजीगिलियो
एजीना
एजुकेशन
एजुकेशनल
एजूकेशन
एजेंट
एजेंटों
एजेंट्स
एजेंडा
एजेंडे
एजेंडों
एजेंसिंयों
एजेंसियाँ
एजेंसियां
एजेंसियों
एजेंसी
एजेग्लियो
एजेज
एजेटी
एजेड
एजेन्ट
एजेन्सी
एज्टेक
एज्युकेशन
एज्यूकेशन
एज्रा
एज्हावा
एज्हुथाचन
एझावा
एझावाओं
एझिमाला
एट
एटकिंस
एटकिंसन
एटकिन्सन
एटकेन
एटन
एटनबरो
एटम
एटमी
एटर्नी
एटलस
एटलांटिक
एटलांटिस
एटलेटिको
एटा
एटिक
एटी
एटीआर
एटीएंडटी
एटीएफ
एटीएम
एटीएस
एटीएससी
एटीजंस
एटीट्यूड
एटीपी
एटीसी
एटॉन
एटॉम
एटॉमिक
एटॉर्नी
एटोप्स
एटोरवास्टेटिन
एटोल
एट्रीब्यूट
एट्रीब्यूटों
एट्रीब्यूट्
एट्रीब्यूट्स
एड
एडगर
एडगरटन
एडनबरा
एडना
एडबर्ग
एडबल्यूडबल्यूए
एडम
एडमंड
एडमण्टन
एडमिट
एडमिनिस्ट्रेटर
एडमिनिस्ट्रेशन
एडमिरल
एडमिशन
एडमॉन्टन
एडमोंटन
एडम्स
एडम्सन
एडलर
एडल्जी
एडल्ट
एडवरटाइजिंग
एडवर्ड
एडवर्ड्स
एडवांटेज
एडवांस
एडवांसमेंट
एडवांस्ड
एडवान्स्ड
एडवार्डो
एडविन
एडवेंचर
एडवेंचरस
एडवेंचर्स
एडवेअर
एडवेयर
एडवैक
एडवोकेट
एडस
एड़ियों
एड़ी
एडाचेना
एडाप्टर
एडिंग्टन
एडिक्शन
एडिट
एडिटर
एडिटिंग
एडिडास
एडिथ
एडिनबरा
एडिनबर्ग
एडिनो
एडिनोवायरस
एडिलेड
एडिशन
एडिशनल
एडिस
एडिसन
एडी
एडीआर
एडीए
एडीएई
एडीएएम
एडीएफबी
एडीएस
एडीएसएल
एडीज
एडीज़
एडीजीपी
एडीटर
एडीनोसिन
एडीपी
एडीबी
एडीलेड
एडीशन
एडीशनल
एडीसन
एडीसी
एडुआर्डो
एडुकेशन
एडुकेशनल
एडुसेट
एडेड
एडेन
एडेनबर्ग
एडेनोसाइन
एडेमा
एडॉल्फ
एडोब
एडोरा
एडोर्नो
एडोल्फ
एड्गर
एड्गिल्स
एड्ज
एड्डी
एड्युकेष्ण
एड्रियन
एड्रियाटिक
एड्रियाना
एड्रीनलीन
एड्रेस
एड्रेसिंग
एड्रेसियेबल
एड्रोजेनिक
एड्वर्ड
एड्विन
एड्विना
एड्वेंचर
एड्वेंटिस्ट
एड्स
एण्टीना
एण्ड
एण्डीज
एण्डीज़
एण्डोस्पर्म
एण्ड्रोजन
एण्ड्रोमेडा
एत
एतदर्थ
एतद्
एतबार
एतमादपुर
एतराज
एतराज़
एतिहासिक
एतिहासीक
एते
एत्तोरे
एथ
एथनिक
एथलीट
एथलीटों
एथलीट्स
एथलेटिक
एथलेटिक्स
एथलॉन
एथलॉन##
एथिकल
एथिक्स
एथिल
एथिलीन
एथीना
एथें
एथेंस
एथेन
एथेना
एथेनियन
एथेनियाई
एथेनॉल
एथेन्स
एथेलेटिक्स
एदुआर्द
एदो
एधा
एन
एन.
एन.आई.टी
एन.आर
एनआईआई
एनआईआईटी
एनआईएच
एनआईएन
एनआईएफ
एनआईओ
एनआईजीईसी
एनआईटी
एनआईटीटी
एनआईडी
एनआईपीईआर
एनआईबीआरएस
एनआर
एनआरआई
एनआरएम
एनईआर
एनईएफ
एनए
एनएएल
एनएएसीपी
एनएच
एनएचआरएम
एनएचआरसी
एनएचएल
एनएचएस
एनएचके
एनएचडब्ल्यू
एनएचडब्ल्यू##
एनएचपीसी
एनएटी
एनएडीएच
एनएन
एनएफएल
एनएफयूएजे
एनएबी
एनएबीएल
एनएम
एनएमआर
एनएमई
एनएवी
एनएसई
एनएसए
एनएसएआईडी
एनएसएक्स
एनएसएस
एनएसजी
एनएसडी
एनएसडीएल
एनएससी
एनएससीएन
एनएसी
एनएसीपी
एनओसी
एनकाउंटर
एनकाउंटर्स
एनकोड
एनकोडर
एनकोडिंग
एनकोडेड
एनकोर
एनक्रिप्शन
एनक्विज़िशन
एनग्रेविंग
एनचांटेड
एनजाइना
एनजी
एनजीओ
एनजीसी
एनजे
एनटरटेनमेंट
एनटी
एनटीजीआई
एनटीटी
एनटीपीसी
एनडब्ल्यूओ
एनडी
एनडीए
एनडीएफबी
एनडीटीवी
एनडीसी
एनदृ
एनपी
एनपीआर
एनपीओ
एनपीटी
एनपीसी
एनपीसीआईएल
एनफील्ड
एनफोर्समेंट
एनबीए
एनबीएसीज़न
एनबीसी
एनरिक
एनरिको
एनरॉन
एनर्ज़ेन
एनर्जाईजर
एनर्जी
एनलॉग
एनवाई
एनवाईपीडी
एनवायरनमेंट
एनवीडिया
एनवेलप
एनसाइक्लोपीडिया
एनसी
एनसीआर
एनसीईआरटी
एनसीएए
एनसीएमप
एनसीएमपी
एनसीडब्लू
एनसीपी
एनसीबी
एनसीसी
एनसीसीएएम
एनहाइड्राइड
एना
एनाँ
एनाकिन
एनाग्रम
एनाग्रमों
एनाटॉमी
एनाटोलिया
एनाफाइलैक्सिस
एनाबोलिक
एनामेल
एनालाग
एनालिटिकल
एनालिटिक्स
एनालिसिस
एनालेसिस
एनालॉग
एनाल्जेसिक
एनिग्मा
एनिड
एनिमल
एनिमल्स
एनिमा
एनिमी
एनिमे
एनिमेट
एनिमेटर
एनिमेटरों
एनिमेटर्स
एनिमेटेड
एनिमेशन
एनियाक
एनिलिन
एनिवर्सरी
एनिस्टन
एनी
एनीमल
एनीमा
एनीमिया
एनीमे
एनीमेटेड
एनीमेशन
एनुअल
एनेक्सी
एनेट
एनेस्थिसियोलॉजिस्ट
एनेस्थिसियोलॉजी
एनेस्थीसिया
एनेस्थेटिक
एनेस्थेटिक्स
एनेस्थेटिस्ट
एनेस्थेटिस्ट्स
एनेस्थेटीस्ट
एनेस्थेटीस्टस
एनेस्थेसिया
एनेस्थेसियोलॉजिस्ट
एनैमल
एनॉलिसिस
एनॉलॉग
एनो
एनोक
एनोटेशन
एनोड
एनोनिमस
एनोफ़िलीज़
एनोभिड
एनोरेक्सिया
एनोवा
एन्कार्टा
एन्कोडिंग
एन्कोम
एन्कोर
एन्क्रिप्ट
एन्क्रिप्टेड
एन्क्रिप्शन
एन्क्लेव
एन्ज़ाइम
एन्ज़ो
एन्जाइम
एन्जियोजिनेसिस
एन्जिल
एन्जिल्स
एन्जॉय
एन्ट
एन्टरटेनमेन्ट
एन्टरप्राइज़
एन्टी
एन्टीसायकोटिक्स
एन्टेना
एन्टों
एन्टोंइनेट
एन्टोनियो
एन्टोनी
एन्ट्री
एन्ड
एन्डी
एन्ड्रयूज़
एन्ड्रे
एन्ड्रेस
एन्थनी
एन्थोनी
एन्थ्रोपोजेनिक
एन्न
एन्ना
एन्नी
एन्नोर
एन्फोर्समेंट
एन्वायरनमेंट
एन्वेलप
एन्साइक्लोपीडिया
एन्सेफलाइटिस
एन्सेम्बल
एन्हांस्ड
एन्हिंगा
एन०
एप
एपर्चर
एपल
एपस्टीन
एपिक
एपिक्यूरस
एपिटोप
एपिडर्मिस
एपिडेमिक
एपिडेमियोलॉजी
एपिथेलियल
एपिनेफ्रीन
एपिफेनी
एपिब्लास्ट
एपिया
एपिलेप्सी
एपिस
एपिसोड
एपिसोडो
एपिसोडों
एपिस्कोपल
एपिस्टासिस
एपी
एपीआई
एपीएफएल
एपीएमसी
एपीजे
एपीड्यूरल
एपीसोड
एपेंडिक्स
एपेंडिसाइटिस
एपेंडेक्टॉमी
एपेक्स
एपेटाइट
एपेलडॉर्न
एपोकैलिप्स
एपोप्टोसिस
एप्टीट्यूड
एप्पल
एप्पिस
एप्रन
एप्रिल
एप्रोच
एप्लाइड
एप्लिकेशन
एप्लिकेशनों
एप्लीकेशंस
एप्लीकेशन
एप्लीकेशनों
एप्लीकेशन्स
एप्लेट
एप्स
एफ
एफ#
एफ.ए
एफ.डी.ए
एफ.सी
एफआईआई
एफआईआर
एफआईए
एफआईडीई
एफआईपीबी
एफआरबीएम
एफए
एफएआई
एफएए
एफएओ
एफएक्स
एफएचएम
एफएटीएफ
एफएम
एफएसआई
एफएसए
एफएसएल
एफएसबी
एफओआईएस
एफटी
एफटीए
एफटीपी
एफडी
एफडीआई
एफडीए
एफडीएनवाई
एफपीजीए
एफबीआई
एफबीटी
एफसी
एफसीआई
एफसीसी
एफ़
एफ़.सी
एफ़आरआई
एफ़ए
एफ़एम
एफ़टीपी
एफ़बीआई
एफ़लेक
एफ़सी
एफ़िल
एफिड
एफिनिटी
एफिल
एफिसस
एफिसिएन्सी
एफीशेंसी
एफेलवीन
एफ्
एफ्टपोस
एफ्रो
एफ्लेक
एफ०
एब
एबट
एबरडीन
एबर्गावेनी
एबर्ट
एबर्डीन
एबल
एबिस
एबी
एबीएन
एबीएस
एबीवी
एबीसी
एबीसीएल
एबीसीसीसी
एबे
एबेन
एबेल
एबॉट
एब्डोमिनिस
एब्नेर
एब्बी
एब्बे
एब्यूज
एब्सोल्यूट
एम
एम#
एम##
एम###
एम.
एम.आर.आई
एम.ए
एम.एल
एम.एस
एम.एस.सी
एम.एससी
एम.के
एम.टेक
एम.डी
एम.फ़िल
एम.फिल
एम.बी.ए
एम.शेडोस
एमआई
एमआईएम
एमआईटी
एमआईबी
एमआर
एमआरआई
एमआरएनए
एमआरपीएस
एमआरसी
एमई
एमईएन
एमए
एमएएम
एमएच
एमएच1
एमएचएन
एमएचसी
एमएचसीसी
एमएनएस
एमएनपी
एमएफएन
एमएम
एमएमआर
एमएमए
एमएमएस
एमएमटीसी
एमएल
एमएलए
एमएलएस
एमएलबी
एमएस
एमएसए
एमएसएन
एमएसएनबीसी
एमएसजी
एमएससी
एमओआईए
एमओपी
एमओयू
एमके
एमकेआई
एमकेडब्ल्यू
एमक्यूएम
एमजी
एमजीआर
एमजीएम
एमटी
एमटीए
एमटीएन
एमटीएनएल
एमटीडीएनए
एमटीपीए
एमटीवी
एमटेक
एमट्रेक
एमट्रैक
एमडी
एमडीएमए
एमडीएमके
एमडीजी
एमडीटी
एमदृ
एमनेस्टी
एमपी
एमपी#
एमपीईजी
एमपीएए
एमपीएस
एमफ़िल
एमफिल
एमबी
एमबीई
एमबीए
एमबीएनए
एमबीपीएस
एमबीबीएस
एमरजेंसी
एमरल्ड
एमरी
एमरो
एमर्सन
एमवी
एमवीपी
एमशेडोस
एमसी
एमसीआई
एमसीए
एमसीएक्स
एमसीजी
एमसीडी
एमसीपी
एमसीसी
एमहर्स्ट
एमा
एमाइड
एमाइल
एमानुएल
एमारैंथ
एमिटर
एमिनेम
एमिनो
एमिनोग्लाइकोसाइड्स
एमिरेट्स
एमिल
एमिलिया
एमिलियो
एमिली
एमिशन
एमिस
एमी
एमीनो
एमीलिया
एमू
एमेंडा
एमेक्स
एमेच्योर
एमेरिल
एमोरी
एम्
एम्एस
एम्टी
एम्नेसिया
एम्प
एम्पयार्ज़
एम्परर
एम्पलीफायर
एम्पलीफायरों
एम्पायर
एम्पियर
एम्पीथियेटर
एम्पीयर
एम्पोरियम
एम्पोरियो
एम्प्टी
एम्प्रेस
एम्प्लिफायर
एम्फ़ीथियेटर
एम्फीथियेटर
एम्बर
एम्बिशन
एम्बुलेंस
एम्बुश
एम्बेड
एम्बेडेड
एम्बेसेडर
एम्ब्रायडरी
एम्ब्रायो
एम्ब्रोस
एम्मा
एम्मी
एम्स
एम्सटर्डम
एम्स्टर्डम
एम०
एम०एल०वर्मा
एम०ए०
एय
एयर
एयरकंडीशन
एयरकूल्ड
एयरक्राफ़्ट
एयरक्राफ्ट
एयरक्रॉफ्ट
एयरजोन
एयरटेल
एयरपोर्ट
एयरपोर्ट्स
एयरप्ले
एयरप्लेन
एयरफ़ील्ड
एयरफोर्स
एयरफ्रेम
एयरबस
एयरबेस
एयरबैग
एयरबोर्न
एयरलाइंस
एयरलाइंसों
एयरलाइन
एयरलाइनर
एयरलाइनरों
एयरलाइनें
एयरलाइनों
एयरलाइन्स
एयरलाईन्स
एयरवेज
एयरवेज़
एयरो
एयरोनॉटिकल
एयरोनॉटिक्स
एयरोबिक
एयरोसोल
एयरोस्पेस
एयर्स
एयूदीप्पन
एर
एरंड
एरण
एरणाकुलम
एरन
एरनाकुलम
एरनाकुलम_एक्स्प्रेस_####
एरनाकुलमएक्स्प्रेस
एरर
एरर्स
एरशाद
एरा
एराइवल
एरागुडि
एरागोन
एरिक
एरिका
एरिक्सन
एरिज़ोना
एरिजोना
एरिन
एरिना
एरियन
एरियर
एरियरी
एरियल
एरियस
एरिया
एरियांजे
एरियाज़
एरियाना
एरिस
एरी
एरीजोना
एरीना
एरीस
एरुगिनोसा
एरे
एरेना
एरो
एरोन
एरोनॉटिक्स
एरोबिक
एरोबिक्स
एरोमैटिक
एरोसोल
एरोस्पेस
एरोस्मिथ
एर्गोस्फियर
एर्टन
एर्डवार्क
एर्नाकुलम
एर्नी
एर्नेट
एर्न्स्ट
एर्मस
एऱ्हवी
एऱ्हवीं
एल
एल#
एल.
एल.ई.डी
एल.ए
एल.एल.बी
एल.पी
एलअक़वामी
एलआईसी
एलआईसीएचएफ
एलआर
एलई
एलईडी
एलए
एलएएन
एलएच
एलएनजी
एलएम
एलएमपी
एलएलपी
एलएलबी
एलएलसी
एलएसडी
एलएसबी
एलओएक्स
एलओसी
एलजी
एलजीए
एलजीबीटी
एलजेएम
एलटीए
एलटीटीई
एलटीपी
एलडीएफ
एलडीएल
एलन
एलपी
एलपीआर
एलपीएस
एलपीजी
एलफर्ड
एलफिंस्टन
एलबम
एलबमों
एलबम्स
एलबर्ज़
एलबर्ट
एलबिनो
एलबीएस
एलबीडब्ल्यू
एलबीडो
एलम
एलरिच
एलर्जिक
एलर्जी
एलर्जेन
एलर्ट
एलवी
एलवीएमएच
एलवुड
एलसीए
एलसीडी
एलसीसी
एला
एलाइंस
एलाइड
एलाउएंस
एलाचार्य
एलान
एलायंस
एलिअत
एलिज़बेथ
एलिज़ाबेथ
एलिजा
एलिजाबेथ
एलिन
एलिफेंटा
एलिफैंट
एलिमिनेशन
एलिमेंट
एलिमेंट्स
एलिमेन्ट्स
एलियंस
एलियट
एलियन
एलिया
एलिल
एलिवेटर
एलिवेटिड
एलिवेशन
एलिस
एलिसन
एलिसा
एलिसिया
एलिसेज़
एलिस्टेयर
एलिज़ाबेथ
एली
एलीगियरी
एलीट
एलीन
एलीना
एलीफेंट
एलीफेंटा
एलीमेंट
एलील
एलीवेटर
एलीसन
एलुन
एलुमिनियम
एले
एलेक
एलेक्ज़ेंडर
एलेक्जेंडर
एलेक्जेंड्रा
एलेक्जेंड्रिया
एलेक्ट्रम
एलेक्ट्रान
एलेक्ट्रानिक
एलेक्ट्रानिकी
एलेक्ट्रानिक्स
एलेक्ट्रानों
एलेक्ट्रॉन
एलेक्ट्रॉनिक
एलेक्ट्रॉनिकी
एलेक्ट्रोंनों
एलेक्ट्रोंस
एलेक्ट्रोड
एलेक्ट्रोन
एलेक्स
एलेक्सा
एलेक्सिस
एलेगज़ेनड्रिया
एलेग्रे
एलेन
एलेना
एलेफ़सन
एलेस्टर
एलेज़ाबेथ
एलॉय
एलो
एलोन
एलोपेसिया
एलोपैथिक
एलोपैथी
एलोरा
एल्क
एल्कलॉइड
एल्किल
एल्कीन
एल्केलॉइड
एल्कोहल
एल्कोहॉल
एल्कोहोल
एल्गर
एल्गिन
एल्गी
एल्गोरिथम
एल्गोरिथ्म
एल्गोरिदम
एल्गोरिद्म
एल्टन
एल्डर
एल्डिहाइड
एल्ड्रिन
एल्दो
एल्पाइन
एल्फ
एल्फमन
एल्फा
एल्फिंस्टन
एल्फ्मैन
एल्फ्रेड
एल्बम
एल्बमों
एल्बर्ट
एल्बल
एल्बा
एल्बाकोर
एल्बिडो
एल्बुमिन
एल्बे
एल्बो
एल्ब्रुस
एल्म
एल्मवुड
एल्युमनस
एल्युमनाइ
एल्युमिनियम
एल्युमीनियम
एल्यूमिनियम
एल्यूमीनियम
एल्विन
एल्वियोलर
एल्विस
एल्स
एल्सवर्थ
एल्सी
एल०
एव
एवँ
एवं
एवज
एवज़
एवजी
एवन
एवम
एवम्
एवर
एवरमॉन्ड
एवरी
एवरीथिंग
एवरीबडी
एवरीवन
एवरेज
एवरेट
एवरेस्ट
एवर्ट
एवर्टन
एवलिन
एवा
एवानेसेंस
एवार्ड
एवार्ड्स
एविएटर
एविएशन
एविडेंस
एवियन
एवियेशन
एविल
एविवा
एविस
एवी
एवे
एवेंक
एवेंकियों
एवेंकी
एवेंजर्स
एवेंज्ड
एवेन
एवेन्यु
एवेन्यू
एवेरी
एवॉन
एवॉय
एवोल्यूशन
एव्री
एश
एशली
एशले
एशस
एशियन
एशिया
एशियाई
एशियाईखेल
एशियाटिक
एशियाड
एशियानेट
एशियायी
एशेज
एशेज़
एशेस
एश्टन
एश्योरेंस
एश्ले
एष
एषुत्तच्छन
एषुत्तच्छन्
एस
एस#
एस.
एस.आर
एस.ए
एस.एच
एस.एन
एस.एम
एस.डी
एस.पी
एस.पी.ए
एस.सी
एसआई
एसआईए
एसआईएल
एसआईएस
एसआईपी
एसआईवी
एसआर
एसआरई
एसआरएफ
एसआरओ
एसआरपीएफ
एसइसी
एसई
एसईआई
एसईओ
एसईजेड
एसईसी
एसए
एसएआर
एसएएस
एसएच
एसएचआरसी
एसएचओ
एसएन
एसएनआर
एसएनएल
एसएम
एसएमएस
एसएमएससी
एसएमटीपी
एसएमवीडीएसबी
एसएलआर
एसएलपी
एसएलसी
एसएस
एसएस#
एसएसआई
एसएसएच
एसएसएल
एसएसपी
एसएससी
एसओअमरोहा
एसओजी
एसके
एसजी
एसजीजेसी
एसजीपीजीआई
एसजीपीसी
एसजेएस
एसजेवीएन
एसटी
एसटीएन
एसटीएफ
एसटीएस
एसटीडी
एसटीपी
एसटीसी
एसडब्ल्यू
एसडी
एसडीआर
एसडीएफ
एसडीएम
एसडीओ
एसडीपीओ
एसडीरैम
एसदृ
एसपी
एसपी#
एसपीए
एसपीओ
एसपीजी
एसपीपी
एसपीवी
एसपीसीसी
एसबी
एसबीआई
एसबीएम
एसबीएस
एसबीटी
एसयू
एसयूवी
एसर
एसरैम
एसवाईएल
एसवी
एससी
एससीआई
एससीआर
एससीसीए
एसा
एसिटअमाइनोफेन
एसिटल
एसिटाइल
एसिटामिनोफेन
एसिटिक
एसिटेट
एसिड
एसिडिक
एसिडिटी
एसिडों
एसिड्स
एसिया
एसिर
एसिल
एसिस्ट्स
एसी
एसीआई
एसीए
एसीएल
एसीटी
एसीटेट
एसीटैल्डिहाइड
एसीपी
एसीसी
एसीसीए
एसे
एसेंबली
एसेंस
एसेक्स
एसेज
एसेज़
एसेट
एसेम्बली
एसेस
एसेसमेंट
एसॉल्ट
एसो
एसोचैम
एसोप
एसोशियेशन
एसोसिएट
एसोसिएटेड
एसोसिएट्स
एसोसिएशंस
एसोसिएशन
एसोसिएशनों
एसोसिएसन
एसोसियेशन
एस्कार्ट
एस्किमो
एस्केप
एस्केपॉलोजी
एस्कॉर्ट
एस्कॉर्टस
एस्कॉर्बिक
एस्कोबार
एस्क्वायर
एस्ग्रेमसन
एस्टन
एस्टर
एस्टीम
एस्टेट
एस्टेट्स
एस्टेला
एस्टॉन
एस्टोन
एस्टोनिया
एस्टोनियाई
एस्ट्रा
एस्ट्रागन
एस्ट्राडा
एस्ट्राडियोल
एस्ट्रापिया
एस्ट्रो
एस्ट्रोजन
एस्ट्रोजेन
एस्ट्रोनोमी
एस्तन
एस्तेर
एस्थर
एस्परांटो
एस्परान्तो
एस्पर्गर
एस्पाडा
एस्पाना
एस्पानॉला
एस्पिरिटू
एस्पिरिन
एस्पेरांतो
एस्पेरान्तो
एस्प्रेसो
एस्प्लेनेड
एस्बेस्टस
एस्बेस्टॉसिस
एस्सने
एस्सार
एस्से
एस्सेक्स
एस०
एहतियात
एहतियातन
एहतियाती
एहद
एहमियत
एहमीयत
एहले
एहसान
एहसास
एहि
एहुद
एड़ी
ए०
ऐ
ऐंगल
ऐंग्लिकन
ऐंग्लो
ऐंजल
ऐंटिमनी
ऐंटी
ऐंटीबायोटिक
ऐंटीमनी
ऐंठ
ऐंठकर
ऐंठन
ऐंठने
ऐंठा
ऐंड
ऐंडरसन
ऐंडर्सन
ऐंथ्रासाइट
ऐंद्र
ऐंद्रजालिक
ऐंद्रिक
ऐंद्रिय
ऐंपियर
ऐंफ़िबिआ
ऐक
ऐकडमी
ऐकमत्य
ऐका
ऐकावा
ऐकें
ऐक्ट
ऐक्टन
ऐक्टर
ऐक्टर्स
ऐक्टिंग
ऐक्टिव
ऐक्ट्रेस
ऐक्य
ऐक्रेलिक
ऐक्शन
ऐक्स
ऐक्सट्रीम
ऐक्सिस
ऐक्सेस
ऐगा
ऐच
ऐच्छिक
ऐज
ऐज़
ऐज़ाइड
ऐज़ो
ऐज़ोनियम
ऐट
ऐटम
ऐटलस
ऐटिक
ऐट्रिब्यूट
ऐट्रिब्यूटों
ऐट्रोपीन
ऐठन
ऐड
ऐडम
ऐडमांटियम
ऐडमिनिस्ट्रेशन
ऐडमिरल
ऐडम्स
ऐडवर्ड्स
ऐडवेंचर
ऐडवोकेट
ऐडसेंस
ऐडसेन्स
ऐडिसन
ऐडेनिन
ऐड्रस
ऐड्रेस
ऐड्रेसों
ऐड्वेंचर
ऐड्स
ऐण्ड
ऐतराज
ऐतरेय
ऐतिहासिक
ऐतिहासिकता
ऐतिहासिकों
ऐतिह्य
ऐन
ऐनक
ऐनहाइड्राइड
ऐना
ऐनाग्राम
ऐनाटोलिया
ऐनिमल
ऐनिमा
ऐनिमे
ऐनिलीन
ऐनी
ऐनेलिडा
ऐनेस्थेटिक
ऐनेस्थेटिस्ट्स
ऐनेस्थेसिओलोजिस्ट
ऐनेस्थेसिओलोजिस्ट्स
ऐनोड
ऐन्कोरेज
ऐन्टेना
ऐन्ड
ऐन्डर्स
ऐन्ड्रौमिडे
ऐन्थ्रैक्स
ऐन्द्रिक
ऐन्येसी
ऐप
ऐपल
ऐप्लिकेशन
ऐप्लीकेशन
ऐप्स
ऐबक
ऐबट
ऐबी
ऐबे
ऐबोमिनेशंस
ऐब्टाबाद
ऐम
ऐमट्रैक
ऐमलथीया
ऐमाइड
ऐमारैंथ
ऐमिन
ऐमिनो
ऐमिल
ऐमोनाइटीज़
ऐमोनियम
ऐमोनिया
ऐम्प्लीफायर
ऐयार
ऐयारी
ऐयारों
ऐय्याशी
ऐर
ऐरण
ऐरल
ऐरागॉन
ऐराडी
ऐरावत
ऐरावती
ऐरावतेश्वर
ऐरिअस
ऐरिज़ोना
ऐरिल
ऐरिस्टॉटल
ऐरे
ऐरो
ऐरोनॉटिक्स
ऐरोमैटिक
ऐरोली
ऐल
ऐलकालॉयड
ऐलकोहल
ऐलन
ऐलबिनिस्टिक
ऐलबिनो
ऐलम
ऐलर्जी
ऐलसायनी
ऐलान
ऐलिबाय
ऐलिस
ऐलिसेज़
ऐली
ऐलुमिनियम
ऐले
ऐलेजैंड्रो
ऐलेन
ऐलैंटोइस
ऐलोपैथिक
ऐल्किल
ऐल्कॉक्साइड
ऐल्कोहल
ऐल्कोहलीय
ऐल्कोहाल
ऐल्कोहॉल
ऐल्कोहॉलयुक्त
ऐल्गरिदम
ऐल्डीहाइड
ऐल्प्स
ऐल्फ़ा
ऐल्फा
ऐल्बम
ऐल्बमों
ऐल्बम्स
ऐल्बर्ट
ऐल्बस
ऐल्बाइट
ऐल्बिनिज़म
ऐल्बीडो
ऐल्बूमिन
ऐल्युमिना
ऐल्युमिनियम
ऐल्यूमिना
ऐल्यूमिनियम
ऐल्यूमीनियम
ऐवन्यू
ऐवम
ऐवरग्लेड्स
ऐश
ऐशबरी
ऐशबाग
ऐशबाग़
ऐशा
ऐशिया
ऐशेज
ऐश्टन
ऐश्वर्य
ऐश्वर्या
ऐस
ऐसा
ऐसिड
ऐसिडियन
ऐसिया
ऐसी
ऐसीं
ऐसीई
ऐसीएमई
ऐसीक्लोविर
ऐसीटिक
ऐसीटिलीन
ऐसीटेट
ऐसीटोन
ऐसे
ऐसें
ऐसेंचि
ऐसेनहोवर
ऐसेनि
ऐसोसिएशन
ऐसोसियेशन
ऐस्टरौएड
ऐस्पिरिन
ऐस्बेस्टस
ऐहिक
ऐहोल
ऑ
ऑइडल
ऑइल
ऑइस्टर
ऑउंस
ऑउटपुट
ऑकलैंड
ऑकुलस
ऑक्टल
ऑक्टावेरिअम
ऑक्टेन
ऑक्टेल
ऑक्टेविया
ऑक्टोपस
ऑक्सफ़र्ड
ऑक्सफ़ोर्ड
ऑक्सफोर्ड
ऑक्सले
ऑक्साइड
ऑक्साइडों
ऑक्साईड
ऑक्सिजन
ऑक्सीकरण
ऑक्सीकारक
ऑक्सीकृत
ऑक्सीक्षीणता
ऑक्सीजन
ऑक्सीटॉसिन
ऑक्सीटोसिन
ऑक्सीडेंट
ऑक्सीडेटिव
ऑक्सीय
ऑक्सेलिक
ऑगस्ट
ऑगस्टस
ऑगस्टाइन
ऑगस्टिन
ऑगस्टे
ऑगस्ता
ऑग्सबर्ग
ऑजबॉर्न
ऑटम
ऑटिज्म
ऑटिस्टिक
ऑटो
ऑटोइम्यून
ऑटोग्राफ
ऑटोनोमस
ऑटोनोमिक
ऑटोप्सी
ऑटोबान
ऑटोमन
ऑटोमेटा
ऑटोमेटिक
ऑटोमेटेड
ऑटोमेशन
ऑटोमैटिक
ऑटोमोटिव
ऑटोमोबाइल
ऑटोमोबाइलों
ऑटोमोबाइल्स
ऑटोरिक्शा
ऑटोलॉगस
ऑटोसोमल
ऑडिट
ऑडिटर
ऑडिटरों
ऑडिटी
ऑडिटोरियम
ऑडियो
ऑडियोस्लेव
ऑडिशन
ऑडी
ऑडीशन
ऑड्रे
ऑथर
ऑथॉरिटी
ऑथोरिटी
ऑन
ऑनबोर्ड
ऑनर
ऑनरेरी
ऑनर्स
ऑनलाइन
ऑनलाईन
ऑनस्क्रीन
ऑन्कोलॉजी
ऑन्टेरियो
ऑप
ऑपकॉम
ऑपरेट
ऑपरेटर
ऑपरेटरों
ऑपरेटर्स
ऑपरेटिंग
ऑपरेटिव
ऑपरेशंस
ऑपरेशन
ऑपरेशनल
ऑपरेशनों
ऑपरेशन्स
ऑपेरा
ऑप्ट
ऑप्टिक
ऑप्टिकल
ऑप्टिकली
ऑप्टिक्स
ऑप्टिमा
ऑप्शन
ऑप्शन्स
ऑप्स
ऑफ
ऑफर
ऑफलाइन
ऑफशोर
ऑफसेट
ऑफ़
ऑफ़लाइन
ऑफ़शोरिंग
ऑफ़सेट
ऑफ़िस
ऑफ़िसर
ऑफ़ीयूकी
ऑफ़्लॉक्सासिन
ऑफिशियल
ऑफिस
ऑफिसर
ऑफिसर्स
ऑफीसर
ऑफ्
ऑबजेक्ट
ऑबस्क्योर
ऑब्जर्वर
ऑब्ज़र्वर
ऑब्ज़र्वेटरी
ऑब्जेक्ट
ऑब्जेक्टिव
ऑब्जेक्टों
ऑब्जेक्ट्स
ऑब्री
ऑमलेट
ऑयनटेपुई
ऑयल
ऑयलर
ऑर
ऑरकुट
ऑरबिट
ऑरमंड
ऑरलियंस
ऑरलियन्स
ऑरलैंडो
ऑरवेल
ऑरस
ऑरिक
ऑरिक्स
ऑरिजिंस
ऑरिजिन
ऑरिजिनल
ऑरियस
ऑरेंज
ऑरेकल
ऑरेगॉन
ऑरेटस
ऑरेलिया
ऑर्किड
ऑर्कुट
ऑर्केस्टा
ऑर्केस्ट्रा
ऑर्गन
ऑर्गनाइजर
ऑर्गनाइज़ेशन
ऑर्गनाइजेशन
ऑर्गनाईजेशन
ऑर्गिनाइजेशन
ऑर्गेनाइजेशन
ऑर्गेनिक
ऑर्चर्ड
ऑर्ट
ऑर्टइज
ऑर्टन
ऑर्डनेंस
ऑर्डर
ऑर्डरिंग
ऑर्डरों
ऑर्डिनरी
ऑर्डिनेंस
ऑर्थर
ऑर्थैंक
ऑर्थो
ऑर्थोडॉक्स
ऑर्थोस्कोपी
ऑर्बिट
ऑर्बिटर
ऑर्लियन्स
ऑल
ऑलंपिक
ऑलंपिक्स
ऑलमन
ऑलमैन
ऑलमोंड
ऑलमोस्ट
ऑलम्युजिक
ऑलम्यूज़िक
ऑलम्यूजिक
ऑलराइट
ऑलराउंडर
ऑलवेज
ऑलवेज़
ऑलसेन
ऑलिऑन
ऑलिम्पिक
ऑलिव
ऑलिवर
ऑल्ट
ऑल्टर
ऑल्टरनेटिव
ऑल्टो
ऑल्मनैक
ऑल्मेक
ऑव
ऑवर
ऑवेन
ऑव्
ऑशविट्ज़
ऑसीमम
ऑसेलॉट
ऑस्कर
ऑस्की
ऑस्टर
ऑस्टिन
ऑस्टियोआर्थराइटिस
ऑस्टियोपैथी
ऑस्टियोपोरोटिक
ऑस्टियोपोरोसिस
ऑस्टेन
ऑस्ट्रलियन
ऑस्ट्रलिया
ऑस्ट्रालिस
ऑस्ट्रियन
ऑस्ट्रिया
ऑस्ट्रियाई
ऑस्ट्रेलियन
ऑस्ट्रेलिया
ऑस्ट्रेलियाइयो
ऑस्ट्रेलियाई
ऑस्ट्रेलियाईओपनटेनिसप्रतियोगिता
ऑस्ट्रेलियाऑस्ट्रेलिया
ऑस्ट्रेलिस
ऑस्ट्रेलेशिया
ऑस्ट्रेलेसियन
ऑस्ट्रैलोपिथीकस
ऑस्ट्रो
ऑस्ट्रोनीशियाई
ऑस्ट्रोनेशियाई
ऑस्पेन्स्की
ऑस्मोसिस
ऑस्लो
ऒ
ऒर
ओ
ओ#
ओ'नील
ओ'ब्रायन
ओ'ब्रेन
ओ'मैली
ओ'रुरके
ओ'हारा
ओ.
ओ.पी
ओं
ओंकार
ओंकारनाथ
ओंकारा
ओंकारेश्वर
ओंकोजीन
ओंग
ओंगी
ओंटारियो
ओंटेरियो
ओंठ
ओंन
ओआईएल
ओआईसी
ओआरजी
ओआहू
ओइरत
ओईएम
ओईडी
ओईनवार
ओईसीडी
ओउम
ओऍस
ओए
ओएनजीसी
ओएफबी
ओएस
ओएसआई
ओएसिस
ओओ
ओक
ओकटेट
ओकलाहोमा
ओकलैंड
ओका
ओकात
ओकापी
ओकारांत
ओकिनावा
ओकिनावान
ओके
ओक्टागन
ओक्टेट
ओक्टेवियन
ओक्तावियन
ओक्रुग
ओक्लाहोमा
ओक्स
ओक्साका
ओक्सिजन
ओक्स्ले
ओखलकाण्डा
ओखला
ओखली
ओख़ोत्स्क
ओखा
ओगताई
ओग़ुज़
ओगिल्वी
ओङ्कार
ओछी
ओज
ओजपूर्ण
ओजफेस्ट
ओजस्विता
ओजस्वी
ओज़
ओज़ी
ओज़ीमंडिआस
ओज़ीमैनडिअस
ओज़ोन
ओजिब्वे
ओजी
ओजीटीटी
ओजोन
ओजोनथैरेपी
ओजोस
ओझल
ओझा
ओझाओं
ओट
ओटने
ओटले
ओटा
ओटाई
ओटागो
ओटावा
ओटिस
ओटीसी
ओटू
ओटेक
ओटो
ओटोमन
ओट्टापलम
ओट्टो
ओट्सुका
ओठ
ओड
ओडगी
ओडर
ओड़छा
ओड़व
ओड़िआ
ओड़िया
ओड़िशा
ओड़िसा
ओड़िसी
ओडा
ओडिआ
ओडिन
ओडियन
ओडिया
ओडिशा
ओडिसी
ओडी
ओडीआई
ओडीबल्स
ओडीसियस
ओडीसी
ओडेसी
ओडॉन्टोब्लास्ट
ओड्र
ओढ़
ओढ़ने
ओढ़ाया
ओढ़े
ओणम
ओण्टारियो
ओत
ओतप्रोत
ओत्सुका
ओथेलो
ओदंतपुरी
ओदिसियस
ओन
ओनर
ओनर्स
ओनली
ओनिडा
ओनियन
ओनील
ओनो
ओन्कोजीन
ओन्टारियो
ओन्ली
ओपन
ओपनबिल्ड
ओपनर
ओपनिंग
ओपर
ओपरा
ओपरी
ओपरेट
ओपरेटर
ओपरेशन
ओपल
ओपस
ओपिओइड
ओपिनियन
ओपियेट
ओपी
ओपीवी
ओपेक
ओपेन
ओपेरा
ओपेराकार
ओपेरागृह
ओपेरों
ओफ
ओफ़
ओफेलिया
ओफ्
ओब
ओबरा
ओबरॉय
ओबामा
ओबी
ओबीई
ओबीसी
ओबेराय
ओबेरॉन
ओबेरॉय
ओबेसिटी
ओबो
ओबोटे
ओब्जेक्ट्स
ओब्ट्युस
ओब्रायन
ओब्रेन
ओब्लास्ट
ओब्लास्टि
ओब्लास्त
ओब्सीडियन
ओम
ओमकारा
ओमप्रकाश
ओमर
ओमवेश
ओमा
ओमान
ओमाहा
ओमेगा
ओमेन
ओमैली
ओमोरी
ओम्
ओयूएस
ओयूपी
ओर
ओरंगउटान
ओरख़ोन
ओरछा
ओरम
ओरल
ओरलांदो
ओरलेंडो
ओरलैंडो
ओरलैंडों
ओरलैंडोंवासियों
ओरलैंडोवासी
ओरहन
ओरांग
ओरायन
ओरायोनिस
ओराय्ज़ा
ओरिएंट
ओरिएंटल
ओरिएंटेड
ओरिएंटेशन
ओरिएण्टल
ओरिजनल
ओरिजिन
ओरिजिनल
ओरिनोको
ओरियंटल
ओरियन
ओरियनटेड
ओरीजिनल
ओरीनिको
ओरु
ओरुरके
ओरूज़्गान
ओरे
ओरेंज
ओरेकल
ओरेगन
ओरेगांव
ओरेगॉन
ओरेगोन
ओरो
ओरोजेनी
ओरोविल
ओर्
ओर्टन
ओर्थोगोनल
ओल
ओलंपिक
ओलंपिक्स
ओलंपियन
ओलंपिया
ओलंपियाड
ओलज़ोन
ओलम्पस
ओलम्पिक
ओलम्पिया
ओलम्पियाड
ओलसन
ओला
ओलाफुर
ओलिंपिक
ओलिगोसीन
ओलिन
ओलिम्पिक
ओलिम्पिया
ओलिव
ओलिवर
ओलिवियर
ओलिविया
ओले
ओलों
ओल्ड
ओल्डेन
ओल्डेनबर्ग
ओल्फैक्टरी
ओल्म्सटेड
ओल्सन
ओवन
ओवर
ओवरकोट
ओवरचर
ओवरटाइम
ओवरडोज
ओवरडोज़
ओवरड्राफ्ट
ओवरनाइट
ओवरफ्लो
ओवरब्रिज
ओवरलैंड
ओवरलैप
ओवरलोड
ओवरलोडिंग
ओवरवेट
ओवरसीज
ओवरसीज़
ओवरहेड
ओवरहॉल
ओवरी
ओवरों
ओवर्स
ओवल
ओवा
ओविड
ओवीए
ओवेन
ओवेन्स
ओवेल
ओवैसी
ओवो
ओवोनिक्स
ओश
ओशंस
ओशन
ओशनबॉर्न
ओशन्स
ओशिआनिया
ओशिनिया
ओशियन
ओशिया
ओशियानिक
ओशो
ओषधि
ओषधियाँ
ओषधियों
ओष्ठ
ओस
ओसबॉर्न
ओसबोर्न
ओसवाल
ओसवाल्ड
ओसांक
ओसाका
ओसामा
ओसारियो
ओसियन
ओसियनग्राफी
ओसियां
ओसिरिस
ओसीआई
ओसीआर
ओसीडीईटीएफ
ओसेतिया
ओसेती
ओसेन
ओस्कर
ओस्ट
ओस्तान
ओस्त्रोग
ओस्बोर्न
ओस्मानाबाद
ओस्लो
ओह
ओहदा
ओहदे
ओहायो
ओहारा
ओहि
ओहिओ
ओहियो
ओही
ओह्म
ओड़ीपुर
ओढ़कर
ओ०
औ
औ#
औंधे
औंस
औई
औए
औक
औकात
औकारांत
औकोइन
औक्टोपुस्सी
औक्टोराटी
औक्तिक
औघड़
औघड़नाथ
औचक
औचित्य
औचित्यपूर्ण
औचित्यहीन
औज़ार
औज़ारों
औजार
औजारी
औजारों
औटोमन
औडव
औतोनोमिक
औदात्य
औदार्य
औदिच्य
औद्योगिक
औद्योगिकरण
औद्योगिकी
औद्योगिकीकरण
औद्योगीकरण
औद्योगीकृत
औद्यौगिक
औन
औने
औप
औपचारिक
औपचारिकता
औपचारिकताएँ
औपचारिकताएं
औपचारिकताओं
औपनिवेशिक
औपनिवेशीकरण
औपनिषदिक
औपन्यासिक
औपसर्गिक
औपासन
औफ
औफ़
औफिस
औबेरियन
और
और####
औरंगज़ेब
औरंगजेब
औरंग़ज़ेब
औरंगाबाद
औरगंजेब
औरगजैब
औरत
औरते
औरतें
औरतों
औरयूस
औरवी
औरस
औराई
औरे
औरेंज
औरैया
औरों
औरोक्स
औरोरा
और्
और्किडों
और्ट
और्टन
औऱ
औलाद
औलिया
औली
औवल
औषध
औषधालय
औषधालयों
औषधि
औषधिक
औषधियाँ
औषधियां
औषधियों
औषधी
औषधीय
औषधों
औषधोपचार
औसकर
औसत
औसतन
औैर
क
क#
कँटीली
कँवर
कं
कंक
कंकड
कंकड़
कंकड़ों
कंकण
कंकणा
कंकनी
कंकर
कंकरीट
कंकरीली
कंकरोली
कंकाल
कंकाली
कंकालीय
कंकालों
कंक्रीट
कंग
कंगन
कंगना
कंगारू
कंगाल
कंघा
कंघी
कंचन
कंचनजंगा
कंचनजंघा
कंचनपुर
कंचुक
कंचुकपक्ष
कंचुकपक्षों
कंचे
कंजंक्टिवाइटिस
कंजर
कंजरवेटिव
कंजरवेशन
कंजरों
कंजर्वेटिव
कंज़र्वेटिव
कंज़र्वेशन
कंजी
कंजूस
कंजूसी
कंज्यूमर
कंट
कंटक
कंटिका
कंटिकाएँ
कंटिकाओं
कंटिन्नम
कंटीली
कंटेंट
कंटेनर
कंटेनरीकृत
कंटेनरों
कंट्रास्ट
कंट्री
कंट्रीज
कंट्रीवाइड
कंट्रोल
कंट्रोलर
कंट्रोल्ड
कंट्रोल्स
कंठ
कंठमाला
कंठस्थ
कंठहार
कंठा
कंठाभरण
कंठिका
कंठी
कंठों
कंठ्य
कंडक्टर
कंडरा
कंडराओं
कंडिशनिंग
कंडिश्नर
कंडी
कंडीशन
कंडीशनर
कंडीशनल
कंडीशनिंग
कंडोम
कंत
कंतल
कंद
कंदमूल
कंदराओं
कंदरिया
कंदरी
कंदलि
कंदहार
कंदुक
कंदों
कंध
कंधा
कंधार
कंधे
कंधों
कंप
कंपकंपा
कंपकंपी
कंपटीटिव
कंपण
कंपन
कंपनिया
कंपनियाँ
कंपनियां
कंपनियो
कंपनियों
कंपनी
कंपनीज
कंपनीज़
कंपनीयों
कंपनों
कंपाइलर
कंपाइलोबैक्टर
कंपाउंड
कंपार्टमेंट
कंपाला
कंपास
कंपित
कंपीटेंस
कंपोजिंग
कंपोजिट
कंपोनेंट
कंपोस्ट
कंप्युटर
कंप्यूटर
कंप्यूटरिंग
कंप्यूटरीकरण
कंप्यूटरीकृत
कंप्यूटरों
कंप्यूटर्स
कंप्यूटिंग
कंप्रेशन
कंप्रेशर
कंप्रेस
कंप्रेसर
कंफेडरेशन
कंफेशंस
कंफ्यूशीवाद
कंब
कंबन
कंबरलैंड
कंबल
कंबु
कंबुज
कंबोज
कंबोडिया
कंवजेस
कंवर
कंवलजीत
कंवेंशन
कंस
कंसर्ट
कंसल
कंसलटेंट
कंसल्टिंग
कंसल्टेंट्स
कंसल्टेंसी
कंसाला
कंसास
कंसोर्टियम
कंसोल
कंस्ट्रक्शन
कः
कइ
कइयों
कई
कईं
कईयों
कए
कएल
ककड़ी
ककातीय
ककोड़ा
ककोलत
कक्का
कक्ष
कक्षा
कक्षाएँ
कक्षाएं
कक्षाओं
कक्षायें
कक्षावृत्त
कक्षीय
कक्षों
कक्ष्या
कगार
कगारों
कच
कचगरी
कचड़ा
कचनार
कचर
कचरा
कचरी
कचरे
कचरों
कचहरियों
कचहरी
कचार
कचारी
कचूर
कचेगुडा
कचेरी
कचौड़ी
कच्चा
कच्चान
कच्ची
कच्चे
कच्छ
कच्छप
कच्छवाहा
कच्छा
कच्छाल
कच्छी
कछ
कछर
कछवाह
कछवाहा
कछवाहों
कछार
कछारी
कछु
कछुआ
कछुए
कछुओं
कजरा
कजरी
कजली
कज़न
कज़ाकस्तान
कज़ाख
कज़ाख़
कज़ाख़स्तान
कज़ाख़िस्तान
कज़ाखिस्तान
कज़ान
कजा
कजाकिस्तान
कजाखस्तान
कजान
कजिन
कज्जल
कट
कटअवे
कटक
कटकर
कटघरा
कटघरे
कटघोरा
कटता
कटती
कटते
कटना
कटनी
कटने
कटपयादि
कटर
कटरनीघाट
कटरा
कटरासू
कटरी
कटरीना
कटलर
कटवल
कटवा
कटवाँ
कटवाएगी
कटहरा
कटहरी
कटहल
कटा
कटाई
कटाक्ष
कटान
कटार
कटारमल
कटारिया
कटारी
कटालान
कटाव
कटास
कटि
कटिंग
कटिबंध
कटिबंधी
कटिबंधीय
कटिबंधों
कटिबद्ध
कटिबन्ध
कटिबन्धीय
कटिबन्धों
कटिया
कटियार
कटिहार
कटी
कटीमी
कटु
कटुता
कटे
कटेहर
कटैया
कटोरा
कटोरी
कटोरे
कटौतियों
कटौती
कट्टर
कट्टरता
कट्टरपंथ
कट्टरपंथियों
कट्टरपंथी
कट्टरवाद
कट्टरवादी
कट्टा
कट्ठा
कट्पडी
कट्स
कठ
कठघरे
कठपुतलियां
कठपुतलियों
कठपुतली
कठफोड़वा
कठबोली
कठिन
कठिनतम
कठिनता
कठिनाइयाँ
कठिनाइयां
कठिनाइयों
कठिनाई
कठिनाईयां
कठिनाईयों
कठिनियों
कठिनी
कठुआ
कठोपनिषद
कठोपनिषद्
कठोर
कठोरतम
कठोरता
कठोरतांक
कठोरतापूर्वक
कठोरीकरण
कडप
कडपा
कडप्पा
कड़क
कड़गम
कड़पा
कड़वा
कड़वाहट
कड़वी
कड़वे
कड़ा
कड़ाई
कड़ाके
कड़ापन
कड़ाह
कड़ाही
कड़िया
कड़ियाँ
कड़ियाँसूरीनाम
कड़ियां
कड़ियों
कड़ी
कड़े
कडा
कडाकोट
कडियाँ
कडियां
कडियों
कडी
कडी़
कडे
कड्डपा
कढ़ाई
कढ़ी
कढ़े
कढाई
कण
कणप्पन
कणांकुर
कणांतरिक
कणाद
कणाद्
कणाश्म
कणिका
कणिकाएँ
कणिकाएं
कणिकाओं
कणिकागुल्म
कणिकामय
कणीकरण
कणीय
कणो
कणों
कण्टक
कण्ट्री
कण्ट्रोल
कण्ठ
कण्ठस्थ
कण्ठ्य
कण्ड
कण्डा
कण्डार
कण्डारस्यूं
कण्ड०२
कण्ड०३
कण्ड०४
कण्णूर
कण्व
कण्वमुनि
कण्वाश्रम
कत
कतई
कतकी
कतर
कतरएक्सॉनमोबिलओपन
कतरन
कतरनी
कतरनें
कतरनों
कतरा
कतराता
कतराती
कतराते
कतरी
कतरे
कतला
कता
कताई
कतार
कतारबद्ध
कतारें
कतारों
कतिपय
कतुन
कते
कत्तर्व्य
कत्थई
कत्थक
कत्था
कत्यूर
कत्यूरी
कत्र्ता
कत्ल
कत्ले
कत्लेआम
कथ
कथं
कथक
कथकली
कथकळि
कथन
कथनानुसार
कथनी
कथनों
कथमपि
कथा
कथाइस
कथाएँ
कथाएं
कथाएक
कथाओं
कथाकार
कथाकारों
कथाकाव्य
कथाक्रम
कथात्मक
कथानक
कथानकएक
कथानककार
कथानकफ़िल्म
कथानकफिल्म
कथानकों
कथानुसार
कथायें
कथावत्थु
कथावस्तु
कथावाचक
कथावाचन
कथासंग्रह
कथासंसार
कथासरित्सागर
कथासार
कथासाहित्य
कथित
कथेतर
कथोपकथन
कथ्य
कद
कदंब
कदंबखंडी
कदंबों
कदम
कदमताल
कदमी
कदमों
कदम्ब
कदम्बा
कदर
कदली
कदा
कदाचन
कदाचार
कदाचित
कदाचित्
कदापि
कद्दारों
कद्दावर
कद्दू
कद्दूकस
कद्र
कद्रु
कद्रू
कन
कनक
कनकपाल
कनकपुरा
कनखल
कनपटी
कनफटा
कनफ्यूशिअस
कनवर्टर
कनस्टर
कनस्तर
कनस्तरों
कना
कनाट
कनाडा
कनाडाई
कनाडाकनाडा
कनाडामास्टर्स
कनाडियन
कनाडियाई
कनान
कनारा
कनारी
कनार्ड
कनाल
कनालीछीना
कनिंघम
कनिका
कनिमोझी
कनिष्क
कनिष्ट
कनिष्ठ
कनिष्ठा
कनी
कने
कनेक्ट
कनेक्टर
कनेक्टरों
कनेक्टिंग
कनेक्टिकट
कनेक्टिविटी
कनेक्टीकट
कनेक्टेड
कनेक्शन
कनेक्शनों
कनेडियन
कनेडियाई
कनेर
कनैक्शन
कनॉट
कनोई
कनौजिया
कन्चेल्स्किस
कन्टेन्ट
कन्ट्री
कन्ट्रोल
कन्द
कन्दरा
कन्धमाल
कन्धा
कन्धार
कन्धे
कन्धों
कन्नड
कन्नड़
कन्नडा
कन्नदासन
कन्ना
कन्नान
कन्नी
कन्नूर
कन्नोज
कन्नोथ
कन्नौज
कन्नौजी
कन्नड़
कन्फ़्यूशियस
कन्फेडरेशन
कन्फेशंस
कन्फ्यूशियस
कन्फ्यूशियसवाद
कन्या
कन्याएँ
कन्याएं
कन्याओं
कन्याकुमारी
कन्यादाता
कन्यादान
कन्यायें
कन्वर्ट
कन्वर्टर
कन्वर्टेबल
कन्वर्शन
कन्वेंशन
कन्वेयर
कन्सर्ट
कन्सास
कन्सोल
कन्स्ट्रक्टर्स
कन्हाई
कन्हेरी
कन्हैया
कन्हैयालाल
कप
कप####
कपकोट
कपट
कपटपूर्ण
कपटी
कपड़ा
कपड़े
कपड़ो
कपड़ों
कपडा
कपडे
कपडे़
कपडों
कपराडा
कपरे
कपल
कपलिंग
कपल्ड
कपाट
कपाटिका
कपाटिकाएँ
कपाटों
कपाटोद्घाटन
कपाड़िया
कपार्ट
कपाल
कपालगुहा
कपालभाती
कपाली
कपालीय
कपालों
कपास
कपासी
कपाड़िया
कपि
कपियों
कपिराज
कपिल
कपिलदेव
कपिलवस्तु
कपिला
कपिलेश्वर
कपुर
कपूर
कपूरथला
कपूरपुर
कपूरी
कपों
कपोत
कपोतक
कपोन
कपोल
कपोलों
कप्टान
कप्तान
कप्तानी
कप्तानों
कप्पा
कप्लर्स
कप्स
कपड़ा
कपड़े
कपड़ों
कफ
कफन
कफ़
कफ़न
कफी
कफे
कफोलगांव
कफो०२
कफो०३
कब
कबंध
कबड्डी
कबर
कबरेट
कबाइली
कबाड़
कबाड़ी
कबाब
कबायली
कबार
कबाड़
कबी
कबीनी
कबीर
कबीरजी
कबीरदास
कबीरधाम
कबीरपंथियों
कबीरपंथी
कबीला
कबीलाई
कबीलियों
कबीली
कबीले
कबीलों
कबूतर
कबूतरों
कबूल
कबूलने
कब्ज
कब्ज़
कब्ज़ा
कब्ज़े
कब्जा
कब्जियत
कब्जे
कब्र
कब्रगाह
कब्रिस्तान
कब्रें
कब्रों
कभार
कभि
कभी
कम
कमंडल
कमंडलु
कमकर
कमचातका
कमज़ोर
कमज़ोरियों
कमज़ोरी
कमजोर
कमजोरियां
कमजोरियों
कमजोरी
कमजोरों
कमण्डल
कमतर
कमनीय
कमनीयता
कमन्द
कमप्यूटर
कमबख्त
कमर
कमरख
कमरबंद
कमरा
कमरी
कमरुद्दीन
कमरे
कमरें
कमरो
कमरों
कमर्काण्ड
कमर्शियल
कमल
कमलनाथ
कमलपुर
कमला
कमलाकर
कमलादेवी
कमलापति
कमलासन
कमलिनी
कमलिया
कमलेश
कमलेश्वर
कमलों
कमा
कमांड
कमांडर
कमांडरों
कमांडिंग
कमांडेंट
कमांडो
कमाई
कमाऊ
कमाए
कमाकर
कमाण्ड
कमाण्डर
कमाता
कमाते
कमान
कमाना
कमानियों
कमानी
कमाने
कमानों
कमान्डेन्ट
कमाया
कमाये
कमार
कमारडा
कमाल
कमालपुर
कमिंग
कमिटी
कमिन
कमिनी
कमिया
कमियाँ
कमियां
कमियों
कमिशन
कमिश्नर
कमिश्नरी
कमिश्नरों
कमी
कमीज
कमीज़
कमीने
कमीशन
कमेंटरी
कमेंटेटर
कमेंटेटरों
कमेंट्री
कमेटियाँ
कमेटियों
कमेटी
कमेडी
कमोडिटी
कमोडिटीज
कमोडोर
कमोबेश
कमोवेश
कम्
कम्पटीटीव
कम्पन
कम्पनि
कम्पनियाँ
कम्पनियां
कम्पनियो
कम्पनियों
कम्पनी
कम्पनीज़
कम्पनों
कम्पयूटर
कम्पाइल
कम्पाइलर
कम्पाइलेशन
कम्पानियन
कम्पार्टमेंट
कम्पास
कम्पित
कम्पिल
कम्पूटर
कम्पेनियन
कम्पैक्ट
कम्पैनियन
कम्पोजर
कम्पोज़
कम्पोज़र
कम्पोज़िट
कम्पोजिट
कम्पोनेंट
कम्पोस्ट
कम्प्नी
कम्प्युटर
कम्प्युटिंग
कम्प्युटेशनल
कम्प्यूटर
कम्प्यूटरी
कम्प्यूटरीकरण
कम्प्यूटरीकृत
कम्प्यूटरों
कम्प्यूटर्स
कम्प्यूटिंग
कम्प्यूटेबिलिटी
कम्प्यूटेशनल
कम्प्य्लोबक्तेरिओसिस
कम्प्रेशन
कम्प्रेसर
कम्प्लीट
कम्बल
कम्बोज
कम्बोजिया
कम्बोडिया
कम्म
कम्मा
कम्मानाडु
कम्युटेटर
कम्युनिकेटर
कम्युनिकेशंस
कम्युनिकेशन
कम्युनिकेशन्स
कम्युनिटी
कम्युनिष्ट
कम्युनिस्ट
कम्युनिस्टों
कम्यूटर
कम्यूटेटर
कम्यून
कम्यूनिकेशन
कम्यूनिटी
कम्यूनिस्ट
कम्स
कयर
कया
कयामत
कयास
कयासों
कयी
कयोंकि
कर
कर-रहे
कर-सकता
करँज
करंज
करंजिया
करंजी
करंट
करंदीकर
करक
करकट
करकरे
करकूक
करके
करग़ीज़सतान
करगिल
करघा
करघे
करछना
करज
करजई
करजाट
करजारा
करण
करणग्रंथ
करणी
करणीय
करणे
करणें
करणों
करत
करतब
करतबों
करतल
करता
करताती
करतार
करताल
करती
करतीं
करतूत
करतूतों
करते
करतें
करद
करदा
करदाता
करदाताओं
करदिया
करदी
करदू
करदे
करदेगा
करदेता
करदेते
करदो
करधनी
करन
करनजय
करनपुर
करना
करना#
करनाल
करनाली
करनी
करने
करनें
करनेका
करनेकी
करनेके
करनेवाला
करनेवाली
करनेवाले
करनेवालों
करनेस
करनैल
करपात्री
करप्शन
करब
करबला
करम
करमचंद
करमनासा
करमा
करमी
करमुक्त
करमुवाल
कररहे
करलिया
करली
करले
करलेते
करवट
करवर
करवा
करवाई
करवाए
करवाएं
करवाएंगे
करवाएगी
करवाओ
करवाकर
करवाता
करवाती
करवाते
करवाना
करवानी
करवाने
करवामां
करवाया
करवायी
करवाये
करवायें
करवाल
करवी
करवुं
करवे
करसकता
करसन
करहरिया
करहल
करहा
करहेड़ा
करा
कराँची
करांची
कराइना
कराइनी
कराई
कराईं
कराईकल
कराऊंगा
कराए
कराएँ
कराएं
कराएंगे
कराएगा
कराएगी
कराएगें
कराओ
कराओके
कराओगे
कराकर
कराकास
कराके
कराकोरम
कराकोल
कराची
कराटे
कराटेका
करात
कराता
कराती
करातीं
कराते
कराधान
कराध्रास
कराना
करानी
कराने
करानेवाला
करानेवाली
करानेवाले
करामात
करामाती
कराय
करायल
कराया
करायी
कराये
करायें
करार
करारनामे
करारा
करारी
करारे
करारों
करार्ह
कराल
करावा
करावी
करावे
करावें
करासे
कराह
करि
करिंगा
करिअप्पा
करिअर
करिए
करिकालन
करितां
करिती
करिब
करियर
करियर####
करिया
करिये
करिश्मा
करिश्माई
करिष्यति
करिष्यामि
करिष्ये
करिसी
करी
करीं
करीत
करीन
करीना
करीने
करीब
करीबन
करीबियों
करीबी
करीम
करीमगंज
करीमनगर
करीमुल्लाह
करीयर
करीर
करील
करु
करुँ
करुँगा
करुँगी
करुं
करुंगा
करुंगापल्ली
करुंगी
करुआना
करुण
करुणा
करुणाकरण
करुणाकरन
करुणानिधि
करुणाभरण
करुणामयी
करुना
करुनि
करुप्पासामी
करू
करूँ
करूँगा
करूँगी
करूं
करूंगा
करूंगी
करूण
करूणा
करूणानिधि
करून
करूनि
करूर
करे
करें
करेंगी
करेंगे
करेंगें
करेंट
करेंसी
करेगा
करेगी
करेगे
करेगें
करेन
करेन्सी
करेरा
करेल
करेला
करेहड़ा
करै
करैं
करैत
करो
करों
करोंदा
करोंड़ों
करोगी
करोगे
करोटि
करोड
करोड़
करोड़पति
करोड़ो
करोड़ों
करोडो
करोडों
करोति
करोनरी
करोल
करोड़
करोड़पति
करोड़ो
करोड़ों
करौ
करौं
करौंदा
करौली
कर्
कर्क
कर्कट
कर्कश
कर्कशता
कर्ज
कर्जत
कर्जदार
कर्जन
कर्ज़
कर्ज़न
कर्जा
कर्जे
कर्जों
कर्ट
कर्टनी
कर्टिन
कर्टियस
कर्टिस
कर्टेन
कर्ड
कर्ण
कर्णक
कर्णछिद्र
कर्णधार
कर्णपटह
कर्णप्रयाग
कर्णप्रिय
कर्णफूल
कर्णमूल
कर्णवेध
कर्णसिंह
कर्णाट
कर्णाटक
कर्णाभूषण
कर्णाली
कर्णावती
कर्णी
कर्तक
कर्तन
कर्तव्य
कर्तव्यनिष्ठ
कर्तव्यनिष्ठा
कर्तव्यपरायणता
कर्तव्यपालन
कर्तव्यों
कर्ता
कर्ताओं
कर्ताकारक
कर्ताधर्ता
कर्तार
कर्तृ
कर्तृत्व
कर्ते
कर्त्तव्य
कर्त्तव्यों
कर्त्ता
कर्त्तृराज
कर्दम
कर्दिओवेर्सिओन
कर्न
कर्नल
कर्ना
कर्नाट
कर्नाटक
कर्नाटकी
कर्नाटिक
कर्नाड
कर्निंघम
कर्नूल
कर्नूलु
कर्ने
कर्नेल
कर्पास
कर्पूर
कर्पूरमंजरी
कर्पूरी
कर्फ़्यू
कर्फ्यू
कर्फ्र्यू
कर्ब
कर्बला
कर्बी
कर्म
कर्मकांड
कर्मकांडी
कर्मकांडीय
कर्मकांडों
कर्मकाण्ड
कर्मकाण्डी
कर्मकाण्डों
कर्मक्षेत्र
कर्मचारियों
कर्मचारी
कर्मचारीगण
कर्मचारीयों
कर्मजात
कर्मजीत
कर्मठ
कर्मठता
कर्मणा
कर्मण्य
कर्मनाशा
कर्मनिष्ठ
कर्मफल
कर्मबंधन
कर्मभूमि
कर्मयोग
कर्मयोगी
कर्मवाच्य
कर्मवाद
कर्मविपाक
कर्मवीर
कर्मसिद्धांत
कर्मसु
कर्मस्थली
कर्मा
कर्माणि
कर्मानुसार
कर्मिट
कर्मियों
कर्मी
कर्मीं
कर्मीदल
कर्मे
कर्में
कर्मेन्द्रियाँ
कर्मो
कर्मों
कर्य
कर्यों
कर्ल
कर्ली
कर्व
कर्वे
कर्ष
कर्षण
कर्षित
कर्षित्र
कर्स
कर्सर
कर्स्टन
कल
कलंक
कलंकित
कलंकी
कलंगी
कलंजरी
कलंदर
कलई
कलईराजन
कलकता
कलकत्ता
कलकत्ते
कलकल
कलक्टर
कलक्ट्रेट
कलगी
कलगीदार
कलचुरि
कलचुरियों
कलचुरी
कलछी
कलछौंह
कलदार
कलन
कलनविधि
कलन्दर
कलप
कलपुर्जे
कलपुर्जो
कलफ
कलब
कलम
कलमकार
कलमकारी
कलमबद्ध
कलमाड़ी
कलमी
कलमें
कलमों
कलयुग
कलर
कलरव
कलराज
कलरी
कलरीमापक
कलर्ड
कलर्स
कलवार
कलश
कलशपूजन
कलशों
कलसिया
कलसी
कलह
कलहंस
कला
कलाँ
कलां
कलांतर
कलाइकुंडा
कलाइयों
कलाई
कलाएँ
कलाएं
कलाओ
कलाओं
कलाकंद
कलाकर
कलाकर्मी
कलाकार
कलाकारी
कलाकारो
कलाकारों
कलाकृति
कलाकृतियाँ
कलाकृतियां
कलाकृतियों
कलाकौशल
कलाक्षेत्र
कलात्मक
कलात्मकता
कलादीर्घा
कलान
कलानिधि
कलानौर
कलान्तर
कलाप
कलापक्ष
कलापक्षों
कलापी
कलापूर्ण
कलापों
कलाप्रियता
कलाप्रेमियों
कलाप्रेमी
कलाबाज
कलाबाज़ी
कलाबाजियां
कलाबाजियों
कलाबाजी
कलाभवन
कलाम
कलामंडलम
कलामण्डलम
कलायुक्त
कलार
कलारिपयाट्टू
कलारी
कलारूप
कलारूपों
कलाल
कलालों
कलावती
कलावा
कलावाद
कलावादी
कलाविद
कलाविलास
कलावृत्त
कलासंग्रहालय
कलि
कलिं
कलिंग
कलिंगपोंग
कलिंजर
कलिका
कलिकाएँ
कलिकाल
कलियर
कलियाँ
कलियां
कलियानपुर
कलियुग
कलियों
कलिल
कलिलकणों
कलिलीय
कलिलों
कलिस्टो
कली
कलीसिया
कलुवा
कलुष
कलुषित
कलेंडर
कलेक्टर
कलेक्ट्रेट
कलेक्शन
कलेज
कलेजा
कलेजी
कलेजे
कलेण्डर
कलेन
कलेवर
कलेवा
कलोर
कलौंजी
कल्कि
कल्चर
कल्चरल
कल्चुरी
कल्ट
कल्टिवेटर
कल्प
कल्पतरु
कल्पद्रुम
कल्पना
कल्पनाएँ
कल्पनाएं
कल्पनाओँ
कल्पनाओं
कल्पनातीत
कल्पनात्मक
कल्पनापूर्ण
कल्पनाप्रधान
कल्पनाशक्ति
कल्पनाशील
कल्पनाशीलता
कल्पनिक
कल्पनीय
कल्पलता
कल्पवृक्ष
कल्पसूत्र
कल्पसूत्रों
कल्पा
कल्पाक्कम
कल्पित
कल्पों
कल्ब
कल्मष
कल्याण
कल्याणक
कल्याणकारक
कल्याणकारी
कल्याणजी
कल्याणपुर
कल्याणप्रद
कल्याणमल
कल्याणवास
कल्याणार्थ
कल्याणी
कल्यान
कल्यानपुर
कल्यानवास
कल्ला
कल्लोलिनी
कल्लोळ
कल्वर
कल्वे
कल्हण
कळमेष़ुत्तु
कवक
कवकतंतु
कवकीय
कवकों
कवच
कवचधारी
कवचित
कवचों
कवण
कवणा
कवणु
कवणे
कवणें
कवणेपरी
कवतिकें
कवयित्रियों
कवयित्री
कवर
कवरडेल
कवरत्ती
कवरिंग
कवरेज
कवरेज़
कवरों
कवर्ग
कवर्धा
कवल
कवलित
कवायद
कवाली
कवास
कवि
कविओं
कविकर्म
कविगण
कविता
कविताएँ
कविताएं
कविताओ
कविताओं
कविताकाल
कविताकोश
कवितायेँ
कवितायें
कवितावली
कवितासंग्रह
कवित्त
कवित्व
कवित्वशक्ति
कविप्रसिद्धि
कविप्रिया
कवियत्री
कवियित्री
कवियों
कविरहस्य
कविराज
कविराजमार्ग
कविराय
कविवचन
कविवचनसुधा
कविवर
कविशिक्षा
कविसमय
कवी
कवींद्र
कवींद्राचार्य
कव्वाल
कव्वाली
कश
कशमकश
कशमीर
कशाभ
कशाभिका
कशिश
कशी
कशीदाकारी
कशेरुक
कशेरुका
कशेरुकाओं
कशेरुकियों
कशेरुकी
कशेरुकीय
कशेरुकों
कशेरूक
कशेरूका
कशेरूकाशोथ
कश्चित्
कश्चिद्
कश्ती
कश्मीर
कश्मीरियों
कश्मीरी
कश्यप
कश्यपजी
कषाय
कषि
कष्ट
कष्टकर
कष्टकारक
कष्टकारी
कष्टदायक
कष्टदायी
कष्टप्रद
कष्टमय
कष्टसाध्य
कष्टार्तव
कष्टो
कष्टों
कस
कसक
कसकर
कसता
कसते
कसना
कसने
कसबा
कसबे
कसम
कसमसाते
कसमें
कसया
कसर
कसरत
कसा
कसाई
कसाट
कसार
कसारा
कसाव
कसावट
कसावा
कसिनो
कसिया
कसी
कसीदा
कसीदे
कसीदों
कसीनो
कसीर
कसीस
कसूर
कसूरवार
कसूरी
कसे
कसैला
कसैले
कसौटियों
कसौटी
कसौली
कस्टडी
कस्टम
कस्टमर
कस्टमाइज्ड
कस्टम्स
कस्टर्ड
कस्टोडियन
कस्तूरबा
कस्तूरा
कस्तूरी
कस्न्निया
कस्बा
कस्बे
कस्बों
कस्में
कस्मै
कस्य
कस्वा
कह
कहँ
कहं
कहकर
कहत
कहता
कहती
कहतीं
कहते
कहतें
कहन
कहना
कहनी
कहने
कहनेवाला
कहनेवाले
कहर
कहरवा
कहरहा
कहरुवे
कहल
कहलगाँव
कहलगांव
कहलता
कहलवाया
कहला
कहलां
कहलाई
कहलाईं
कहलाए
कहलाएँगे
कहलाएगा
कहलाएगी
कहलाता
कहलाती
कहलातीं
कहलाते
कहलाना
कहलाने
कहलानेवाले
कहलाया
कहलायी
कहलाये
कहलायेगा
कहवा
कहा
कहाँ
कहां
कहाः
कहाकि
कहाता
कहाती
कहाते
कहानिया
कहानियाँ
कहानियां
कहानियॉं
कहानियो
कहानियों
कहानी
कहानीकार
कहानीकारों
कहानीसंग्रह
कहार
कहावत
कहावतें
कहावतों
कहि
कहिए
कहिया
कहिये
कही
कहीँ
कहीं
कहुटा
कहूँ
कहूँगा
कहूं
कहूंगा
कहे
कहें
कहेंगे
कहेगा
कहेगी
कहेगें
कहेसि
कहैं
कहॉ
कहॉँ
कहो
कहोड़
कहोल
कहौ
कह्ते
क़
क़ज़ाख़स्तान
क़तर
क़त्ल
क़द
क़दम
क़दमों
क़दर
क़दीम
क़बर
क़बल
क़बाइली
क़बायली
क़बीला
क़बीलाई
क़बीलियाई
क़बीले
क़बीलों
क़बूल
क़ब्ज़ा
क़ब्ज़े
क़ब्जा
क़ब्र
क़ब्रिस्तान
क़यामत
क़र
क़रार
क़रीब
क़रीबी
क़र्ज़
क़लन्दर
क़लम
क़ला
क़लात
क़व्वाली
क़शक़ाई
क़सम
क़साब
क़सीदा
क़सूर
क़स्बा
क़स्बे
क़हतानी
क़ाएम
क़ाज़ाक़स्तान
क़ाज़ाख़स्तान
क़ाजार
क़ातिल
क़ादिर
क़ादिसियाह
क़ानून
क़ानूनी
क़ानूनों
क़ाफ़ी
क़ाबिज़
क़ाबिल
क़ाबू
क़ामयाब
क़ायदा
क़ायदे
क़ायम
क़ारलूक़ों
क़ाराक़ालपाक़
क़ाराक़ालपाक़स्तान
क़ालीन
क़ासिम
क़ि
क़िताब
क़िताबें
क़ियामत
क़िला
क़िले
क़िलों
क़िस्म
क़िस्मत
क़िस्में
क़िस्मों
क़िस्सा
क़िस्से
क़ी
क़ीमत
क़ीमती
क़ीमतें
क़ीमतों
क़ुतुब
क़ुतुबुद्दीन
क़ुबूल
क़ुरआन
क़ुरबानी
क़ुरान
क़ुरैश
क़ूज़ेस्तान
क़े
क़ैद
क़ैदियों
क़ैदी
क़ोम
क़ौम
क़ौमी
कऽ
का
काँ
काँकरिया
काँख
काँग
काँगड़ा
काँग्रेस
काँग्रेसी
काँच
काँचाभ
काँची
काँचीपुरम
काँचीमठ
काँट
काँटा
काँटे
काँटेदार
काँटों
काँठे
काँप
काँपने
काँफ़्रेंस
काँफ्रेंस
काँस
काँसा
काँसे
काँस्टेबल
काँस्य
कां
कांउसिल
कांकर
कांकरोली
कांकेर
कांक्रीट
कांग
कांगड़ा
कांगड़ी
कांगडा
कांगला
कांगेर
कांगेस
कांगो
कांगों
कांग्रेस
कांग्रेस##
कांग्रेसियों
कांग्रेसी
कांगड़ा
कांच
कांचन
कांचा
कांची
कांचीपुरम
कांचीपुरम्
कांजी
कांट
कांटा
कांटी
कांटे
कांटेदार
कांटैक्ट
कांटों
कांट्रेक्ट
कांट्रेक्टर
कांट्रैक्ट
कांड
कांडई
कांडला
कांडा
कांडी
कांडों
कांत
कांति
कांतिमय
कांतिमान
कांतिमानों
कांतियुक्त
कांतिरवा
कांधल
कांधार
कांप
कांपटन
कांपना
कांपने
कांपुरू
कांप्लेक्स
कांफ़्रेंस
कांफ्रेंस
कांफ्रेंसिंग
कांफ्रेस
कांबले
कांबोज
कांवड
कांवर
कांवड़
कांशी
कांशीराम
कांस
कांसा
कांसे
कांसेप्ट
कांस्टेंटिनोपल
कांस्टेबल
कांस्य
कांही
कांहीं
कांहींचि
काइ
काइंड
काइज़ेन
काइटिन
काइटोसान
काइनेटिक
काइपर
काइम
काइमेरा
काइमेरावाद
काइमेरिक
काइरल
काइल
काइली
काई
काईट
काईमेरा
काउ
काउंट
काउंटडाउन
काउंटर
काउंटरकल्चर
काउंटरों
काउंटिंग
काउंटियाँ
काउंटियां
काउंटियों
काउंटी
काउंटेस
काउंसलर
काउंसिल
काउंसिलर
काउंसिलिंग
काउगर्ल
काउच
काउण्टी
काउन्टर
काउन्टी
काउन्सिल
काउबॉय
काउब्वॉय
काऊ
काऊंताच
काओ
काक
काकड़
काकतीय
काकतीयों
काकनी
काकभुशुण्डि
काकली
काकविन
काकस
काका
काकिलदेव
काकी
काकीनाडा
काकुळती
काकेशस
काकेशिया
काको
काकोरी
काक्स
काग
कागज
कागज़
कागज़ात
कागज़ी
कागज़ों
कागजात
कागजातों
कागजी
कागजों
कागद
कागदी
कागन
काग़ज़
काग़ज़ात
काग़ज़ी
कागा
काग्रेंस
काग्रेस
कागज़ी
काच
काचर
काचरू
काचित
काची
काचों
काच्छन
काछी
काज
काजल
काज़मी
काज़ाख़
काज़ाख़स्तान
काज़ान
काज़ी
काजा
काजियों
काजी
काजीचक
काजीरंगा
काजू
काजोल
काट
काटकर
काटजू
काटता
काटती
काटते
काटन
काटना
काटनी
काटने
काटनेवाली
काटनेवाले
काटल
काटा
काटी
काटे
काटें
काटो
काठ
काठक
काठकोयला
काठकोयले
काठगोदाम
काठमांडु
काठमांडू
काठमाडौं
काठमाण्डु
काठमाण्डू
काठमाण्डौ
काठमान्डु
काठिन्य
काठियावाड़
काठी
काडर
काढ़ा
काढ़े
काढिलें
काढी
काढूनि
काण
काणे
काण्ट
काण्ड
काण्डई
काण्डा
काण्डे
काण्व
कातंत्र
कातना
कातने
कातर
काता
काताकाना
कातालान
कातिब
कातिल
कात्य
कात्यायन
कात्यायनी
काथलिक
काथिरवन
कादंबरी
कादंबिनी
कादम्बरी
कादम्बिनी
कादर
कादरी
कादल
कादाई
कादियान
कादिर
कादिरगमार
कादी
कादीरगमर
कान
कानन
कानपुर
कानपूर
कानफरेंस
कानसेंसस
काना
कानाईमा
कानाफूसी
कानारी
कानी
कानीं
कानुन
कानू
कानून
कानूनगो
कानूनन
कानूनविदों
कानूनी
कानूनों
काने
कानो
कानों
कान्ट
कान्ट्रेक्ट
कान्त
कान्ति
कान्तिपुर
कान्तिमान
कान्तिहीन
कान्फ्रेंस
कान्यकुब्ज
कान्ये
कान्वेंट
कान्सास
कान्ह
कान्हड़ा
कान्हा
कान्होजी
कापड
कापर
कापा
कापालिक
कापियां
कापिराइट
कापी
कापीराइट
कापीसा
कापुआ
कापुचीनो
कापुर
कापू
काफ
काफल
काफली
काफलीगैर
काफ़िर
काफ़िरों
काफ़िले
काफ़ी
काफ़ूर
काफि
काफिर
काफिरों
काफिला
काफिले
काफिलों
काफी
काफूर
काफ्का
काबरा
काब़िज़
काबा
काबिज
काबिज़
काबिल
काबिलियत
काबिलेजिक्र
काबुल
काबुली
काबू
काबूल
काबे
काबोट
काम
कामं
कामंदक
कामंस
कामकटंककटा
कामकन्दला
कामकला
कामकाज
कामकाजी
कामकोटि
कामख्या
कामगार
कामगारों
कामचलाऊ
कामत
कामता
कामतापुर
कामथ
कामदा
कामदार
कामदेव
कामधेनु
कामन
कामनवेल्थ
कामना
कामनाएं
कामनाओं
कामन्स
कामपुर
कामबन
कामयाब
कामयाबियाँ
कामयाबियों
कामयाबी
कामराज
कामरान
कामरुप
कामरुपी
कामरूप
कामरूपा
कामरेड
कामर्स
कामर्सियल
कामला
कामवासना
कामशास्त्र
कामसूत्र
कामसूत्रकार
कामा
कामाकुरा
कामाक्षी
कामाख्या
कामातुर
कामायनी
कामासक्त
कामिक
कामिका
कामिकोटि
कामिक्स
कामिनी
कामियाब
कामिल
कामी
कामु
कामुक
कामुकता
कामू
कामें
कामेच्छा
कामेट
कामेडी
कामेन
कामेर्लेंगो
कामेल
कामेश्वर
कामेश्वरन
कामो
कामों
कामोठे
कामोत्तेजक
कामोत्तेजना
कामोद्दीपक
कामोन्माद
काम्पटन
काम्पलेक्स
काम्पिल्य
काम्प्य्लोबक्टेर
काम्प्लेक्स
काम्फ
काम्ब्रिए
काम्य
काय
कायचिकित्सा
कायदा
कायदे
कायम
कायमकुलम
कायमगंज
कायर
कायरता
कायरतापूर्ण
कायरों
कायर्क्रम
कायर्रत
कायल
कायला
कायली
कायसी
कायस्थ
कायस्थों
काया
कायांतरण
कायांतरित
कायाकल्प
कायाको
कायापलट
कायि
कायिक
कायी
कायों
कार
कारंत
कारक
कारको
कारकों
कारख़ाना
कारख़ाने
कारख़ानों
कारखाना
कारखाने
कारखानों
कारगर
कारगिल
कारगुज़ारी
कारगो
कारज
कारडायोड
कारण
कारणता
कारणभूत
कारणयह
कारणवश
कारणा
कारणात्मक
कारणें
कारणो
कारणों
कारण्
कारती
कारतूस
कारतूसों
कारन
कारनामा
कारनामे
कारनामें
कारनामों
कारनिक
कारने
कारनेगी
कारनेजी
कारपेंटर
कारपेट
कारपैथी
कारपोरेट
कारपोरेशन
कारबन
कारबाइन
कारबार
कारबोनेट
कारबोनेटेड
कारमाइकल
कारमाइन
कारमेल
काररवाई
कारर्वाई
कारलूक
कारवाँ
कारवां
कारवाइयों
कारवाई
कारवार
कारवाही
कारसेवकों
कारा
काराकाश
काराकुम
काराकोरम
काराकोल
काराख़ानी
कारागर
काराग़ान्दी
कारागार
कारागृह
कारावास
कारावासों
कारिका
कारिकाएँ
कारिकाओं
कारी
कारीअमरोहा
कारीगर
कारीगरी
कारीगरों
कारुणिक
कारुण्य
कारू
कारे
कारें
कारेरा
कारो
कारों
कारोबार
कारोबारियों
कारोबारी
कारोबारों
कारौ
कार्क
कार्कल
कार्कोट
कार्गो
कार्ट
कार्टन
कार्टर
कार्टा
कार्टिंग
कार्टियर
कार्टिलेज
कार्टिसोन
कार्टून
कार्टूनिंग
कार्टूनिस्ट
कार्टूनिस्टों
कार्टूनों
कार्टून्स
कार्टे
कार्टेल
कार्ट्रिज
कार्ड
कार्डधारक
कार्डधारकों
कार्डबोर्ड
कार्डलेस
कार्डिनल
कार्डिफ
कार्डिफ़
कार्डियक
कार्डियाक
कार्डियोथोरेसिक
कार्डियोपल्मोनरी
कार्डियोलॉजी
कार्डियोलोजी
कार्डों
कार्ड्स
कार्तवीर्य
कार्तवीर्यअर्जुन
कार्तिक
कार्तिकेय
कार्तिकेयन
कार्तीय
कार्थेज
कार्दशियन
कार्नर
कार्नवाल
कार्नवालिस
कार्नावल
कार्निक
कार्निया
कार्निवल
कार्निवाल
कार्निस
कार्नी
कार्नेगी
कार्नेज
कार्नेटिक
कार्नेल
कार्नेलिया
कार्नेवाल
कार्नेवेल
कार्नो
कार्प
कार्पल
कार्पस
कार्पेट
कार्पोरेट
कार्पोरेशन
कार्बन
कार्बन_##
कार्बनडाइऑक्साइड
कार्बनप्रद
कार्बनिक
कार्बनीकरण
कार्बनीकृत
कार्बनों
कार्बाइड
कार्बी
कार्बूजियर
कार्बेट
कार्बोक्सिल
कार्बोक्सिलिक
कार्बोन
कार्बोनाइलिकरण
कार्बोनिक
कार्बोनिफेरस
कार्बोनिल
कार्बोनेट
कार्बोनेटेड
कार्बोनेटों
कार्बोरंडम
कार्बोरेटर
कार्बोलिक
कार्बोहाइड्रेट
कार्बोहाइड्रेटों
कार्बोहाइड्रेट्स
कार्बोहाईड्रेट
कार्ब्युरेटर
कार्मिक
कार्मिकों
कार्य
कार्य####
कार्यकरण
कार्यकर्ता
कार्यकर्ताओं
कार्यकर्त्ता
कार्यकर्म
कार्यकलाप
कार्यकलापों
कार्यकारण
कार्यकारिणी
कार्यकारियों
कार्यकारी
कार्यकाल
कार्यकालों
कार्यकुशल
कार्यकुशलता
कार्यक्रम
कार्यक्रमयोग्य
कार्यक्रमो
कार्यक्रमों
कार्यक्षम
कार्यक्षमता
कार्यक्षेत्र
कार्यक्षेत्रों
कार्यजीवन
कार्यदक्षता
कार्यदल
कार्यदिवस
कार्यनीति
कार्यपत्रक
कार्यपद्धति
कार्यपालक
कार्यपालकों
कार्यपालिका
कार्यप्रणालियां
कार्यप्रणालियों
कार्यप्रणाली
कार्यप्रवाह
कार्यबल
कार्यभार
कार्यमंत्री
कार्ययोजना
कार्यरत
कार्यरूप
कार्यलय
कार्यवाई
कार्यवाह
कार्यवाहक
कार्यवाहियों
कार्यवाही
कार्यविधि
कार्यविधियों
कार्यविशेष
कार्यवृत्त
कार्यव्यापार
कार्यशक्ति
कार्यशाला
कार्यशालाएँ
कार्यशालाएं
कार्यशालाओं
कार्यशील
कार्यशीलता
कार्यशैली
कार्यसंचालन
कार्यसमिति
कार्यसाधक
कार्यसिद्धि
कार्यसूची
कार्यस्थल
कार्यस्थलों
कार्यात्मक
कार्यात्मकता
कार्याधिकारी
कार्याध्यक्ष
कार्यानुसार
कार्यान्वन
कार्यान्वयन
कार्यान्वयनों
कार्यान्वित
कार्यालय
कार्यालयी
कार्यालयीन
कार्यालयों
कार्यालाय
कार्यावधि
कार्यिकी
कार्येश
कार्यो
कार्यों
कार्रवाइयाँ
कार्रवाइयां
कार्रवाइयों
कार्रवाई
कार्रवाईयां
कार्रवाईयों
कार्ल
कार्लटन
कार्लसन
कार्ला
कार्लाइल
कार्लिन
कार्ली
कार्लो
कार्लोस
कार्ल्स
कार्विन
कार्षापण
कार्स
कार्सन
कार्सिनोजन
कार्सिनोमा
कार्स्ट
काऱण
काल
काल####
कालइस
कालका
कालकूट
कालकोण
कालक्रम
कालक्रमानुसार
कालखंड
कालखंडों
कालखण्ड
कालगणना
कालचक्र
कालजयी
कालद
कालदर्शक
कालनिर्णय
कालनेमि
कालपनिक
कालपी
कालपुरुष
कालप्राचीन
कालभैरव
कालम
कालमापी
कालमेघ
कालय
कालयवन
कालर
कालरा
कालरात्रि
कालविभाजन
कालवी
कालसर्प
कालसी
कालहस्ती
काला
कालांतर
कालाकाँकर
कालाकांकर
कालाजार
कालाढूगी
कालाणी
कालातीत
कालानुक्रम
कालानुक्रमिक
कालान्तर
कालापन
कालापानी
कालाबाजारी
कालाम
कालावधि
कालावे
कालाशोक
कालासागर
कालाहांडी
कालाहारी
कालि
कालिंग
कालिंजर
कालिंद
कालिंदी
कालिक
कालिका
कालिख
कालिज
कालिदास
कालिन्दी
कालिमा
कालिय
कालिया
काली
कालीकट
कालीखोह
कालीघाट
कालीदास
कालीन
कालीनों
कालीबंगा
कालीमिर्च
कालीशिला
कालू
कालूराम
काले
कालेज
कालेजों
कालेपन
कालेपानी
कालेब
कालेलकर
कालेश्वर
कालेश्वरनाथ
कालो
कालों
कालोचित
कालोनियां
कालोनियों
कालोनी
काल्डर
काल्डवेल
काल्पनिक
काल्पनिकता
काल्पी
काल्विन
काळ
काळीं
काळु
काळें
कावर्ड
कावा
कावासाकी
कावी
कावूर
कावेरी
काव्य
काव्यं
काव्यकला
काव्यकाल
काव्यकृति
काव्यकृतियों
काव्यक्षेत्र
काव्यगत
काव्यगुण
काव्यग्रंथ
काव्यग्रंथों
काव्यग्रन्थ
काव्यजगत्
काव्यतत्व
काव्यधारा
काव्यपुरुष
काव्यप्रकाश
काव्यप्रतिभा
काव्यभाषा
काव्यमय
काव्यमीमांसा
काव्यम्
काव्यरचना
काव्यरूप
काव्यलक्षण
काव्यशास्त्र
काव्यशास्त्रीय
काव्यशैली
काव्यसंग्रह
काव्यसंग्रहों
काव्यसाहित्य
काव्या
काव्यांगों
काव्याचार्यों
काव्यात्मक
काव्यात्मकता
काव्यादर्श
काव्यानुवाद
काव्यानुशासन
काव्यालंकार
काव्यों
काश
काशकृत्स्न
काशगर
काशि
काशिका
काशिराज
काशी
काशीखंड
काशीखण्ड
काशीनाथ
काशीपुर
काशीपुरी
काशीप्रसाद
काशीराज
काशीराम
काशीवासी
काशीविश्वनाथ
काश्गर
काश्तकार
काश्तकारी
काश्तकारों
काश्मीर
काश्मीरी
काश्यप
काष्ट
काष्ठ
काष्ठकारी
काष्ठीय
कास
कासंसुर
कासगंज
कासमी
कासरगोड
कासल
कासलीवाल
कासलों
कासल्स
कासा
कासाग्रान्द
कासाब्लांका
कासार
कासिडी
कासिम
कासिमपुर
कासिर
कासी
कासे
कास्कर
कास्की
कास्केट
कास्केड
कास्केडिंग
कास्ट
कास्टल
कास्टिंग
कास्टिक
कास्त्रो
कास्पियन
कास्मेटिक
काहन
काहा
काहि
काहिरा
काहिल
काही
काहीं
काहु
काहू
काहे
का॓लियर
काज़ी
काफ़िले
काफ़ी
कि
कि.ग्रा
कि.मि
कि.मी
कि.मी.
कि.मी.जनसंख्या
किं
किंकर
किंकरी
किंकर्तव्यविमूढ़
किंकर्तव्यविमूढ़
किंक्स
किंग
किंगडम
किंगफिशर
किंग्जफोर्ड
किंग्डम
किंग्स
किंग्सटन
किंग्सफोर्ड
किंग्सले
किंग्स्टन
किंचित
किंचित्
किंडरगार्टन
किंतु
किंदी
किंपुरुष
किंबहुना
किंवदंतियाँ
किंवदंतियां
किंवदंतियों
किंवदंती
किंवदन्तियों
किंवदन्ती
किंवा
किआ
किऊल
किए
किक
किकबॉक्सिंग
किक्स
किग्रा
किग्रा०
किचन
किचनर
किचर
किचलू
किचागा
किच्छा
किज़
किज़िल
किजिए
किट
किटी
किटों
किट्टी
किट्स
किड
किडनी
किडमैन
किडर
किडाळ
किड्ज
किड्स
किणवन
किण्व
किण्वक
किण्वकों
किण्वन
किण्वासवन
किण्वित
कितना
कितनी
कितने
कितनों
कितव
किता
किताब
किताबे
किताबें
किताबो
किताबों
किती
कितु
किते
कितो
कित्तूर
किदवई
किधर
किन
किनानाह
किनार
किनारा
किनाराम
किनारी
किनारे
किनारों
किनियर
किनोक
किन्चेलो
किन्तु
किन्नर
किन्नरी
किन्नरों
किन्नी
किन्नो
किन्नौर
किन्से
किन्ही
किन्हीं
किन्हें
किपलिंग
किपूर
किफ़ायत
किफ़ायती
किफायत
किफायती
किबा
किबूत
किबो
किब्बर
किम
किमग
किमगडी
किमग०
किमसे
किमि
किमी
किमी#
किमी.
किमी.दूर
किमीजनसंख्या
किमीदूर
किमी२
किमुरा
किमोली
किम्
किम्पुरुष
किम्बर्ली
किय
कियर्केगार्ड
किय़ा
किया
किया.अपने
किया.इस
किया.इसके
किया.उन्हें
किया.उन्होंने
किया.एक
किया.कई
किया.जब
किया.बाद
किया.बैंड
किया.यह
किया.वे
किया.हालांकि
कियां
कियाअपने
कियाइस
कियाइसके
कियाउन्हें
कियाउन्होंने
कियाएक
कियाकई
कियाजब
कियाबाद
कियाबैंड
कियायह
कियावे
कियास
कियाहालांकि
कियी
किये
कियें
कियेन
कियो
कियों
कियोंकि
कियोस्क
किरकिरा
किरकिरी
किरगिज़
किरगिज़स्तान
किरचॉफ
किरण
किरणजीत
किरणन
किरणपाल
किरणपुंज
किरणात
किरणावलि
किरणे
किरणें
किरणो
किरणों
किरदार
किरदारों
किरन
किराँत
किरांत
किराए
किराएदार
किराड
किराड़ू
किराडू
किरात
किरातार्जुनीय
किरातों
किरानदुल
किराना
किरानी
किराने
किराया
किराये
किरायेदार
किरायेदारों
किरायों
किरार
किरिबाती
किरिलेंको
किरी
किरीट
किरीटाधीन
किरीटियों
किरीटी
किरेटिन
किरौली
किर्क
किर्कगार्ड
किर्गिज़
किर्गिज़स्तान
किर्गिस्तान
किर्तिराज
किर्बी
किर्लोस्कर
किर्स्टन
किल
किलकिला
किलनी
किलर
किलर्स
किला
किलाबंदी
किलायह
किलिंग
किलिनोच्ची
किलिमंजारो
किलिमा
किलिमांजारो
किलिमो
किले
किलें
किलेदार
किलेनुमा
किलेबंदी
किलो
किलों
किलोकरी
किलोग्राम
किलोबाइट
किलोमिटर
किलोमी
किलोमीटर
किलोलीटर
किलोवाट
किलोवॉट
किलोवोल्ट
किलोहर्ट्ज़
किल्ट
किल्ड
किल्मरनॉक
किल्मोर
किल्लत
किल्लो
किळिमानूर
किवदंतियों
किवदंती
किवाड़
किवो
किश
किशतवाड़
किशन
किशनगंगा
किशनगंज
किशनगढ़
किशनपुर
किशनलाल
किशमिश
किशिमोतो
किशुनपुर
किशोर
किशोरवय
किशोरावस्था
किशोरियों
किशोरी
किशोरीदास
किशोरीलाल
किशोरों
किश्त
किश्ती
किश्तों
किश्वर
किष्किंधा
किष्किन्धा
किष्किन्धाकाण्ड
किस
किसका
किसकी
किसके
किसको
किसने
किसमें
किसलय
किसलिए
किससे
किसा
किसान
किसानी
किसानो
किसानों
किसि
किसी
किसीके
किसीको
किसीने
किसे
किस्ड
किस्त
किस्तवार
किस्तैया
किस्तों
किस्म
किस्मत
किस्में
किस्मों
किस्सा
किस्सागो
किस्सागोई
किस्सी
किस्से
किस्सों
कि०
कि०ग्रा०
कि०मी०
की
की.इस
की.उन्होंने
की.जब
की.मी
की.यह
कीं
कीइस
कीउन्होंने
कीकट
कीकर
कीगन
कीच
कीचक
कीचड
कीचड़
कीज
कीजब
कीज़
कीज़लगर
कीजास
कीजिए
कीजिये
कीजे
कीजेल
कीजै
कीजो
कीट
कीटन
कीटनाशक
कीटनाशकों
कीटनाशी
कीटभक्षी
कीटल
कीटविज्ञान
कीटाणु
कीटाणुओं
कीटाणुनाशक
कीटाणुरहित
कीटाणुशोधन
कीटिंग
कीटो
कीटों
कीटोन
कीटोनों
कीट्स
कीड़ा
कीड़े
कीड़ो
कीड़ों
कीडा
कीडों
कीता
कीथ
कीन
कीनन
कीनिया
कीनेसियन
कीन्स
कीन्ही
कीप
कीपर
कीपरों
कीपिंग
कीपैड
कीप्स
कीफर
कीबैक
कीबोर्ड
कीबोर्डवादक
कीमत
कीमती
कीमतें
कीमतों
कीमा
कीमिया
कीमियागर
कीमी
कीमो
कीमोथेरपी
कीमोथेरेपी
कीमोथैरेपी
कीयह
कीया
कीर
कीरत
कीरतपुर
कीरा
कीरो
कीर्कित्तध्वज
कीर्तन
कीर्तनकार
कीर्तनिया
कीर्तनों
कीर्ति
कीर्तिगान
कीर्तिपुर
कीर्तिमान
कीर्तिमानों
कीर्तिराज
कीर्तिलता
कीर्तिवर्मन्
कीर्तिसिंह
कीर्तिस्तंभ
कीर्ती
कीर्त्तन
कील
कीलक
कीलकों
कीलाक्षर
कीलाक्षरों
कीलिंग
कीलित
कीले
कीलें
कीलेट
कीलों
कीव
कीवयाई
कीवर्ड
कीवी
कीस
कीस्टोन
कीस्ट्रोक
कीहोल
कीे
कु
कुँअर
कुँआ
कुँआरी
कुँए
कुँवर
कुँवारी
कुंअर
कुंअरपुर
कुंआ
कुंए
कुंकुम
कुंग
कुंगन
कुंचन
कुंज
कुंजन
कुंजलिकुट्टी
कुंजा
कुंजापुरी
कुंजालि
कुंजियाँ
कुंजियां
कुंजियों
कुंजी
कुंजीपटल
कुंट
कुंठा
कुंठाओं
कुंठित
कुंड
कुंडम
कुंडल
कुंडलन
कुंडलाकार
कुंडलित
कुंडलिनी
कुंडलियाँ
कुंडलियों
कुंडली
कुंडा
कुंडिका
कुंडी
कुंडो
कुंडों
कुंतक
कुंतल
कुंती
कुंद
कुंदन
कुंदनलाल
कुंदर
कुंदवई
कुंदा
कुंदुज़
कुंदे
कुंदों
कुंबले
कुंभ
कुंभकरण
कुंभकर्ण
कुंभकार
कुंभकोणम
कुंभनदास
कुंभलगढ़
कुंभा
कुंवर
कुंवारी
कुंवारे
कुंस्तुंतुनिया
कुआ
कुआँ
कुआं
कुआन
कुआरी
कुआला
कुआलालंपुर
कुआलालम्पुर
कुई
कुए
कुएँ
कुएं
कुएत्जल
कुएर्तेन
कुओ
कुओं
कुओमिन्तांग
कुक
कुकड़ेश्वर
कुकर
कुकरैल
कुकर्म
कुकर्मी
कुकर्मों
कुकिंग
कुकी
कुकीज
कुकीज़
कुकुरमुत्ता
कुकुरमुत्ते
कुकू
कुकून
कुक्कुट
कुक्के
कुक्षि
कुख्यात
कुख्याति
कुच
कुचक्र
कुचर
कुचल
कुचलकर
कुचलते
कुचलना
कुचलने
कुचला
कुचली
कुचलुग
कुचले
कुचालक
कुचिंग
कुचिपुड़ी
कुची
कुचीपुडी
कुचे
कुच्ह
कुछ
कुछेक
कुज
कुज़नेतसोवा
कुज़्को
कुजोली
कुज्हम्बू
कुञ्ज
कुञ्जियों
कुञ्जी
कुञ्जीपटल
कुट
कुटकी
कुटगली
कुटाई
कुटिया
कुटियाट्टम
कुटिल
कुटिलता
कुटिला
कुटी
कुटीर
कुटुंब
कुटुम्ब
कुटुम्बकम
कुटुम्बों
कुट्टक
कुट्टनी
कुट्टा
कुट्टित
कुट्टी
कुट्रालम
कुठार
कुठाराघात
कुड
कुडवा
कुड़व
कुड्डालोर
कुड्रोव
कुढा
कुण
कुणाल
कुण्ड
कुण्डल
कुण्डलिनी
कुण्डलिया
कुण्डली
कुण्डों
कुतः
कुतबुद्दीन
कुतर
कुतरने
कुतर्क
कुतिया
कुतुब
कुतुबद्दीन
कुतुबनुमा
कुतुबपुर
कुतुबमीनार
कुतुबुद्दीन
कुतूहल
कुत्ता
कुत्ती
कुत्ते
कुत्तो
कुत्तों
कुत्स
कुत्सित
कुद
कुदरत
कुदरती
कुदसिया
कुदाल
कुदालसंगम
कुदाली
कुदास
कुदृष्टि
कुद्रेमुख
कुन
कुनमिंग
कुनर
कुनलुन
कुना
कुनाल
कुनैन
कुन्ड
कुन्डली
कुन्डो
कुन्तल
कुन्ती
कुन्द
कुन्दन
कुन्नूर
कुपवाड़ा
कुपवाड़ा
कुपित
कुपोषण
कुपोषित
कुप्पम
कुप्पी
कुप्रथा
कुप्रथाओं
कुप्रबंधन
कुप्रभाव
कुप्रभावित
कुप्रभावों
कुप्रियानफ़
कुफ़्फ़ार
कुफ्फार
कुफ्र
कुफ्ऱ
कुबलई
कुबलय
कुबलाई
कुबाचा
कुबूल
कुबूलने
कुबेर
कुबेरपुर
कुबैशी
कुब्ज
कुब्रिक
कुभा
कुम
कुमकुम
कुमाइट
कुमाउँ
कुमाउँनी
कुमाऊ
कुमाऊँ
कुमाऊँनी
कुमाऊं
कुमाऊंनी
कुमायुं
कुमायूँ
कुमायूं
कुमार
कुमारकोम
कुमारगुप्त
कुमारजीव
कुमारतंग
कुमारतुंग
कुमारतुंगा
कुमारदेवी
कुमारन
कुमारपाल
कुमारवार्ता
कुमारव्यास
कुमारसंभव
कुमारसंभवम्
कुमारस्वामी
कुमारिल
कुमारी
कुमारेन्द्र
कुमारों
कुमुद
कुमुदिनी
कुम्भ
कुम्भकर्ण
कुम्भनदास
कुम्भा
कुम्हड़ा
कुम्हड़े
कुम्हार
कुम्हारों
कुरंग
कुरआन
कुरकुरा
कुरकुरी
कुरकुरे
कुरजां
कुरता
कुरनूल
कुरमी
कुररी
कुरल
कुरवई
कुरसी
कुरा
कुराकाओ
कुरान
कुरार
कुरियर
कुरी
कुरीति
कुरीतियाँ
कुरीतियों
कुरील
कुरु
कुरुक्षेत्र
कुरुप
कुरुवंश
कुरुविंद
कुरुसेना
कुरू
कुरूक्षेत्र
कुरूप
कुरूपता
कुरूमब्रनाड
कुरेदने
कुरैशी
कुरोयानागी
कुरोश
कुरोसावा
कुर्क
कुर्की
कुर्ग
कुर्ट
कुर्त
कुर्ता
कुर्ते
कुर्द
कुर्दिस्तान
कुर्दी
कुर्नूल
कुर्बान
कुर्बानी
कुर्मांचल
कुर्मी
कुर्रतुलऐन
कुर्रम
कुर्ला
कुर्सियाँ
कुर्सियां
कुर्सियों
कुर्सी
कुर्सीयान
कुर्स्क
कुल
कुलक
कुलकर्णी
कुलगाम
कुलगुरु
कुलचा
कुलचिह्न
कुलचे
कुलटा
कुलदीप
कुलदेव
कुलदेवता
कुलदेवी
कुलनाम
कुलपति
कुलभूषण
कुलम
कुलवंत
कुलशेखर
कुलश्रेष्ठ
कुला
कुलाचार
कुलाद
कुलाधिपति
कुलाबा
कुलिक
कुलियों
कुलिश
कुली
कुलीन
कुलीनता
कुलीनवर्ग
कुलीनों
कुलूत
कुलेश्वर
कुलों
कुलोत्तुंग
कुल्चा
कुल्चे
कुल्या
कुल्ला
कुल्लियात
कुल्ली
कुल्लु
कुल्लू
कुल्हड़ों
कुल्हाड़ा
कुल्हाड़ियों
कुल्हाड़ी
कुल्हाड़ी
कुल्हड़
कुल्हड़ों
कुळ
कुवर्न्तु
कुवलयानंद
कुविचार
कुवियर
कुवेंपु
कुवैत
कुवैती
कुव्वत
कुश
कुशन
कुशल
कुशलं
कुशलता
कुशलताओं
कुशलतापूर्वक
कुशवाह
कुशवाहा
कुशस्थली
कुशा
कुशाग्र
कुशाग्रता
कुशावती
कुशासन
कुशिंग
कुशिक
कुशी
कुशीनगर
कुश्ती
कुश्तीबाज
कुषाण
कुषाणकालीन
कुषाणों
कुष्ट
कुष्ठ
कुष्ठरोग
कुष्ठरोगियों
कुष्मांडा
कुसंस्कारों
कुसमी
कुसली
कुसारी
कुसुम
कुसुमपुर
कुसुमांजलि
कुसुमित
कुस्चे
कुस्तुंतुनिया
कुह
कुहन
कुहनियों
कुहनी
कुहर
कुहरा
कुहरे
कुहासा
कुहासे
कुह्न
कु़बूल
कु़रान
कू
कूँ
कूँची
कूंड़
कूक
कूकर
कूका
कूकी
कूके
कूगन
कूच
कूचबिहार
कूचर
कूचा
कूची
कूछ
कूट
कूटकर
कूटन
कूटनाम
कूटनीति
कूटनीतिक
कूटनीतिज्ञ
कूटने
कूटपाद
कूटबद्ध
कूटबन्धन
कूटभेषज
कूटलेखन
कूटशब्द
कूटस्थ
कूटा
कूटानुवाद
कूटित
कूटू
कूटों
कूट्स
कूड़ा
कूड़े
कूड़ेदान
कूडियाट्टम
कूण
कूत्तु
कूद
कूदकर
कूदता
कूदते
कूदना
कूदने
कूदी
कूदों
कून्स
कूप
कूपक
कूपन
कूपर
कूपर्स
कूपे
कूपों
कूफ़ा
कूफी
कूबड़
कूमीस
कूर
कूरियर
कूरी
कूर्ग
कूर्नुल
कूर्पर
कूर्म
कूर्मपुराण
कूर्माचल
कूर्मावतार
कूर्स
कूर्स्क
कूल
कूलनगट्टा
कूलने
कूलम्ब
कूलर
कूलाम्ब
कूलिंग
कूलिकोव
कूलिज
कूली
कूल्ड
कूल्हा
कूल्हे
कूल्हों
कूवम
कूष्माण्डा
कूह
कूहिस्तोनी
कूड़े
कृ
कृंतक
कृंतकों
कृंतन
कृत
कृतं
कृतक
कृतकृत्य
कृतघ्न
कृतघ्नता
कृतज्ञ
कृतज्ञता
कृतयुग
कृतवर्मा
कृतवीर्य
कृतसंकल्प
कृता
कृतार्थ
कृति
कृतिक
कृतिका
कृतित्व
कृतिदेव
कृतियाँ
कृतियां
कृतियों
कृती
कृतु
कृत्
कृत्तिका
कृत्तिवास
कृत्य
कृत्यों
कृत्रिम
कृत्रिमकिरणात
कृत्रिमता
कृत्वा
कृदंत
कृन्तक
कृप
कृपण
कृपया
कृपलानी
कृपा
कृपाचार्य
कृपाण
कृपापात्र
कृपाराम
कृपाल
कृपालु
कृपालू
कृपिका
कृपी
कृप्या
कृमि
कृमिनाशक
कृमियों
कृश
कृशनसर
कृशाश्व
कृष
कृषक
कृषकों
कृषि
कृषिकार्य
कृषिक्षेत्र
कृषिगत
कृषिप्रधान
कृषिभूमि
कृषियोग्य
कृषिविज्ञान
कृषी
कृष्ण
कृष्णकाव्य
कृष्णकुमार
कृष्णगाथा
कृष्णगिरि
कृष्णगुप्त
कृष्णचंद्र
कृष्णचन्द्र
कृष्णजी
कृष्णदास
कृष्णदेव
कृष्णदेवराय
कृष्णन
कृष्णनगर
कृष्णनाट्टम
कृष्णन्
कृष्णपक्ष
कृष्णप्रसाद
कृष्णभक्त
कृष्णभक्ति
कृष्णमाचारी
कृष्णमूर्ति
कृष्णयजुर्वेदीय
कृष्णराज
कृष्णराजसागर
कृष्णराव
कृष्णलीला
कृष्णवीर
कृष्णस्वामी
कृष्णा
कृष्णागिरी
कृष्णाजी
कृष्णानंद
कृष्णावतार
कृष्णाष्टमी
कृष्णास्वामी
कृष्णिका
कृष्णो
कृष्य
कृस्टल
कॄतयुग
कॄषि
कॅप्टन
कॅप्लर
कॅरिअर
कॅरियर
कॅलिंगवुड
कॅलिन
कॅसमेट्स
कॆ
के
के#
के.
के.आर
के.एच
के.एम
के.एल.एम
के.के
के.पी
के.वी
कें
केंचुआ
केंचुए
केंचुओं
केंचुल
केंचुली
केंजी
केंट
केंटकी
केंटन
केंटर
केंटुकी
केंडल
केंडीबार
केंदुझर
केंद्र
केंद्रक
केंद्रकसूत्र
केंद्रकेंद्र
केंद्रकों
केंद्रबिंदु
केंद्रशासित
केंद्राभिमुख
केंद्रिका
केंद्रित
केंद्रिय
केंद्रीकरण
केंद्रीकृत
केंद्रीभूत
केंद्रीय
केंद्रो
केंद्रों
केंनल
केंन्द्र
केंप
केंब्रिज
केंसर
केंसिंग्टन
केअनुसार
केआर
केआरसी
केइरा
केई
केउतें
केएच
केएफसी
केएम
केएलएम
केक
केकड़ा
केकड़े
केकड़ों
केकडा
केकय
केकुले
केके
केकोटली
केच
केचप
केचुआ
केचुए
केज
केजरीवाल
केजी
केजीएल
केजीबी
केट
केटरिंग
केटल
केटलार
केटलेर
केटाशियन
केटी
केटो
केड
केडा
केडाह
केडी
केडीई
केडीए
केतकर
केतकी
केतन
केतली
केतु
केथ
केथेड्रल
केथोलिक
केदार
केदारखंड
केदारखण्ड
केदारनाथ
केदारों
केदृ
केद्र
केद्रित
केद्रीय
केन
केनटोनी
केनन
केनरा
केनल
केनवुड
केना
केनायन
केनिंग
केनिया
केनी
केने
केनेडियन
केनेडी
केनेथ
केनेल
केनोन
केनोबी
केन्टकी
केन्दुझर
केन्दों
केन्द्र
केन्द्रक
केन्द्रशासित
केन्द्रापडा
केन्द्रिक
केन्द्रित
केन्द्रिय
केन्द्रीकरण
केन्द्रीकृत
केन्द्रीत
केन्द्रीय
केन्द्रीयकरण
केन्द्रीयता
केन्द्रो
केन्द्रों
केन्नार्ड
केन्यन
केन्या
केन्याई
केन्स
केप
केपटाउन
केपलर
केपिटल
केपी
केप्टन
केप्टिन
केप्लर
केफालोआन
केफेब
केफेलनिकोव
केब
केबल
केबलविजन
केबलों
केबिन
केबिनेट
केबिल
केबी
केबीपीएस
केबीसी
केम
केमन
केमिकल
केमिकल्स
केमियो
केमिला
केमिली
केमिस्ट
केमिस्ट्री
केमैन
केमोकाइन
केमोथेरेपी
केम्प
केम्पबेल
केम्पस
केम्ब
केम्ब्रिज
केम्मनगुंडी
केयर
केयरटेकर
केयू
केयोदे
केर
केरमेक
केरल
केरलवासी
केरला
केरलीय
केरलीयों
केरा
केरिंथिया
केरिबियन
केरियर
केरी
केरु
केरुयक
केरे
केरेक्टर
केरेक्टर्स
केरेटिनकोशिकाएं
केरेन
केरोटीन
केरोलिना
केरोसिन
केरोसीन
केर्र
केल
केलकर
केलर
केला
केलि
केलिए
केलिप्सो
केलिफोर्निया
केलिया
केली
केलुचरण
केले
केलें
केलॉग
केलों
केल्ट
केल्टिक
केल्विन
केल्शियम
केव
केवट
केवड़ा
केवड़े
केवल
केवलं
केवलज्ञान
केवलर
केवला
केवलादेव
केवलान्वयी
केवली
केवळ
केवा
केविं
केविन
केवी
केवीं
केवेज
केव्स
केश
केशर
केशरी
केशव
केशवचंद्र
केशवचन्द्र
केशवदास
केशवदेव
केशवराज
केशवराव
केशवानंद
केशविन्यास
केशान्त
केशिका
केशिकाएँ
केशिकाओं
केशिकास्तवक
केशिया
केशी
केशुभाई
केशूभाई
केशों
केशोपुर
केशोलय
केश्
केस
केसमेंट
केसर
केसरिया
केसरी
केसरोली
केसाथ
केसिंग
केसिनो
केसी
केसीन
केसे
केसों
केस्लिंग
केस्वामी
केहते
केहि
केा
के०
कै
कैंचा
कैंचियाँ
कैंचियों
कैंची
कैंट
कैंटन
कैंटर
कैंटरबरी
कैंटीन
कैंटीनों
कैंटॉना
कैंटोना
कैंट्रेल
कैंड
कैंडल
कैंडिल
कैंडी
कैंडेलेरिया
कैंप
कैंपबेल
कैंपस
कैंपेल
कैंपों
कैंब्रिज
कैंब्रियन
कैंसर
कैंसरकारी
कैंसरजनक
कैंसररोधी
कैंसरी
कैंसरों
कैंसास
कैंसिल
कैंसिलेशन
कैओस
कैकयी
कैकसी
कैकुबाद
कैकेय
कैकेयी
कैक्टस
कैग
कैच
कैचप
कैचें
कैज़ुअल
कैट
कैटफाइसस
कैटभ
कैटरपिलर
कैटरर्स
कैटरिंग
कैटरीना
कैटल
कैटलन
कैटलाग
कैटलॉग
कैटिच
कैटी
कैटेगरी
कैटेल
कैट्स
कैड
कैडबरी
कैडमियम
कैडर
कैडिलैक
कैडेट
कैडेटों
कैडेट्स
कैण्टन
कैथ
कैथरिन
कैथरीन
कैथल
कैथलिक
कैथलिकों
कैथलीन
कैथी
कैथे
कैथेटर
कैथेड्रल
कैथोड
कैथोलिक
कैथोलिकवाद
कैथोलिकों
कैथोलिक्स
कैद
कैदखाने
कैदियों
कैदी
कैन
कैनन
कैनबरा
कैनबिस
कैनबेरा
कैनरी
कैनल
कैनलफ़ोन
कैनवस
कैनवास
कैनवासों
कैनसस
कैनाइन
कैनाडा
कैनाबिस
कैनारिस
कैनाल
कैनिंग
कैनियन
कैनिस
कैनी
कैनेडा
कैनेडियन
कैनेडियाई
कैनेडी
कैनेरी
कैनोपी
कैनोला
कैन्ट
कैन्टन
कैन्टोना
कैन्ड
कैन्यन
कैन्यनिंग
कैन्यूट
कैन्स
कैन्सर
कैन्सास
कैप
कैपकोम
कैपरे
कैपिटल
कैपिटलाइजेशन
कैपिटोनिम
कैपिटोल
कैपिलरी
कैपेलो
कैपेसिटी
कैप्चर
कैप्टन
कैप्टिव
कैप्टेन
कैप्रियाती
कैप्रियो
कैप्स
कैप्सिड
कैप्सूल
कैफ
कैफ़
कैफ़ीन
कैफ़े
कैफी
कैफीन
कैफे
कैफेटेरिया
कैफेहिन्दी
कैब
कैबरे
कैबिनेट
कैब्रियोलेट
कैम
कैमकॉर्डर
कैमकोर्डर
कैमडेन
कैमरन
कैमरलेंगो
कैमरा
कैमरामैन
कैमरुन
कैमरून
कैमरे
कैमरें
कैमरॉन
कैमरों
कैमरोन
कैमल
कैमशाफ्ट
कैमिकल
कैमिया
कैमियो
कैमिलो
कैमिस्ट्री
कैमुर
कैमूर
कैमेलिया
कैम्प
कैम्पबेल
कैम्पर
कैम्परों
कैम्पस
कैम्पिंग
कैम्पियोनाटो
कैम्पेन
कैम्पों
कैम्प्स
कैम्ब्रिज
कैम्ब्रियन
कैयट
कैयेने
कैर
कैरंग
कैरक्टरों
कैरट
कैरम
कैरल
कैरव
कैरानवी
कैराना
कैरापेस
कैरामेल
कैरिंगटन
कैरिअर
कैरिबियन
कैरिबियाई
कैरियर
कैरियर####
कैरियर्स
कैरिया
कैरी
कैरीबियन
कैरीबियाई
कैरे
कैरेक्टर
कैरेक्टरिस्टिक
कैरेक्टरों
कैरेक्टर्स
कैरेट
कैरेन
कैरेबियन
कैरेबियाई
कैरेल
कैरो
कैरोटिड
कैरोटिन
कैरोटीन
कैरोटीनॉयड
कैरोल
कैरोलाइना
कैरोलिन
कैरोलिना
कैरोलीन
कैरोलीना
कैल
कैलंडर
कैलकुलस
कैलकुलेटर
कैलकुलेटरों
कैलगरी
कैलटेक
कैलरी
कैलवर्ट
कैलशियम
कैलसियम
कैला
कैलाइस
कैलाना
कैलावे
कैलाश
कैलाशनाथ
कैलाशपति
कैलास
कैलिको
कैलिपर
कैलिफ़ोर्निया
कैलिफोर्निया
कैलिफोर्नियाई
कैलिफौर्निया
कैलिबर
कैली
कैलीग्राफी
कैलीफोर्निया
कैले
कैलेंडर
कैलेंडरों
कैलेटा
कैलेडोनिया
कैलेण्डर
कैलेस्ट्रोल
कैलो
कैलोट
कैलोरी
कैल्कटा
कैल्विन
कैल्शियम
कैल्साइट
कैल्सियम
कैल्सीकरण
कैवर्त
कैवलरी
कैवल्य
कैविटी
कैवेंडिश
कैवेलरी
कैवॉलिनो
कैश
कैशिंग
कैशिक
कैशिकी
कैशियस
कैशे
कैशै
कैशोर
कैश्ड
कैस
कैसकेड
कैसर
कैसल
कैसलिंग
कैसा
कैसिओपिये
कैसिनी
कैसिनो
कैसियस
कैसिया
कैसी
कैसीनी
कैसीनो
कैसे
कैसें
कैसेट
कैसेटों
कैसेनि
कैसेल
कैसेलो
कैस्केड
कैस्टर
कैस्टिलो
कैस्ट्रो
कैस्पियन
कैस्पियाई
कैफ़
कॉ
कॉंग
कॉंग्रेस
कॉंग्रेसी
कॉइल
कॉउंसिल
कॉउसिंल
कॉक
कॉकटेल
कॉकपिट
कॉकरम
कॉकस
कॉकेशस
कॉकेशियन
कॉक्कर
कॉक्स
कॉग्निजेंट
कॉज
कॉज़
कॉटन
कॉटर
कॉटली
कॉटेज
कॉड
कॉडेट
कॉन
कॉनकॉर्ड
कॉनटिनेंटल
कॉनन
कॉनर
कॉनराड
कॉनरी
कॉनरैड
कॉनवेंशन
कॉनी
कॉन्ग
कॉन्टिनेंटल
कॉन्टेक्ट
कॉन्टेस्ट
कॉन्टैक्ट
कॉन्ट्रेक्ट
कॉन्ट्रैक्ट
कॉन्त
कॉन्फरेंस
कॉन्फ़िगर
कॉन्फ़िगरेशन
कॉन्फेडरेशन
कॉन्फ्रेंस
कॉन्फ्रेंसिंग
कॉन्फ्रेन्सिंग
कॉन्फ्लिक्ट
कॉन्विक्टेड
कॉन्वेंट
कॉन्सर्ट
कॉन्सलेट
कॉन्सेप्ट
कॉन्सेप्सिओन
कॉन्सॉर्टियम
कॉन्स्टीट्यूशन
कॉन्स्टॅलेशन
कॉन्स्टेबल
कॉन्स्टैंट
कॉन्स्टैन्टाइन
कॉप
कॉपर
कॉपरनिकस
कॉपरफील्ड
कॉपी
कॉपीराइट
कॉपीराईट
कॉपीलेफ्टेड
कॉप्टिक
कॉफ़मैन
कॉफ़ी
कॉफी
कॉबेक्ट
कॉम
कॉमंस
कॉमकास्ट
कॉमडी
कॉमन
कॉमनवेल्थ
कॉमन्स
कॉमप्लेक्स
कॉमर्शियल
कॉमर्स
कॉमवर्स
कॉमा
कॉमिक
कॉमिक्स
कॉमेडियन
कॉमेडिया
कॉमेडी
कॉम्ट
कॉम्टे
कॉम्ते
कॉम्पटन
कॉम्पटनवार्ता
कॉम्पलेक्स
कॉम्पलैक्स
कॉम्पेक्ट
कॉम्पैक
कॉम्पैक्ट
कॉम्प्युसर्व
कॉम्प्लेक्स
कॉम्बिनेशन
कॉम्बीनेटॉरिक्स
कॉम्बे
कॉम्बैट
कॉम्बो
कॉयर
कॉयल
कॉरपोरेट
कॉरपोरेशन
कॉरिडोर
कॉरीडोर
कॉर्क
कॉर्टेक्स
कॉर्ड
कॉर्डाइट
कॉर्डिनल्स
कॉर्डिस
कॉर्डेटा
कॉर्न
कॉर्नर
कॉर्नवाल
कॉर्नवेल
कॉर्नवॉल
कॉर्नियल
कॉर्निया
कॉर्निश
कॉर्नेल
कॉर्नेलियस
कॉर्प
कॉर्पस
कॉर्पोरल
कॉर्पोरेट
कॉर्पोरेशन
कॉर्प्स
कॉर्बेट
कॉल
कॉलम
कॉलमों
कॉलर
कॉलिंग
कॉलिंगवुड
कॉलिंस
कॉलिज
कॉलिन
कॉलिन्स
कॉलीवुड
कॉलेज
कॉलेज़
कॉलेजिएट
कॉलेजेस
कॉलेजों
कॉलेस्ट्रॉल
कॉलेस्ट्रोल
कॉलों
कॉलोनियों
कॉलोनी
कॉल्ट
कॉल्ड
कॉल्विन
कॉल्स
कॉसमॉस
कॉसवर्थ
कॉस्केट
कॉस्ट
कॉस्टयूम
कॉस्टा
कॉस्टिक
कॉस्टेलो
कॉस्ट्यूम
कॉस्बी
कॉस्मिक
कॉस्मेटिक
कॉस्मॉस
कॉस्मो
कॉस्मोपॉलिटन
कॉस्मोलॉजी
कॉज़
कॊ
को
कों
कोंकण
कोंकणा
कोंकणी
कोंक्विस्टास
कोंग
कोंगबा
कोंगारी
कोंगु
कोंगुर
कोंगो
कोंग्रेस
कोंच
कोंटाडोर
कोंडलीजा
कोंडा
कोंडोन
कोंडोलिजा
कोंडोलीजा
कोंपल
कोंभ
कोंस्तांतीन
कोअलिशन
कोआ
कोआपरेटिव
कोआर्डिनेशन
कोआला
कोइ
कोइजुमी
कोइट
कोइमाला
कोइराला
कोइल
कोई
कोईराला
कोऊ
कोए
कोएत्जर
कोएन्ज़ाइम
कोऑपरेशन
कोऑर्डिनेटर
कोक
कोकचा
कोकनी
कोकब
कोकराझाड़
कोकराझार
कोका
कोकिंग
कोकिल
कोकिला
कोकिलाबेन
कोकीन
कोकुन
कोकू
कोकेन
कोकेशियान
कोको
कोकोआ
कोकोनट
कोकोस
कोक्कल्ल
कोक्कोक
कोक्यू
कोक्रेन
कोक्रैन
कोक्स
कोख
कोच
कोचर
कोचिंग
कोची
कोचीन
कोचुवेली
कोचों
कोच्चि
कोच्ची
कोज
कोज़ीकोड
कोजीकोड
कोजो
कोज्य
कोज्या
कोझिकोड
कोझिकोडे
कोझीकोड
कोट
कोटक
कोटकपूरा
कोटद्वार
कोटमोल
कोटयूडा
कोटर
कोटरी
कोटरों
कोटला
कोटली
कोटा
कोटागिरी
कोटायक
कोटि
कोटिंग
कोटिंग्स
कोटिकर
कोटितीर्थ
कोटियत्तम
कोटियाँ
कोटियों
कोटी
कोटुली
कोटे
कोटेड
कोटेशन
कोटेश्वर
कोटेसना
कोट्टयम
कोट्टाचेरू
कोट्टायम
कोट्टारक्करा
कोट्टुर
कोट्डवारा
कोट्स
कोठरियां
कोठरियों
कोठरी
कोठा
कोठार
कोठारी
कोठियाँ
कोठियां
कोठी
कोठे
कोड
कोडई
कोडईकनाल
कोडक
कोडगु
कोडन
कोडनाम
कोडरमा
कोडव
कोडहै
कोड़ा
कोड़ी
कोड़े
कोड़ों
कोडा
कोडांतरण
कोडाईकराई
कोडानाड
कोडिंग
कोडित
कोडी
कोडीन
कोडे
कोडें
कोडेक
कोडेक्स
कोडेड
कोडैक
कोडों
कोडोकन
कोड्स
कोढ़
कोढ़ी
कोण
कोणधारी
कोणांक
कोणार्क
कोणी
कोणीय
कोणे
कोणें
कोणों
कोण्ही
कोत
कोतल
कोतवाल
कोतवाली
कोता
कोताही
कोथ
कोदाचद्री
कोदो
कोदों
कोन
कोनन
कोनर
कोनराड
कोनर्स
कोनहारा
कोना
कोनिग
कोनिग्ज़बर्ग
कोनिग्शोफ़न
कोनिया
कोनी
कोने
कोनेशवरन
कोनॉली
कोनो
कोनों
कोनोर
कोनोली
कोनोहगाकुरे
कोनोहा
कोन्या
कोप
कोपनहेगन
कोपभवन
कोपभाजन
कोपर
कोपरनिकस
कोपरा
कोपर्निकस
कोपलैंड
कोपा
कोपीन
कोपेत
कोपेन
कोपेनहेगन
कोपेनहेगेन
कोपेल
कोपोला
कोप्टिक
कोप्पल
कोप्पा
कोप्पेन
कोप्रोव्सकी
कोफी
कोफ्ता
कोब
कोबरा
कोबल्ट
कोबाल्ट
कोबाल्टिक
कोबासिस
कोबी
कोबे
कोबेन
कोबेर्टिन
कोम
कोमल
कोमलकांत
कोमलता
कोमा
कोमांचे
कोमिक्स
कोमीशिया
कोमूने
कोमेट
कोमेडी
कोमोडोर
कोमोरोस
कोम्टे
कोम्प्रेस्सेद
कोम्प्रेहेंसिव
कोम्ब्स
कोम्मेदिया
कोम्युनिस्ट
कोय
कोयंबटूर
कोयंबतूर
कोयंबत्तूर
कोयना
कोयम्बटूर
कोयम्बतूर
कोयम्बतूर_एक्स्प्रेस_####
कोयम्बतूरएक्स्प्रेस
कोयल
कोयला
कोयले
कोया
कोर
कोरड
कोरथ
कोरपोरेट
कोरपोरेशन
कोरबा
कोरम
कोरमा
कोरल
कोरलियॉन
कोरलीओनी
कोरवा
कोरस
कोरा
कोराज़ोन
कोरापुट
कोरिंथियंस
कोरिंथियन
कोरिओलिस
कोरिक
कोरियन
कोरियम
कोरियर
कोरिया
कोरियाई
कोरियायी
कोरियोग्राफ
कोरियोग्राफर
कोरियोग्राफरों
कोरियोग्राफी
कोरियोग्रॉफी
कोरी
कोरे
कोरेत्ज़ा
कोरो
कोरों
कोरोनरी
कोरोना
कोरोनेशन
कोरोमंडल
कोरोला
कोर्ट
कोर्टनी
कोर्टमार्शल
कोर्टहाउस
कोर्टाना
कोर्टिकल
कोर्टिसोल
कोर्टेक्स
कोर्ट्स
कोर्ड
कोर्णाक
कोर्न
कोर्नर
कोर्निकोवा
कोर्नियल
कोर्निया
कोर्निश
कोर्नेल
कोर्पस
कोर्पोरेट
कोर्पोरेशन
कोर्प्स
कोर्बुज़िए
कोर्लिस
कोर्स
कोर्सिका
कोर्सों
कोल
कोलंबस
कोलंबाइन
कोलंबियन
कोलंबियम
कोलंबिया
कोलंबियाई
कोलंबो
कोलक
कोलकता
कोलकत्ता
कोलकर
कोलकाता
कोलकातावासी
कोलकात्ता
कोलगेट
कोलतार
कोलत्तिरि
कोलत्तुनाड
कोलन
कोलफील्ड
कोलफील्ड्स
कोलबर्ट
कोलब्रुक
कोलब्रुकडेल
कोलम
कोलमैन
कोलम्बस
कोलम्बिया
कोलम्बियाई
कोलम्बीय
कोलम्बो
कोलरिज
कोलरी
कोला
कोलाइड
कोलाइडर
कोलाई
कोलागाड
कोलाज
कोलाजन
कोलाजेन
कोलाबा
कोलाबोरेशन
कोलायत
कोलार
कोलाहल
कोलाहलपूर्ण
कोलिज़ीयम
कोलिजियम
कोलिन
कोलिन्स
कोलिफोर्म
कोलिय
कोलियरी
कोली
कोलीज़न
कोलू
कोले
कोलेज
कोलेजन
कोलेज़ियोनी
कोलेमन
कोलेलिथियेसिस
कोलेस्टेरॉल
कोलेस्ट्राल
कोलेस्ट्रॉल
कोलेस्ट्रोल
कोलेस्ट्रौल
कोलोंबिया
कोलोन
कोलोनेल
कोलोबस
कोलोराडो
कोलोरेक्टल
कोलोरेडो
कोलोरैडो
कोलोसस
कोलोसियम
कोलोस्ट्रम
कोल्टन
कोल्ड
कोल्डप्ले
कोल्फ
कोल्लम
कोल्ली
कोल्लूर
कोल्स
कोल्हापुर
कोल्हू
कोव
कोवनन्ट
कोवलम
कोवा
कोवान्ता
कोवालम
कोविद
कोविदार
कोविल
कोविलन
कोवेंट्री
कोवेल
कोवैलेंट
कोश
कोशक
कोशकला
कोशकार
कोशकारों
कोशकीय
कोशग्रंथ
कोशनिर्माण
कोशरचना
कोशल
कोशली
कोशविज्ञान
कोशविद्या
कोशा
कोशारस
कोशिक
कोशिका
कोशिकांग
कोशिकाए
कोशिकाएँ
कोशिकाएं
कोशिकाओ
कोशिकाओं
कोशिकाद्रव्य
कोशिकाभित्ति
कोशिकायें
कोशिकाविज्ञान
कोशिकाविभाजन
कोशिकी
कोशिकीय
कोशिकेतर
कोशिश
कोशिशें
कोशिशों
कोशिस
कोशी
कोशीय
कोशीश
कोशेर
कोशो
कोशों
कोश्याँकुटोली
कोष
कोषगत
कोष़िक्कोड
कोषागार
कोषागारों
कोषाध्यक्ष
कोषिका
कोषिकाएँ
कोषिकाओं
कोषेर
कोषों
कोष्ट
कोष्टक
कोष्ठ
कोष्ठक
कोष्ठकों
कोष्ठबद्धता
कोष्ठिका
कोष्ठिकाओं
कोष्ठों
कोस
कोसते
कोसने
कोसल
कोसला
कोसा
कोसाइन
कोसास
कोसी
कोसों
कोसोवो
कोस्ट
कोस्टर
कोस्टल
कोस्टा
कोस्मो
कोह
कोहन
कोहनियों
कोहनी
कोहबर
कोहर
कोहरा
कोहरे
कोहल
कोहलर
कोहली
कोहाट
कोहिनूर
कोहिमा
कोहिस्तान
कोहिस्तानी
कोही
कोहेन
कोह्न
कोह्लेर
कोहड़ा
कौ
कौं
कौंग
कौंच
कौंडोलीजा
कौंध
कौंसल
कौंसिल
कौंसुल
कौआ
कौए
कौओं
कौगर
कौटल्य
कौटिलीय
कौटिल्य
कौटुंबिक
कौटुम्बिक
कौड़ियों
कौड़ी
कौडिया
कौतुक
कौतुकें
कौतुहल
कौतूहल
कौत्स
कौथुम
कौन
कौनसा
कौनसी
कौनसे
कौनी
कौन्तेय
कौन्सिल
कौम
कौमार
कौमारभृत्य
कौमारिक
कौमारी
कौमार्य
कौमी
कौमुदी
कौम्ब
कौर
कौरनल
कौरव
कौरवो
कौरवों
कौरव्य
कौल
कौलपुर
कौलाचार
कौली
कौवा
कौवे
कौशल
कौशलगत
कौशलपूर्ण
कौशलों
कौशल्य
कौशल्या
कौशांबी
कौशाम्बी
कौशिक
कौशिकी
कौषीतकि
कौसर
कौसानी
कौस्तुभ
क्
क्_
क्नोसस
क्य
क्या
क्यान
क्याम्पस
क्यारियाँ
क्यारियों
क्यारी
क्यु
क्युं
क्युकी
क्युबेक
क्युरियस
क्युरी
क्युलेन
क्यू
क्यू#
क्यू.
क्यूँ
क्यूँकी
क्यूं
क्यूंकि
क्यूआर
क्यूआरएस
क्यूई
क्यूएस
क्यूट
क्यूटी
क्यूपिड
क्यूपेम
क्यूप्रस
क्यूब
क्यूबन
क्यूबा
क्यूबाइयों
क्यूबाई
क्यूबिक
क्यूबिज़्म
क्यूबिज्म
क्यूबिस्ट
क्यूबेक
क्यूब्स
क्यूरी
क्यूरेटर
क्यूल
क्यूशू
क्यूस
क्यूसेक
क्येलादेव
क्यो
क्यों
क्योंकर
क्योंकि
क्योंकी
क्योंझर
क्योकि
क्योकी
क्योटो
क्योर
क्योरिंग
क्यौं
क्यौंकि
क्र
क्रंच
क्रंचर
क्रंदन
क्रतु
क्रन्तिकारी
क्रन्दन
क्रम
क्रमचय
क्रमपरिवर्तन
क्रमपाठ
क्रमबद्ध
क्रमबद्धता
क्रमभंग
क्रमरहित
क्रमवार
क्रमवीक्षण
क्रमश
क्रमशः
क्रमांक
क्रमांकन
क्रमांकित
क्रमाकुंचन
क्रमागत
क्रमादेश
क्रमादेशित
क्रमादेशों
क्रमानुगत
क्रमानुदेशन
क्रमानुयायी
क्रमानुसार
क्रमिक
क्रमित
क्रमों
क्रमोन्नत
क्रय
क्रयविक्रय
क्रयशक्ति
क्रव्यदंत
क्रव्यदंतों
क्रश
क्रशर
क्रशिंग
क्रषि
क्रस
क्रस्ट
क्रस्टेशियंस
क्रस्टेशियन
क्रस्टेशिया
क्रांति
क्रांतिक
क्रांतिकारियों
क्रांतिकारी
क्रांतिपथ
क्रांतियाँ
क्रांतियां
क्रांतियों
क्रांतिवृत्त
क्रांतिसाम्य
क्रांती
क्राइ
क्राइटेरिया
क्राइम
क्राइमिया
क्राइमियाई
क्राइम्स
क्राइल
क्राइसिस
क्राइसोटाइल
क्राइस्ट
क्राइस्टचर्च
क्राई
क्राईसलर
क्राउच
क्राउड
क्राउथर
क्राउन
क्राति
क्रातेर
क्रान्त
क्रान्त'एम०एल०वर्मा
क्रान्तएम०एल०वर्मा
क्रान्ति
क्रान्तिः
क्रान्तिक
क्रान्तिकारियो
क्रान्तिकारियों
क्रान्तिकारी
क्राफ्ट
क्रामवेल
क्राय
क्रायसिस
क्रायोकूलर
क्रायोजेनिक
क्रायोलाइट
क्रार्यक्रम
क्रास
क्रासस
क्रासिंग
क्रासिंस्की
क्रास्नोदार
क्रिंग
क्रिउ
क्रिएटर
क्रिएटिव
क्रिक
क्रिकइन्फो
क्रिकट
क्रिकॅट
क्रिकेट
क्रिकेटर
क्रिकेटरों
क्रिकेटर्स
क्रिच्टन
क्रिटिक
क्रिटिकल
क्रिटिक्स
क्रिटेशस
क्रिप्ट
क्रिप्टएनालिसिस
क्रिप्टन
क्रिप्टिक
क्रिप्टो
क्रिप्टोगैम
क्रिप्टोग्राफ़िक
क्रिप्टोग्राफ़ी
क्रिप्टोग्राफिक
क्रिप्टोग्राफी
क्रिप्टोन
क्रिप्लर
क्रिप्स
क्रिमसन
क्रिमिनल
क्रिमिनालॉजी
क्रियमाण
क्रिया
क्रियांवयन
क्रियाः
क्रियाए
क्रियाएँ
क्रियाएं
क्रियाओ
क्रियाओं
क्रियाकलाप
क्रियाकलापों
क्रियागत
क्रियागति
क्रियात्मक
क्रियात्मकता
क्रियान्वन
क्रियान्वयन
क्रियान्वित
क्रियापद
क्रियापदों
क्रियापात्र
क्रियाप्रणाली
क्रियाफल
क्रियाभाव
क्रियामापी
क्रियायें
क्रियायों
क्रियायोग
क्रियारूप
क्रियार्थ
क्रियावली
क्रियावाद
क्रियाविज्ञान
क्रियाविधि
क्रियाविधियों
क्रियाविशेषण
क्रियाशक्ति
क्रियाशील
क्रियाशीलता
क्रियाहीन
क्रियेटिव
क्रियोल
क्रिविक
क्रिश
क्रिश्चन
क्रिश्चिन्स
क्रिश्चियन
क्रिस
क्रिसपार्कल
क्रिसमस
क्रिसलर
क्रिसेट्यूलस
क्रिस्चन
क्रिस्चियन
क्रिस्ट
क्रिस्टन
क्रिस्टल
क्रिस्टलकी
क्रिस्टलन
क्रिस्टलीकरण
क्रिस्टलीकृत
क्रिस्टलीय
क्रिस्टलों
क्रिस्टलोग्राफी
क्रिस्टिन
क्रिस्टियन
क्रिस्टियनो
क्रिस्टियानो
क्रिस्टी
क्रिस्टीन
क्रिस्टीना
क्रिस्टेटस
क्रिस्टो
क्रिस्टोफ
क्रिस्टोफर
क्रिस्टोफ़र
क्रिस्टोबलाइट
क्रिस्टोबाल
क्रिस्पिन
क्रिस्प्स
क्रिस्मस
क्रिस्लर
क्री
क्रीक
क्रीगर
क्रीचर
क्रीचरज़
क्रीज
क्रीज़
क्रीट
क्रीटेशस
क्रीड
क्रीड़ा
क्रीड़ाओं
क्रीड़ाक्षेत्र
क्रीडा
क्रीडाएँ
क्रीडाओं
क्रीडी
क्रीत
क्रीन
क्रीप
क्रीपर
क्रीम
क्रीमिया
क्रीमी
क्रीस
क्रुक
क्रुगमैन
क्रुजर
क्रुज़
क्रुद्ध
क्रुप
क्रुर
क्रुसिबल
क्रुसेड
क्रू
क्रूक
क्रूक्स
क्रूज
क्रूजर
क्रूज़
क्रूज़र
क्रूजेज
क्रूड
क्रूडुप
क्रूर
क्रूरता
क्रूरतापूर्ण
क्रूरतापूर्वक
क्रूश
क्रूस
क्रूसयुद्ध
क्रूसिबल
क्रूसेड
क्रूसेडर
क्रॅसि
क्रे
क्रेकन
क्रेग
क्रेगलिस्ट
क्रेच
क्रेज़ी
क्रेजी
क्रेट
क्रेटन
क्रेटर
क्रेटरों
क्रेटेशियस
क्रेडल
क्रेडिट
क्रेडिट्स
क्रेता
क्रेताओं
क्रेन
क्रेनें
क्रेनों
क्रेप
क्रेब्स
क्रेमर
क्रेमलिन
क्रेश
क्रेसेंट
क्रेस्ट
क्रेस्पो
क्रैंक
क्रैंकपिन
क्रैंकपिनों
क्रैंकशाफ्ट
क्रैक
क्रैकन
क्रैकर
क्रैकर्स
क्रैग
क्रैचिंग
क्रैनमर
क्रैनमेर
क्रैब
क्रैमलिनकप
क्रैश
क्रॉनिक
क्रॉनिकल
क्रॉनिकल्स
क्रॉप
क्रॉप्स
क्रॉफर्ड
क्रॉफोर्ड
क्रॉफ्ट
क्रॉमवेल
क्रॉम्वेल
क्रॉल
क्रॉलर
क्रॉस
क्रॉसओवर
क्रॉसबी
क्रॉसरोड्स
क्रॉसवर्ड
क्रॉसिंग
क्रॉस्ड
क्रो
क्रोएशियन
क्रोएशिया
क्रोएशियाई
क्रोक
क्रोकर
क्रोकस
क्रोकोडाइल
क्रोक्वेट
क्रोचे
क्रोड
क्रोड़
क्रोध
क्रोधवश
क्रोधाग्नि
क्रोधित
क्रोधी
क्रोन
क्रोनर
क्रोना
क्रोनिए
क्रोनिक
क्रोनिकल
क्रोनिकल्स
क्रोनोमीटर
क्रोनोस
क्रोबोरो
क्रोम
क्रोमा
क्रोमिक
क्रोमिनेंस
क्रोमियम
क्रोमेट
क्रोमेटिड
क्रोमेटिडों
क्रोमैटोग्राफी
क्रोमोज़ोम
क्रोमोजोम
क्रोमोमियर
क्रोमोसोम
क्रोमोसोमों
क्रोशिए
क्रोशिया
क्रोस
क्रोसओवर
क्रोसफेस
क्रोसिंग
क्रोस्बी
क्रोहन
क्रौंच
क्लक्स
क्लच
क्लब
क्लबों
क्लब्स
क्लम
क्लर्क
क्लस्टर
क्लस्टरिंग
क्लांइट
क्लांत
क्लाइंट
क्लाइंटों
क्लाइंट्स
क्लाइड
क्लाइतज़र्स
क्लाइन
क्लाइब
क्लाइमेक्स
क्लाइमेट
क्लाइमैक्स
क्लाइम्बिंग
क्लाइव
क्लाउड
क्लाउडहॉपर
क्लाउडिया
क्लाउड्स
क्लाउन
क्लाउस
क्लाउसो
क्लाएंट
क्लाक
क्लाज़
क्लाजिनफर्ट
क्लाड
क्लान
क्लायंट
क्लारा
क्लार्क
क्लार्कसन
क्लास
क्लासफुल
क्लासरूम
क्लासिक
क्लासिकल
क्लासिको
क्लासिक्स
क्लासिफिकेशन
क्लासिसिज्म
क्लासेस
क्लासों
क्लिंच
क्लिंट
क्लिंटन
क्लिक
क्लिन
क्लिनिक
क्लिनिकल
क्लिनिकों
क्लिप
क्लिपर
क्लिपों
क्लिप्स
क्लिफ
क्लिफटन
क्लिफर्ड
क्लिफ्टन
क्लियर
क्लियरिंग
क्लियो
क्लियोपेट्रा
क्लिशे
क्लिष्ट
क्लिष्टता
क्ली
क्लीन
क्लीनचिट
क्लीनर
क्लीनिंग
क्लीनिक
क्लीनिकल
क्लीनिकों
क्लीफ
क्लीबाणुक
क्लीमेंट
क्लीयर
क्लीव
क्लीवलैंड
क्लीवेज
क्लुम
क्लू
क्लूनी
क्ले
क्लेअरमॉन्ट
क्लेक्शन
क्लेजियो
क्लेटन
क्लेड
क्लेन
क्लेफेस
क्लेबसियेला
क्लेम
क्लेमाँ
क्लेमेंट
क्लेयर
क्लेयरेंडन
क्लेरेंस
क्लेरेन्स
क्लेव
क्लेश
क्लेशों
क्लेस
क्लैंप
क्लैकामस
क्लैपर
क्लैप्टन
क्लैमिडिया
क्लैम्प
क्लैरिनेट
क्लैश
क्लैसिकल
क्लॉक
क्लॉज
क्लॉज़
क्लॉज़ेज़
क्लॉट
क्लॉटिंग
क्लॉड
क्लॉथ
क्लॉस
क्लो
क्लोक
क्लोकिंग
क्लोज
क्लोजर
क्लोज़
क्लोज़र
क्लोज्ड
क्लोडिअस
क्लोदिंग
क्लोन
क्लोनन
क्लोनिंग
क्लोन्स
क्लोम
क्लोरल
क्लोराइड
क्लोरीन
क्लोरीनीकरण
क्लोरीनीकृत
क्लोरेट
क्लोरेला
क्लोरो
क्लोरोक्विन
क्लोरोक्वीन
क्लोरोप्लास्ट
क्लोरोफार्म
क्लोरोफिल
क्लोरोफॉर्म
क्लोविस
क्लोस
क्लोस्ट्रीडियम
क्लोस्ड
क्लौडिया
क्व
क्वचित्
क्वथन
क्वथनांक
क्वर्टी
क्वांटम
क्वांटा
क्वांटिको
क्वांडट
क्वाचा
क्वाटर
क्वाटर्स
क्वाड
क्वाड्रोफेनिया
क्वाण्टम
क्वात्रा
क्वात्रोक्की
क्वात्रोची
क्वाथ
क्वान
क्वान्टम
क्वार
क्वारंटीन
क्वारी
क्वार्क
क्वार्टज
क्वार्टज़
क्वार्टजाइट
क्वार्टर
क्वार्टरबैक
क्वार्टरमास्टर
क्वार्टरली
क्वार्टरों
क्वार्टर्स
क्वार्टेट
क्वार्टोडेसिमान
क्वार्ट्ज
क्वार्ट्ज़
क्वालालांपुर
क्वालिटी
क्वालिफाइंग
क्वालिफाई
क्वालिस
क्वाली
क्वालीफ़ायर
क्वालीफाइंग
क्वालीफाई
क्वालीफायर
क्विंग
क्विंटल
क्विंसी
क्विक
क्विकटाइम
क्विज
क्विज़
क्विट
क्विटो
क्विडडिच
क्विडिच
क्विन
क्विनाइन
क्विनीन
क्विनोन
क्विनोलीन
क्विनोलोन
क्विरिओ
क्विरियो
क्विल
क्वी
क्वींस
क्वींसलैंड
क्वीन
क्वीन्स
क्वीन्सलैंड
क्वीराली
क्वे
क्वेंटिन
क्वेकर
क्वेटा
क्वेरी
क्वेशुआ
क्वेश्चन
क्वेस्ट
क्वैड
क्वैराला
क्वैराली
क्वैरी
क्वोल
क्ष
क्षण
क्षणभंगुर
क्षणिक
क्षणिकवाद
क्षणों
क्षत
क्षति
क्षतिकारक
क्षतिग्रस्त
क्षतिपूरक
क्षतिपूर्ति
क्षतियों
क्षत्र
क्षत्रप
क्षत्रपों
क्षत्राणियाँ
क्षत्राणी
क्षत्रिय
क्षत्रियों
क्षत्री
क्षत्रीय
क्षत्रों
क्षपणक
क्षम
क्षमता
क्षमताएँ
क्षमताएं
क्षमताओं
क्षमतानुसार
क्षमतावान
क्षमतावाले
क्षमा
क्षमादान
क्षमाप्रार्थना
क्षमाप्रार्थी
क्षमायाचना
क्षमाशील
क्षमाशीलता
क्षम्य
क्षय
क्षयकारी
क्षयचक्र
क्षयदर
क्षयरोग
क्षर
क्षरण
क्षरणों
क्षात्र
क्षात्रधर्म
क्षार
क्षारक
क्षारकीय
क्षारकों
क्षारातु
क्षाराभ
क्षारीय
क्षारीयता
क्षारों
क्षिति
क्षितिज
क्षितिजों
क्षितिपाल
क्षिप
क्षिपप्रणोदन
क्षिप्र
क्षिप्रा
क्षी
क्षीण
क्षीणता
क्षीणन
क्षीर
क्षीरमार्ग
क्षीरसागर
क्षीरस्वामी
क्षीर्ण
क्षील
क्षुदांत्र
क्षुद्र
क्षुद्रक
क्षुद्रग्रह
क्षुद्रग्रहों
क्षुद्रांत्र
क्षुधा
क्षुधावर्धक
क्षुप
क्षुब्ध
क्षुरधार
क्षुल्लक
क्षू
क्षेतिज
क्षेत्र
क्षेत्रक
क्षेत्रचयनित
क्षेत्रज्ञ
क्षेत्रपति
क्षेत्रपाल
क्षेत्रफल
क्षेत्रफलों
क्षेत्रफ़ल
क्षेत्रम
क्षेत्रमापी
क्षेत्रमिति
क्षेत्रयह
क्षेत्रयह्
क्षेत्ररक्षक
क्षेत्ररक्षकों
क्षेत्ररक्षण
क्षेत्रवाद
क्षेत्रवार
क्षेत्रविशेष
क्षेत्रविस्तार
क्षेत्रा
क्षेत्राधिकार
क्षेत्राधिकारियों
क्षेत्राधिकारी
क्षेत्राधिकारों
क्षेत्रिय
क्षेत्रीय
क्षेत्रें
क्षेत्रो
क्षेत्रों
क्षेपक
क्षेपण
क्षेपित
क्षेम
क्षेमकर्ण
क्षेमराज
क्षेमेंद्र
क्षैतिज
क्षैतिजता
क्षैत्र
क्षोभ
क्षोभक
क्षोभमंडल
क्षोभमण्डल
क्षौर
क्ष्
क्सी
क्हान
कड़वाहट
कड़वी
कड़ा
कड़ाई
कड़ाके
कड़ियों
कड़ी
कड़े
कढ़ाई
कढ़ी
कढ़े
ख
ख#
ख.इ
खँडहर
खं
खंगालना
खंगालने
खंजन
खंजर
खंड
खंडकाव्य
खंडगिरि
खंडदेव
खंडन
खंडपीठ
खंडयुक्त
खंडर
खंडवा
खंडहर
खंडहरों
खंड़ों
खंडाला
खंडित
खंडीभवन
खंडूजा
खंडेराव
खंडेलवाल
खंडेला
खंडो
खंडों
खंदक
खंधक
खंबे
खंबों
खंभा
खंभात
खंभे
खंभों
खः
खइ
खग
खगड़िया
खगोल
खगोलज्ञ
खगोलभौतिकी
खगोलविज्ञान
खगोलविज्ञानी
खगोलविद
खगोलविदों
खगोलविद्
खगोलशास्त्र
खगोलशास्त्रिय
खगोलशास्त्रियों
खगोलशास्त्री
खगोलशास्त्रीय
खगोलिकी
खगोलिय
खगोलीय
खगोलीय_इकाई
खगोलीयइकाई
खग्रास
खगड़िया
खङा
खचाखच
खचित
खच्चर
खच्चरों
खज़ाना
खज़ाने
खजांची
खजाना
खजाने
खजानों
खजुराहो
खजुराहों
खजुहा
खजूर
खजूरी
खजौली
खट
खटक
खटकती
खटका
खटखटाएंगे
खटखटाओ
खटखटाना
खटखटाया
खटमल
खटाई
खटाणा
खटाल
खटास
खटिया
खटी
खटीमा
खटीयुग
खटोला
खट्टा
खट्टापन
खट्टी
खट्टे
खडकी
खड़कई
खड़ग
खड़गपुर
खड़नाल
खड़ा
खड़िया
खड़ी
खड़ीबोली
खड़े
खडा
खडी
खडी़
खडूर
खडे
खडे़
खड्ग
खड्ड
खड्डेज़ादा
खड्डों
खण्ड
खण्डकाव्य
खण्डगिरि
खण्डन
खण्डवा
खण्डशः
खण्डहर
खण्डहरों
खण्डित
खण्डेला
खण्डों
खत
खतना
खतने
खतम
खतरनाक
खतरा
खतरे
खतरों
खता
खतामी
खतौली
खत्तियों
खत्ती
खत्म
खत्रियों
खत्री
खदान
खदानें
खदानों
खदिर
खदेड़
खदेड़कर
खदेड़ने
खदेड़ा
खदेड़
खदेड़ने
खदेड़ा
खद्दर
खनन
खना
खनाल
खनि
खनिक
खनिकों
खनिज
खनिजों
खन्ड
खन्ना
खन्नाजी
खन्नी
खप
खपच्चियों
खपत
खपता
खपरैल
खपलांग
खप्पर
खफा
खबर
खबरदार
खबरिया
खबरे
खबरें
खबरों
खमध्य
खमारी
खमीर
खमीरीकरण
खमीरीकृत
खमेर
खम्बे
खम्बों
खम्भा
खम्भे
खम्भों
खम्मम
खम्मा
खम्माम
खयानत
खयाल
खय्याम
खर
खरगे
खरगोन
खरगोश
खरगोशों
खरड़
खरना
खरनाल
खरपतवार
खरपतवारों
खरब
खरबंदा
खरबूजा
खरबूजे
खरबों
खरमास
खरल
खरवा
खरवार
खरा
खराद
खरादों
खराब
खराबी
खराबे
खराश
खरिक
खरिद
खरियर
खरिया
खरी
खरीद
खरीदकर
खरीदता
खरीदती
खरीदते
खरीददार
खरीददारी
खरीददारों
खरीदना
खरीदनी
खरीदने
खरीदा
खरीदार
खरीदारी
खरीदारों
खरीदी
खरीदे
खरीदें
खरीदेंगे
खरीदेगी
खरीफ
खरे
खरोंच
खरोंचें
खरोश
खरोष्ठी
खरौद
खर्च
खर्चा
खर्चित
खर्चीला
खर्चीलापन
खर्चीली
खर्चीले
खर्चे
खर्चों
खल
खलजी
खलड़ी
खलनायक
खलनायकों
खलनायिका
खलफान
खलफाम
खलबली
खलल
खलिफा
खलिलुर
खलिहान
खलिहानों
खली
खलीफ
खलीफ़ा
खलीफ़ाओं
खलीफा
खलीफाओं
खलील
खलीलजाद
खलीलाबाद
खलु
खल्दी
खवासा
खश
खस
खसखस
खसरा
खसरे
खसों
खसोट
खस्ता
खस्ताहाल
ख़
ख़ंजर
ख़आना
ख़कास
ख़कासिया
ख़च्चर
ख़ज़र
ख़ज़ाना
ख़ज़ाने
ख़टक
ख़तम
ख़तरनाक
ख़तरा
ख़तरे
ख़तरों
ख़तलोन
ख़त्म
ख़बर
ख़बरदार
ख़बरें
ख़बरों
ख़म
ख़याल
ख़रगोश
ख़रती
ख़राब
ख़राबी
ख़राश
ख़रीद
ख़रीदने
ख़रीदा
ख़रीदारी
ख़रीदी
ख़रीदे
ख़रीफ़
ख़रूंगा
ख़र्च
ख़र्चा
ख़लजी
ख़लीज
ख़लीफ़ा
ख़लीफ़ाओं
ख़लीफा
ख़वाजा
ख़़ुदा
ख़ाँ
ख़ां
ख़ाक
ख़ाकी
ख़ागान
ख़ागानत
ख़ाचीतरख़ान
ख़ातिर
ख़ातून
ख़ात्मा
ख़ान
ख़ानक़ाह
ख़ानक़ाही
ख़ानगई
ख़ानत
ख़ानदान
ख़ानदानी
ख़ानदेश
ख़ानम
ख़ाना
ख़ानाबदोश
ख़ाने
ख़ानों
ख़ाबारोव्स्क
ख़ारज़म
ख़ारवेल
ख़ारिज
ख़ाल
ख़ाली
ख़ास
ख़ासकर
ख़ासा
ख़ासियत
ख़ासी
ख़िज़्र
ख़ितान
ख़ितानी
ख़िताब
ख़िताबी
ख़िलजी
ख़िलाफ
ख़िलाफ़
ख़िलाफ़त
ख़ीक
ख़ीवा
ख़ुजन्द
ख़ुद
ख़ुदकुशी
ख़ुदा
ख़ुफ़िया
ख़ुबानी
ख़ुमैनी
ख़ुराक
ख़ुरासान
ख़ुर्द
ख़ुलासा
ख़ुश
ख़ुशबू
ख़ुशबूदार
ख़ुशहाली
ख़ुशी
ख़ुश्क
ख़ुसरो
ख़ून
ख़ूब
ख़ूबसूरत
ख़ूबसूरती
ख़ूबी
ख़ेल
ख़ैबर
ख़ैर
ख़ोक़न्द
ख़ोज
ख़ोतान
ख़ोरज़्म
ख़ोरासान
ख़ोरूग़
ख़ोलोदिलनिक
ख़ोस्त
ख़ौफ़
ख़्याल
ख़्रुशचेव
ख़्वाजा
ख़्वाब
ख़्वारेज़्म
ख़्वारेज़्मी
ख़्वाह
ख़्वाहिश
खा
खा.प
खाँ
खाँग
खाँच
खाँचा
खाँचे
खाँचों
खाँसी
खां
खांचा
खांचे
खांचों
खांड
खांडवप्रस्थ
खांडवी
खांडसारी
खांडाखेड़ी
खांडेकर
खांमियों
खांसी
खाइयाँ
खाइयों
खाई
खाऊंगी
खाए
खाएँ
खाएं
खाएंगे
खाएगा
खाओ
खाक
खाकर
खाका
खाकाकृतिदेव
खाकानी
खाकी
खाके
खाज
खाजा
खाट
खाटू
खाटूश्यामजी
खाड़ियां
खाड़ियों
खाड़ी
खाडी
खाडी़
खाणी
खाण्डव
खाण्डववन
खात
खातमे
खाता
खाताधारक
खातिर
खाती
खातून
खाते
खातो
खातों
खात्मा
खात्मे
खात०३
खात०४
खाद
खादर
खादिमों
खादी
खादों
खाद्य
खाद्यजनित
खाद्यपदार्थ
खाद्यपदार्थों
खाद्यान्न
खाद्यान्नों
खाद्यों
खान
खानकाह
खानखाना
खानजहाँ
खानदान
खानदानी
खानदेश
खानपान
खानपुर
खानसामा
खाना
खानाबदोश
खानाबल
खानी
खाने
खानें
खानेखाना
खानेवाला
खानेवाले
खानों
खानोमटोम
खानोलकर
खाप
खाफजी
खाबड़
खाम
खामियाँ
खामियां
खामियाजा
खामियों
खामी
खामोश
खामोशी
खाय
खाया
खायी
खाये
खायें
खायेंगे
खायेगा
खार
खारक
खारगुली
खारतूम
खारवेल
खारा
खारापन
खारावेला
खारिज
खारिज़
खारी
खारुन
खारे
खारेपन
खारो
खार्तूम
खाल
खालसा
खालिक
खालिकबारी
खालिद
खालिदा
खालिस
खालिस्तान
खालिस्तानी
खाली
खालीपन
खालें
खालों
खाल्हे
खास
खासकर
खासतौर
खासा
खासियत
खासियतों
खासिया
खासियों
खासी
खासे
खाड़ाखेड़ी
खाड़ी
खा०प०
खिंच
खिंचकर
खिंचता
खिंचती
खिंचने
खिंचवाई
खिंचवाए
खिंचवाने
खिंचा
खिंचाई
खिंचाव
खिंचावों
खिंची
खिंचे
खिच
खिचड़ी
खिचाव
खिज़िरसराय
खिज्र
खिडकियों
खिडकी
खिड़कियाँ
खिड़कियां
खिड़कियों
खिड़की
खिताब
खिताबी
खिताबों
खिदमत
खिदमतगार
खिन्न
खिन्नता
खिरनी
खिरमे
खिरसू
खिराज
खिल
खिलखिलाकर
खिलजी
खिलता
खिलती
खिलते
खिलना
खिलने
खिलवाड़
खिलवाड़
खिला
खिलांगुंड
खिलाई
खिलाकर
खिलाड़ियाँ
खिलाड़ियों
खिलाड़ी
खिलाड़ीयों
खिलाडियों
खिलाडि़यों
खिलाडी
खिलाती
खिलाते
खिलाना
खिलाने
खिलाफ
खिलाफत
खिलाफ़
खिलाफ़त
खिलाफी
खिलाया
खिलाये
खिलावट
खिलाड़ियों
खिलाड़ी
खिलाफ़
खिली
खिले
खिलोने
खिलौना
खिलौने
खिलौनों
खिल्ली
खिसक
खिसकता
खिसकती
खिसकते
खिसकना
खिसकने
खिसका
खिसकाकर
खिसकाने
खिसकाया
खिड़कियां
खिड़कियों
खिड़की
खी
खींच
खींचकर
खींचता
खींचतान
खींचती
खींचते
खींचना
खींचने
खींचनेवाला
खींचा
खींचातानी
खींचाव
खींची
खींचे
खींचें
खींचेगा
खीच
खीचते
खीचने
खीचा
खीची
खीचें
खीझ
खीझकर
खीर
खीरा
खीरी
खीरे
खील
खीव
खुंखार
खुची
खुचे
खुजलाहट
खुजली
खुतन
खुद
खुदकुशी
खुदरा
खुदवा
खुदवाए
खुदवाना
खुदवाने
खुदवाया
खुदा
खुदाइयों
खुदाई
खुदादाद
खुदाबंदपुर
खुदाबक़्श
खुदाया
खुदी
खुदीराम
खुदे
खुद्दक
खुद्दकनिकाय
खुन
खुफ़िया
खुफिया
खुफु
खुब
खुबसुरत
खुबसूरत
खुबानी
खुमार
खुमैनी
खुर
खुरच
खुरचकर
खुरचने
खुरजा
खुरदरा
खुरदरापन
खुरदरी
खुरदरे
खुरदार
खुरदुरी
खुरदुरे
खुरपी
खुरवाले
खुराक
खुराकें
खुराकों
खुराना
खुरासान
खुरों
खुर्जा
खुर्द
खुर्दा
खुर्रम
खुर्राट
खुर्शीद
खुल
खुलकर
खुलता
खुलती
खुलते
खुलना
खुलने
खुलवा
खुलवाए
खुलवाकर
खुलवाने
खुलवाया
खुला
खुलापन
खुलासा
खुलासे
खुली
खुलीं
खुले
खुलेंगी
खुलेंगे
खुलेआम
खुलेगा
खुलेपन
खुल्लम
खुल्ला
खुश
खुशक़ती
खुशनुमा
खुशनूदा
खुशबू
खुशबूदार
खुशरुपुर
खुशवंत
खुशहाल
खुशहाली
खुशाब
खुशामद
खुशालपुर
खुशियाँ
खुशियां
खुशियों
खुशी
खुश्क
खुसरुपूर
खुसरो
खुसरों
खुसरौ
खु़द
खु़दा
खू
खूँखार
खूँटी
खूंखार
खूंट
खूंटी
खूंटे
खून
खूनखराबा
खूनी
खूब
खूबसूरत
खूबसूरती
खूबानी
खूबियाँ
खूबियां
खूबियों
खूबी
खू़ब
खे
खेंव
खेचने
खेचर
खेजड़ली
खेजड़ी
खेटक
खेड़ा
खेड़ी
खेडा
खेडिया
खेत
खेतान
खेतिहर
खेती
खेतीबारी
खेतो
खेतों
खेद
खेदजनक
खेने
खेप
खेम
खेमकरण
खेमा
खेमे
खेमें
खेमेबंदी
खेमों
खेर
खेरा
खेरिया
खेरी
खेल
खेलकर
खेलकूद
खेलचंद्र
खेलता
खेलती
खेलते
खेलन
खेलना
खेलने
खेलनेवाले
खेला
खेली
खेले
खेलें
खेलेंगे
खेलेगा
खेलो
खेलों
खेळतां
खेवड़ा
खेसारी
खेड़ा
खैबर
खैर
खैरा
खैरागढ
खैरागढ़
खैरात
खैराबाद
खैराली
खैरी
खैरोला
खैशगियों
खैशगी
खो
खोंड
खोई
खोईसान
खोए
खोएं
खोकर
खोखर
खोखरापार
खोखला
खोखलापन
खोखली
खोखले
खोखलेपन
खोज
खोजक
खोजकर
खोजकर्ता
खोजकर्ताओं
खोजता
खोजती
खोजते
खोजना
खोजने
खोजपूर्ण
खोजबीन
खोजमें
खोजयात्री
खोजशब्द
खोज़
खोजा
खोजी
खोजे
खोजें
खोजों
खोट
खोटी
खोटे
खोड़ी
खोता
खोती
खोते
खोद
खोदकर
खोदता
खोदते
खोदना
खोदने
खोदा
खोदाई
खोदी
खोदे
खोना
खोने
खोपड़ियां
खोपड़ियों
खोपड़ी
खोपरा
खोपोली
खोबर
खोमैन
खोमैनी
खोया
खोयी
खोये
खोर
खोरधा
खोरासान
खोल
खोलकर
खोलता
खोलती
खोलते
खोलना
खोलने
खोला
खोली
खोलीं
खोले
खोलें
खोलेंगे
खोलेगा
खोलो
खोलों
खोळे
खोवा
खोवार
खोसला
खोह
खौफ
खौफजदा
खौफनाक
खौलता
खौलते
ख्
ख्मेर
ख्यात
ख्यातनाम
ख्याति
ख्यातिप्राप्त
ख्यातिलब्ध
ख्याती
ख्याल
ख्यालों
ख्रिस
ख्रीष्टाब्द
ख्रुश्चेव
ख्वांग
ख्वाज़ा
ख्वाजा
ख्वाब
ख्वारिज्मी
ख्वास
ख्वाहिश
ख्वाज़ा
खड़कने
खड़गपुर
खड़गे
खड़ा
खड़ी
खड़े
ग
ग#
गँवा
गँवाने
गं
गंग
गंगटी
गंगटोक
गंगनानी
गंगरेल
गंगवार
गंगा
गंगाजल
गंगाजी
गंगातट
गंगाद्वार
गंगाधर
गंगानगर
गंगानाथ
गंगापुर
गंगाबाई
गंगाराम
गंगालहरी
गंगावतरण
गंगाशरण
गंगासागर
गंगुभाई
गंगू
गंगूबाई
गंगे
गंगेश
गंगेशोपाध्याय
गंगों
गंगोत्री
गंगोपाध्याय
गंगोली
गंगोलीहाट
गंग्लिया
गंज
गंजा
गंजापन
गंजाम
गंजे
गंजेपन
गंठबंधन
गंड
गंडक
गंडकी
गंडदेव
गंडमाला
गंडिका
गंतव्य
गंतव्यों
गंथ
गंद
गंदगी
गंदा
गंदारादित्य
गंदी
गंदे
गंध
गंधक
गंधकाम्ल
गंधकुटी
गंधयुक्त
गंधर्व
गंधर्वन
गंधर्वो
गंधर्वों
गंधहीन
गंधार
गंधी
गंप
गंभीर
गंभीरता
गंभीरतापूर्वक
गंवई
गंवा
गंवाई
गंवाए
गंवाना
गंवानी
गंवाने
गंवार
गंशोफ़
गंड़ासे
गइ
गई
गई.इस
गईं
गईइस
गए
गए.इस
गए.एक
गए.यह
गएँ
गएइस
गएएक
गएयह
गऐ
गकई
गगन
गगनचुंबी
गगनचुम्बी
गगनदीप
गगना
गगनीं
गगरीबल
गगवा
गगारिन
गग०४
गङ्गा
गच्चीबोवली
गच्छ
गज
गजट
गजनवी
गजनी
गजनेर
गजपति
गजपुरी
गजब
गजराज
गजरौला
गजल
गजलें
गजलों
गजसिंह
गज़
गज़ट
गज़नबी
गज़नवी
गज़नी
गज़ब
गज़ल
गज़लें
गज़लों
गज़ा
गजानन
गजार
गजिनी
गजेटियर
गट
गटर
गटापारचा
गट्टा
गट्टी
गट्ठर
गट्ठरों
गठजोड़
गठजोड़
गठन
गठबंधन
गठबंधनों
गठबन्धन
गठरी
गठित
गठिया
गठियारूप
गठीला
गठीले
गठे
गडकरी
गडग
गडबडी
गड़
गड़गड़ाहट
गड़बड़
गड़बड़ा
गड़बड़ियों
गड़बड़ी
गड़रिये
गड़ा
गड़ी
गड़े
गड़ेरिये
गडी
गडेरा
गड्डी
गड्ढ़े
गड्ढ़ों
गड्ढा
गड्ढे
गड्ढों
गढ
गढकालिका
गढपुरा
गढवा
गढवाल
गढ़
गढ़ना
गढ़ने
गढ़पति
गढ़मुक्तेश्वर
गढ़वा
गढ़वाल
गढ़वाली
गढ़ा
गढ़ाई
गढ़िया
गढ़ी
गढ़े
गढ़ों
गढा
गढिया
गढी
गढ्ढे
गण
गणक
गणकीय
गणगौर
गणचिह्न
गणतंत्र
गणतंत्रात्मक
गणतंत्रीय
गणतंत्रों
गणतन्त्र
गणतांत्रिक
गणधर
गणन
गणना
गणनाएँ
गणनाएं
गणनाओं
गणनात्मक
गणनीय
गणपत
गणपतये
गणपति
गणपती
गणपाठ
गणपूर्ति
गणमान्य
गणराज्य
गणराज्यों
गणवेश
गणशंकरन
गणिका
गणित
गणितज्ञ
गणितज्ञों
गणितशास्त्र
गणितीय
गणित्र
गणेश
गणेशजी
गणेशन
गणेशपुर
गणेशशंकर
गणेशोत्सव
गणों
गण्डकी
गत
गतः
गतका
गति
गतिः
गतिक
गतिकी
गतिकीय
गतिज
गतिजनक
गतिनियम
गतिनियामक
गतिबद्ध
गतिबोधक
गतिभंग
गतिमयता
गतिमान
गतिम्
गतियाँ
गतियां
गतियों
गतिरोध
गतिवाले
गतिविज्ञान
गतिविधि
गतिविधियाँ
गतिविधियां
गतिविधियों
गतिविधी
गतिशील
गतिशीलता
गतिस्त्वं
गतिहीन
गतिहीनता
गती
गते
गत्ते
गत्य
गत्यवरोध
गत्यात्मक
गत्यात्मकता
गद
गदग
गदनपुर
गदर
गदहे
गदा
गदाधर
गदायुद्ध
गदी
गद्दाफ़ी
गद्दाफी
गद्दार
गद्दारी
गद्दी
गद्दे
गद्देदार
गद्य
गद्यकार
गद्यकारों
गद्यकाव्य
गद्यरचना
गद्यलेखक
गद्यलेखकों
गद्यशैली
गद्यात्मक
गधा
गधे
गधों
गन
गनकॉटन
गनगौर
गनर
गनी
गनीमत
गनों
गन्गा
गन्तव्य
गन्दगी
गन्दा
गन्दी
गन्दे
गन्ध
गन्धक
गन्धकाम्ल
गन्धर्व
गन्धर्वराज
गन्धर्वों
गन्धार
गन्धीय
गन्न
गन्ना
गन्ने
गन्स
गपशप
गप्प
गफलत
गफ्फार
गबन
गबरघिचोर
गबरघिचोरन
गब्बर
गब्र्याल
गभाना
गभीर
गम
गमक
गमगीन
गमछा
गमती
गमन
गमनागमन
गमनीय
गमर
गमला
गमले
गमलों
गमागम
गमागमन
गमे
गम्भीर
गम्भीरता
गम्य
गम्यता
गय
गया
गया.अक्टूबर
गया.अगले
गया.इन
गया.इस
गया.इसका
गया.इसके
गया.इसी
गया.उस
गया.एक
गया.कुछ
गया.तब
गया.द
गया.दिसंबर
गया.बाद
गया.बैंड
गया.मई
गया.यह
गया.वह
गया.संयुक्त
गया.हालांकि
गयाअक्टूबर
गयाअगले
गयाइन
गयाइस
गयाइसका
गयाइसके
गयाइसी
गयाउस
गयाएक
गयाकुछ
गयातब
गयाद
गयादिसंबर
गयाना
गयाबाद
गयाबैंड
गयामई
गयायह
गयावह
गयासंयुक्त
गयासुद्दीन
गयाहालांकि
गयि
गयी
गयीं
गयूम
गये
गयें
गयो
गयौ
गर
गरगढी
गरज
गरदन
गरदेज़
गरबा
गरबी
गरम
गरमपंथियों
गरमा
गरमागरम
गरमाया
गरमाहट
गरमियों
गरमी
गरल
गरां
गराज
गरिमा
गरिमापूर्ण
गरिमामय
गरिष्ठ
गरी
गरीब
गरीबदास
गरीबी
गरीबों
गरुङ
गरुड
गरुड़
गरुड़पुराण
गरुण
गरूड़
गरूड़
गरेर
गर्इं
गर्ग
गर्गसंहिता
गर्गाचार्य
गर्जन
गर्जना
गर्जिया
गर्डर
गर्डरों
गर्डा
गर्त
गर्तिका
गर्थ
गर्द
गर्दन
गर्दभ
गर्दे
गर्न
गर्भ
गर्भकाल
गर्भकालीन
गर्भगृह
गर्भग्रह
गर्भधारण
गर्भनाल
गर्भनिरोध
गर्भनिरोधक
गर्भनिरोधकों
गर्भपात
गर्भवती
गर्भवस्था
गर्भस्थ
गर्भस्थापना
गर्भस्राव
गर्भाधान
गर्भाधानों
गर्भावस्था
गर्भाशय
गर्भाश्रम
गर्भाषय
गर्भिणी
गर्भित
गर्म
गर्मगराम
गर्मजोशी
गर्मागर्म
गर्माहट
गर्मियाँ
गर्मियां
गर्मियों
गर्मी
गर्मीयों
गर्रोस
गर्ल
गर्लफ्रेंड
गर्ल्स
गर्व
गर्वनर
गर्वित
गर्वे
गल
गलकर
गलकोष
गलगंड
गलगण्ड
गलगत
गलत
गलतफहमियों
गलतफहमी
गलतियाँ
गलतियां
गलतियों
गलती
गलतुंडिका
गलन
गलनक्रांतिक
गलनांक
गलने
गलफड़
गलफड़े
गलफड़ों
गलशोथ
गला
गलाकर
गलाने
गलाया
गलिट
गलित
गलियाँ
गलियां
गलियारा
गलियारे
गलियारों
गलियों
गली
गलीचे
गले
गलौज
गल्ती
गल्प
गल्फ
गल्फस्ट्रीम
गल्फ़
गल्फ्रिदियन
गल्र्रर्स
गल्ला
गल्लाकरण
गळा
गवडा
गवय
गवर
गवर्नमेंट
गवर्नमेंट्स
गवर्नर
गवर्नरों
गवर्नर्स
गवर्निंग
गवर्नेंस
गवर्नेस
गवर्न्मेंट
गवर्मेंट
गवल
गवली
गवा
गवाँ
गवां
गवांनी
गवाए
गवाक्ष
गवाक्षों
गवादर
गवाने
गवाया
गवार
गवारा
गवाह
गवाही
गवाहों
गवेषण
गवेषणा
गवेषणात्मक
गश्त
गश्ती
गस
गस्ट
गस्त
गहड
गहड़वाल
गहन
गहनतम
गहनता
गहना
गहने
गहनों
गहमरी
गहमा
गहमी
गहरवार
गहरा
गहराइयों
गहराई
गहराईयों
गहरायी
गहरी
गहरे
गहलोत
गहि
गहिरा
गह्वर
गह्वरों
ग़
ग़ई
ग़जनी
ग़ज़
ग़ज़नवियों
ग़ज़नवी
ग़ज़ना
ग़ज़नी
ग़ज़ब
ग़ज़ल
ग़ज़लकार
ग़ज़लें
ग़ज़लों
ग़ज़ा
ग़दर
ग़बन
ग़म
ग़यासुद्दीन
ग़र
ग़रज़
ग़रीब
ग़रीबी
ग़रीबों
ग़लत
ग़लतफ़हमी
ग़लतियाँ
ग़लतियों
ग़लती
ग़ाज़ियाबाद
ग़ाज़ी
ग़ायब
ग़ालिब
ग़िज़र
ग़ियास
ग़ुलाम
ग़ुलामी
ग़ुलामों
ग़ुस्सा
ग़ुस्से
ग़ैर
ग़ैरक़ानूनी
ग़ैरकानूनी
ग़ोताख़ोर
ग़ोताख़ोरी
ग़ोर
ग़ोरियों
ग़ोरी
ग़ौर
ग़ौरी
गा
गाँजा
गाँठ
गाँठें
गाँठों
गाँधी
गाँधीजी
गाँधीनगर
गाँधीवादी
गाँव
गाँवो
गाँवों
गांग
गांगुली
गांगेय
गांगेयदेव
गांजा
गांठ
गांठदार
गांठी
गांठें
गांठों
गांदिनी
गांधर्व
गांधार
गांधारी
गांधी
गांधीजी
गांधीधाम
गांधीनगर
गांधीवाद
गांधीवादी
गांभीर्य
गांव
गांववाले
गांववालों
गांवा
गांवीं
गांवो
गांवों
गांसू
गाइ
गाइड
गाइडवे
गाइडिंग
गाइडेंस
गाइडेड
गाइडो
गाइडों
गाइड्स
गाइया
गाइल्स
गाई
गाईड
गाउट
गाउन
गाउले
गाउस
गाए
गाएँ
गाएं
गाएलिक
गाओ
गाकर
गागर
गागा
गाछुआपाड़ा
गाज
गाजर
गाज़ा
गाज़ियाबाद
गाज़ी
गाज़ीपुर
गाजा
गाजियाबाद
गाजी
गाजीपुर
गाजे
गाड
गाडगिल
गाड़
गाड़कर
गाड़ना
गाड़ने
गाड़ा
गाड़ियाँ
गाड़ियां
गाड़ियों
गाड़ी
गाड़े
गाडियाँ
गाडियां
गाडियों
गाडी
गाडी़
गाढ़ा
गाढ़ापन
गाढ़ी
गाढ़े
गाढा
गाढी
गाढे
गाण्डीव
गाता
गाती
गाते
गाथा
गाथाएँ
गाथाएं
गाथाओं
गाथागीत
गाथासप्तशती
गाद
गाधवी
गाधि
गाधी
गान
गाना
गाने
गाने-बजाने
गानेबजाने
गानेवाली
गानो
गानों
गान्दरबल
गान्धर्व
गान्धार
गान्धारी
गान्धी
गान्धीजी
गान्व
गाबा
गाम
गामक
गामा
गामी
गाम्बिया
गाय
गायक
गायकवाड
गायकवाड़
गायकी
गायकों
गायघाट
गायतोंडे
गायत्री
गायन
गायना
गायब
गाया
गायिक
गायिका
गायिकाएं
गायिकाओं
गायिकी
गायी
गाये
गायें
गायो
गायों
गार
गारंटर
गारंटियों
गारंटी
गारंटीकृत
गारनेट
गारफील्ड
गारमेंट
गारलैंड
गारा
गारामुखी
गारी
गारीबाल्दी
गारे
गारो
गारोहिल्स
गार्गी
गार्ग्य
गार्जियन
गार्टनर
गार्टर
गार्ड
गार्डंस
गार्डन
गार्डनर
गार्डन्स
गार्डस
गार्डियन
गार्डिया
गार्डेन
गार्डेन्स
गार्डो
गार्डों
गार्ड्स
गार्थ
गार्नर
गार्नियर
गार्निश
गार्नेट
गार्बेज
गार्सिया
गार्हपत्य
गार्हस्थ्य
गाल
गालक
गालन
गालव
गाला
गालिब
गालियाँ
गालियां
गालियों
गाली
गाले
गालों
गाल्टन
गाल्सवर्दी
गाव
गावं
गावत
गावदुम
गावस्कर
गावित
गाविसहरू
गावे
गावै
गावो
गावों
गावड़ा
गाशकोव
गाह
गाहड़वाल
गाहे
गाज़ियाबाद
गाज़ी
गाड़ियाँ
गाड़ियां
गाड़ियों
गाड़ी
गि
गिंकाना
गिंडी
गिंसबर्ग
गिअर
गिआ
गिग
गिग्स
गिचिन
गिजगिजिया
गिजा
गिजेला
गिटार
गिटारवादक
गिटारवादकों
गिटारिस्ट
गिटारों
गिट्टी
गिदोन
गिद्ध
गिद्धों
गिन
गिनकर
गिनती
गिनते
गिनना
गिनने
गिनवा
गिना
गिनाई
गिनाए
गिनाते
गिनाया
गिनाये
गिनी
गिनीज
गिनीज़
गिनीपिग
गिनीयन
गिने
गिन्नी
गिन्सबर्ग
गिफ्ट
गिबन
गिबन्स
गिबर्नौ
गिब्बन
गिब्स
गिब्सन
गिमिगनानो
गिम्मी
गिम्ली
गियर
गियरबॉक्स
गियर्स
गिया
गियोरो
गियोवान्नी
गिर
गिरकर
गिरगिट
गिरजा
गिरजाघर
गिरजाघरों
गिरजे
गिरत
गिरता
गिरती
गिरते
गिरधर
गिरधरपुर
गिरधारी
गिरना
गिरनार
गिरने
गिरनेवाली
गिरनेवाले
गिरफतार
गिरफ़्तार
गिरफ़्तारी
गिरफ्त
गिरफ्तार
गिरफ्तारियां
गिरफ्तारियों
गिरफ्तारी
गिरमिट
गिरमिटिया
गिरमिटियों
गिरवा
गिरवी
गिरा
गिराई
गिराए
गिराकर
गिराता
गिराती
गिराते
गिराना
गिराने
गिरामी
गिराया
गिराये
गिरावट
गिरि
गिरिका
गिरिजा
गिरिजाकुमार
गिरिजाघर
गिरिजाघरों
गिरिडिह
गिरिडीह
गिरिधर
गिरिपथ
गिरिराज
गिरिव्रज
गिरी
गिरीं
गिरीडीह
गिरीदार
गिरीश
गिरूंगा
गिरे
गिरेंगे
गिरेगा
गिरो
गिरोह
गिरोहों
गिर्द
गिरफ़्तार
गिरफ़्तारी
गिल
गिलक्राइस्ट
गिलक्रिस्ट
गिलगमेश
गिलगिट
गिलगित
गिलट
गिलबर्ट
गिलमोर
गिलरॉय
गिलहरियाँ
गिलहरियों
गिलहरी
गिला
गिलाड
गिलान
गिलानी
गिलार्ड
गिलास
गिलियन
गिलियम
गिलेनहाल
गिलेस्पी
गिलोटिन
गिलोय
गिलौम
गिल्ट
गिल्टी
गिल्ड
गिल्डफोर्ड
गिल्डर
गिल्बर्ट
गिल्मर
गिल्लियों
गिल्ली
गिल्ल्बेर्ग
गिल्स
गिळी
गिव
गिवेंची
गिवेंस
गिव्स
गिसेल
गी
गींदड़
गीअस
गीगा
गीगाबाइट
गीगावाट
गीगाहर्ट्ज़
गीजर
गीज़
गीज़र
गीज़ा
गीत
गीतकार
गीतकारों
गीतकाव्य
गीतगोविंद
गीतगोविन्द
गीतपहल
गीतमाला
गीतलेखन
गीता
गीतांजलि
गीतात्मक
गीताप्रेस
गीतावली
गीति
गीतिका
गीतिकाव्य
गीतिनाट्य
गीतो
गीतों
गीदड़
गीनिया
गीबत
गीयर
गीला
गीली
गीले
गीशा
गीज़र
गु
गुंग
गुंज
गुंजन
गुंजयमान
गुंजा
गुंजाइश
गुंजायमान
गुंटुर
गुंटूर
गुंटूरू
गुंडप्पा
गुंडा
गुंडागर्दी
गुंडिचा
गुंडे
गुंडों
गुंथा
गुंथी
गुंथे
गुंफित
गुंबज
गुंबद
गुंबददार
गुंबदनुमा
गुंबदाकार
गुंबदों
गुआ
गुआंगज़ौ
गुआंगदोंग
गुआंगशी
गुआंग्झोऊ
गुआंटानामो
गुआटेमाला
गुआडलकैनाल
गुआदेलूप
गुआम
गुआरानी
गुइ
गुइझोऊ
गुइयांग
गुइलर
गुइलिन
गुओ
गुओमिंदांग
गुक्की
गुगल
गुग्गुल
गुच्ची
गुच्छ
गुच्छा
गुच्छिका
गुच्छिकाएँ
गुच्छिकाओं
गुच्छे
गुच्छेदार
गुच्छों
गुजर
गुजरकर
गुजरता
गुजरती
गुजरते
गुजरना
गुजरने
गुजरनेवाली
गुजरा
गुजराँवाला
गुजरांवाला
गुजरात
गुजराती
गुजराल
गुजरी
गुजरे
गुजरेंगे
गुजरेगा
गुजरेगी
गुज़र
गुज़रकर
गुज़रता
गुज़रती
गुज़रते
गुज़रना
गुज़रने
गुज़रा
गुज़री
गुज़रे
गुज़ार
गुज़ारना
गुज़ारने
गुज़ारा
गुज़ारिश
गुज़ारी
गुज़ारे
गुजां
गुजार
गुजारते
गुजारना
गुजारनी
गुजारने
गुजारा
गुजारिश
गुजारी
गुजारे
गुजारें
गुज्जर
गुझिया
गुट
गुटका
गुटके
गुटकों
गुटखा
गुटनिरपेक्ष
गुटबंदी
गुटबाजी
गुटीय
गुटेनबर्ग
गुटो
गुटों
गुठली
गुठलीदार
गुड
गुडगाँव
गुडगांव
गुडबाई
गुडबाय
गुडमैन
गुडविन
गुड़
गुड़गाँव
गुड़गांव
गुड़हल
गुड़ाई
गुड़िया
गुड़ियाँ
गुड़ियों
गुड़ी
गुड़ेरियन
गुडापुरम
गुडि़यां
गुडी
गुडेरियन
गुड्डी
गुड्स
गुण
गुणक
गुणकारी
गुणकों
गुणगान
गुणग्राही
गुणज
गुणता
गुणदोष
गुणदोषों
गुणधर्म
गुणधर्मो
गुणधर्मों
गुणन
गुणनखंड
गुणनखण्ड
गुणनफल
गुणभद्र
गुणभेद
गुणवता
गुणवती
गुणवत्ता
गुणवत्तापूर्ण
गुणवत्तायुक्त
गुणवर्धक
गुणवाचक
गुणवान
गुणवान्
गुणवाले
गुणसूत्र
गुणसूत्री
गुणसूत्रों
गुणस्तर
गुणा
गुणांक
गुणांकों
गुणाकर
गुणाढय
गुणाढ्य
गुणातीत
गुणात्मक
गुणारोपण
गुणित
गुणी
गुणीं
गुणीभूत
गुणे
गुणो
गुणों
गुणोत्तर
गुण्डों
गुत्थियां
गुत्थियों
गुत्थी
गुथरी
गुदगुदी
गुदने
गुदनों
गुदवाने
गुदा
गुदाद्वार
गुन
गुनगुना
गुनगुनाने
गुनगुनी
गुनगुने
गुनहगार
गुना
गुनाह
गुनाहों
गुनियों
गुनी
गुनुंग
गुने
गुन्न
गुन्ना
गुन्नार
गुपचुप
गुपी
गुप्त
गुप्तकाल
गुप्तकालीन
गुप्तकाशी
गुप्तचर
गुप्तचरों
गुप्तयुग
गुप्तलेख
गुप्तवंश
गुप्ता
गुप्तांग
गुप्तांगों
गुप्ते
गुप्तेशवर
गुप्तेश्वर
गुप्तों
गुफ़ा
गुफ़ाएँ
गुफ़ाएं
गुफ़ाओं
गुफा
गुफाएँ
गुफाएं
गुफाओं
गुबार
गुब्बारा
गुब्बारे
गुब्बारों
गुम
गुमथला
गुमनाम
गुमनामी
गुमराह
गुमराही
गुमला
गुमशुदगी
गुमसुम
गुमान
गुमानी
गुमार
गुम्
गुम्फा
गुम्बज
गुम्बज़
गुम्बद
गुम्बददार
गुम्बदनुमा
गुम्बदाकार
गुम्बदों
गुम्बा
गुयाना
गुयुक
गुर
गुरकंवल
गुरखा
गुरजिंदर
गुरदास
गुरदासपुर
गुरदे
गुरदेव
गुरबचन
गुरमत
गुरमीत
गुरमुखी
गुरमेल
गुरवे
गुरशरण
गुरसेवक
गुरा
गुराड
गुराडस्यू
गुराडस्यूं
गुराड०
गुरारू
गुरा०
गुरिंदर
गुरिया
गुरिल्ला
गुरिल्लाओं
गुरु
गुरुं
गुरुंग
गुरुः
गुरुआ
गुरुओ
गुरुओं
गुरुकुल
गुरुकुलों
गुरुक्कल
गुरुगीता
गुरुग्रंथ
गुरुग्रन्थ
गुरुचरण
गुरुजन
गुरुजनों
गुरुजी
गुरुतर
गुरुता
गुरुतुल्य
गुरुत्त्वाकर्षण
गुरुत्व
गुरुत्वकर्षण
गुरुत्वकेंद्र
गुरुत्वजनित
गुरुत्वाकर्षक
गुरुत्वाकर्षण
गुरुत्वीय
गुरुदक्षिणा
गुरुदत्त
गुरुदास
गुरुदासपुर
गुरुदेव
गुरुद्धारा
गुरुद्वारा
गुरुद्वारे
गुरुद्वारों
गुरुनानक
गुरुपद
गुरुपा
गुरुपुत्र
गुरुभक्ति
गुरुमुखी
गुरुमूर्ति
गुरुलिंग
गुरुवन्दना
गुरुवर
गुरुवाणी
गुरुवायुर
गुरुवायुरप्पन
गुरुवायूर
गुरुवार
गुरुसत्ता
गुरुसेवा
गुरू
गुरूओं
गुरूकुल
गुरूजी
गुरूत्व
गुरूत्वाकर्षण
गुरूदेव
गुरूदेवके
गुरूदेवने
गुरूद्वारा
गुरूद्वारे
गुरूद्वारों
गुरूमुखी
गुरूवार
गुरेज
गुरेज़
गुरेरा
गुरेरो
गुरेज़
गुरोः
गुरोरधिकं
गुरौ
गुर्गे
गुर्गों
गुर्जर
गुर्जरो
गुर्जरों
गुर्दा
गुर्दे
गुर्दों
गुर्राहट
गुल
गुलज़ार
गुलज़ारी
गुलजार
गुलजारी
गुलदस्ता
गुलदस्ते
गुलदाउदी
गुलदान
गुलनार
गुलबर्ग
गुलबर्गा
गुलमर्ग
गुलमोहर
गुलशन
गुलाग
गुलाब
गुलाबजल
गुलाबजी
गुलाबराय
गुलाबी
गुलाबों
गुलाम
गुलामी
गुलामों
गुलाल
गुलिका
गुलिरमो
गुलिवर
गुलिवर्स
गुलिस्ताँ
गुलिस्तान
गुलिस्तोन
गुलु
गुलेर
गुलेरी
गुलेल
गुल्फ
गुल्म
गुल्मी
गुल्ली
गुवानिन
गुवाहटी
गुवाहाटी
गुवाहाटी_एक्स्प्रेस_####
गुवाहाटीएक्स्प्रेस
गुस
गुसाई
गुस्तव
गुस्ताव
गुस्तावो
गुस्सा
गुस्साई
गुस्साए
गुस्से
गुस्सैल
गुह
गुहा
गुहाएँ
गुहाओं
गुहार
गुहिका
गुहिल
गुह्य
गुज़रते
गुज़रने
गुज़ारा
गुज़ारिश
गुज़िशता
गुड़
गुड़गाँव
गुड़गांव
गुड़िया
गुफ़ा
गू
गूँज
गूँजने
गूँजा
गूंगा
गूंगे
गूंज
गूंजता
गूंजती
गूंजते
गूंजने
गूंजा
गूंठ
गूंथ
गूंथा
गूगल
गूगलप्लेक्स
गूची
गूज
गूजर
गूजरी
गूठ
गूढ
गूढ़
गूढ़ता
गूदा
गूदे
गूदेदार
गूलर
गूलरपुरा
गूढ़
गृत्समद
गृधकूट
गृष्म
गृह
गृहकार्य
गृहचक्र
गृहण
गृहणी
गृहत्याग
गृहनगर
गृहनिर्माण
गृहभूमि
गृहमंत्रालय
गृहमंत्री
गृहयुद्ध
गृहयुद्धो
गृहयुद्धों
गृहराज्य
गृहलक्ष्मी
गृहविज्ञान
गृहसचिव
गृहस्थ
गृहस्थान
गृहस्थाश्रम
गृहस्थी
गृहस्थों
गृहस्वामी
गृहिणियों
गृहिणी
गृहित
गृहीत
गृहे
गृहों
गृह्य
गृह्यसूत्र
गृह्यसूत्रों
गे
गेंडा
गेंडे
गेंद
गेंदबाज
गेंदबाज़
गेंदबाज़़ी
गेंदबाज़ी
गेंदबाज़ों
गेंदबाजी
गेंदबाजों
गेंदा
गेंदालाल
गेंदे
गेंदें
गेंदों
गेंहु
गेंहू
गेंहूँ
गेको
गेक्रक्स
गेगांग
गेज
गेजेट
गेजों
गेट
गेटकीपर
गेटली
गेटवे
गेटिंग
गेटी
गेटे
गेटेड
गेटों
गेटोरेड
गेट्स
गेठिया
गेदों
गेन
गेनीमेड
गेनेसी
गेन्ट
गेन्स
गेफन
गेब्रिएल
गेब्रियल
गेम
गेमक्यूब
गेमप्ले
गेमर्स
गेमिंग
गेमों
गेम्स
गेय
गेयता
गेयर
गेर
गेरहार्ड
गेरार्ड
गेराल्ड
गेरी
गेरुआ
गेरुलाल
गेरू
गेरे
गेर्वैस
गेर्हार्ड
गेल
गेलन
गेलर
गेला
गेलार्डो
गेलिक
गेलिया
गेली
गेले
गेलें
गेलेरी
गेलो
गेल्डोफ़
गेव
गेविन
गेस
गेस्ट
गेस्टापो
गेस्टाल्ट
गेहूँ
गेहूं
गै
गैंग
गैंगवार
गैंगस्टर
गैंगेस्टर
गैंग्रीन
गैंग्लिया
गैंडा
गैंडे
गैंडैल्फ़
गैंडों
गैंबल
गैंबलिंग
गैंरड
गैग
गैग्ने
गैज
गैजेट
गैजेट्स
गैट
गैटर
गैण्डा
गैनिमीड
गैनेट
गैन्ग्लिया
गैन्डैफ़
गैन्डैल्फ़
गैप
गैबर
गैबरियल
गैबल्स
गैबॉन
गैबोन
गैब्रिएल
गैब्रियल
गैमीट
गैम्बल
गैम्बिट
गैया
गैर
गैरकानूनी
गैरग्रेनेसिस
गैरजमानती
गैरजरूरी
गैरपारंपरिक
गैरमौजूदगी
गैरसरकारी
गैरसैण
गैरहाजिरी
गैरहार्ड
गैराज
गैराड
गैराडी
गैरिंचा
गैरिक
गैरी
गैरीसन
गैरेज
गैरेट
गैल
गैलन
गैलप
गैलरिया
गैलरियां
गैलरियों
गैलरी
गैलान
गैलापागोस
गैलिक
गैलियन
गैलियम
गैलिलियो
गैलिली
गैलिलीयन
गैलिलेओ
गैलिसिया
गैली
गैलीपोली
गैलीलियन
गैलीलियो
गैलॅक्सी
गैलेक्टिक
गैलेक्टिका
गैलेक्सियाँ
गैलेक्सियों
गैलेक्सी
गैलेक्सीओं
गैलेक्सीय
गैलेन
गैलेना
गैलेरी
गैलैक्सी
गैलो
गैलोगेट
गैस
गैसत्राण
गैसयुक्त
गैसीकरण
गैसीय
गैसे
गैसें
गैसो
गैसों
गैसोलिन
गैसोलीन
गैस्ट्रिक
गैस्ट्रुला
गैस्ट्रुलेशन
गैस्ट्रो
गैस्ट्रोइंटेस्टाइनल
गैस्पर्ड
गॉंव
गॉट
गॉड
गॉडफ़ादर
गॉडफादर
गॉडफ्रे
गॉडमदर
गॉडविन
गॉडस्मैक
गॉड्स
गॉथम
गॉथिक
गॉन
गॉबलिन
गॉर्डन
गॉल
गॉल्जी
गॉल्टन
गॉव
गॉस
गॉसवर्थ
गॉसिप
गॉस्पेल
गो
गोंज़ालेज़
गोंजालेज
गोंड
गोंडर
गोंडवाना
गोंडवाना_एक्स्प्रेस_####
गोंडवानाएक्स्प्रेस
गोंडा
गोंडी
गोंडों
गोंडोला
गोंद
गोंदिया
गोंपा
गोंविद
गोंसाल्वेस
गोआ
गोआनी
गोइंग
गोइन्दवाल
गोउम
गोएंका
गोएकतुर्क
गोएथे
गोक
गोकक
गोकर्ण
गोकर्णनाथ
गोकुल
गोकुलदास
गोकुलनाथ
गोकुलसिंह
गोकुला
गोकू
गोखरू
गोखले
गोगई
गोगरी
गोगली
गोगा
गोगाजी
गोगामेड़ी
गोगुरयेओ
गोगुरियो
गोगो
गोगोई
गोगोल
गोचर
गोज
गोजर
गोज़
गोज़ो
गोज़ोल्स
गोजातीय
गोजु
गोजोसियन
गोट
गोटफ्राइड
गोटमार
गोटा
गोटियां
गोटियों
गोटी
गोटे
गोठ
गोठी
गोड
गोडफ्रे
गोडबोले
गोडसे
गोड़
गोड़ाई
गोडार्ड
गोडी
गोडेल
गोडोट
गोड्डा
गोण्ड
गोण्डा
गोत
गोतम
गोता
गोताखोर
गोताखोरी
गोताखोरों
गोते
गोत्र
गोत्री
गोत्रीय
गोत्रों
गोथ
गोथम
गोथिक
गोथे
गोथेल
गोथों
गोद
गोदना
गोदने
गोदरेज
गोदान
गोदाम
गोदामों
गोदावरी
गोदी
गोधन
गोधरा
गोधा
गोधूलि
गोन
गोना
गोनोरिया
गोन्डोर
गोन्ना
गोप
गोपनियता
गोपनीय
गोपनीयता
गोपाचल
गोपाल
गोपालक
गोपालकृष्ण
गोपालकृष्णन
गोपालगंज
गोपालदास
गोपालन
गोपालपुर
गोपालपुरा
गोपालप्रसाद
गोपालसिंह
गोपिकाओं
गोपियाँ
गोपियां
गोपियों
गोपी
गोपीचंद
गोपीनाथ
गोपुर
गोपुरम
गोपेश्वर
गोफर
गोबर
गोबर्धन
गोबिंद
गोबिंदराय
गोबिन्द
गोबिन्दपुर
गोबी
गोभक्त
गोभिल
गोभी
गोमटें
गोमती
गोमतेश्वर
गोमल
गोमांस
गोमाता
गोमुख
गोमूत्र
गोमेज़
गोमेद
गोमो
गोमोह
गोम्पा
गोयनका
गोयल
गोया
गोर
गोरक्ष
गोरक्षनाथ
गोरक्षा
गोरख
गोरखधंधा
गोरखनाथ
गोरखपुर
गोरखपुर_एक्स्प्रेस_####
गोरखपुरएक्स्प्रेस
गोरखपुरी
गोरखा
गोरखाओं
गोरखाली
गोरखालैंड
गोरखों
गोरस
गोरा
गोराई
गोरान
गोरामानसिंह
गोरिंग
गोरियो
गोरिल्ला
गोरी
गोरे
गोरेगांव
गोरेलाल
गोरैया
गोरो
गोरों
गोर्की
गोर्खा
गोर्खालैंड
गोर्ज
गोर्डन
गोर्डोन
गोर्बाचेव
गोर्शकोव
गोल
गोलक
गोलकीपर
गोलकुंडा
गोलकुण्डा
गोलकृमि
गोलकोंडा
गोलघर
गोलची
गोलपाड़ा
गोलबंदी
गोलमाल
गोलमुड
गोलमेज
गोलमोल
गोलरक्षक
गोलवलकर
गोलवल्कर
गोला
गोलाई
गोलाकार
गोलाध्याय
गोलान
गोलाबारी
गोलाबारूद
गोलाभ
गोलार्द्ध
गोलार्ध
गोलार्धो
गोलार्धों
गोलाश्म
गोलिया
गोलियाँ
गोलियां
गोलियों
गोली
गोलीकांड
गोलीकाण्ड
गोलीबारी
गोलीय
गोलू
गोले
गोलों
गोलोक
गोलोदनाया
गोल्गी
गोल्ड
गोल्डन
गोल्डनआय
गोल्डफिंगर
गोल्डबर्ग
गोल्डमैन
गोल्डवर्ग
गोल्डविन
गोल्डस्टीन
गोल्डस्मिथ
गोल्डीलॉक्स
गोल्डेन
गोल्डेनआई
गोल्फ
गोल्फर
गोल्फ़
गोल्फी
गोल्लुम
गोल्स
गोवंश
गोवन
गोवर
गोवरी
गोवर्द्धन
गोवर्धन
गोवर्धनराम
गोवर्धनाचार्य
गोवा
गोवारीकर
गोविंद
गोविंदगुप्त
गोविंदघाट
गोविंदचंद्र
गोविंदजी
गोविंददास
गोविंददेव
गोविंदपाद
गोविंदपुर
गोविंदपुरी
गोविंदराज
गोविंदराजस्वामी
गोविंदराव
गोविंदसिंह
गोविंदसिंहजी
गोविंदा
गोविंदाचार्य
गोविंदानंद
गोविन्द
गोविन्दगुप्त
गोविन्दपुर
गोविन्दराज
गोविन्दराजास्वामी
गोविन्दस्वामी
गोविमठ
गोशकोव
गोशाला
गोशो
गोश्त
गोष्टी
गोष्ठ
गोष्ठियाँ
गोष्ठियों
गोष्ठी
गोस
गोसलिंग
गोसाई
गोसाईं
गोसावी
गोसिप
गोसेवा
गोस्ट
गोस्पेल
गोस्वामियों
गोस्वामी
गोस्वामीजी
गोस्सार्ड
गोह
गोहत्या
गोहद
गोहना
गोहर
गोहाना
गोहों
गो०क्षे०प्र०
गौ
गौंट
गौंटलेट
गौंड
गौंडार
गौएँ
गौओं
गौगा
गौचर
गौट
गौड
गौडफादर
गौड़
गौड़पाद
गौड़ा
गौड़ी
गौड़ीय
गौडिया
गौडों
गौड्रिक
गौण
गौणा
गौतम
गौतमधर्मसूत्र
गौतमबुद्ध
गौतमी
गौतमेश्वर
गौतरलब
गौत्र
गौत्रीय
गौथम
गौदान
गौन
गौब्लेट
गौमांस
गौमाता
गौमुख
गौर
गौरतलब
गौरदे
गौरव
गौरवपूर्ण
गौरवमय
गौरवमयी
गौरवर्ण
गौरवशाली
गौरवान्वित
गौरा
गौरांग
गौराडीह
गौरी
गौरीकर
गौरीकुंड
गौरीकुण्ड
गौरीदत्त
गौरीपुर
गौरीशंकर
गौरैया
गौल
गौला
गौशाला
गौस
गौस्पेल
गौस्सियन
गौहर
गौहाटी
गौड़
गौड़ा
ग्
ग्नू
ग्यात्सो
ग्यान
ग्यारसपुर
ग्यारह
ग्यारहवाँ
ग्यारहवां
ग्यारहवीं
ग्यारहवें
ग्युरेरो
ग्रंज
ग्रंथ
ग्रंथकार
ग्रंथकारों
ग्रंथताल
ग्रंथमाला
ग्रंथरचना
ग्रंथवर्णन
ग्रंथसूचियों
ग्रंथसूची
ग्रंथागार
ग्रंथालय
ग्रंथालयों
ग्रंथावली
ग्रंथि
ग्रंथियाँ
ग्रंथियां
ग्रंथियों
ग्रंथी
ग्रंथीय
ग्रंथो
ग्रंथों
ग्रंथ्यर्बुद
ग्रज
ग्रथ
ग्रथों
ग्रन्थ
ग्रन्थानुसार
ग्रन्थालय
ग्रन्थावली
ग्रन्थि
ग्रन्थिबन्धन
ग्रन्थियों
ग्रन्थो
ग्रन्थों
ग्रबमैन
ग्रमीण
ग्रस
ग्रसनी
ग्रसिका
ग्रसित
ग्रस्त
ग्रस्तता
ग्रह
ग्रहगणित
ग्रहघर
ग्रहण
ग्रहणशील
ग्रहणशीलता
ग्रहणाधिकार
ग्रहणाधिकारों
ग्रहणी
ग्रहणीय
ग्रहणों
ग्रहन
ग्रहनक्षत्रों
ग्रहनिवार
ग्रहलाघव
ग्रहीय
ग्रहो
ग्रहों
ग्रा
ग्रां
ग्रांट
ग्रांड
ग्रांडप्रिक्सडेटेनिसडेल्योन
ग्रांडे
ग्राईफिंडर
ग्राउंड
ग्राउंड्स
ग्राउण्ड
ग्राउस
ग्राज़
ग्राडंड
ग्रान
ग्रानादा
ग्रान्ट
ग्राफ
ग्राफ़
ग्राफ़िक
ग्राफ़िकल
ग्राफ़िक्स
ग्राफिक
ग्राफिकल
ग्राफिक्स
ग्राफिटी
ग्राफीन
ग्राफीय
ग्राफ्ट
ग्राफ्टिंग
ग्राभ
ग्राम
ग्रामणी
ग्रामदान
ग्रामपंचायत
ग्रामर
ग्रामवासियों
ग्रामवासी
ग्रामसभा
ग्रामस्वराज
ग्रामाणु
ग्रामिक
ग्रामीण
ग्रामीणों
ग्रामो
ग्रामों
ग्रामोद्योग
ग्रामोफोन
ग्राम्य
ग्राम्या
ग्राम्शी
ग्राम्स्की
ग्रास
ग्रासनली
ग्रासनाल
ग्रासिम
ग्राह
ग्राहक
ग्राहकों
ग्राहम
ग्राहियों
ग्राही
ग्राह्य
ग्राह्यता
ग्रि
ग्रि#
ग्रिंट
ग्रिंडलवाल्ड
ग्रिगोरियन
ग्रिगोरी
ग्रिड
ग्रिडिना
ग्रिडों
ग्रिनिच
ग्रिन्हौज़
ग्रिप
ग्रिफ़िथ
ग्रिफ़िन
ग्रिफिथ
ग्रिफिन
ग्रिम
ग्रिमसन
ग्रिमाल्डी
ग्रिम्स
ग्रियर्सन
ग्रिल
ग्रिल्ड
ग्रिल्स
ग्रिस
ग्रीक
ग्रीको
ग्रीकों
ग्रीगरी
ग्रीज
ग्रीज़
ग्रीटिंग
ग्रीटिंग्स
ग्रीड
ग्रीन
ग्रीनग्रास
ग्रीनपार्क
ग्रीनपीस
ग्रीनफील्ड
ग्रीनबर्ग
ग्रीनयार्ड
ग्रीनर
ग्रीनलैंड
ग्रीनलैण्ड
ग्रीनविच
ग्रीनवुड
ग्रीनवे
ग्रीनस्पैन
ग्रीनहाउस
ग्रीनहाउसों
ग्रीन्स
ग्रीम
ग्रीमा
ग्रील्ड
ग्रीवा
ग्रीव्स
ग्रीष्म
ग्रीष्मकाल
ग्रीष्मकालीन
ग्रीस
ग्रुंज
ग्रुईस
ग्रुएन
ग्रुप
ग्रुपों
ग्रुप्स
ग्रूट
ग्रूप
ग्रूम
ग्रूम्समेन
ग्रूव
ग्रूव्स
ग्रे
ग्रे'ज़
ग्रेंजर
ग्रेंड
ग्रेको
ग्रेग
ग्रेगर
ग्रेगरी
ग्रेगसन
ग्रेगोरि
ग्रेगोरियन
ग्रेगोरी
ग्रेचेन
ग्रेच्युटी
ग्रेज़
ग्रेज़र
ग्रेजुएट
ग्रेजुएशन
ग्रेट
ग्रेटफुल
ग्रेटर
ग्रेटिंग
ग्रेटेल
ग्रेटेस्ट
ग्रेड
ग्रेडिंग
ग्रेडी
ग्रेडों
ग्रेन
ग्रेनाइट
ग्रेनाईट
ग्रेनाडा
ग्रेनाडाइन्स
ग्रेनादो
ग्रेनेड
ग्रेनेडा
ग्रेनेड्स
ग्रेन्ड
ग्रेप
ग्रेप्स
ग्रेफाइट
ग्रेमी
ग्रेल
ग्रेव
ग्रेविटी
ग्रेविस
ग्रेवी
ग्रेव्स
ग्रेशम
ग्रेस
ग्रेसन
ग्रेसी
ग्रेस्टोक
ग्रेहाउंड
ग्रैंट
ग्रैंड
ग्रैंडस्लैम
ग्रैंडे
ग्रैजुएट
ग्रैण्ड
ग्रैन
ग्रैनाइट
ग्रैन्डल
ग्रैप्टोलाइट
ग्रैफाइट
ग्रैब
ग्रैमी
ग्रैविटी
ग्रॉस
ग्रो
ग्रोइंग
ग्रोट
ग्रोटो
ग्रोथ
ग्रोन
ग्रोनेफेल्ड
ग्रोन्होम
ग्रोव
ग्रोवर
ग्रोहल
ग्रौज़ाँ
ग्लाइकॉल
ग्लाइकोजन
ग्लाइकोजेन
ग्लाइकोप्रोटीन
ग्लाइकोल
ग्लाइकोलिसिस
ग्लाइकोसाइड
ग्लाइकोसिलेटेड
ग्लाइड
ग्लाइडपाथ
ग्लाइडर
ग्लाइडरों
ग्लाइडिंग
ग्लाइफोसेट
ग्लाइसिन
ग्लाइसेमिक
ग्लाइसेरोल
ग्लाटिरामेर
ग्लानि
ग्लानी
ग्लायकोजन
ग्लास
ग्लासगो
ग्लासरी
ग्लासों
ग्लिफ
ग्लिफ़
ग्लिसरिन
ग्लिसरीन
ग्लिसरैल्डिहाइड
ग्लिसरॉल
ग्ली
ग्लीज़
ग्लीबीजेन
ग्लुकोज
ग्लुकोज़
ग्लू
ग्लूकागॉन
ग्लूकोज
ग्लूकोज़
ग्लूकोमा
ग्लूकोमीटर
ग्लूकोस
ग्लूकोसाइड
ग्लूटमाइन
ग्लूटामिक
ग्लूटामेट
ग्लूस्टरशायर
ग्लेंड
ग्लेडिएटर
ग्लेन
ग्लेनईगल्स
ग्लेनडोवर
ग्लेशियर
ग्लेशियरों
ग्लेशियल
ग्लैंड
ग्लैक्सो
ग्लैक्सोस्मिथक्लाइन
ग्लैडरेग्स
ग्लैडस्टोन
ग्लैडिएटर
ग्लैडीएटर
ग्लैडीएटरों
ग्लैम
ग्लैमर
ग्लॉकोमा
ग्लो
ग्लोनास
ग्लोब
ग्लोबल
ग्लोबस
ग्लोबिन
ग्लोबीजेंस
ग्लोबीजेन
ग्लोबेट्यूड्स
ग्लोबेहैव
ग्लोब्यूलिन
ग्लोमेरुलर
ग्लोमेरुलोस्केलेरोसिस
ग्लोरिया
ग्लोरी
ग्लोव
ग्लोवर
ग्लोव्स
ग्लोस
ग्वांगझोउ
ग्वाटेमाला
ग्वाड
ग्वाडालूप
ग्वादर
ग्वार
ग्वारा
ग्वाल
ग्वाला
ग्वालियर
ग्वाले
ग्वालों
ग्वेटार्डा
ग्वेरा
ग्वेर्नसे
ग॒
गड़गड़ाहट
गड़बड़
गड़बड़ाए
गड़बड़ियाँ
गड़बड़ियां
गड़बड़ियों
गड़बड़ी
गड़ाए
गड़ी
गढ़
गढ़चिरौली
गढ़मुक्तेश्वर
गढ़वाल
गढ़वी
गढ़ी
घ
घंघरेटी
घंटा
घंटाकार
घंटाघर
घंटियाँ
घंटियां
घंटियों
घंटी
घंटे
घंटेवार
घंटो
घंटों
घई
घग्गर
घग्घर
घट
घटक
घटकर
घटकर्पर
घटकों
घटता
घटती
घटते
घटना
घटनाएँ
घटनाएं
घटनाओ
घटनाओं
घटनाक्रम
घटनाक्रमों
घटनाचक्र
घटनापूर्ण
घटनाये
घटनायें
घटनास्थल
घटने
घटनेवाला
घटपर्णी
घटबढ़
घटा
घटाई
घटाए
घटाकर
घटाटोप
घटाता
घटाती
घटाते
घटाना
घटाने
घटाया
घटाव
घटित
घटिया
घटी
घटीं
घटीयंत्र
घटु
घटे
घटेंगी
घटेगा
घटोत्कच
घड़ा
घड़िया
घड़ियाँ
घड़ियां
घड़ियाल
घड़ियालों
घड़ियों
घड़ी
घड़े
घड़ों
घडा
घडियां
घडी
घडे
घडेल
घणी
घण्टा
घण्टाघर
घण्टे
घण्टों
घदाराइट
घन
घनकोण
घनघोर
घनत्व
घनत्वों
घनफल
घनफुट
घनमीटर
घनमूल
घनवाद
घनवादी
घनश्याम
घनश्यामदास
घना
घनाकार
घनाक्षरी
घनात्मक
घनानंद
घनानन्द
घनास्त्रता
घनास्रता
घनिष्ट
घनिष्ठ
घनिष्ठता
घनी
घनीकरण
घनीभूत
घने
घन्टे
घपले
घबड़ाहट
घबरा
घबराए
घबराकर
घबराने
घबराहट
घमंड
घमंडी
घमण्ड
घमासान
घर
घरघराहट
घरबार
घरवाले
घरवालों
घरा
घराना
घराने
घरानों
घरी
घरीं
घरेलु
घरेलू
घरो
घरों
घरौंदा
घर्षक
घर्षण
घर्षणबल
घसीट
घसीटते
घसीटना
घसीटने
घसीटा
घाँची
घांस
घाघ
घाघरा
घाघरी
घाजी
घाट
घाटकोपर
घाटमपुर
घाटवा
घाटशिला
घाटा
घाटियाँ
घाटियां
घाटियों
घाटी
घाटे
घाटों
घात
घातक
घातलें
घातांक
घातांकी
घातीय
घातु
घातों
घान
घाना
घापे
घायल
घायलावस्था
घायलों
घार
घालत
घालमेल
घाली
घालीं
घालून
घालूनि
घाव
घावों
घास
घासपात
घासभूमि
घासीदास
घासीराम
घासें
घासों
घिंटाळ
घिनौना
घिनौनी
घिनौने
घिर
घिरनियाँ
घिरनियों
घिरनी
घिरने
घिरा
घिरी
घिरे
घिरौली
घिल्डियाल
घिस
घिसकर
घिसते
घिसने
घिसा
घिसाई
घिसाव
घिसी
घिसे
घी
घीसिंग
घु
घुँघराले
घुंघराले
घुंघरू
घुंडी
घुट
घुटते
घुटन
घुटना
घुटने
घुटनों
घुट्टियां
घुट्टी
घुड
घुडदौड
घुडसवार
घुड़
घुड़दौड़
घुड़सवार
घुड़सवारी
घुड़सवारों
घुड़साल
घुड०२
घुड०५
घुन
घुनी
घुम
घुमंतुओं
घुमंतू
घुमक्कड़
घुमक्कड़ी
घुमक्कड़ों
घुमक्कडी
घुमती
घुमते
घुमने
घुमा
घुमाए
घुमाकर
घुमाता
घुमाती
घुमाते
घुमाना
घुमाने
घुमाया
घुमाव
घुमावदार
घुमावों
घुम्मकड़
घुर्णन
घुल
घुलकर
घुलता
घुलती
घुलते
घुलनशील
घुलनशीलता
घुलने
घुलमिल
घुला
घुलाकर
घुलाने
घुलित
घुली
घुले
घुश्मा
घुश्मेश्वर
घुस
घुसकर
घुसता
घुसती
घुसते
घुसना
घुसने
घुसपैठ
घुसपैठिए
घुसपैठिया
घुसपैठियों
घुसा
घुसी
घुसे
घुसेड़
घू
घूँघट
घूँट
घूंघट
घूंट
घूंसा
घूंसे
घूम
घूमकर
घूमता
घूमती
घूमते
घूमना
घूमने
घूमनेवाला
घूमनेवाली
घूमनेवाले
घूमा
घूमे
घूमें
घूर
घूर्ण
घूर्णक
घूर्णदर्शी
घूर्णन
घूर्णाक्षस्थापी
घूर्णित
घूर्णी
घूस
घूसखोरी
घृ
घृणा
घृणास्पद
घृणित
घृत
घृतकुमारी
घृष्णेश्वर
घे
घेऊनि
घेतला
घेतलें
घेती
घेपे
घेर
घेरकर
घेरता
घेरती
घेरते
घेरना
घेरने
घेरा
घेराबंदी
घेराव
घेरे
घेरों
घेवर
घैलानी
घोंघा
घोंघे
घोंघों
घोंट
घोंटकर
घोंटना
घोंटने
घोंटे
घोंसला
घोंसले
घोंसलों
घोटाला
घोटाले
घोटालेबाजों
घोटालों
घोटुल
घोड़ा
घोड़ागाड़ी
घोड़ी
घोड़े
घोड़ो
घोड़ों
घोडा
घोडे
घोडों
घोर
घोरा
घोरी
घोल
घोलक
घोलकर
घोलकों
घोलते
घोलने
घोला
घोलों
घोष
घोषण
घोषणा
घोषणाएँ
घोषणाएं
घोषणाओं
घोषणात्मक
घोषणापत्र
घोषाल
घोषित
घोसन
घोसला
घोसले
घोसलों
घोसवारी
घोस्ट
घोस्ट्स
घोड़े
घोड़ों
घ्
घ्यान
घ्राण
घड़ी
घड़े
ङ
ङी
ङू
ङ्
च
चं
चंग
चंगा
चंगी
चंगुल
चंगेज
चंगेज़
चंचल
चंचलगुडा
चंचलता
चंड
चंडिका
चंडी
चंडीगढ
चंडीगढ़
चंडीगढ़
चंडीदास
चंडीमंदिर
चंडेल
चंद
चंदन
चंदनबाड़ी
चंदबरदाई
चंदर
चंदवा
चंदा
चंदामामा
चंदू
चंदूमाजरा
चंदूलाल
चंदे
चंदेरी
चंदेल
चंदेलों
चंदोरो
चंदोला
चंदौली
चंद्र
चंद्रकला
चंद्रका
चंद्रकांत
चंद्रकांता
चंद्रकान्ता
चंद्रकीर्ति
चंद्रखणी
चंद्रगिरी
चंद्रगुप्त
चंद्रग्रहण
चंद्रघंटा
चंद्रधर
चंद्रन
चंद्रनगर
चंद्रपुर
चंद्रप्रभु
चंद्रबाबू
चंद्रबिंदु
चंद्रबिंब
चंद्रभागा
चंद्रभान
चंद्रभूषण
चंद्रमा
चंद्रमाओं
चंद्रमास
चंद्रयान
चंद्रयानगुट्टा
चंद्रवंश
चंद्रवंशी
चंद्रवती
चंद्रशेखर
चंद्रशेखरेंद्र
चंद्रसेन
चंद्रा
चंद्राकर
चंद्राकार
चंद्रायन
चंद्रावती
चंद्रावली
चंद्रिका
चंद्रु
चंद्रोदय
चंपक
चंपतराय
चंपा
चंपापुर
चंपारण
चंपारन
चंपावत
चंपावती
चंपू
चंबल
चंबा
चक
चकचंदा
चकतियों
चकती
चकते
चकत्ता
चकत्ते
चकत्तों
चकन
चकनाचूर
चकबंदी
चकबस्त
चकमक
चकमा
चकरा
चकराता
चकरी
चकवड़
चकवा
चकसिकन्दर
चका
चकाचौंध
चकित
चकिया
चकी
चकोतरा
चकोर
चक्कर
चक्करदार
चक्करों
चक्का
चक्कियों
चक्की
चक्के
चक्कों
चक्र
चक्रण
चक्रतीर्थ
चक्रधर
चक्रबर्ती
चक्रवर्ती
चक्रवाक
चक्रवात
चक्रवाती
चक्रवातीय
चक्रवातों
चक्रवाल
चक्रवाले
चक्रवृद्धि
चक्रव्यूह
चक्राकार
चक्रायुध
चक्रिका
चक्रित
चक्री
चक्रीय
चक्रेश
चक्रों
चक्षु
चख
चखने
चखा
चग़ताई
चचेरा
चचेरी
चचेरे
चञ्चल
चट
चटक
चटकने
चटका
चटकीले
चटख
चटगाँव
चटगांव
चटटानो
चटनी
चटपट
चटपटा
चटपटी
चटपटे
चटर्जी
चटा
चटाई
चट्टान
चट्टानी
चट्टानूगा
चट्टाने
चट्टानें
चट्टानो
चट्टानों
चट्टी
चट्टोपाध्याय
चड्डी
चड्ढा
चढ
चढकर
चढते
चढना
चढने
चढ़
चढ़कर
चढ़ता
चढ़ती
चढ़ते
चढ़ना
चढ़नी
चढ़ने
चढ़ा
चढ़ाई
चढ़ाए
चढ़ाएं
चढ़ाकर
चढ़ाता
चढ़ाते
चढ़ाना
चढ़ाने
चढ़ाया
चढ़ायी
चढ़ाये
चढ़ाव
चढ़ावा
चढ़ावे
चढ़ावों
चढ़ी
चढ़े
चढा
चढाई
चढाकर
चढाते
चढाने
चढाया
चढाये
चढाव
चढा़ई
चढी
चढे
चणक
चण्ड
चण्डिका
चण्डी
चण्डीगढ़
चतरा
चतु
चतु:शती
चतु:संयोजक
चतुर
चतुरंग
चतुरंगिणी
चतुरता
चतुरसेन
चतुरस्त्र
चतुरस्र
चतुरस्रा
चतुराई
चतुर्घात
चतुर्थ
चतुर्थक
चतुर्थांश
चतुर्थी
चतुर्दश
चतुर्दशी
चतुर्दिक
चतुर्दिक्
चतुर्धातुक
चतुर्ध्रुवी
चतुर्भुज
चतुर्भुजदास
चतुर्भुजी
चतुर्मुख
चतुर्मुखी
चतुर्युग
चतुर्युगी
चतुर्विध
चतुर्वेदी
चतुशती
चतुष्क
चतुष्कोण
चतुष्टय
चतुष्पदी
चतुष्पाद
चतुष्फलक
चतुष्फलकीय
चतुसंयोजक
चद्दर
चद्दरों
चन
चनपटिया
चना
चनाब
चने
चन्द
चन्दन
चन्दर
चन्दा
चन्देरी
चन्देल
चन्देलों
चन्दौली
चन्द्र
चन्द्रकान्ता
चन्द्रगुप्त
चन्द्रग्रहण
चन्द्रदेव
चन्द्रधर
चन्द्रपुर
चन्द्रप्रकाश
चन्द्रभागा
चन्द्रमहल
चन्द्रमा
चन्द्रमाओं
चन्द्रमुखी
चन्द्रयान
चन्द्रवंश
चन्द्रवंशी
चन्द्रवर्मन
चन्द्रवाक्यों
चन्द्रशेखर
चन्द्रशेखरन
चन्द्रसिंह
चन्द्रसेन
चन्द्रहार
चन्द्रहास
चन्द्रा
चन्द्रां
चन्द्रावली
चन्द्रिका
चन्द्रोदय
चन्नेल
चपटा
चपटी
चपटे
चपड़ा
चपड़े
चपत
चपरासी
चपल
चपलता
चपला
चपाती
चपेट
चप्पल
चप्पलें
चप्पलों
चप्पा
चप्पुओं
चप्पू
चप्पे
चबा
चबाए
चबाकर
चबाता
चबाते
चबाना
चबाने
चबाया
चबिवाले
चबुतरे
चबूतरा
चबूतरे
चबूतरों
चम
चमक
चमकता
चमकती
चमकते
चमकदार
चमकना
चमकने
चमका
चमकाने
चमकी
चमकीला
चमकीलापन
चमकीली
चमकीले
चमकीलेपन
चमके
चमगादड़
चमगादड़ों
चमचमाती
चमचा
चमचे
चमड़ा
चमड़ी
चमड़े
चमड़ों
चमत्कार
चमत्कारपूर
चमत्कारपूर्ण
चमत्कारिक
चमत्कारी
चमत्कारों
चमत्कृत
चमन
चमाट
चमार
चमेली
चमोली
चमौली
चम्पतराय
चम्पा
चम्पारण
चम्पारन
चम्पावत
चम्पू
चम्बल
चम्बा
चम्मच
चमड़ा
चयन
चयनकर्ता
चयनकर्ताओं
चयनसमिति
चयनात्मक
चयनात्मकता
चयनित
चयापचय
चयापचयक
चयापचयज
चयापचयी
चयापचयों
चर
चरक
चरकस
चरकसंहिता
चरकसी
चरकसों
चरकस्सिया
चरकस्सी
चरखा
चरखारी
चरखी
चरखे
चरघातांकी
चरण
चरणजीत
चरणतीर्थ
चरणदास
चरणपादुका
चरणबद्ध
चरणो
चरणों
चरती
चरते
चरन
चरना
चरने
चरपरा
चरबी
चरम
चरमपंथियों
चरमपंथी
चरमपसंदी
चरमरा
चरमसीमा
चरमोत्कर्ष
चरवाहा
चरवाहे
चरवाहों
चरस
चराई
चरागाह
चरागाहों
चराचर
चराचरीं
चराता
चराते
चराने
चराया
चरित
चरितम्
चरितामृत
चरितार्थ
चरित्र
चरित्रगत
चरित्रचित्रण
चरित्रनिर्माण
चरित्रवान
चरित्रवान्
चरित्रहीन
चरित्रांकन
चरित्रों
चरी
चरु
चरैवेति
चरों
चर्खी
चर्खे
चर्च
चर्च####
चर्चगेट
चर्चा
चर्चाएँ
चर्चाएं
चर्चाओं
चर्चित
चर्चिल
चर्चे
चर्चेस
चर्चों
चर्बी
चर्म
चर्मक्षय
चर्मण्वती
चर्मपत्र
चर्मपाक
चर्मपूरक
चर्मपूरण
चर्मरोग
चर्मशोधन
चर्या
चर्यापद
चर्वण
चर्वणक
चल
चलकर
चलकुंडल
चलचित्र
चलचित्रण
चलचित्रों
चलत
चलता
चलती
चलतीं
चलते
चलदृश्य
चलन
चलनक्षम
चलनशील
चलना
चलनिधि
चलनी
चलने
चलनेवाला
चलनेवाली
चलनेवाले
चलनेवालों
चलभाष
चलमेश्वर
चलवा
चला
चलाई
चलाईं
चलाऊ
चलाए
चलाएँ
चलाएं
चलाएंगे
चलाकर
चलाता
चलाती
चलाते
चलाना
चलानी
चलाने
चलानेवाली
चलानेवाले
चलायमान
चलाया
चलायी
चलाये
चलिए
चलित
चलिये
चली
चलीं
चले
चलें
चलेंगे
चलेगा
चलेगी
चलो
चलोनर
चलोनेर
चलौ
चवर्ग
चव्हाण
चश्म
चश्मदीद
चश्मा
चश्मे
चश्में
चश्मों
चस्पा
चहकते
चहरे
चहल
चहलकदमी
चहारदीवारी
चहिए
चहिये
चहुंमुखी
चहुगा
चहेता
चहेती
चहेते
चा
चाँग
चाँद
चाँदनी
चाँदपुर
चाँदा
चाँदी
चाँप
चांग
चांगचून
चांगलांग
चांगशा
चांगसाम
चांगी
चांगु
चांडलर
चांडाल
चांडी
चांद
चांदनी
चांदपुर
चांदसिंह
चांदा
चांदी
चांदीपुर
चांद्र
चांद्रमास
चांपा
चांस
चांसरी
चांसलर
चाइना
चाइनाटाउन
चाइनीज
चाइनीज़
चाइये
चाइल्ड
चाइल्डहुड
चाई
चाईबासा
चाउ
चाऊ
चाओ
चाक
चाकर
चाकरी
चाकलेट
चाकसू
चाक़ू
चाकी
चाकुओं
चाकू
चाको
चाक्यार
चाक्षुष
चागस
चाच
चाचा
चाचाओं
चाची
चाट
चाटना
चाटनी
चाटने
चाटुकारिता
चाटुकारों
चाटुर्ज्या
चाड
चाडे
चाढ़
चाणक्य
चाणक्यपुरी
चाणूर
चाण्डाल
चातक
चातुरी
चातुर्मास
चातुर्मास्य
चातुर्य
चादर
चादरें
चादरों
चान
चानयू
चान्द्र
चाप
चापड
चापलूस
चापलूसी
चापाकार
चापि
चापों
चाफेकर
चाबियाँ
चाबियों
चाबी
चाबुक
चाभी
चाम
चामत्कारिक
चामराजनगर
चामस्की
चामा
चामी
चामुंडा
चामुंडी
चामुण्डा
चाम्सकी
चाय
चायना
चार
चारकोल
चारण
चारणों
चारदिवारी
चारदीवारी
चारधाम
चारपाई
चारबाग
चारमीनार
चारलोट
चारसद्दा
चारा
चारागाह
चारागाहों
चारि
चारित्रिक
चारी
चारु
चारुदत्त
चारुलता
चारू
चारूदत्त
चारे
चारो
चारों
चारोली
चार्कोट
चार्ज
चार्जर
चार्जर्स
चार्जशीट
चार्जिंग
चार्ज्ड
चार्ट
चार्टर
चार्टर्ड
चार्टिंग
चार्टिस्ट
चार्टों
चार्ट्स
चार्म
चार्मिंग
चार्लटन
चार्लस
चार्ली
चार्लीज़
चार्लेन
चार्लोट
चार्ल्स
चार्ल्सटन
चार्वाक
चाल
चालक
चालकता
चालकों
चालन
चालबाज
चालमुगरा
चालले
चालाक
चालाकियों
चालाकी
चालान
चालित
चालीस
चालीसा
चालु
चालुक्य
चालुक्यों
चालू
चाले
चालें
चालों
चाल्मर्स
चाल्र्स
चाल्ह
चाव
चावड़ा
चावल
चावला
चावलों
चावेज
चावेज़
चाशनी
चासनाला
चासर
चाह
चाहए
चाहकर
चाहत
चाहता
चाहती
चाहतीं
चाहते
चाहतें
चाहना
चाहने
चाहनेवाले
चाहमान
चाहये
चाहर
चाहा
चाहिए
चाहिए.इस
चाहिए.एक
चाहिए.यह
चाहिएँ
चाहिएं
चाहिएइस
चाहिएएक
चाहिएयह
चाहिया
चाहिये
चाहियें
चाही
चाहीए
चाहूँ
चाहूँगा
चाहूं
चाहूंगा
चाहूंगी
चाहे
चाहें
चाहेंगे
चाहेगा
चाहेगी
चाहो
चाह्ता
चाह्ते
चि
चिंकारा
चिंग
चिंगट
चिंगदाओ
चिंगहई
चिंगारियां
चिंगारियों
चिंगारी
चिंचवड
चिंतक
चिंतकों
चिंतन
चिंतनधारा
चिंतनशील
चिंतपूर्णी
चिंता
चिंताएँ
चिंताएं
चिंताओं
चिंताजनक
चिंतामणि
चिंतामन
चिंतित
चिंत्य
चिंदविन
चिंपांज़ी
चिंपैंज़ी
चिंराट
चिंह
चिआ
चिआंग
चिएन
चिक
चिकन
चिकनकारी
चिकनगुनिया
चिकना
चिकनाई
चिकनाहट
चिकनी
चिकने
चिकमंगलूर
चिकमगलूर
चिकित्सक
चिकित्सकीय
चिकित्सको
चिकित्सकों
चिकित्सा
चिकित्सा##
चिकित्साएं
चिकित्साओं
चिकित्साकार्य
चिकित्सात्मक
चिकित्सापद्धति
चिकित्सालय
चिकित्सालयों
चिकित्साविज्ञान
चिकित्साशास्त्र
चिकित्सीय
चिकेन
चिक्कन्ना
चिचलीपोरा
चिचेन
चिचेस्टर
चिट
चिटगाँव
चिट्टी
चिट्ठा
चिट्ठाकार
चिट्ठाकारी
चिट्ठाकारों
चिट्ठाजगत
चिट्ठियाँ
चिट्ठियां
चिट्ठियों
चिट्ठी
चिट्ठे
चिट्ठों
चिड़चिड़ा
चिड़चिड़ापन
चिड़ा
चिड़िया
चिड़ियाँ
चिड़ियाघर
चिड़ियाघरों
चिड़ियों
चिड़ी
चिडिया
चिडियाघर
चिढ़
चिढ़ा
चिढ़ाते
चित
चितकबरा
चितकबरे
चितपावन
चितरंजन
चितवन
चिता
चिति
चितेरे
चित्
चित्त
चित्तरंजन
चित्तवृत्ति
चित्तवृत्तियों
चित्ता
चित्ताकर्षक
चित्तियाँ
चित्ती
चित्तीं
चित्तीदार
चित्तीसिंहपुरा
चित्तू
चित्तूर
चित्तें
चित्तौडगढ़
चित्तौडगढ़
चित्तौड़
चित्तौड़गढ़
चित्तौड़ी
चित्तौर
चित्तौरगढ़
चित्तौड़
चित्पावन
चित्र
चित्रकथा
चित्रकला
चित्रकलाओं
चित्रकार
चित्रकारियां
चित्रकारियों
चित्रकारी
चित्रकारों
चित्रकाव्य
चित्रकूट
चित्रकूटम
चित्रकोट
चित्रगुप्त
चित्रगुप्तजी
चित्रचरण
चित्रचारु
चित्रण
चित्रणों
चित्रदीर्घा
चित्रदुर्ग
चित्रपट
चित्रफलक
चित्रमय
चित्ररथ
चित्रलिपि
चित्रलेखा
चित्रवृत
चित्रशाला
चित्रशालाएँ
चित्रशालाओं
चित्रशीर्षक१
चित्रसेन
चित्रा
चित्रांकन
चित्रांकित
चित्रांगद
चित्रात्मक
चित्रात्मकता
चित्राल
चित्रालेख
चित्रावकाश
चित्रावली
चित्रिकरण
चित्रित
चित्रीकरण
चित्रीय
चित्रे
चित्रो
चित्रों
चित्रोत्पला
चिथड़े
चिथड़े
चिदंबरम
चिदंबरम्
चिदंबरा
चिदम्बरम
चिदानन्द
चिदानन्दरूपः
चिन
चिनगारी
चिनाई
चिनाब
चिनार
चिनाव
चिनूक
चिन्तक
चिन्तन
चिन्ता
चिन्ताएं
चिन्ताओं
चिन्ताजनक
चिन्तामणि
चिन्तित
चिन्ना
चिन्नापांडी
चिन्नार
चिन्मय
चिन्मयानन्द
चिन्ह
चिन्हक
चिन्हट
चिन्हित
चिन्हो
चिन्हों
चिन्ह्ति
चिप
चिपक
चिपककर
चिपकते
चिपकने
चिपका
चिपकाए
चिपकाकर
चिपकाने
चिपकाया
चिपकी
चिपके
चिपको
चिपचिपा
चिपचिपापन
चिपचिपाहट
चिपचिपी
चिपचिपे
चिपटा
चिपटी
चिपटे
चिपलुन
चिपलूणकर
चिपसेट
चिप्पड़
चिप्स
चिफ
चिफ़
चिबुक
चिम
चिमटा
चिमटी
चिमटे
चिमनाजी
चिमनी
चिमाजी
चिमेरा
चिम्प
चिम्पांजियों
चिम्पांजी
चिम्पान्जियों
चियर्स
चियांग
चियान
चियापास
चिर
चिरंजीवी
चिरंतन
चिरकारी
चिरकाल
चिरकालिक
चिरकालीन
चिरक्कल
चिरगांव
चिरनिद्रा
चिरपरिचित
चिरप्रतिष्ठित
चिरबटिया
चिरसम्मत
चिरस्थाई
चिरस्थायी
चिरस्मरणीय
चिरांग
चिराई
चिराक्कल
चिराग
चिरायता
चिरैया
चिरोन
चिरौंजी
चिल
चिलचिलाती
चिलम
चिलर
चिलान
चिलास
चिलिका
चिलियन
चिली
चिल्का
चिल्ड्रन
चिल्ड्रन्स
चिल्ड्रेंस
चिल्ड्रेन
चिल्ड्रेन्स
चिल्ला
चिल्लाए
चिल्लाओ
चिल्लाकर
चिल्लाता
चिल्लाती
चिल्लाते
चिल्लाना
चिल्लाने
चिल्लाया
चिल्लाहट
चिशी
चिश्ती
चिहुआहुआ
चिहों
चिह्न
चिह्नक
चिह्नकों
चिह्नावली
चिह्नित
चिह्नों
चिह्म
चिह्र
चिड़ियों
ची
चीं
चींकैन
चींटियाँ
चींटियों
चींटी
चींटीखोर
चीकू
चीको
चीख
चीखते
चीखने
चीख़
चीखें
चीङी
चीचेन
चीज
चीजग
चीज़
चीज़#
चीज़बर्गर
चीज़े
चीज़ें
चीज़ों
चीजे
चीजें
चीजों
चीटियाँ
चीटियों
चीड़
चीत
चीतल
चीता
चीते
चीतों
चीत्कार
चीन
चीनओपन
चीनचीन
चीना
चीनियों
चीनी
चीनीयों
चीप
चीफ
चीफ़
चीफ्स
चीयर्स
चीर
चीरकर
चीरना
चीरने
चीरफाड़
चीरा
चीरे
चीरों
चील
चीलों
चीवर
चीफ़
चुँकि
चुंकि
चुंग
चुंगी
चुंबक
चुंबकत्व
चुंबकत्वमापी
चुंबकन
चुंबकित
चुंबकिय
चुंबकीय
चुंबकीयता
चुंबकों
चुंबन
चुआंग
चुआङ
चुआड़
चुआन
चुक
चुकंदर
चुकची
चुकता
चुकने
चुकन्दर
चुका
चुकाई
चुकाए
चुकाता
चुकाते
चुकाना
चुकानी
चुकाने
चुकाया
चुकि
चुकी
चुकीं
चुके
चुकें
चुकोटका
चुकौती
चुक्का
चुगिट्टी
चुचुक
चुटकी
चुटकुला
चुटकुले
चुटकुलों
चुटिया
चुटीली
चुड़ैल
चुड़ैलों
चुत्यापे
चुन
चुनकर
चुनता
चुनती
चुनते
चुनना
चुनने
चुनरी
चुनवा
चुना
चुनांचे
चुनाई
चुनार
चुनाव
चुनावी
चुनावों
चुनिंदा
चुनिन्दा
चुनी
चुने
चुनें
चुनेंगे
चुनोती
चुनौति
चुनौतियाँ
चुनौतियां
चुनौतियों
चुनौती
चुनौतीपूर्ण
चुन्नी
चुन्नीलाल
चुप
चुपकरण
चुपके
चुपचाप
चुप्पी
चुप्रीनिन
चुफ
चुबंक
चुभ
चुभन
चुभने
चुभाने
चुम्बक
चुम्बकत्व
चुम्बकीय
चुम्बकों
चुम्बन
चुय
चुरा
चुराई
चुराए
चुराकर
चुराता
चुराते
चुराना
चुराने
चुराया
चुरु
चुरू
चुलबुल
चुलबुली
चुलबुले
चुल्लवग्ग
चुल्ली
चुल्लू
चुल्हा
चुवाशी
चुस्त
चुस्ती
चुहिया
चू
चूँकि
चूंकि
चूक
चूकते
चूका
चूकि
चूकी
चूके
चूकेगी
चूची
चूचुक
चूज़े
चूज़ों
चूजे
चूजों
चूड़ा
चूड़ाकर्म
चूड़ामणि
चूड़ियाँ
चूड़ियां
चूड़ियों
चूड़ी
चूड़ीदार
चूडाकर्म
चूडामणि
चूडी
चूतिये
चून
चूना
चूनापत्थर
चूने
चूनेदार
चूम
चूमते
चूमने
चूमा
चूमे
चूमें
चूर
चूरमा
चूरा
चूरु
चूरू
चूरे
चूर्ण
चूर्णातु
चूर्णित
चूल
चूलिका
चूलें
चूल्हा
चूल्हे
चूल्हों
चूषक
चूषण
चूस
चूसकर
चूसती
चूसते
चूसने
चूसनेवाले
चूसा
चूहा
चूहे
चूहों
चूड़ियां
चॅक
चॅककर्ता
चॅकों
चॅट
चॅनल
चे
चेंग
चेंगदू
चेंगलपट्टू
चेंगलपेट
चेंज
चेंजलिंग
चेंजेस
चेंबर
चेक
चेकअप
चेकबॉक्स
चेकर
चेकिंग
चेकों
चेकोस्लोवाकिया
चेखव
चेचक
चेचर
चेचेन
चेचेन्या
चेज
चेज़
चेज़िंग
चेट
चेट्टियार
चेट्टी
चेडी
चेत
चेतक
चेतन
चेतनता
चेतना
चेतनाओं
चेतनावस्था
चेतनाशून्य
चेतनाशून्यता
चेतसिंह
चेता
चेताया
चेतावनियां
चेतावनियों
चेतावनी
चेति
चेत्
चेत्तीनाद
चेत्र
चेदि
चेदिराज
चेदी
चेन
चेनम्मा
चेनल
चेनाब
चेनी
चेन्द्रा
चेन्नई
चेन्नई_एक्स्प्रेस_####
चेन्नई_एग्मोर_एक्स्प्रेस_####
चेन्नईएक्स्प्रेस
चेन्नईएग्मोरएक्स्प्रेस
चेन्नमा
चेन्नीथाला
चेन्नै
चेन्स
चेप्स्टो
चेम्नित्ज़
चेम्पियन
चेम्पियनशिप
चेम्बर
चेम्बरलेन
चेम्बर्स
चेम्सफोर्ड
चेयर
चेयरमेन
चेयरमैन
चेयर्स
चेर
चेरनोबिल
चेरमान्
चेरल
चेरा
चेरापूंजी
चेरिंग
चेरिटी
चेरिटेबल
चेरियन
चेरियान
चेरिल
चेरी
चेरो
चेरोकी
चेलना
चेलसी
चेला
चेलिशेव
चेले
चेलों
चेल्लप्पा
चेल्सिया
चेल्सी
चेवी
चेशायर
चेष्टा
चेष्टाएँ
चेष्टाएं
चेष्टाओं
चेष्ठा
चेस
चेसापिक
चेसिस
चेस्ट
चेस्टनट
चेस्टर
चेहरा
चेहरे
चेहरों
चै
चैंग
चैंडलेर
चैंपियंस
चैंपियन
चैंपियनशिप
चैंपियन्स
चैंबर
चैंबरों
चैंबर्लिन
चैंबर्स
चैक
चैट
चैटर्जी
चैड
चैडरटन
चैडविक
चैत
चैतन्य
चैती
चैत्य
चैत्यगिरी
चैत्र
चैथम
चैन
चैनपुर
चैनल
चैनलों
चैनल्स
चैनेल
चैन्नई
चैपमैन
चैपल
चैपलिन
चैपाल
चैपालों
चैपिंयनशिप
चैप्टर
चैप्टर्स
चैप्लिन
चैम्पियंस
चैम्पियन
चैम्पियनशिप
चैम्पियनशिप्स
चैम्पियन्स
चैम्बर
चैम्बरलेन
चैम्बर्स
चैयरमैन
चैरासी
चैरिंग
चैरिटी
चैरिटीज
चैरिटेबल
चैरीटेबल
चैलेंज
चैलेंजर
चैलेंजर्स
चैलेन्ज
चैव
चैस
चैसी
चॉइस
चॉईस
चॉक
चॉकलेट
चॉप
चॉसर
चो
चोंग
चोंच
चोइस
चोई
चोक
चोकटॉ
चोकर
चोकस्लैम
चोकुसु
चोको
चोखा
चोगोलीसा
चोग्याल
चोज
चोट
चोटि
चोटियाँ
चोटियां
चोटियों
चोटिल
चोटी
चोटे
चोटें
चोटों
चोड़
चोन
चोपड़ा
चोपडा
चोपडाकोट
चोपडा०
चोपता
चोपरा
चोपिन
चोपड़ा
चोमस्की
चोम्स्की
चोयल
चोर
चोरिज़ो
चोरी
चोरों
चोल
चोला
चोलाई
चोली
चोले
चोलों
चौ
चौंक
चौंका
चौंकाने
चौंतीस
चौंधिया
चौंसठ
चौक
चौकड़ी
चौकन्ना
चौकन्ने
चौकस
चौकसी
चौका
चौकियाँ
चौकियां
चौकियों
चौकी
चौकीदार
चौके
चौकों
चौकोर
चौखंडी
चौखंबा
चौखंभा
चौखट
चौखटे
चौखटों
चौखम्भा
चौखुटा
चौखुटिया
चौगान
चौगुना
चौगुनी
चौघडिया
चौटाला
चौड़ा
चौड़ाई
चौड़ी
चौड़े
चौडा
चौडाई
चौडा़
चौडी
चौडे
चौतरफा
चौथ
चौथम
चौथा
चौथाई
चौथान
चौथी
चौथे
चौदवीं
चौदस
चौदह
चौदहवाँ
चौदहवां
चौदहवीं
चौदहवें
चौधरी
चौधुरी
चौना
चौपट
चौपड़
चौपहिया
चौपाइयों
चौपाई
चौपाए
चौपाटी
चौपाया
चौपाये
चौपायों
चौपाल
चौबंद
चौबटाखाल
चौबारे
चौबीस
चौबीसवें
चौबीसी
चौबीसों
चौबे
चौभड़
चौमुख
चौमुखी
चौर
चौरंगी
चौरस
चौरसिया
चौरा
चौरागढ़
चौरास
चौरासी
चौराहा
चौराहे
चौराहों
चौरी
चौरीचौरा
चौर्य
चौलाई
चौवन
चौवालीसवें
चौसठ
चौसर
चौसा
चौसिंगा
चौहान
चौहानपाटा
चौहानों
चौड़ा
चौड़े
च्
च्चाय
च्यवन
च्यवनप्राश
च्या
च्यांग
च्युत
च्यूको
च्यूटहीं
च्यूनी
च्यूरकोट
च्रेतिएन
च्वांग
च्वाइस
चढ़
चढ़कर
चढ़त
चढ़ने
चढ़ा
चढ़ाई
चढ़ाए
चढ़ाने
चढ़ाया
चढ़ाव
चढ़े
छ
छँटाई
छंटनी
छंटने
छंटाई
छंद
छंदशास्त्र
छंदो
छंदों
छंदोबद्ध
छंदोविधान
छः
छऊ
छक
छके
छक्का
छक्के
छक्कों
छगन
छछरौली
छछूँदर
छछूंदर
छजलानी
छज्जा
छज्जू
छज्जे
छज्जों
छट
छटते
छटनी
छटपटाहट
छटा
छटाँक
छटे
छठ
छठवाँ
छठवां
छठवीं
छठवें
छठा
छठी
छठीं
छठे
छठें
छड़
छड़ियों
छड़ी
छड़ें
छड़ों
छडा
छत
छतर
छतरपुर
छतरियाँ
छतरियां
छतरियों
छतरी
छतवाल
छतें
छतेहरा
छतों
छतौला
छत्तर
छत्तरपुर
छत्ता
छत्तीस
छत्तीसगढ
छत्तीसगढ़
छत्तीसगढ़ी
छत्तीसगढी
छत्तीसगढ़
छत्ते
छत्तों
छत्र
छत्रक
छत्रछाया
छत्रपति
छत्रप्रकाश
छत्रसाल
छत्रसेना
छत्रिक
छत्रियां
छत्री
छत्रों
छथि
छदम
छद्म
छद्मनाम
छद्मवेश
छद्मावरण
छन
छनकर
छनखन
छनन
छननी
छनने
छने
छन्
छन्द
छन्दशास्त्र
छन्दों
छन्दोबद्ध
छप
छपकर
छपता
छपती
छपते
छपने
छपरा
छपवाया
छपा
छपाई
छपी
छपीं
छपे
छपेली
छप्पन
छप्पय
छप्पर
छबि
छबीली
छब्बीस
छमक
छमता
छमाही
छर्रों
छल
छलक
छलकपट
छलकाए
छलनी
छलपूर्ण
छलपूर्वक
छला
छलांग
छलावरण
छलावा
छलावे
छलाह
छलिया
छली
छल्ला
छल्ले
छल्लों
छवि
छवियाँ
छवियां
छवियों
छह
छहों
छा
छाँट
छाँटकर
छाँव
छाँह
छांट
छांटने
छांटा
छांटे
छांदोग्य
छांव
छाई
छाए
छाएं
छागला
छागोस
छाछ
छाजन
छाड़
छाता
छाती
छाते
छात्र
छात्रवृति
छात्रवृत्ति
छात्रवृत्तियाँ
छात्रवृत्तियां
छात्रवृत्तियों
छात्रा
छात्राएँ
छात्राएं
छात्राओं
छात्रावास
छात्रावासों
छात्रें
छात्रो
छात्रों
छान
छानकर
छानते
छाननी
छानने
छानबीन
छाना
छानी
छाने
छान्दोग्य
छान्दोग्योपनिषद
छाप
छापकर
छापते
छापना
छापने
छापर
छापा
छापाखाना
छापामार
छापामारी
छापामारों
छापी
छापे
छापेखाने
छापेमारी
छापों
छाबड़
छाया
छायांकन
छायांकित
छायाओं
छायाकार
छायाकारों
छायाचित्र
छायाचित्रण
छायाचित्रों
छायादार
छायानुवाद
छायावाद
छायावादी
छायावादोत्तर
छायी
छाये
छाल
छाला
छाले
छालों
छावनियों
छावनी
छाहिए
छि
छिंग
छिंगमारोंग
छिंदवाड़ा
छिंदवाडा
छिंदवाड़ा
छिंदविन
छिङकाव
छिछला
छिछली
छिछले
छिछोरा
छिट
छिटक
छिटपुट
छिट्टा
छिड
छिडकाव
छिड़
छिड़क
छिड़ककर
छिड़कना
छिड़कने
छिड़का
छिड़काव
छिड़के
छिड़ने
छिड़ा
छिड़ी
छितरा
छितरी
छितरे
छिद्र
छिद्रक
छिद्रण
छिद्रदार
छिद्रपूर्ण
छिद्रयुक्त
छिद्रित
छिद्रों
छिन
छिन्धि
छिन्न
छिन्नमस्ता
छिप
छिपकर
छिपकलियाँ
छिपकलियों
छिपकली
छिपता
छिपने
छिपा
छिपाई
छिपाए
छिपाकर
छिपाता
छिपाते
छिपाना
छिपाने
छिपाया
छिपाये
छिपाव
छिपी
छिपे
छिबरामऊ
छियालीस
छियासी
छिल
छिलका
छिलके
छिलकों
छिला
छिल्का
छिड़
छिड़ककर
छिड़काव
छिड़ी
छिड़े
छिड़ेगा
छी
छींक
छींट
छींटाकशी
छींटे
छींटों
छीछालेदर
छीतस्वामी
छीन
छीनकर
छीनने
छीना
छीनी
छीने
छीपा
छीपी
छील
छीलकर
छीलन
छीलने
छु
छुआ
छुआछुत
छुआछूत
छुई
छुए
छुट
छुटकारा
छुटकी
छुटपुट
छुटियो
छुट्टा
छुट्टियाँ
छुट्टियां
छुट्टियों
छुट्टी
छुड़ा
छुड़ाकर
छुड़ाना
छुड़ाने
छुड़ाया
छुडा
छुडाने
छुने
छुप
छुपकर
छुपने
छुपा
छुपाए
छुपाएँ
छुपाकर
छुपाती
छुपाते
छुपाना
छुपाने
छुपाया
छुपाये
छुपी
छुपे
छुरा
छुरी
छुरे
छुरेबाजी
छुहारे
छुड़वाए
छुड़वाया
छुड़ाकर
छुड़ाने
छू
छूआ
छूकर
छूट
छूटकर
छूटता
छूटती
छूटते
छूटना
छूटने
छूटा
छूटी
छूटे
छूटों
छूत
छूता
छूती
छूते
छूना
छूने
छूमंतर
छूरी
छे
छेड़
छेड़खानी
छेड़छाड़
छेड़ते
छेड़ने
छेड़ा
छेड़ी
छेड़े
छेडे
छेत्र
छेत्र्
छेद
छेदक
छेदकर
छेदन
छेदने
छेदा
छेदी
छेदों
छेन
छेना
छेनी
छेने
छेबी
छेरिया
छेड़
छेड़खानी
छेड़छाड़
छेड़ने
छेड़ा
छेड़ी
छेड़े
छै
छैंया
छैना
छैल
छो
छोट
छोटका
छोटा
छोटानागपुर
छोटी
छोटू
छोटूराम
छोटे
छोटों
छोड
छोडकर
छोडते
छोडना
छोडने
छोड़
छोड़कर
छोड़ता
छोड़ती
छोड़ते
छोड़ना
छोड़नी
छोड़ने
छोड़ा
छोड़ी
छोड़े
छोड़ें
छोड़ेंगे
छोड़ो
छोडा
छोडी
छोडूं
छोडे
छोडें
छोडो
छोर
छोरा
छोरों
छोलिया
छोले
छोड़
छोड़कर
छोड़ते
छोड़ना
छोड़ने
छोड़ा
छोड़िए
छोड़ी
छोड़ूंगा
छोड़े
छोड़ेंगे
छोड़ेगी
छौंक
छौने
छौराही
छ्
छ्ल
छ्वान
छ्वुआन
ज
ज.द
जँ
जंक
जंकशन
जंक्शन
जंग
जंगबहादुर
जंगम
जंगरोधी
जंगल
जंगला
जंगली
जंगलीपन
जंगलो
जंगलों
जंगी
जंघा
जंघाओं
जंजगीर
जंजाल
जंजीबार
जंजीर
जंजीरा
जंजीरें
जंजीरों
जंजुआ
जंतर
जंता
जंतु
जंतुओं
जंतुभ
जंतुविस्तार
जंतुसमूह
जंद
जंप
जंपिंग
जंबुद्वीप
जंभिका
जंव
जई
जक
जकड
जकडन
जकड़
जकड़न
जकड़ना
जकड़ने
जकड़ा
जकड़ी
जकड़े
जकनाचार्य
जकार्ता
जक्खड़
जखन
जखीरा
जख्म
जख्मी
जख्मों
जग
जगचि
जगजाहिर
जगजीत
जगजीवन
जगत
जगतगुरु
जगतजीत
जगतनंद
जगतनारायण
जगतपुर
जगतसिंह
जगता
जगताप
जगतार
जगती
जगतों
जगत्
जगत्प्रसिद्ध
जगदंबा
जगदगुरु
जगदगुरू
जगदम्बा
जगदम्बे
जगदलपुर
जगदानंद
जगदीश
जगदीशचंद्र
जगदीशपुर
जगदेकमल्ल
जगदेव
जगद्
जगद्गुरु
जगद्गुरू
जगद्धात्री
जगन
जगनिक
जगने
जगनेर
जगन्नाथ
जगन्नाथदास
जगन्नाथपुरी
जगन्माता
जगप्रसिद्ध
जगमग
जगमगा
जगमगाता
जगमगाते
जगमगाने
जगमगाहट
जगमाल
जगमीत
जगमोहन
जगरनाथपुर
जगराता
जगरीया
जगल
जगलाल
जगह
जगहें
जगहो
जगहों
जगा
जगाई
जगाकर
जगाता
जगाती
जगाते
जगाधरी
जगाना
जगाने
जगाया
जगी
जगीं
जगुआर
जगे
जगें
जग्गी
जगज़ाहिर
जघन
जघन्य
जङें
जङों
जच्चा
जज
जजमान
जजमानी
जजमेंट
जज़िया
जज़ीरा
जज़्बा
जजिया
जजीरा
जजों
जज्ब
जज्बा
जज्बात
जज्बाती
जट
जटरोफा
जटा
जटाओं
जटाधारी
जटानिया
जटामांसी
जटायु
जटावर्मन्
जटाशंकर
जटित
जटिन
जटिया
जटिल
जटिलतम
जटिलता
जटिलताएं
जटिलताओं
जटिलतायें
जटोली
जठर
जठरनिर्गम
जठरांत्र
जठरांत्रिय
जठराग्नि
जठरीय
जठलाना
जठार
जड
जड़
जड़कर
जड़ता
जड़त्व
जड़त्वाघूर्ण
जड़त्वीय
जड़बुद्धिता
जड़भरत
जड़ा
जड़ाई
जड़ाऊ
जड़ित
जड़ी
जड़े
जड़ें
जड़ो
जड़ों
जडी
जडे
जडें
जडेजा
जतन
जतलाने
जता
जताई
जताए
जताएंगे
जताता
जताती
जताते
जताना
जताने
जताया
जतायी
जतारा
जति
जतिन
जती
जते
जत्ती
जत्था
जत्थे
जत्थेबंदियों
जत्थों
जत्रुक
जत्रोफा
जथा
जद
जदयू
जदीद
जद्दोजहद
जन
जन#
जनंसख्या
जनआंदोलन
जनआंदोलनों
जनआन्दोलन
जनक
जनकपुर
जनकपुरी
जनकल्याण
जनकल्याणकारी
जनकवि
जनकों
जनक्रांति
जनगढना
जनगढ़ना
जनगणना
जनगणनाओं
जनचेतना
जनजागरण
जनजाति
जनजातिय
जनजातियाँ
जनजातियां
जनजातियों
जनजातीय
जनजीवन
जनतंत्र
जनता
जनतांत्रिक
जनती
जनन
जननतंत्र
जननद्वार
जननांग
जननांगी
जननांगों
जननायक
जननि
जननिक
जननी
जनने
जननेंद्रिय
जननेंद्रियों
जननेन्द्रिय
जनपथ
जनपद
जनपदीय
जनपदों
जनप्रतिनिधि
जनप्रिय
जनप्रियता
जनभावना
जनभाषा
जनम
जनमत
जनमतसंग्रह
जनमानस
जनमुक्ति
जनमे
जनमेजय
जनमेजा
जनरल
जनरलों
जनरेटर
जनरेशन
जनरेशन्स
जनलोकपाल
जनवरी
जनवाद
जनवादी
जनविरोधी
जनशक्ति
जनशताब्दी
जनशिकायतों
जनश्रुति
जनश्रुतियाँ
जनश्रुतियों
जनसँख्या
जनसंक्या
जनसंख्या
जनसंख्या####
जनसंख्याओं
जनसंख्यानुसार
जनसंख्यानेपाल
जनसंख्या२००१
जनसंघ
जनसंचार
जनसंपर्क
जनसंसाधन
जनसंहार
जनसंहारक
जनसत्ता
जनसन्ख्या
जनसभा
जनसभाएं
जनसभाओं
जनसमाज
जनसमुदाय
जनसमूह
जनसमूहों
जनसांख्यिकी
जनसांख्यिकी####
जनसांख्यिकीभारत
जनसांख्यिकीय
जनसांख्यिकी२००१
जनसाधारण
जनसामान्य
जनसेवक
जनसेवा
जनस्वास्थ्य
जनहित
जनहितकारी
जना
जनांकिक
जनांकिकी
जनांकिकीय
जनांदोलन
जनाज़ा
जनातंक
जनादेश
जनाधार
जनाना
जनान्दोलन
जनाब
जनार्दन
जनि
जनित
जनित्र
जनित्रों
जनी
जनीं
जनीवा
जनूब
जनूबी
जने
जनेऊ
जनेरियो
जनो
जनों
जनोक्ति
जनोपयोगी
जन्क
जन्तर
जन्तु
जन्तुओं
जन्दाहा
जन्नत
जन्नती
जन्म
जन्मः
जन्मकाल
जन्मकुंडली
जन्मजात
जन्मतः
जन्मतिथि
जन्मती
जन्मते
जन्मदाता
जन्मदात्री
जन्मदिन
जन्मदिवस
जन्मना
जन्मनि
जन्मने
जन्मपत्री
जन्मभूमि
जन्मशती
जन्मसिद्ध
जन्मस्थल
जन्मस्थली
जन्मस्थान
जन्मा
जन्मांतर
जन्मांध
जन्मान्तर
जन्माष्टमी
जन्मी
जन्मीं
जन्मे
जन्में
जन्मेजय
जन्मों
जन्मोत्सव
जन्य
जन्यु
जप
जपते
जपने
जपमाला
जपुजी
जपे
जप्त
जफर
जफरनामा
जफरुल्ला
जफरूल्लाह
जफ़र
जब
जबकि
जबकी
जबड़ा
जबड़े
जबड़ों
जबतक
जबर
जबरदस्त
जबरदस्ती
जबरन
जबरिया
जबर्दस्त
जबर्दस्ती
जबल
जबलपुर
जबलबुर
जबसे
जबान
जबानी
जबाब
जबाल
जबाव
जबावी
जब्त
जब्ती
जब्बार
जब्र
जभी
जम
जमईका
जमक
जमकर
जमघट
जमता
जमती
जमते
जमदग्नि
जमन
जमना
जमनालाल
जमनिया
जमने
जमराडी
जमरूद
जमशीद
जमशेद
जमशेदजी
जमशेदपुर
जमा
जमाअत
जमाइका
जमाई
जमाए
जमाकर
जमाकर्ता
जमाकर्ताओं
जमाखोरी
जमाण
जमात
जमाते
जमादार
जमान
जमानत
जमानती
जमाना
जमाने
जमाया
जमाये
जमाराशि
जमाराशियों
जमाल
जमालपुर
जमाली
जमालुद्दीन
जमाव
जमावट
जमावड़ा
जमावड़े
जमावड़ा
जमिन
जमियत
जमी
जमीं
जमींदार
जमींदारी
जमींदारों
जमीअत
जमीदार
जमीदारों
जमीन
जमीनी
जमीनें
जमीनों
जमीर
जमीरा
जमील
जमुआ
जमुई
जमुना
जमुनी
जमूरा
जमे
जमैकन
जमैका
जमैकाई
जमोरिन
जम्प
जम्पर
जम्परों
जम्पिंग
जम्बुद्वीप
जम्बुर
जम्बू
जम्बूद्वीप
जम्बूद्वीपे
जम्मु
जम्मू
जम्मू_तवी_एक्स्प्रेस_####
जम्मूतवीएक्स्प्रेस
जम्वाल
जम्हूरियत
जय
जयंत
जयंतिया
जयंती
जयकर
जयकरण
जयकांत
जयकांतन
जयकान्तन
जयकार
जयकिशन
जयकुमार
जयगढ
जयगढ़
जयघोष
जयचंद
जयचंद्र
जयचन्द
जयचन्द्र
जयजयकार
जयति
जयते
जयदयाल
जयदेव
जयद्रथ
जयनगर
जयनाथ
जयनारायण
जयन्त
जयन्ती
जयपाल
जयपुर
जयपुर_एक्स्प्रेस_####
जयपुरएक्स्प्रेस
जयपुरी
जयपोल
जयप्रकाश
जयबाण
जयमंगल
जयमंगला
जयमल
जयमाला
जयरथ
जयराम
जयरामन
जयलक्ष्मी
जयललिता
जयवंत
जयवर्धने
जयशंकर
जयशक्ति
जयश्री
जयसमंद
जयसलमेर
जयसवाल
जयसिंह
जयसिंहपुर
जयसिह
जयसूर्या
जय़
जया
जयां
जयांचे
जयांचें
जयाचा
जयाचिया
जयाचिये
जयाची
जयाचें
जयाचेनि
जयातें
जयादा
जयादित्य
जयापरी
जयापीड
जयाप्रदा
जयालागीं
जये
जयेंद्र
जयेगि
जयेन्द्र
जर
जरकावी
जरथुस्त्र
जरथोस्ती
जरदष्टयः
जरदारी
जरदोजी
जरदोश्त
जरनल
जरनैल
जरमन
जरवा
जरा
जराक
जरामा
जरायुज
जरावस्था
जरासंघ
जरासंध
जरासन्ध
जरि
जरिए
जरिया
जरिये
जरी
जरुर
जरुरत
जरुरतमंदों
जरुरतों
जरुरी
जरूर
जरूरत
जरूरतभर
जरूरतमंद
जरूरतमंदों
जरूरतें
जरूरतों
जरूरी
जर्जर
जर्दी
जर्नल
जर्नलिस्ट
जर्नलिस्ट्स
जर्नलों
जर्नल्स
जर्निशन
जर्नी
जर्नीमैन
जर्म
जर्मन
जर्मनिक
जर्मनी
जर्मनीजर्मनी
जर्मनों
जर्मानी
जर्मेन
जर्मेनिक
जर्मेनियम
जर्मैनिक
जर्मैनी
जर्राह
जर्रे
जर्विस
जर्सी
जऱ्ही
जल
जलंधर
जलकर
जलकाग
जलकागों
जलकुंड
जलक्रीड़ा
जलक्षेत्र
जलगाँव
जलगांव
जलगैस
जलग्रहण
जलचर
जलचरों
जलचालित
जलज
जलजन
जलजनित
जलजीवशाला
जलजीवशालाओं
जलडमरुमध्य
जलडमरू
जलडमरूमध्य
जलतल
जलता
जलतापीय
जलती
जलते
जलद
जलदस्यु
जलदस्युओं
जलदान
जलधर
जलधारा
जलधाराएँ
जलधाराएं
जलधाराओं
जलधि
जलन
जलना
जलनिकाय
जलने
जलपक्षी
जलपरियां
जलपरी
जलपाइगुड़ी
जलपाईगुड़ी
जलपाईगुड़ी
जलपान
जलपाश
जलपोत
जलपोतों
जलप्रपात
जलप्रपातों
जलप्रलय
जलप्रवाह
जलप्रेमी
जलप्लावन
जलप्लावित
जलबेड़ा
जलभृत
जलमंडल
जलमंदिर
जलमग्न
जलमहल
जलमार्ग
जलमार्गों
जलमे
जलयात्रा
जलयान
जलयानों
जलयोजन
जलयोजित
जलरंग
जलरंगों
जलराशि
जलवा
जलवायु
जलवायुक्षेत्र
जलवायुवाले
जलवाले
जलवाष्प
जलवासी
जलवाही
जलविज्ञान
जलविद्युत
जलविद्युत्
जलविभाजक
जलविमान
जलविलेय
जलविश्लेषण
जलशक्ति
जलशीर्ष
जलशोथ
जलश्वसनिका
जलसंत्रास
जलसंत्रासी
जलसंधि
जलसंभर
जलसंभारों
जलसंयोगी
जलसन्धि
जलसमाधि
जलसम्भर
जलसर्प
जलसा
जलसिंह
जलसे
जलसेतु
जलसेना
जलस्तर
जलस्त्रोत
जलस्रोत
जलस्रोतों
जला
जलांतक
जलाई
जलाए
जलाएं
जलाकंदेस्वरार
जलाकर
जलाता
जलाते
जलाना
जलाने
जलापूर्ति
जलाभिषेक
जलाभेद्य
जलाया
जलायी
जलाये
जलाराम
जलाल
जलालगढ़
जलालत
जलालपुर
जलालाबाद
जलाली
जलालुद्दीन
जलावतरण
जलावन
जलाशय
जलाशयों
जलियाँवाला
जलियांवाला
जली
जलीय
जलीयक
जलील
जलूस
जले
जलेगा
जलेब
जलेबी
जलेश्वर
जलेसर
जलों
जलोटा
जलोढ
जलोढ़
जलोत्सारण
जलोदर
जल्द
जल्दबाजी
जल्दी
जल्प
जल्पा
जल्लाद
जल्हण
जळ
जळि
जळीं
जळे
जळें
जव
जवनिका
जवळां
जवान
जवानी
जवानों
जवाब
जवाबदेह
जवाबदेही
जवाबी
जवाबों
जवार
जवाहर
जवाहरलाल
जवाहरात
जवाहरातों
जवाहरी
जवाहिरी
जशन
जशपुर
जश्न
जस
जसपाल
जसपुर
जसराज
जसवंत
जसवंतसिंह
जसवन्त
जसवीर
जसी
जसे
जस्ट
जस्टिन
जस्टिनियन
जस्टिफ़ाइड
जस्टिफाई
जस्टिस
जस्टीनियन
जस्टीस
जस्ता
जस्ती
जस्ते
जह
जहँ
जहन
जहन्नुम
जहन्नुमी
जहर
जहरीला
जहरीली
जहरीले
जहा
जहाँ
जहाँआरा
जहाँगीर
जहां
जहांआरा
जहांगीर
जहांगीरी
जहाज
जहाजपुर
जहाजरानी
जहाज़
जहाज़रानी
जहाज़ी
जहाज़ों
जहाजी
जहाजों
जहान
जहानपुर
जहानसोज़
जहानाबाद
जहालत
जहालें
जहाज़
जहिया
जहीर
जहीरा
जहीरुद्दीन
जहॉ
जहॉं
ज़
ज़ंग
ज़करिया
ज़कात
ज़कारिया
ज़ख़ार
ज़ख़्मी
ज़ख्म
ज़ख्मी
ज़ख्मों
ज़गाटो
ज़थुरा
ज़नाना
ज़नानी
ज़प्पा
ज़फर
ज़फ़र
ज़बरदस्त
ज़बरदस्ती
ज़बर्दस्त
ज़बान
ज़बाने
ज़बानों
ज़ब्त
ज़मानत
ज़माना
ज़मानी
ज़माने
ज़मींदार
ज़मींदारी
ज़मींदारों
ज़मीन
ज़मीनी
ज़मीनें
ज़मीनों
ज़मीर
ज़मोरिन
ज़यादा
ज़रंज
ज़रकोनियम
ज़रथुष्ट्र
ज़रथुस्त्र
ज़रदारी
ज़रदोज़ी
ज़रदोश्त
ज़रफ़शान
ज़रा
ज़रागोज़ा
ज़राी
ज़रिए
ज़रिया
ज़रिये
ज़री
ज़रीये
ज़रुर
ज़रुरत
ज़रुरी
ज़रूर
ज़रूरत
ज़रूरतमंद
ज़रूरतें
ज़रूरतों
ज़रूरी
ज़र्क्सीस
ज़र्द
ज़र्दी
ज़र्ब
ज़र्मन
ज़लज़ला
ज़लज़ले
ज़लील
ज़ल्दी
ज़सपेजी
ज़स्तिन
ज़हर
ज़हरान
ज़हरीली
ज़हरीले
ज़हारा
ज़हीर
ज़हेदन
ज़ाँ
ज़ांज़ीबार
ज़ांस्कर
ज़ाईलर
ज़ाकिर
ज़ात
ज़ादा
ज़ापस
ज़ाबुल
ज़ाम्बिया
ज़ायद
ज़ाया
ज़ायॉन
ज़ार
ज़ारा
ज़ारी
ज़ालिम
ज़ालिमों
ज़ावी
ज़ाहिर
ज़ाहिरा
ज़िंक
ज़िंटा
ज़िंदगी
ज़िंदा
ज़िआदा
ज़िओनिज़म
ज़िओनिस्ट
ज़िक्र
ज़िगी
ज़िचेंग
ज़िद
ज़िदगी
ज़िन्दगी
ज़िन्दा
ज़िप
ज़िमोन्विक
ज़िम्बाब्वे
ज़िम्मा
ज़िम्मेदार
ज़िम्मेदारियों
ज़िम्मेदारी
ज़िया
ज़ियादा
ज़िला
ज़िले
ज़िलों
ज़िल्लत
ज़िल्हा
ज़ी
ज़ीउस
ज़ीटा
ज़ीन
ज़ीनत
ज़ीनो
ज़ीब्रा
ज़ीरो
ज़ीलैंड
ज़ुकाम
ज़ुकेरबर्ग
ज़ुन्गार
ज़ुन्गारिया
ज़ुबान
ज़ुल्फ़िकार
ज़ुल्म
ज़ुह्दी
ज़ू
ज़ूनोसिस
ज़ूम
ज़ूमा
ज़े
ज़ेंद
ज़ेटा
ज़ेड
ज़ेदोंग
ज़ेन
ज़ेनिया
ज़ेपलिन
ज़ेबरा
ज़ेमल्या
ज़ेमान
ज़ेमेकिस
ज़ेर
ज़ेरोक्स
[...]
