!\
!align
!bgcolor
!colspan
!colspan=#
!colspan=#|
!colspan=#|jr
!important
!name
!outcome
!percent
!right
!rowspan
!style
!total||##||#
!total||#||#
!vote
!votes
!width
!width=##
#########x
######.jpg
######en######
#####en#####
####'s
####.a
####.according
####.after
####.all
####.also
####.although
####.among
####.an
####.another
####.as
####.at
####.before
####.between
####.born
####.by
####.citation
####.currently
####.defaultsort
####.despite
####.due
####.during
####.following
####.for
####.from
####.he
####.her
####.his
####.however
####.in
####.it
####.its
####.john
####.jpg
####.jpgfile
####.jpg|
####.jpg|the
####.later
####.like
####.many
####.most
####.on
####.one
####.other
####.over
####.png
####.prior
####.right
####.she
####.since
####.some
####.the
####.their
####.there
####.they
####.this
####.to
####.today
####.two
####.under
####.upon
####.when
####.while
####.with
####:####r##
####a
####ad
####after
####as
####at
####b
####bc
####by
####c
####category
####cc
####d
####during
####em
####em##
####em####
####emthe
####en
####en#
####en##
####en###
####en####
####en####.
####en####after
####en####in
####en####the
####en##.
####enapril
####endecember
####enfebruary
####enjanuary
####enjuly
####enjune
####enmarch
####enmay
####ennovember
####enoctober
####enpresent
####enseptember
####following
####for
####from
####he
####i
####in
####left-to-right
####m
####minus####
####mm
####on
####p
####px
####right
####rights
####s
####s####
####s.
####s.a
####s.the
####safter
####sen####s
####sin
####source
####st
####sthe
####talk
####th
####the
####this
####united
####with
####x###
####x####
###,###.the
###.#fm
###.in
###.jpg
###.jpgfile
###.jpg|
###.jpg|the
###.the
###a
###a.
###ad
###b
###bc
###c
###cc
###cefa
###d
###e
###em###
###en#
###en##
###en###
###en####
###en###.
###er
###f
###ff
###ft
###g
###gb
###h
###hp
###i
###j
###k
###kg
###km
###l
###list
###m
###mb
###ml
###mm
###mw
###n
###nd
###p
###pp
###px
###r
###rd
###right
###s
###st
###t
###talk
###th
###the
###v
###w
###x
###x###
###z
##'s
##,###.the
##,###en##,###
##,###m
##,###th
##,e
##,n
##.##am
##.##m
##.##pm
##.##s
##.#en##.#
##.#fm
##.#m
##.#mm
##.a
##.after
##.he
##.his
##.in
##.it
##.jpg
##.jpgfile
##.jpg|
##.jpg|the
##.on
##.the
##1fraction2
##1fraction3
##:###en###
##:##am
##:##en##
##:##pm
##:##z
##a
##a##
##a.
##am
##as
##b
##b.
##bs
##c
##c.
##cc
##cm
##cs
##d
##e
##em##
##en#
##en##
##en###
##en##.
##en##en#
##en##en##
##en#en#
##er
##ers
##f
##ff
##ft
##g
##gb
##h
##hr
##in
##j
##k
##kg
##km
##l
##m
##mb
##mm
##n
##nd
##o
##on
##p
##pm
##portal
##prime
##pts
##px
##r
##rd
##right
##rights
##rpm
##s
##st
##t
##t##
##t##:##
##t##:##:##
##talk
##th
##th.
##the
##then##th
##this
##u
##v
##w
##wikipedia
##x
##x#
##x##
##xx
##||rowspan
#'s
#,###.the
#,###en#,###
#,###m
#,###th
#,e
#,n
#.###m
#.##.in
#.##.the
#.##am
#.##en#.##
#.##m
#.##mm
#.##pm
#.##x##mm
#.#bn
#.#em
#.#en#
#.#en##
#.#en#.#
#.#km
#.#l
#.#m
#.#mm
#.#x
#.a
#.c#
#.d#
#.e#
#.he
#.in
#.it
#.jpg
#.jpgfile
#.jpg|
#.jpg|conus
#.jpg|the
#.nc#
#.nf#
#.on
#.png
#.see
#.the
#.x
#1fraction2
#1fraction4
#3fraction4
#:##am
#:##en##
#:##pm
#\
#\\
#\pi
#\right
#^#
#^{
#a
#a#
#a.
#aaa
#aapsavesyourmoney
#academicofficefail
#acha_sorry_boys
#ad
#adarsh
#addiction1stfanmeetinginbkk
#aero
#afghanistan
#al_quran
#am
#amazing
#antiindiaaroonpurie
#arunjaitley
#arunlallogic
#as
#ashwin
#asiacupt20
#aus
#av
#b
#b#d#fb
#b.
#baaghiposter
#baalveer
#badgirl
#badlapura
#badlarelo
#ban
#bbffbb
#bengaluru
#beourtrendteampartner
#bewafab
#bhaangkulfi
#bhai
#bharat
#bharatmatakijai
#bharatmatakijay
#birthday
#bjpexposed
#bjpkegunde
#bleedblue
#blockbustermsg
#blooddonation
#bloodforlife
#boaring
#buddha
#budgetbt
#c
#cantbeatindia
#ccc15
#cccccc
#ccccff
#ccffcc
#cd
#celkoncheers4india
#chan
#chawlen
#chickenfries
#chu
#clap
#cm
#congaiudfnexus
#cricketsuperstition
#cryingtime
#csk
#cv
#cwc
#cwc15
#cwc2015
#d
#d.
#dahleez
#dc
#declineofiitb
#delhimla
#desirejectionlines
#dfedfd
#dhawan
#dhoni
#dilsay
#dilwaleonsony
#dimagsay
#do
#donedan
#ds
#dumem
#e
#e#
#e#e#e#
#e#e#ff
#eeeeee
#efefef
#em
#eme
#en
#en#
#en##
#en###
#en##en#
#en#.#
#en#.in
#en#en#
#entertainmentnews
#er
#f
#f#f#f#
#faf#f#
#fakrhai
#february
#ffcccc
#ffffff
#first
#firstbollywood
#ft
#g
#gandalf
#gb
#girlsingreen
#giveup
#gorgeous
#gpp
#greek
#gudmrng_family
#h
#hansraj
#happysunday
#hbdintellectualaffan
#heroinwebseries
#highlights
#hindi
#humindiawale
#i
#icct20worldcup2016
#iccworldt20
#iccwt20
#if
#imrankhan
#in
#ind
#india
#indiancricketteam
#indians
#indiavssa
#indiavssouthafrica
#indore
#indvdpak
#indvpak
#indvsnz
#indvspak
#indvspal
#indvssa
#indvswi"
#indwins
#insomnia
#iplauction
#j
#janhavi
#january
#jeet
#jeetkanasha
#jije
#jingyu
#jioindoremarathon
#jnu
#justsaying
#k
#k#
#k##
#kanhaiya
#kapoorandsons
#karachi
#keepcalm
#khelofanskhelo
#kids
#kirankher
#km
#kohli
#l
#lifetimeachievement
#live_10
#loadofcrap
#love
#loveformsg2msg2
#m
#male
#marchforproperty
#marchmadness
#massive
#mauka
#maukamauka
#mb
#media
#mekhlawings
#meribaatmaano
#minus
#mirchi_music_awards2016
#misbah
#mm
#moodicg2k13
#morkel
#morning
#moukamouka
#ms
#msg2celebration
#msg2in500crclub
#myteammypride
#n
#n+#
#nabia
#nametag
#national
#nd
#ne#
#news
#nt
#nz
#o
#october
#office
#olddelhi
#oldmonk
#on
#onewhogotaway
#onion
#our
#p
#p2
#pac
#pak
#pakistan
#pakphotoshop
#pakvind
#pakvsind
#party_shoss
#pcb
#pckumar
#phatake
#playbold
#plz
#pm
#po
#portal
#pravachanbaba
#prime
#printadverts
#pt
#pts
#px
#pzchat
#pzsundaychat
#q
#qandeelbaloch
#r
#racist
#ravishankarprasad
#rd
#redirect
#respect
#right
#rights
#roadies
#rollbackexcise
#rollbackexciseonjewellery
#rr
#rss4india
#runindorerun
#s
#s_ylw
#sadargabbarsingh
#sadasexyraho
#salutingsudhirchaudhry
#samestory
#saturday
#savsind
#sawaly
#sh_ylw
#shami
#siyakeram
#sleepless
#soimportant
#southafrica
#souvenirfrommanali
#srilanka
#st
#stars
#sunday
#sunday_plans
#sunomyheartsaysishq
#surprised
#swasan
#t
#talk
#tamasha
#teamindia
#tera
#tgif
#th
#the
#then##th
#then#th
#this
#thursday
#timeline
#to
#today
#tollywood
#u
#up
#up.com
#update
#v
#vedic
#victim
#vo
#w
#wakemeupwhen
#wantswasanintensetrack
#wc2015
#wct20
#wd
#wednesday
#weizhou
#westindies
#wewantcwc2015
#wewontgiveitback
#whatajoke
#wikipedia
#wontgiveitback
#worlcupdobara
#worldcup2015
#wt20
#wtfdhoni
#x
#x#
#x##
#x###
#x###m
#x##mm
#xtra
#xx
#ye
#yeh_nahi_dekha
#yuvi
#||##||#||#||#||colspan
#||#||#||#||#||colspan
#||align=left
#}\
#}\left
#}\right
$ervice
$involved
$ome
$ometime$
$oya
%##_noticeboard
%##amp
%#b######&action=edit
%#b#####&action=edit
%#bndash
%#d
%#f#####
%#f######
%.the
%a#
%age
%b#
%d
%d#
%e#
%s
&c
&c.
&theater
'##s
'##th
'.in
'.the
'000's
'60s
'a
'abd
'ah
'ai
'akkab
'all
'an
'and
'anic
'anti
'arte
'as
'at
'bad
'best
'big
'black
'bout
'c'
'cause
'd
'de
'do
'e
'easter
'ed
'em
'en
'er
'etat
'etudes
'ev
'ez
'first
'for
'free
'good
'great
'green
'he
'high
'his
'histoire
'home
'honneur
'i
'in
'is
'it
'l
'left
'little
'live
'll
'llah
'm
'man
'mon
'more
'most
'mun
'my
'n
'n'
'n'roll
'na
'national
'natural
'ndrangheta
'new
'no
'non
'normal
'not
'nt
'o
'of
'official
'old
'on
'one
'or
'out
'pedia
'r
're
'real
'red
'right
'round
's
's.the
'second
'self
'small
'special
'st
't
'that
'the
'this
'til
'to
'true
'two
'u
'un
'une
've
'very
'what
'white
'you
**yapa
*delete
*keep
*ss
*the
+++ye
++lar
,##,##,#,n,###,##,#,e
,##,##,#,n,###,#,#,e
,##,#,#,n,###,##,#,e
,\
,\dots
,\ldots
,\n
,a
,and
,as
,b
,black
,but
,east
,etc.
,greek
,he
,i
,in
,is
,it
,j
,m
,mymensingh
,n
,or
,p
,p.
,premier
,q
,right
,s
,satkhira
,so
,t
,the
,they
,to
,v
,vardak
,where
,which
,white
,who
,with
,x
,x_#
,y
,y,z
-*acha
-*achay
-*agr
-*bhi
-*din
-*hain
-*insaan
-*ko
-*kr
-*kro
-*subha
-*to
-*uth
-*yaad
-2-f.doc
-_-
-___-
-are
-been
-ect-kedne
-final.doc
-i
-ll
-s
-stip
.#em
....the
...a
...an
...and
...as
...but
...for
...he
...i
...if
...in
...is
...it
...one
...or
...right
...so
...that
...the
...there
...they
...this
...to
...was
...we
...which
...with
...you
.==references
._.
.a
.about
.ac.uk
.according
.additional
.additionally
.after
.all
.along
.also
.although
.am
.american
.among
.an
.and
.another
.any
.apart
.append
.ar
.arbitrators
.around
.arp.###pix
.article
.articles
.as
.aside
.aspx
.at
.au
.back
.based
.bbc.co.uk
.because
.before
.beginning
.being
.below
.ben
.besides
.best
.between
.beyond
.bill
.bishop
.black
.blogspot.com
.blogspot.com.this
.bob
.born
.both
.british
.brown
.built
.bullet
.but
.by
.ca
.co.nz
.co.uk
.com
.com.this
.css
.currently
.d
.daniel
.david
.davis
.de
.de.this
.defaultsort
.depending
.despite
.different
.dk
.do
.doc
.does
.dr.
.due
.during
.e
.each
.earlier
.early
.east
.edit
.edu
.edward
.emkww
.emthe
.episode
.es
.established
.eu
.even
.eventually
.every
.example
.examples
.exe
.famous
.fi
.final
.finally
.first
.five
.fm
.following
.for
.former
.formerly
.fort
.founded
.four
.fr
.fr.this
.from
.full
.further
.furthermore
.g
.g.
.general
.generally
.george
.gif
.giffile
.giffile:census
.given
.google
.gov
.gov.uk
.h
.hack
.having
.he
.her
.high
.highway
.his
.historically
.history
.how
.howard
.however
.hr
.htm
.html
.hu
.i
.ie
.if
.image
.immediately
.in
.info
.info.
.initially
.is
.it
.its
.james
.john
.johnson
.jones
.jp
.jpeg
.jpg
.jpgfile
.jpg|
.jpg|#
.jpg|##
.jpg|####
.jpg|a
.jpg|an
.jpg|file
.jpg|former
.jpg|lake
.jpg|looking
.jpg|old
.jpg|portrait
.jpg|st
.jpg|the
.jpg|view
.js
.jur
.king
.known
.l
.later
.leftthe
.length
.let
.like
.local
.located
.lord
.m.
.main
.major
.many
.mark
.martin
.mary
.may
.meanwhile
.members
.michael
.mike
.mil
.miller
.modern
.more
.moreover
.most
.mr.
.mrs
.much
.my
.national
.near
.net
.net.this
.nevertheless
.new
.next
.nl
.no
.north
.not
.notable
.note
.now
.ns
.numerous
.nz
.o
.of
.often
.ogg
.old
.on
.once
.one
.only
.org
.org.this
.original
.originally
.other
.others
.our
.out
.outside
.over
.overall
.part
.paul
.pdf
.people
.perhaps
.peter
.php
.pl
.players
.please
.png
.pngfile
.president
.previously
.prior
.professor
.public
.py
.recent
.recently
.regarding
.released
.replace
.research
.returning
.rf
.richard
.right
.rightin
.rightright
.rightthe
.ro
.robert
.ru
.ru.this
.s
.saint
.sam
.san
.scene
.scott
.se
.season
.second
.section
.see
.set
.seven
.several
.sg
.she
.shortly
.similar
.similarly
.simon
.since
.sir
.six
.sk
.small
.smith
.so
.social
.some
.sometime
.sometimes
.soon
.source
.south
.special
.species
.st
.starting
.state
.stephen
.steve
.still
.students
.style
.subsequent
.subsequently
.such
.support
.svg
.svgfile
.svg|
.svg|coat
.svg|flag
.svg|the
.thank
.thanks
.that
.the
.their
.then
.there
.these
.they
.this
.thomas
.those
.though
.three
.through
.throughout
.thus
.to
.today
.together
.top
.tv
.two
.txt
.u.s.
.ua
.uk
.ultimately
.up
.upon
.us
.use
.user
.users
.using
.usually
.v.
.value
.van
.various
.vcf
.very
.walker
.washington
.water
.we
.well
.west
.wiki
.wikimedia
.wikipedia
.william
.williams
.wilson
.windows
.with
.within
.without
.wordpress.com
.wright
.x
.xxx
.years
.yet
.you
.young
.}users
/\
01-feb-02
02-05-02.doc
0308.doc
050901.doc
0n
0nside
1%p701!.doc
1.2k
100's
1002`s
100ka
10k
10mm
10th
110km
119runs
11am
11th
12's
12-20-00.doc
12th
13s
13th
1490s
14th
153b09
1590's
15th
16's
16s
16th
17h
17th
18t
18th
1920s
1960's
1960s
1970s
1980s
1990s
19th
1am
1baje
1e
1fraction2
1fraction3
1fraction4
1pm
1q
1s9
1st
1yr
2.5km
20's
20.doc
2000cc
2000rs
2014-15)ka
20s
20th
20years
21st
220a
220b
22nd
22s
22th
23rd
25th
26th
27.doc
27k
27th
28th
29th
2day
2hr
2nd
2no
2scompany
30s
30th
3143c
31st
330i
3801a
3am
3d
3fraction4
3g
3no
3rd
3s
4-pointer
4105sf
41st
42am
45's
46c1
47's
47k202!.doc
4_28_00.doc
4g
4gamer
4s
4th
4thie
50%macth
50's
50k
50th
55th
5k
5pm
5th
5x
60's
60s
65k
6th
70's
70s
720p
78's
7pm
7th
7years
80's
80s
80y
83n
86m
8am
8k
8oo
8th
90's
90s
937016393th
9pm
9th
9vi
:####en##
:####en####
:####h
:####plotdata=
:####r##
:####s
:###en###
:###plotdata=
:###px
:###th
:##en##
:##px
:##th
:##z
:#.#em
:#b#e#e#
:#e#e#e#
:#em
:#f#f#e#
:#f#f#f#
:#ff####
:#ff####;color
:#fff
:#ffffff
:#nd
:#px
:#rd
:#st
:#th
:-\\
:-d
:-p
::talk
:^
:a
:adam
:african
:al
:albert
:alexander
:all
:american
:an
:ancient
:andrew
:andy
:anglican
:anthony
:anti
:arizona
:arkansas
:art
:arthur
:articles
:as
:australian
:auto
:b
:back
:barack
:barcolor
:barra
:baseball
:bass
:battle
:ben
:benjamin
:bg
:big
:bill
:biographies
:bishops
:bl#
:black
:blue
:blue#
:bob
:bold
:books
:borgqueen
:boston
:bots
:bottom
:break
:brian
:british
:brown
:buildings
:bullet
:bundesarchiv
:canadian
:canvas
:category
:center
:christian
:cities
:cjkcjk
:cjkcjkcjk
:companies
:d
:dams
:dan
:daniel
:darkgrey
:data
:dave
:david
:defunct
:delaware
:deletion
:did
:do
:don
:dr
:drums
:early
:east
:eastern
:ed
:education
:edward
:el
:end
:england
:english
:eocene
:era
:es####
:estonian
:etiquette
:european
:example
:f
:fair
:featured
:federal
:female
:fi####
:fictional
:file
:film
:films
:first
:flag
:fo####
:football
:for
:former
:fort
:from
:gary
:ge####
:general
:geography
:george
:georgia
:german
:government
:gp
:grand
:gray
:gray#
:gray###.png|the
:great
:green
:guitar
:guitars
:harry
:high
:historic
:history
:horizontal
:house
:houston
:how
:hw####
:idaho
:if
:image
:images
:img
:in
:india
:indian
:indiana
:indianapolis
:infobox
:international
:irish
:it
:italian
:jack
:jackson
:james
:jan
:japan
:japanese
:jean
:jeff
:jewish
:jim
:jimbo
:joe
:john
:joseph
:kansas
:kentucky
:kevin
:king
:korea
:korean
:la
:lake
:law
:left
:lgbt
:lightgrey
:lincoln
:line
:list
:lists
:little
:living
:logo
:london
:louis
:louisiana
:louisville
:m
:main
:manual
:map
:mark
:martin
:mary
:massachusetts
:matt
:me####
:media
:mediation
:members
:metro
:michael
:middle
:mike
:military
:miocene
:miscellany
:mississippi
:motto
:mount
:museums
:music
:my
:nam#
:nam##
:naming
:national
:nebraska
:neutral
:new
:nick
:nickelodeon
:nm####
:no
:non
:none
:north
:northern
:norway
:norwegian
:notability
:note
:o
:ohio
:old
:olympic
:on
:one
:orange
:oregon
:orphanbot|orphanbot
:p
:pa
:pages
:paul
:pd
:peer
:people
:peter
:pichilemu
:picture
:pink
:political
:politics
:populated
:port
:powderblue
:prisoners
:proposed
:protected
:public
:purple
:radio
:railway
:red
:red#
:redirects
:reference
:reference_desk
:reliable
:religion
:requested
:requests
:requests_for_arbitration
:rgb
:ri####
:richard
:right
:river
:robert
:rock
:roman
:royal
:russian
:s
:saint
:sam
:samuel
:san
:sandygeorgia
:santa
:saskatchewan
:school
:schools
:science
:scott
:seal
:seattle
:seb
:sfondo
:sfondobardata=
:sheffield
:silver
:silver;text
:sk####
:sm####
:sockpuppet
:solid
:south
:southern
:space
:speculative
:sports
:st
:star
:start
:state
:stephen
:steve
:sts
:stub
:suspected
:td
:television
:texas
:the
:this
:thomas
:till
:tom
:transportation
:ts
:u.s.
:uk
:us
:usa
:uscongrep
:user
:uss
:utah
:v
:van
:verifiability
:version
:vertical
:victoria
:view
:village
:visitor
:vocals
:votes
:walter
:washington
:water
:west
:western
:white
:whitesmoke
:wiki
:wikipedia
:wikipedian
:wikipedians
:wikiproject
:wikiproject_spam
:william
:women
:world
:wyoming
:x
:xs
:year
:yellow
:yellowgreen
:yorkshire
:yyyy
:yyyycolors
:zoe|
:zscout###
;\
;d
;p
</s>
<pad>
<s>
<unk>
=-d
==external
==history
==references
=d
>:o
?en####
?it
?ng
?right
?title=
?title=list+of+asteroids
?title=user_talk
?title=wikipedia
@0__1
@101santosh1
@10hazarddd
@1cricfan
@1shelina
@2012_guha
@65alazeem
@6jhmk
@8beedb8223a84e9
@__amnna__
@_cheem_
@_gujjubaba
@_iamsrkfan1
@_khaadi
@_ramsha_
@_ravidubey
@_sabanaqvi
@_sanjaygupta
@_swapneal
@aaadivaashi
@aaanupriyaaa
@aajtak
@aamaadmiparty
@aamirmerijaan
@aap
@aapinnews
@aapka_rk
@aapkagopalrai
@aashi_81
@aashikapokharel
@aashuparashar3
@aasshiqq
@aatifazio
@abbtakke
@abdullah_omar
@abhinashanjuman
@abhineetofkings
@abidifactor
@abpnewstv
@actorvijay
@adagio_aria
@addi_salman
@adhoripiyaas
@adialone_
@adiljibran
@afaq_sharif
@afrogirlll
@afsanaahmed
@ahs20022
@aindrila350
@aisha_shabbir
@ajaikumar12
@ajmalawan18
@ajumbled
@akhtar_hayyat
@akhtarmeerut
@akkian__girl
@akkitalks
@aksharpathak
@akshatgoel08
@akshaya80203737
@akshaykumar
@akshaykumarlove
@aleenarajputpti
@aliaa08
@alijeesarwar
@alirazamangi
@alishbanaaz8
@alohomora0606
@amaalmallik
@amankayamhai
@amber_rafi3
@amrapaligroups
@anak2422anak
@anaulhaq
@aneelawkhan
@aneeqa_shaikh
@angelvishii
@ani_news
@anjalis91314362
@anjanaomkashyap
@anjumiqbalpti
@annijoseph77
@anoushey_a
@anti_virus_
@anubhashukla7
@anupampkher
@anureet18
@anushkasharma
@arangarajan1972
@areenge
@areeshei
@ariba1603
@aribers
@arishri
@arjunirplast
@arjunk26fan
@arooba512
@arshadsyed001
@arshikyy
@aru36629
@arunjaitley
@arvindkejriwal
@arvindkejriwalplz
@asadowaisi
@ashvasant
@asifamugal
@asimshahidpti
@askthepankazzzz
@asmashirazi
@assam_accord
@astha_bhardwaj
@athar_r
@atheist_krishna
@authoramish
@ayazsamoo
@ayishabaloch
@ayooshgupta
@azmishabana
@baaghioffical
@babu_bhaiyaa
@badlapurfilm
@bahujansenaind
@balkaranchahal1
@balliawalebaba
@bashirbukhari1
@bcci
@bdutt
@behanhunteri
@being_ridham
@beingadinair
@beingakashss
@beingchirag_
@beinghitasha
@beingkushsharma
@beingsalmaniac1
@beingsalmankhan
@beingsk_soul
@beingskchetan
@bhaiyyajispeaks
@bhak_sala
@bhakton
@bhateketan
@bhavanakumari9
@bhaveshastik
@bhavi_1603
@bhavna22
@bhogleharsha
@bhokaltweet
@bhu_umi
@bidnurmath
@biggrenade
@bikhre_phool
@bilalahmadwazir
@bionicsix1
@bizzarebhide
@bjp4india
@bjpassam2016
@bjprajnathsingh
@blaze__axle
@blrrocks
@bomanirani
@brownbrumby
@bubloo_gs
@bunny0_o
@buttmona098
@bwoyblunder
@callmenini_
@catchnews
@celkonmobile
@challa_srkian
@channelvindia
@chawalariya
@chetan_bhagat
@chikarahimanshu
@chocolatecharsi
@clownprinceg
@colorstv
@colsehrawat
@comedy_n_bachao
@coochilost
@coupsteer
@cricbc
@crickbc
@cricket_zalmi
@cricketworldcup
@cutemadhu16
@daboomalik
@daily_basharat
@darrkeaage
@dawoodnusrat
@ddnewshindi
@deshratna
@desireux
@dhoniobesessed
@dhonixfaithful
@dhume
@dibang
@didarhossain761
@dillidurast
@dipali_sh0
@dipti1104
@divine_esha
@divya_bhaskar
@dls2015
@dna
@dr_maheshsharma
@drajoykumar
@dranitasam
@dreamlike1d
@drgarekar
@drslalk
@duarazashaikh
@duttyogi
@eatstory
@echoofindia
@ek_aaptard
@ekakkian
@ekta_singh2k14
@emp
@eqrab
@ernayansingh
@espiritz_
@evangelic_sanzu
@faisals97069761
@faizan_mubarak
@faizanlakhani
@faizansrkkhan
@fansidharth
@fanthefilm
@fanthegame
@farahshafi1234
@farhankvirk
@faslarakhein
@fatimakimom
@faysalquraishi
@filmyjoyo
@filzahafeezian8
@firstpost
@fragranceo_oo_
@freddiefaizan
@fun_pakistanon
@g_onessupergirl
@gaana
@gaietiesofmind
@gajabajab
@garima_64
@gautam_rode
@geonews_urdu
@get_sgk
@gippyysingh1
@girxlswg
@golumechanics
@greatrabranimm
@guldaar
@gulmuhammad195
@gurmeetramrahim
@gurusales
@hajraabbottaba
@hakeemhera
@halwai_mayank
@hamzaidrees
@haniqureshi1
@har1603
@hardik
@harishrawatcmuk
@hartoshsinghbal
@hasnazaroorihai
@hassoo84
@hdfclife
@henrygayle
@hiisrk
@himanshujainon
@hindurajyam
@hira_awan28
@hmoindia
@hones8liar
@honeybunnymaahi
@hrdministry
@hudakhan_
@hudhud_dabangg
@huma_asghar2000
@humor_donor
@huss_master
@i_fattimaayyy
@i_k_b
@i_love_u_srk
@i_ramiz3
@i_rimjhimr
@iam_bhagyasree
@iam_hashmi
@iam_prs
@iamabhijit
@iamharry007
@iamjimmyjinx
@iammansoorkhan
@iamproudsrkian
@iamsagarwal
@iamsalaar
@iamshruti7
@iamsinghaniya
@iamsrk
@iamsrk_vraj
@iamsrkfanlj
@iamsunilpathak
@iamteamik
@iamvrt
@iamwaqaryunus
@ianaya__
@iankitalal
@ibratati
@icc
@icuree
@idrisgandhi
@ihrithik
@ijaideep_
@ijustinfanatic
@imaisharya
@imbeingindian
@ime_n_mysalman
@imgur
@imkrish35
@impatientwoman
@impr10
@imranak86597974
@imrankhanpti
@imrankhanworld
@imransaeedkhan1ur
@imranwaseem
@imrins1siddiqui
@imro45_
@imshas
@imshellyverma
@imshi_saini
@imvkohli
@inationalsrkian
@incognito_river
@india_policy
@indiantweeter
@indiaspeakspr
@indiatoday
@indujalali
@inirajverma
@intaffairs
@intern
@invincible_vss
@inzamamlive
@ipritamofficial
@iqrabashir482
@iramizraja
@irrfan_k
@irudef
@ishaktimaan
@ishivangi21
@itigershroff
@itsaripper
@itsbisha
@itspakukhan
@itzjatt
@iyerdeepshri
@izoyaali
@jacykhan
@jahanuraamir
@jammy_pk
@jantakareporter
@javedakhtarjadu
@javedmansari
@jayyvenk
@jehanzeb92
@jhalli_as
@jhasanjay
@jhasumanta
@jhunjhunwala
@jodhpurtrafficp
@jokesdostietc
@jorana_khan
@joysrkian
@jsduggal
@justice_ornab
@jyothimalik
@k01768938
@kailashkaushik8
@kajukatli__
@kaleemaltafi
@kallerz37
@kamaalrkhan
@kamasutra___
@kamranyc
@kanzy_ka
@kapilv20012001
@karancricketer
@kashifsrkian
@katamulgi
@katrinadiaishu9
@kattarsalmaniac
@kesariyabalam_
@kesha_says
@kevalvora8
@khabarbaazi
@khanakram421
@khankitigress
@kher
@khi_wala
@khiladiforever
@khimanisagar
@khushi_ranbir
@khusshhagrawal
@king_ranjhna
@kinn_sm
@kiranfati_kirru
@kkundra
@knv519
@kohliforlife
@kritika_kamra
@kritisanon
@kuldpvys
@kumarvkd
@kvquote
@kyaukhaadlega
@laghateparth
@lahersingh1
@lakshmila_
@lavanyaurlust
@laza_ruse
@legsidestrangle
@lemebuntty
@leoticmadridist
@liaqat842
@lifelesstweep
@lifelovesuma
@light_0n
@lmro45
@lovejihadi
@lovemymessi
@lsmallscreen
@luckyali
@lve_mom
@lvu04
@madam_robena
@madan_chikna
@madehanaqvi
@maham2910
@maheen___sheikh
@mahimaaax__
@mahisharma1492
@mahobili
@main_tera_baap
@mairafaiz
@makhanmalaai
@mana_apple
@mangeshkarlata
@manishhazra1
@manishkaushik19
@manjultoons
@mannants
@manu_moyal
@md_baran
@mdrizwan4
@meerattariq1
@meghnagulzar
@mehaktweets_
@mehekf
@mehrtarar
@mendhro
@meprachimishra
@mercyfatal
@mhassanaimc
@mhatrepriyu
@mikasingh
@mildlyclassic
@milisilichilli
@mir_sana05
@mirchi_uff
@mirzasania
@mishi091_
@mithil200
@mitra_meghna
@mnmalhi
@mohamm_s
@momiwasi
@mr_khiladi24
@mridupawandas4
@mrsgandhi
@msdhoni
@msdhoni_7781
@mubashirzaidi
@mudasar_zaffar
@mufc_affanf9
@mukesh42957410
@mukeshk23791931
@mukta109
@murtaxa_syed
@murugesh1234
@muskurahateinn
@mycricwin
@mylifercm
@mylomegha
@nabeelaaapa
@nabeelafzalmkd
@nadeemalmas1
@nahid
@nair_rinku
@nakulve
@namlasz
@namratavy
@narendramodi
@naseebpathanmlc
@nasimzehra
@nawabzaadaa
@naziarubbani
@nazir28sheri
@nazmulbdhussain
@nazranayusufzai
@ndtv
@neelkhan0209
@neelm4ni
@neetugarg6
@neverforgetpk
@news24tvchannel
@newsflickshindi
@nexttosrk
@ngemovies
@nidak_
@nightstarprod
@nima19497
@nimesh4all
@nimmyrajan
@nimrah307
@nirmalogy
@no1_villain
@noorezehra
@noorikhan119
@nowtosrk
@nsaina
@o____helloo
@oblmir
@officeofrg
@officialhelly7
@og_breezyy
@ohhmygold
@oldkrish
@omamaghauri
@omar_quraishi
@onedotin
@only1swaponeal
@oye_p_s
@oyemaria
@pal_jagdambika
@pallaweee
@pandajay
@pari_cious
@patilpradipsupa
@paul_nitesh
@paulhastings.com
@pawandurani
@phand00
@phanerozoic11
@pharmacist_awan
@pillya
@piuchatterjee1
@piyar_ki_barsatsnd
@pmoindia
@poothegr8
@postpickle
@powerplayworld
@ppbajpai
@ppritam009
@prabhakardwiv20
@pragya_as
@pragyas1192
@praktabh
@prasanto
@pree_preethi_
@princenarula88
@priyalgada47
@probir2011
@profofdarkarts
@prouddpakistani
@ps_sangwani
@purushotam1305
@puza_kashyap
@pyyar_se_michel
@qandeelquebee
@qarararasha
@quideazam1948
@rabiamumtaz191
@rachitst
@raghuveesayyam
@rahulkanwal
@rajabetasharad
@rajabrar_inc
@rajcheerfull
@rajpernen
@ramgarhkajai
@ramniwasb83
@ranaayyub
@ranichawdhary
@ranijif
@ranote_aman
@ranveerofficial
@rashidcha1
@rashisingh02
@rashmiwade
@rashtrapatibhvn
@ravishndtv
@razonater
@realpreityzinta
@realteamswastik
@remodsouza
@richiemuney
@rinib1
@rishibagree
@riskiest_poison
@ritag74
@ritumaheshwari5
@rizwan1149
@rockingramlal
@roflcritic
@roflgandhi_
@roflkumar
@rohit_nakhwa
@romeomustlivee
@rottensundae
@royalviratian
@rssorg
@rt_kalle
@ruanclever
@rubikaliyaquat
@ruchikokcha
@rumanmalik
@s1daddicted
@s1dharthm
@saadhere_
@saadiaafzaal
@saakshisrawat
@sab_pk
@sabei_xd
@sabtv
@sachin2310
@sachin_rt
@sadiatistic
@safridiofficial
@sagarcasm
@sairamalik99
@salman_ki_sena
@salman_loverr
@salmanaddict
@samanthanair23
@sambha_bhilane
@samkhan999
@san2824
@sanat397
@sangita_salman
@sanjanasabu
@sanjayazadsln
@sanjaymasoomm
@sanjivsinha73
@sanket_bafna
@sansadbhawan
@saranshk
@sarcastic_raj
@sardanarohit
@sardesairajdeep
@saritashandilya
@satyaprakashty1
@satyendarjain
@saurabh_prayag
@scratchysingh
@sd_5796
@sdhawan25
@senrehmanmalik
@sggeet
@shafqatamanata
@shaharyarkhan61
@shaheer_s
@shaheerk779
@shahidaffridi
@shaifali_goel
@shakkuiyer
@shapendra
@sharmanagendar
@sharmilafaruqi
@sharyahmad19
@shehbaz71127562
@sheikhimaan
@sherryontopp
@shivakumarpat14
@shivangijoshi10
@shivaroor
@shivshankars
@shivsharma400
@shkhrasheed
@shootinthoughts
@shpa4016
@shraddhakapoor
@shubhamk145
@shuddhis
@shuklapinku
@shumyl
@shwetacutess
@singh_sushrut
@singhlicious
@sirjadeja
@siyakuchu
@siyal_khan
@siyamsheikh
@skscombatant
@sniperspot
@sohilpti
@somy_bored
@sona2905
@soniasharmasha1
@sonunigam
@sonytv
@sophiasahillove
@srbachchan
@srisri
@srk_holicjaved
@srkfanship
@srkhyati
@srkianajh
@srkiany_blood
@srkscigarette
@srksdrishh
@srkswarrior1
@ssaniya25
@ssforeva
@sssingh21
@starcricketin
@starsportsindia
@stenodeepika23
@sudhir131968
@sudhirchaudhary
@sufitalks
@sugarsad_
@suhelseth
@sukaina_ali
@sukshndershinda
@sumit_vivek
@sunil_dixit_15
@surajbn1
@sureshnakhua
@sureshpprabhu
@sushildwivedi9
@suzali86
@swamii_says
@swapan55
@swatiprakash14
@swatisaxen
@sweet_liqueur
@sweety_rukhsar
@syed_zaidier
@syedashehlaraza
@taher07
@tannulp
@tanuluvshreya
@tarsemchanana
@teamfaizatrends
@tearejoice
@teelu9540
@teengirlstext
@tehleelhussain4
@tehseenp
@tellymasala
@thatfilmygirl
@thatsalmanfan
@the_bapu7
@the_queeness
@thearghyadutta
@thedillimirror
@thedrunkrider
@thefirsthandle
@thegautamgulati
@thekaranpatel
@thekiranbedi
@thekirfan
@themannatsingh
@theprecambrian
@therealpcb
@thetanmay
@theuglydude007
@thevikaskhanna
@tigerazmi201
@timesofindia
@tina32kaur
@titincanti
@titli29
@tomnjerrytwo
@tonkeeponkee
@trendulkar
@tseries
@tufailelif
@tushardave15
@tweets_manish
@tweetyy_pie
@ujala4u
@ujwala18113
@umairmukhtar16
@urmilurmila
@uroosa_salman
@ursbhumi
@utvfilms
@vanbhatti
@vantaskigoli
@varun_dvn
@varunsharma90
@veepari_
@venky9999999
@vidyarthee
@vigneshmvicky71
@vigneshrg
@vijaystambh
@vikrantkumar
@village_wale
@vine
@violetveronique
@virsanghvi
@vishaldadlani
@vishalsingh713
@vklovesfk
@wajiha_sg
@waleednasir00
@wallah_reeeno
@waqasirshad1989
@wayou14
@wcf2016
@wmpolin
@worahachand
@writerintrovert
@writetoghazni
@xtahzy
@yadavakhilesh
@yajkushal20
@yashika86gupta
@yashikamehta04
@yettoexplore
@yganesh0208
@you_shutupp
@yourkoel
@youtube
@yrf
@yusufdfi
@yuvstrong12
@zaalimgf
@zaferminhaj
@zainab_reyaz
@zainabhanif
@zani_zain
@zapdeiuxe
@zarmenakhan3
@zartasha_maryam
@zaya4jaya
@zeenews
@zeenewshindi
@zeetv
[
[\\m/]
\
\.com\b
\\
\alpha
\alpha_#
\alpha}
\approx
\b
\bar
\bar{
\begin{align
\begin{array
\begin{bmatrix
\begin{cases
\begin{matrix
\begin{pmatrix
\beta
\boldsymbol{
\cap
\cdot
\cdots
\chi
\choose
\circ
\cos
\cup
\ddots
\delta
\displaystyle
\dots
\ell
\end{align
\end{array
\end{bmatrix
\end{bmatrix}
\end{cases
\end{matrix
\end{pmatrix
\epsilon
\equiv
\eta
\exp
\forall
\frac
\frac{
\frac{#
\frac{#}{
\frac{#}{#
\frac{\partial
\frac{\partial^#
\frac{d
\frac{n
\gamma
\ge
\geq
\hat
\hat{
\hbar
\in
\infty
\int
\int_{
\kappa
\lambda
\lambda_#
\langle
\ldots
\le
\left
\leq
\ln
\log
\mapsto
\mathbb
\mathbb{
\mathbb{r}
\mathbb{r}^n
\mathbf
\mathbf{
\mathbf{e
\mathbf{r
\mathbf{r}
\mathbf{v}
\mathbf{x
\mathbf{x}
\mathcal
\mathcal{
\mathfrak{p}
\mathrm
\mathrm{
\mathrm{d
\mbox
\mid
\mu
\mu}
\n
\nabla
\ne
\neg
\neq
\nu
\o/
\omega
\operatorname{
\oplus
\otimes
\over
\overline{
\partial
\phi
\pi
\pm
\psi
\qquad
\quad
\rangle
\rho
\rho}
\right
\rightarrow
\rm
\scriptstyle
\sigma
\sigma^#
\sigma_#
\sigma_{##}
\sigma}
\sim
\sin
\sqrt
\sqrt{
\sqrt{#
\sqrt{#}
\subset
\subseteq
\sum
\sum_{
\sum_{i=#}^n
\tau
\textstyle
\text{
\tfrac{#}{
\theta
\theta_#
\tilde{
\times
\to
\varepsilon
\varphi
\vdots
\vec
\wedge
\xi
\zeta
\{
\|
\}
]
]:
^
^#
^*
^^
^_^
^exactly
^like
^n
^{
^{#
_
_#
_/\\_
_/\_
__
_____
_______
___________
______________________
___________________________________________
_____________________________________________
__________________________________________________
____________________________________________________
____________________________________________________________
_________________________________________________________________
_namashkar
_sir
_{
`
``
`abdu'l
`s
a
a#
a##
a###
a####
a###s
a#a
a#m
a$
a&e
a&k
a&m
a&m.
a&p
a&r
a'
a'nandamu'rti
a's
a*
a+
a,b
a.
a.#
a.##
a.a.
a.b.
a.c.
a.d
a.d.
a.e.
a.f.
a.f.c.
a.g.
a.h.
a.i.
a.j.
a.k
a.k.
a.k.a
a.k.a.
a.l.
a.m
a.m.
a.n.
a.o.
a.p.
a.r.
a.s.
a.t.
a.v.
a.w.
a:
a^#
a_#
a_i
a_n
aa
aaa
aaaa
aaaaaaaaahhh
aaaaaggghhhhhh
aaaagai
aaaargh
aaadivaashi
aaaj
aaanupriyaaa
aaas
aaase
aaatma
aaawwiee
aab
aabh
aac
aacha
aachen
aachi
aacsb
aadat
aadh
aadha
aadhaar
aadhe
aadhi
aadhunik
aadmi
aadmis
aadt
aae
aaeam
aaenge
aaeni
aaf
aafat
aafc
aafia
aaftaab
aag
aagay
aagaye
aagayi
aage
aagey
aagpbl
aah
aahes
aai
aaie
aaina
aaisi
aaisyjaisy
aaiyu
aaj
aaja
aajaaye
aajao
aajaunga
aajkal
aajmaate
aajtak
aakar
aakarshan
aakarshit
aakash
aake
aakh
aakhir
aakramak
aakraman
aakrosh
aala
aalborg
aalen
aaliyah
aalsi
aalto
aam
aamaadmiparty
aami
aamin
aamir
aamirmerijaan
aamny
aamod
aan
aana
aanchal
aandhiyo
aandolan
aane
aanewaala
aanewala
aang
aangan
aankh
aankhein
aankhen
aankhon
aankhoo
aanshu
aansu
aansu-
aansuon
aao
aaoge
aap
aapinnews
aapka
aapkagopalrai
aapkark
aapke
aapki
aapko
aapne
aapsavesyourmoney
aapse
aar
aara
aaraam
aaraha
aarahe
aarakshan
aarakshit
aaram
aarau
aardvark
aare
aarey
aargau
aarhus
aarne
aaron
aarp
aarti
aaru
aas
aasakte
aasan
aasaniyan
aashi
aashikapokharel
aashiq
aashique
aashis
aashuparashar
aasma
aasmaan
aasman
aasra
aasshiqq
aata
aatank
aatankwad
aate
aatephir
aati
aatifazio
aatishi
aatma
aau
aaunga
aaungi
aavoge
aawaaj
aawaaz
aawara
aawaz
aay
aaya
aaye
aayega
aayegi
aayenge
aayi
aayien
aayo
aayog
aazma
aazmaale
ab
ab.
aba
abaad
ababa
abacha
aback
abacus
abad
abadan
abalone
abandon
abandoned
abandoning
abandonment
abandons
abarth
abated
abatement
abauj
abb
abba
abbado
abbas
abbasi
abbasid
abbasids
abbaye
abbe
abbess
abbeville
abbey
abbeys
abbie
abbot
abbots
abbotsford
abbott
abbottabad
abbr
abbrev
abbrev.
abbreviated
abbreviation
abbreviations
abbtakke
abbu
abbudi
abby
abc
abc#
abcd
abcrights
abd
abdali
abdallah
abdel
abdelaziz
abdelhaleen
abdi
abdicate
abdicated
abdication
abdomen
abdominal
abdoulaye
abduct
abducted
abducting
abduction
abductions
abductor
abducts
abdul
abdulaziz
abdulla
abdullah
abdullahi
abdullahomar
abdur
abdus
abe
abecedare
abed
abel
abelard
abelian
abell
abenaki
aber
aberavon
abercorn
abercrombie
abercromby
aberdare
aberdeen
aberdeenshire
abergavenny
aberhart
abernathy
abernethy
aberrant
aberration
aberrations
aberystwyth
abetting
abey
abeyance
abh
abha
abhay
abhi
abhimanyu
abhinashanjuman
abhineetofkings
abhineta
abhinetri
abhishek
abhisit
abhitak
abhorrent
abi
abia
abid
abide
abidifactor
abidin
abiding
abidjan
abies
abigail
abilene
abilities
ability
abingdon
abington
abiotic
abitibi
abitur
abject
abkhaz
abkhazia
abkhazian
abki
abl
ablation
ablative
ablaze
able
ablest
ablett
ably
abm
abn
abner
abney
abnormal
abnormalities
abnormality
abnormally
abo
aboard
abode
abolish
abolished
abolishing
abolishment
abolition
abolitionist
abolitionists
abominable
abomination
aboout
aboriginal
aboriginals
aborigines
abort
aborted
abortion
abortions
abortive
abou
abound
abounded
abounds
about
about.com
aboutcom
abouts
above
above.the
abovementioned
abovethe
abp
abpnewstv
abra
abraham
abrahamian
abrahamic
abrahams
abram
abramo@enron
abramoenron
abramoff
abramovich
abramowitz
abrams
abramson
abrasion
abrasive
abreast
abreu
abridged
abril
abroad
abrogated
abrogation
abrupt
abruptly
abruzzi
abruzzo
abs
absalom
absalon
abscess
abscesses
abschnitte
absconded
absence
absences
absent
absentee
absenteeism
absentia
absenting
absinthe
absolute
absolutely
absolutepunk
absolution
absolutism
absolutist
absolve
absolved
absorb
absorbance
absorbed
absorbent
absorber
absorbers
absorbing
absorbs
absorption
absoul
absoulutely
abstain
abstained
abstaining
abstention
abstentions
abstinence
abstract
abstracted
abstracting
abstraction
abstractions
abstractly
abstracts
absurd
absurdist
absurdities
absurdity
absurdly
abt
abteilung
abu
abu'l
abubakar
abuja
abul
abundance
abundances
abundant
abundantly
abuse
abused
abuser
abusers
abuses
abusing
abusive
abusively
abutment
abutments
abuts
abutting
abv
abvp
abwehr
aby
abydos
abysmal
abyss
abyssinia
abyssinian
ac
ac.
aca
acacia
acad
academia
academic
academica
academical
academically
academician
academicians
academicofficefail
academics
academicsin
academicsthe
academie
academies
academy
academyrights
acadia
acadian
acadiana
acadians
acan
acapulco
acather
acather##
acb
acc
acca
accademia
accc
accecpt
accede
acceded
accel
accelerate
accelerated
accelerates
accelerating
acceleration
accelerations
accelerator
accelerators
accelerometer
accent
accented
accents
accentuate
accentuated
accenture
accept
acceptability
acceptable
acceptance
acceptances
accepted
accepting
acceptor
acceptors
accepts
access
accessdate
accessdate=####
accessed
accesses
accessibility
accessible
accessing
accession
accessories
accessory
accessthe
accha
acche
acchi
accident
accidental
accidentally
accidents
accion
accipitridae
acclaim
acclaimed
acclamation
accolade
accolades
accomdating
accommodate
accommodated
accommodates
accommodating
accommodation
accommodations
accomodate
accomodating
accompanied
accompanies
accompaniment
accompaniments
accompanist
accompany
accompanying
accomplice
accomplices
accomplish
accomplished
accomplishes
accomplishing
accomplishment
accomplishments
accord
accordance
accorded
according
accordingly
accordion
accordionist
accords
accosted
account
accountabilities
accountability
accountable
accountancy
accountant
accountants
accounted
accounting
accounts
accra
accreditation
accredited
accrediting
accretion
accrington
accrue
accrued
accruing
acculturation
accumulate
accumulated
accumulates
accumulating
accumulation
accumulations
accumulator
accuracy
accurate
accurately
accusation
accusations
accusative
accuse
accused
accuser
accusers
accuses
accusing
accustomed
acd
ace
acedraz
aceh
acer
acerbic
aces
acetaldehyde
acetaminophen
acetate
acetic
acetone
acetyl
acetylcholine
acetylene
acetyltransferase
acevedo
acf
acha
achaa
achaanak
achaar
achachi
achaea
achaean
achaeans
achaemenid
achanak
achar
acharya
achasorryboys
achay
achcha
achche
achchhe
ache
achebe
achee
achene
acheron
aches
acheson
achey
achha
achhe
achhi
achi
achievable
achieve
achieved
achievement
achievements
achievers
achieves
achieving
achille
achilles
achim
aching
acholi
achtung
achy
aci
acia
acid
acidic
acidification
acidity
acidosis
acids
acker
ackerman
ackermann
ackland
acknowledge
acknowledged
acknowledgement
acknowledges
acknowledging
acknowledgment
ackroyd
acl
acland
aclu
acm
acme
acn
acne
aco
acolytes
acoma
acorn
acorns
acosta
acount
acoustic
acoustical
acoustically
acoustics
acp
acquaint
acquaintance
acquaintances
acquainted
acquiesced
acquiescence
acquire
acquired
acquired\
acquires
acquiring
acquisition
acquisitions
acquistion
acquit
acquittal
acquitted
acr
acraea
acre
acreage
acres
acriflaven
acrimonious
acrimony
acrobat
acrobatic
acrobatics
acrobats
acronym
acronyms
acropolis
across
acrylic
acrylics
acs
act
act.
acta
acted
acth
actin
acting
actinides
actins
action
action.the
actionable
actions
actionthe
activate
activated
activates
activating
activation
activator
active
actively
activex
activision
activism
activist
activists
activities
activities.the
activitiesin
activitiesthe
activity
acton
actor
actor.
actors
actorvijay
actress
actresses
acts
actthe
actual
actuality
actualization
actually
actualy
actuarial
actuaries
actuated
actuation
actuator
actuators
actully
acu
acuff
acuity
acuk
acumen
acuminata
acuna
acupuncture
acupuncturist
acura
acute
acutely
acyclic
acyl
ad
ad&d
ad.
ad=nd
ada
adaaunga
adaayein
adac
adachi
adad
adage
adagio
adagioaria
adair
adak
adal
adalat
adalbert
adam
adama
adamant
adamantium
adamantly
adamawa
adami
adamo
adams
adamson
adan
adana
adapt
adaptability
adaptable
adaptation
adaptations
adaptationsthe
adapted
adapter
adapters
adapting
adaption
adaptions
adaptive
adaptor
adapts
adar
adare
adarsh
adat
adaye
adb
adc
adcc
adcock
add
adda
addams
added
addendum
adder
adderley
addhoc
addict
addicted
addicting
addiction
addictions
addictionstfanmeetinginbkk
addictive
addicts
addie
adding
addington
addis
addisalman
addison
addition
additional
additionally
additions
additionsno
additive
additives
address
addressable
addressed
addressee
addresses
addressing
adds
addu
adduced
adduct
adductor
addy
ade
adebisi
adel
adela
adelaide
adelbert
adele
adelheid
adelia
adelina
adeline
adelman
adelphi
adelson
adem
aden
adena
adenauer
adenine
adenocarcinoma
adenosine
adenosyl
adept
adequacy
adequate
adequately
adevarul
adf
adha
adhamiya
adhd
adhear
adhere
adhered
adherence
adherent
adherents
adheres
adhering
adhesion
adhesive
adhesives
adhik
adhikari
adhoripiyaas
adhuri
adi
adiabatic
adialone
adic
adidas
adige
adil
adiljibran
adina
adios
adipose
adirondack
adirondacks
aditi
aditya
adjacency
adjacent
adjectival
adjective
adjectives
adjoined
adjoining
adjoins
adjoint
adjourned
adjournment
adjudged
adjudicate
adjudicated
adjudication
adjudicator
adjunct
adjust
adjustable
adjusted
adjusting
adjustment
adjustments
adjusts
adjutant
adjuvant
adkins
adl
adlai
adlatinyaman
adler
adm
admi
admidst
admin
administartion
administer
administered
administering
administers
administracion
administrated
administration
administrationas
administrationcore
administrations
administrationthe
administrative
administratively
administrator
administrators
adminname
admins
adminship
admirable
admirably
admiral
admirals
admiralty
admiration
admire
admired
admirer
admirers
admires
admiring
admisn
admissibility
admissible
admission
admissions
admit
admits
admittance
admitted
admittedly
admitting
admixture
admonished
admonition
adms
admsn
adn
adnan
adnd
ado
adobe
adolescence
adolescent
adolescents
adolf
adolfo
adoliadini
adolph
adolphe
adolphus
adonis
adoor
adopt
adopted
adopter
adopters
adopting
adoption
adoptions
adoptive
adopts
adorable
adorabledelia6...@gmail.com
adorabledeliagmailcom
adorably
adorama
adoration
adore
adored
adores
adoring
adorn
adorned
adorning
adornment
adorno
adorns
adp
adr
adrak
adrenal
adrenaline
adrenergic
adress
adria
adriaan
adriaen
adrian
adriana
adrianna
adriano
adrianople
adriatic
adrien
adrienne
adrift
ads
adsl
adsorbed
adsorption
adt
adult
adulterated
adulterous
adultery
adulthood
adults
adulyadej
adv
advaita
advance
advanced
advancement
advancements
advances
advancing
advani
advantage
advantaged
advantageous
advantages
advent
adventism
adventist
adventists
adventure
adventurer
adventurers
adventures
adventuring
adventurous
adverb
adverbial
adverbs
adversarial
adversaries
adversary
adverse
adversely
adversity
advert
advertise
advertised
advertisement
advertisements
advertiser
advertisers
advertises
advertising
advertisment
adverts
advice
advices
advisable
advise
advised
adviser
advisers
advises
advising
advisor
advisories
advisors
advisory
advocacy
advocate
advocated
advocates
advocating
advowson
adw
adware
ady
adyar
adyghe
adz
ae
aea
aec
aechmea
aed
aee
aef
aeg
aega
aegean
aegi
aegina
aegis
aegon
aei
aek
ael
aelius
aemilius
aeneas
aeneid
aeolian
aeolus
aeon
aep
aer
aeration
aerea
aereas
aereo
aereos
aerial
aerials
aero
aero-09
aerobatic
aerobatics
aerobic
aerobics
aerocom
aerodrome
aerodynamic
aerodynamically
aerodynamics
aeroflot
aeron
aeronautica
aeronautical
aeronautics
aeronautique
aeropagitica
aeroplane
aeroplanes
aeros
aerosmith
aerosol
aerosols
aerospace
aerospatiale
aerts
aeruginosa
aervanath
aes
aesa
aeschylus
aese
aesop
aesthetic
aesthetically
aesthetics
aether
aetius
aetna
aetolia
af
af#
afa
afaik
afaqsharif
afar
afb
afb.
afc
afd
afd.
afds
aff
affable
affair
affairs
affect
affectation
affected
affecting
affection
affectionate
affectionately
affections
affective
affects
afferent
affidavit
affidavits
affiliate
affiliated
affiliates
affiliating
affiliation
affiliations
affine
affinis
affinities
affinity
affirm
affirmation
affirmative
affirmed
affirming
affirms
affix
affixed
affixes
affleck
afflicted
affliction
afflictions
affluence
affluent
afford
affordability
affordable
afforded
affording
affords
affricate
affricates
affront
afghan
afghani
afghanis
afghanistan
afghans
afi
aficionado
aficionados
afield
afire
afiridi
afl
aflame
aflaq
afloat
afm
afn
afnd
afon
afonso
afoot
afore
aforementioned
aforesaid
afoul
afp
afraad
afrad
afraid
afresh
africa
africa.the
africaine
african
africana
africanist
africans
africanus
africathe
afridi
afridi-band
afridiband
afrika
afrikaans
afrikaner
afrikaners
afriqa
afrique
afro
afroasiatic
afrogirlll
afrotropical
afs
afsana
afsanaahmed
afsane
afshar
afshari
afshin
afsos
aft
aftaar
aftab
aftari
aftenposten
after
afterburner
afterlife
aftermarket
aftermath
aftermathafter
aftermathin
aftermaththe
afternoon
afternoons
aftershocks
afterthought
afterward
afterwards
afterword
afton
aftonbladet
afyonkarahisar
afzal
ag
aga
agadir
agae
agai
again
again.
again.the
against
againthe
agama
agamemnon
agape
agar
agaricus
agartala
agarwal
agassi
agassiz
agate
agatha
agathe
agathocles
agave
agay
agaya
agayeghaziabad
agayi
agc
agder
age
age.the
aged
agee
ageing
agel
agen
agena
agence
agencia
agencies
agency
agencyrights
agenda
agendas
agent
agents
ager
ages
agethe
agey
agf
aggar
aggie
aggies
agglomeration
agglomerations
agglutinative
aggravate
aggravated
aggravating
aggravation
aggregate
aggregated
aggregates
aggregating
aggregation
aggregations
aggregator
aggregators
aggression
aggressive
aggressively
aggressiveness
aggressor
aggressors
aggrieved
agha
agham
agia
agile
agility
agincourt
aging
agios
agip
agitate
agitated
agitating
agitation
agitations
agitator
agitators
agk
agla
aglay
agm
agnatic
agnelli
agnes
agnew
agni
agnieszka
agnostic
agnosticism
agnus
ago
ago.
agon
agong
agonist
agonists
agonizing
agony
agora
agortolay
agostinho
agostini
agostino
agosto
agp
agr
agra
agrarian
agrawal
agree
agreeable
agreed
agreeing
agreement
agreements
agrees
agri
agribusiness
agricola
agricole
agricultural
agriculturally
agriculture
agrigento
agrippa
agrippina
agro
agron
agronomist
agronomy
aground
ags
agua
aguadilla
aguas
aguascalientes
aguayo
aguero
aguiar
aguila
aguilar
aguilera
aguinaldo
aguirre
agulhas
agung
agusan
agusta
agustin
agye
agyi
ah
ah#
aha
ahaaan
ahaan
ahaar
ahab
ahan
aharon
ahead
ahearn
ahegi
ahem
ahern
ahhhh
ahhhhh
ahimsa
ahl
ahl.
ahli
ahluwalia
ahly
ahmad
ahmaddd
ahmadi
ahmadinejad
ahmadis
ahmadiyya
ahmanson
ahmed
ahmedabad
ahmednagar
ahmet
ahmose
ahn
aho
ahoerstemeier
ahom
ahoms
ahoy
ahram
ahrens
ahriman
ahs
ahsan
ahtar
ahu
ahura
ahvaz
ahzaabayat
ai
aia
aiaa
aiadmk
aiaw
aib
aiba
aic
aichi
aicte
aid
aida
aidan
aide
aided
aiden
aides
aiding
aids
aids.
aiello
aienth
aif
aig
aiga
aigle
aihl
aii
aiims
aik
aiken
aikido
aikman
aiko
aileen
aileron
ailerons
ailey
aili
ailill
ailing
ailment
ailments
ailsa
aim
aime
aimed
aimee
aiming
aimlessly
aims
ain
ain't
aina
ainda
aindrila
ainger
ainslie
ainsworth
aint
aintree
ainu
ainwe
aip
aipac
air
air-force
aira
airasia
airbag
airbags
airbase
airbases
airbender
airborne
airbus
airco
aircontent
aircraft
aircraft.the
aircraftthe
aircrew
aircrews
aird
airdate
airdrie
airdrieonians
airdrop
aire
aired
airedale
aires
airey
airfare
airfield
airfields
airflow
airfoil
airforce
airframe
airframes
airholes
airing
airings
airlift
airlifted
airline
airliner
airliners
airlines
airlock
airmail
airman
airmen
airpark
airpart
airplane
airplanes
airplay
airport
airport.the
airports
airportthe
airpower
airs
airship
airships
airshow
airsoft
airspace
airspeed
airstrike
airstrikes
airstrip
airstrips
airtel
airtight
airtime
airwaves
airway
airways
airworthiness
airworthy
airy
ais
ais###
aisa
aisay
aise
aish
aisha
aishashabbir
aishwarya
aisi
aisle
aisled
aisles
aisne
aisy
ait
aitchison
aitekaf
aitias
aitikaaf
aitken
aitraz
aiv
aivi
aix
aizaz
aizu
aj
aja
ajab
ajaccio
ajahn
ajaikumar
ajata
ajaunga
ajax
ajay
ajaye
ajayegi
ajc
ajeeb
aji
ajib
ajit
ajith
ajj
ajkal
ajmal
ajmalawan
ajmer
ajnabi
ajpw
ajs
ajumbled
ak
ak47's
ak47s
aka
akademi
akademia
akademie
akagi
akai
akal
akali
akan
akane
akar
akari
akash
akashi
akatsuki
akb
akb##
akbar
akbari
akc
ake
akela
akelay
akele
akeli
aker
akerman
akers
akershus
akhar
akhbar
akhenaten
akhil
akhilesh
akhilleus
akhioonse
akhir
akhirkar
akhon
akhtar
akhtarhayyat
akhtarmeerut
akhtars
akhter
akhtr
aki
akiba
akihabara
akiko
akin
akin@ect
akinect
akins
akio
akira
akita
akiva
akiyama
akiyoshi
akka
akkab
akkad
akkadian
akki
akkian
akkiangirl
akkitalks
aklan
akmal
akml
ako
akola
akon
akp
akram
akron
aks
aksa
aksar
aksaray
akshardham
aksharpathak
akshatgoel
akshay
akshaya
akshaykumar
akshaykumarlove
aksing
aksu
aksum
aktar
akthar
aktion
aku
akuma
akureyri
akwa
al
al.
al_quran
ala
ala.
alabama
alabaster
alachua
aladdin
alag
alagoas
alai
alaikum!''-*kehte
alaikumkehte
alain
alam
alamance
alamanni
alameda
alamein
alamgir
alamitos
alamo
alamogordo
alamos
alamut
alan
alana
aland
alania
alanine
alanis
alanna
alans
alanya
alappuzha
alarcon
alaric
alarm
alarmed
alarming
alarms
alas
alasdair
alaska
alaskacategory
alaskan
alastair
alatorre@enron
alatorreenron
alauddin
alava
alaves
alazeem
alb
alba
albacete
albacore
alban
albanese
albani
albania
albanian
albanians
albano
albans
albany
albarn
albatros
albatross
albatrosses
albay
albedo
albee
albeit
albemarle
albergo
alberni
albers
albert
alberta
alberti
albertina
albertine
alberto
alberts
albertson
albertsons
albertus
albertville
albi
albian
albie
albigensian
albin
albini
albinism
albino
albinus
albion
albizu
alboreto
alborz
albrecht
albright
album
album.in
album.the
albumin
albumrights
albums
albumthe
albuquerque
albury
albus
alby
alc
alcala
alcalde
alcan
alcantara
alcatel
alcatraz
alcazar
alchemical
alchemist
alchemists
alchemy
alcibiades
alcide
alco
alcoa
alcock
alcohol
alcoholic
alcoholics
alcoholism
alcohols
alcor
alcorn
alcott
alcove
alcs
alcuin
alda
aldabra
aldeburgh
aldehyde
aldehydes
alden
alder
alderley
alderman
aldermaston
aldermen
alderney
aldershot
alderson
aldgate
aldi
aldine
aldo
aldosterone
aldous
aldred
aldrich
aldridge
aldrin
alds
aldwych
ale
alec
aleena
aleenarajputpti
alef
alegre
alegria
aleister
alejandra
alejandro
alejo
alekhine
aleksandar
aleksander
aleksandr
aleksandra
aleksandrovich
aleksandrow
aleksei
aleksey
alem
aleman
alemannia
alemannic
alen
alena
alencon
alenia
alentejo
aleph
aleppo
alert
alerted
alerting
alertness
alerts
ales
alesha
alesi
alessandra
alessandri
alessandria
alessandro
alessi
alessio
alesund
aleut
aleutian
aleutians
alevi
alex
alexa
alexander
alexanderrights
alexandr
alexandra
alexandre
alexandria
alexandrian
alexandrina
alexandrine
alexandros
alexandrov
alexandrovich
alexandrovna
alexandru
alexei
alexey
alexi
alexia
alexios
alexis
alexius
alf
alfa
alfalfa
alfaro
alfie
alfieri
alfons
alfonse
alfonsin
alfonso
alford
alfred
alfredo
alfreton
alga
algae
algal
algarve
algebra
algebraic
algebraically
algebras
algeciras
alger
algeria
algerian
algerians
algerie
algernon
algiers
algirdas
algol
algoma
algonquian
algonquin
algorithm
algorithmic
algorithms
alhaji
alhambra
alhaznawi
alhumdolilah
alhumduillah
alhumdulillah
alhumdullilah
ali
alia
aliaa
alianza
alias
aliases
aliasing
alibek
alibi
alicante
alice
alicia
alief
alien
alienate
alienated
alienating
alienation
aliens
alifaanuge
aligarh
alighieri
alight
align
align=center
align=left
align=right
align=right|
align=right|seats
align=right|votes
alignbars
aligncenter
aligncenteren
aligncenterenen
aligncentern
aligncenternd
aligncenterrd
aligncenterst
aligned
aligning
alignleft
alignment
alignments
alignright
alignrightalignrightalignright
alignrightalignrightalignrightalignright
alignrightseats
alignrightvotes
aligns
aligudarz
alijeesarwar
alike
alimony
alina
aline
aliphatic
alirazamangi
alisa
alisha
alishbanaaz
aliso
alison
alistair
alister
alita
alitalia
alito
alive
alix
aliya
aliyah
aliyev
alk
alka
alkali
alkaline
alkaloid
alkaloids
alkan
alkanes
alkene
alkenes
alkivar
alkmaar
alkyl
alkylation
all
all.
alla
allah
allahabad
allaire
allama
allan
allard
allardyce
allawi
allay
alle
allee
allegan
allegany
allegation
allegations
allegator
allege
alleged
allegedly
alleges
alleghany
allegheny
allegiance
allegiances
alleging
allegorical
allegories
allegory
allegra
allegro
allele
alleles
alleluia
allen
allen#
allenby
allendale
allende
allentown
aller
allergen
allergens
allergic
allergies
allergy
allerton
alles
alleviate
alleviated
alleviating
alleviation
alley
alleyn
alleyne
alleys
alleyway
allgau
allgemeine
alli
alliance
alliances
allianz
allie
allied
allier
allies
alliesorder
allievi
alligator
alligators
allin
allingham
allington
allis
allison
alliteration
alliterative
allium
allman
allmendinger
allmovie
allmusic
allmusic.com
allmusiccom
allo
alloa
allocate
allocated
allocates
allocating
allocation
allocations
allon
allophone
allophones
allosaurus
allosteric
allot
alloted
allotment
allotments
allotted
allow
allowable
allowance
allowances
allowed
allowing
allows
alloy
alloys
allport
allred
allround
allstars
allstate
allston
allsvenskan
allt
alltel
allude
alluded
alludes
alluding
allure
alluring
allusion
allusions
alluvial
alluvium
ally
allying
allyl
allyn
allyson
alma
almada
almaden
almagro
almanac
almanac.
almanach
almanack
almanacs
almap
almas
almaty
almaz
almeida
almelo
almere
almeria
almighty
almirante
almodovar
almohad
almohads
almond
almonds
almonte
almora
almoravid
almoravids
almost
alms
almshouses
almy
alnus
alnwick
alo
aloe
aloft
aloha
alohomora
alois
alok
aloknath
alomar
alon
alone
along
alongside
alonso
alonzo
aloo
aloof
alopecia
alor
alot
alou
aloud
alouette
alouettes
aloys
aloysius
alp
alpena
alpert
alpes
alpha
alpha_quadrant
alphabet
alphabetic
alphabetical
alphabetically
alphabets
alphanumeric
alphaquadrant
alpharetta
alpheus
alphonse
alphonso
alphonsus
alpine
alpini
alps
alquran
alr
already
alright
als
alsace
alsatian
alsi
also
also.
alsoaircontent
alsolist
alsoother
alsop
alsothe
also{{aircontent
alstom
alston
alt
alt.animals
alt.animals.breeders.rabbits
alt.animals.cat
alt.animals.crab
alt.animals.dog
alt.animals.dogs.collies.open-forum
alt.animals.dolphins
alt.animals.eagle.bald
alt.animals.ethics.vegetarian
alt.animals.falcon
alt.animals.felines.diseases
alt.animals.felines.snowleopards
alt.animals.horses.breeding
alt.animals.lion
alt.animals.rights.promotion
alt.animals.tiger
alt.consumers
alta
altadena
altaf
altai
altaic
altair
altamira
altamont
altan
altanimals
altanimalsbreedersrabbits
altanimalscat
altanimalscrab
altanimalsdog
altanimalsdogscolliesopenforum
altanimalsdolphins
altanimalseaglebald
altanimalsethicsvegetarian
altanimalsfalcon
altanimalsfelinesdiseases
altanimalsfelinessnowleopards
altanimalshorsesbreeding
altanimalslion
altanimalsrightspromotion
altanimalstiger
altar
altarpiece
altarpieces
altars
altay
altconsumers
alte
alten
altenberg
altenburg
alter
alteration
alterations
altercation
altercations
altered
altering
alteripse
alternate
alternated
alternately
alternates
alternating
alternation
alternations
alternative
alternatively
alternatives
alternator
alters
altes
althea
althing
although
althusser
altimeter
altitude
altitudes
altman
altmann
alto
altogether
alton
altona
altoona
altos
altough
altrincham
altruism
altruistic
altstadt
altus
alu
alucard
alum
alumina
aluminium
aluminum
alumna
alumnae
alumni
alumni-time
alumnicategory
alumnitime
alumnus
alun
alva
alvar
alvarado
alvares
alvarez
alvaro
alvear
alveolar
alveoli
alves
alvi
alvida
alvin
alvis
alwar
alway
always
alwyn
aly
alyson
alyssa
alzheimer
alzheimerrights
am
am#
am.
am...
ama
amaal
amaalmallik
amaanush
amadeo
amadeus
amado
amador
amadou
amager
amal
amalfi
amalgam
amalgamate
amalgamated
amalgamating
amalgamation
amalgamations
amalia
amalie
amalric
amalthea
amami
aman
amana
amand
amanda
amanita
amankayamhai
amano
amanullah
amar
amara
amaral
amaranth
amarillo
amarna
amarnath
amaro
amartya
amaru
amass
amassed
amassing
amasya
amaterasu
amateur
amateurish
amateurliga
amateurs
amati
amato
amaury
amaya
amaye
amaze
amazed
amazement
amazes
amazing
amazingly
amazon
amazon.co.uk
amazon.com
amazonas
amazoncom
amazoncouk
amazonia
amazonian
amazons
amba
ambala
ambani
ambassador
ambassadorial
ambassadors
ambedkar
amber
amberg
amberley
amberrafi
ambi
ambiance
ambidextrous
ambience
ambient
ambiguities
ambiguity
ambiguous
ambiguously
ambika
ambit
ambition
ambitions
ambitious
ambitiously
ambivalence
ambivalent
ambler
ambon
amboy
ambrogio
ambroise
ambrose
ambrosia
ambrosian
ambrosio
ambrosius
ambulance
ambulances
ambulatory
ambush
ambushed
ambushes
ambushing
amc
amd
ame
amedee
amedeo
ameen
ameer
ameero
amelia
amelie
ameliorate
amen
amenable
amend
amended
amending
amendment
amendments
amendmnets
amends
amenhotep
amenities
amenity
ament
amer
america
america.
america.the
americain
american
american.there
americana
americanism
americanization
americanized
americano
americans
americanthere
americanus
americarights
americas
americathe
americo
americorps
americus
amerigo
amerika
amerindian
amerindians
amerithrax
amersfoort
amersham
amery
ames
amesbury
amet
amethyst
amex
amf
amg
amhara
amharic
amherst
ami
amiable
amicable
amicably
amici
amicus
amid
amida
amide
amides
amidships
amidst
amie
amiens
amiga
amigaos
amigo
amigos
amin
amina
amine
amines
amino
aminoacyl
amir
amir-accha
amira
amiraccha
amiri
amiriya
amis
amish
amiss
amistad
amit
amitab
amitabh
amitabha
amithab
amity
amityville
amjad
aml
amla
amlaib
amle
amma
amman
ammann
ammar
ammas
ammazing
ammi
ammianus
ammijaan
ammis
ammo
ammon
ammonia
ammonian
ammonite
ammonites
ammonium
ammons
ammount
ammunition
amnesia
amnesiac
amnesties
amnesty
amniotic
amnna
amnon
amo
amoco
amok
amon
among
amongst
amor
amora
amoral
amore
amorous
amorphous
amory
amos
amoung
amount
amounted
amounting
amounts
amour
amoy
amp
ampa
ampang
amparo
ampere
amperes
ampex
amphetamine
amphetamines
amphibian
amphibians
amphibious
amphion
amphipods
amphitheater
amphitheatre
amphoe
amphora
amphorae
ample
ampleforth
amplifiaed
amplifiar
amplification
amplified
amplifier
amplifiers
amplifies
amplify
amplifying
amplitude
amplitudes
amply
amps
amputated
amputation
amputee
amr
amram
amrapali
amrapaligroups
amravati
amrinder
amrit
amrita
amritsar
amro
amrullah
ams
amstel
amsterdam
amstrad
amt
amtliches
amtrak
amu
amul
amulet
amulets
amun
amundsen
amur
amuro
amuse
amused
amusement
amusements
amusing
amway
amx
amy
amy.cornell@compaq.com
amycornellcompaqcom
amygdala
amyloid
an
an'
ana
anaay
anabaptist
anabaptists
anabel
anabolic
anachronism
anachronisms
anachronistic
anaconda
anacostia
anadolu
anadromous
anaemia
anaerobic
anaesthesia
anaesthetic
anagram
anaheim
anahuac
anais
anak
anakanak
anakin
anal
analatin
analgesia
analgesic
analgesics
analog
analogies
analogous
analogously
analogs
analogue
analogues
analogy
analyse
analysed
analyses
analysing
analysis
analysis_0712
analysisthe
analyst
analysts
analyte
analytic
analytical
analytically
analytics
analyze
analyzed
analyzer
analyzers
analyzes
analyzing
anambra
anamorphic
anand
ananda
anandamurti
anant
anantapur
anarchic
anarchism
anarchist
anarchists
anarcho
anarchy
anare
anarky
anas
anasazi
anastacia
anastasia
anastasio
anastasius
anat
anathema
anatidae
anatol
anatole
anatoli
anatolia
anatolian
anatoliy
anatoly
anatomic
anatomical
anatomically
anatomist
anatomy
anaulhaq
anay
anaya
anbar
anc
anca
ancaster
ancestor
ancestors
ancestral
ancestries
ancestry
anchor
anchorage
anchorages
anchored
anchoring
anchorman
anchors
anchovies
ancien
ancient
anciently
ancients
ancillary
ancona
and
anda
andalucia
andalus
andalusia
andalusian
andalusians
andaman
andamans
andante
andar
anday
andean
ander
anderlecht
anders
andersen
anderson
andersons
andersonville
andersson
anderton
andes
andesite
andha
andhaer
andheri
andhra
andi
andiamo
andie
ando
andolan
andong
andorra
andorran
andover
andr
andra
andrade
andras
andre
andrea
andreas
andree
andreev
andrei
andrej
andreotti
andres
andresen
andretti
andreu
andrew
andrewrights
andrews
andrey
andreyevich
andria
andries
andrija
andris
andriy
androgen
androgens
androgynous
android
androids
andromeda
andromedae
andronicus
andronikos
andropov
andros
androscoggin
andrus
andrzej
andu
andujar
andy
ane
anecdotal
anecdote
anecdotes
aneelawkhan
aneeqashaikh
anemia
anemic
anemone
anemones
anese
anesthesia
anesthetic
anesthetics
anette
aneurysm
aneurysms
anew
anfield
ang
angara
angaroun
angas
ange
angel
angela
angeles
angeli
angelic
angelica
angelico
angelika
angelina
angeline
angelique
angelis
angell
angelo
angelos
angelou
angels
angelus
angelvishii
anger
angered
angering
angers
angerthas
angevin
anghooti
angie
angina
angiogenesis
angiography
angioplasty
angiosperm
angiosperms
angiotensin
angkor
anglais
angle
angled
angler
anglers
angles
anglesey
angleton
anglia
anglian
anglican
anglicanism
anglicans
anglicised
anglicized
angling
anglo
anglophone
anglorum
angna
angola
angolan
angora
angouleme
angr
angra
angrez
angrezi
angrily
angry
angst
anguard
anguilla
anguish
anguished
angular
angulo
angus
anh
anhalt
anheuser
anhui
anhydride
anhydrous
ani
ani.
anibal
anic
anil
aniline
anima
animal
animals
animalsr...@aol.com
animalsraolcom
animaniacs
animas
animate
animated
animating
animation
animations
animator
animators
animatronic
animax
anime
animism
animist
animistic
animorphs
animosity
animus
aninews
anion
anionic
anions
anise
anishinaabe
anisotropic
anisotropy
aniston
anita
anja
anjali
anjalis
anjan
anjana
anjanaomkashyap
anjou
anjouan
anjuman
anjumiqbalpti
ank
anka
ankara
ankeny
anker
anketell
ankh
ankhe
ankhiyo
ankit
ankle
ankles
anlong
anmafinotera
anmol
ann
anna
annabel
annabella
annabelle
annabeth
annalen
annales
annals
annam
annamalai
annan
annandale
annapolis
annapurna
anne
annealing
annecy
annee
annemarie
annenberg
annes
annesley
annette
annex
annexation
annexations
annexe
annexed
annexes
annexing
anni
annibale
annick
annie
annihilate
annihilated
annihilating
annihilation
annijoseph
annika
annis
anniston
anniversaries
anniversary
anno
annonaceae
annotated
annotation
annotations
annoucement
announce
announced
announcement
announcements
announcemnt
announcer
announcers
announces
announcing
annoy
annoyance
annoyed
annoying
annoys
annual
annually
annuals
annuities
annuity
annul
annular
annulled
annulment
annulus
annum
annunciation
annunziata
annyong
ano
anode
anointed
anointing
anoka
anokha
anomalies
anomalous
anomaly
anome
anomiebot
anomiecrossed
anon
anonmoos
anons
anonymity
anonymous
anonymously
anorexia
anorthosis
anos
another
anothers
anousheya
anoxic
anp
anquetil
ans
ansal
ansaldo
ansar
ansari
ansbach
anschluss
anschutz
anse
ansel
ansell
anselm
anselmo
ansems
anseriformes
ansett
ansgar
ansi
anson
ansonia
anstey
anstruther
ansu
answer
answerable
answered
answering
answers
answers.com
answerscom
answetred
ant
antaeus
antagonism
antagonist
antagonistic
antagonists
antagonize
antal
antalya
antananarivo
antanas
antar
antarctic
antarctica
antares
ante
antebellum
antecedent
antecedents
antelope
antelopes
antena
antenna
antennae
antennas
anter
anterior
anteriorly
anthea
anthem
anthemic
anthems
anthers
anthologies
anthologized
anthology
anthon
anthony
anthracite
anthrax
anthropogenic
anthropological
anthropologist
anthropologists
anthropology
anthropomorphic
anti
anti-american
anti-americanism
anti-army
anti-bush
anti-democratic
anti-fraud
anti-gay
anti-india
anti-indian
anti-israeli
anti-leopard
anti-muslim
anti-proliferation
anti-semite
anti-shiite
anti-ship
anti-shipping
anti-smoker
anti-trust
anti-virus
antiaircraft
antiamerican
antiamericanism
antiarmy
antibacterial
antibes
antibiotic
antibiotics
antibodies
antibody
antibush
antic
anticancer
anticholinergic
antichrist
anticipate
anticipated
anticipates
anticipating
anticipation
anticline
anticoagulant
anticonvulsant
antics
antidemocratic
antidepressant
antidepressants
antidote
antietam
antifraud
antifreeze
antifungal
antigay
antigen
antigenic
antigens
antigone
antigonish
antigonus
antigua
antiindia
antiindiaaroonpurie
antiindian
antiisraeli
antileopard
antillean
antilles
antim
antimatter
antimicrobial
antimony
antimuslim
antioch
antiochus
antioquia
antioxidant
antioxidants
antipas
antipasti
antipasto
antipater
antipathy
antipodal
antipodes
antipolo
antipope
antiproliferation
antipsychotic
antipsychotics
antiqua
antiquarian
antiquaries
antiquary
antiquated
antique
antiques
antiquities
antiquity
antiretroviral
antisemite
antisemitic
antisemitism
antisense
antiseptic
antishiite
antiship
antishipping
antislavery
antismoker
antisocial
antisocialism
antisubmarine
antisymmetric
antitank
antithesis
antithetical
antitrust
antiviral
antivirus
antiwar
antler
antlers
antofagasta
antoine
antoinette
anton
antonelli
antonescu
antoni
antonia
antonin
antonina
antonine
antonino
antoninus
antonio
antonioni
antonis
antonius
antonov
antony
antrim
ants
antti
antun
antunes
antwerp
antwerpen
anu
anubhashukla
anubhuti
anubis
anuj
anukska
anupam
anupampkher
anura
anuradha
anuradhapura
anurag
anureet
anus
anushka
anushkasharma
anvers
anvil
anwar
anwb
anwesha
anwser
anxieties
anxiety
anxiolytic
anxious
anxiously
any
any1
anya
anyang
anybody
anyhow
anymore
anyone
anyplace
anythin
anything
anytime
anyting
anyway
anyways
anywere
anywhere
anywz
anz
anza
anzac
anzio
ao
aoa
aoc
aodh
aoi
aoki
aol
aomori
aonb
aor
aorat
aorist
aorta
aortic
aosta
aotearoa
aoyama
ap
ap.
apa
apache
apaches
apakijaneta
apalachee
apalachicola
apamea
apane
apani
aparicio
aparna
apart
apartheid
apartment
apartments
apathetic
apathy
apatow
apc
apcs
apd
ape
apeal
apec
apekshit
apel
apeldoorn
apennine
apennines
apertura
aperture
apertures
apes
apex
apg
aphasia
aphex
aphid
aphids
aphorism
aphorisms
aphrodite
api
api.
api.pdf
apia
apiaceae
apical
apiece
apipdf
apis
apj
apjak
apka
apke
apki
apko
apl
aplo
aplo.
aplocheilus
apm
apna
apnake
apnay
apne
apnea
apney
apni
apny
apo
apocalypse
apocalyptic
apocrypha
apocryphal
apocynaceae
apodiformes
apoel
apogee
apokolips
apolitical
apollinaire
apollinaris
apollo
apollodorus
apollon
apollonia
apollonius
apologetic
apologetics
apologies
apologise
apologised
apologises
apologising
apologist
apologists
apologize
apologized
apologizes
apologizing
apology
aponte
apoplexy
apoptosis
apoptotic
apostasy
apostate
apostates
apostle
apostles
apostol
apostolate
apostolic
apostrophe
apothecary
app
appalachia
appalachian
appalachians
appalled
appalling
appaloosa
appanage
apparatus
apparel
apparent
apparently
apparition
apparitions
appartently
appartment
appeal
appealed
appealing
appeals
appear
appearance
appearances
appearancesthe
appearancethe
appeared
appearing
appears
appease
appeased
appeasement
appel
appellant
appellants
appellate
appellation
appellations
append
appendage
appendages
appended
appendices
appendicitis
appending
appendix
appenzell
appetit
appetite
appetites
appetitie
appetizer
appetizers
appetizing
appia
appian
appius
appl
applaud
applauded
applauding
applause
apple
applebaum
applebee
appleby
appledore
applegate
apples
appleseed
applet
appleton
applets
appleyard
appliance
appliances
applicability
applicable
applicant
applicants
application
applications
applicationsthe
applied
applies
apply
applying
appna
appoint
appointed
appointee
appointees
appointing
appointment
appointments
appoints
appologies
appologized
appomattox
apportioned
apportionment
appraisal
appraisals
appraised
appraiser
appreciable
appreciably
appreciate
appreciated
appreciates
appreciating
appreciation
appreciative
apprehend
apprehended
apprehending
apprehension
apprehensive
apprentice
apprenticed
apprentices
apprenticeship
apprenticeships
apprised
approach
approachable
approached
approaches
approaching
approbation
appropriate
appropriated
appropriately
appropriateness
appropriating
appropriation
appropriations
appropriators
approval
approvals
approve
approved
approves
approving
approx
approximant
approximate
approximated
approximately
approximates
approximating
approximation
approximations
apps
appy
apr
apr.
apra
apratim
apres
apricot
apricots
april
aprile
aprilen
aprilenmay
aprilia
apron
aprons
aps
apse
apses
apsley
apso
apt
aptitude
aptly
apu
apud
apuesta
apuleius
apulia
aq
aqaba
aqal
aqeedat
aqha
aqsa
aqua
aquabats
aquaculture
aquaman
aquaria
aquarian
aquarii
aquarist
aquarium
aquariums
aquarius
aquasafe
aquatic
aquatics
aqueduct
aqueducts
aqueedat
aqueous
aqui
aquifer
aquifers
aquila
aquileia
aquinas
aquino
aquire
aquiriums
aquitaine
aquitania
ar
ara
araam
arab
arabella
arabenisraeli
arabes
arabi
arabia
arabian
arabians
arabic
arabicarabic
arabicarabicarabic
arabicarabicarabicarabic
arabicarabicarabicarabicarabic
arabicarabicarabicarabicarabicarabic
arabicarabicarabicarabicarabicarabicarabic
arabicarabicarabicarabicarabicarabicarabicarabic
arabicarabicarabicarabicarabicarabicarabicarabicarabic
arabicarabicarabicarabicarabicarabicarabicarabicarabicarabic
arabidopsis
arabism
arabists
arabiya
arable
arabs
araceae
arachnids
arad
arado
arafat
arago
aragon
aragonese
aragonite
aragorn
arai
arak
arakan
arakawa
araki
arakshan
aral
aram
aramaic
aramco
aramis
aran
arana
aranab
arancini
aranda
araneta
arangarajan
arango
aranjuez
aransas
arantxa
arapaho
arapahoe
arar
ararat
aras
arash
arashi
araucania
arauco
araujo
arawak
aray
araya
arb
arbcom
arbeiter
arbeitsstatten
arbenz
arbil
arbiter
arbitrage
arbitrarily
arbitrary
arbitrate
arbitration
arbitrator
arbitrators
arbitron
arbogast
arbor
arborea
arboreal
arboretum
arbour
arbroath
arbuckle
arbus
arbuthnot
arbutus
arby
arc
arca
arcade
arcades
arcadia
arcadian
arcana
arcane
arcangel
arcata
arcayne
arce
arcee
arch
arch-murderer
archaea
archaeological
archaeologically
archaeologist
archaeologists
archaeology
archaeopteryx
archaic
archana
archangel
archbishop
archbishopric
archbishops
archbold
archdeacon
archdeaconry
archdiocesan
archdiocese
archduchess
archduke
archean
arched
archelaus
archenemy
archeological
archeologist
archeologists
archeology
archer
archers
archery
arches
archetypal
archetype
archetypes
archibald
archie
archiepiscopal
archilochus
archimandrite
archimedean
archimedes
arching
archipelago
architect
architects
architectural
architecturally
architecture
architectures
architecturethe
architrave
archiv
archival
archive
archive#
archived
archives
archiving
archivist
archivists
archivo
archmurderer
archon
archosaurs
archrival
archuleta
archway
arcing
arco
arcola
arcos
arcot
arcs
arcseconds
arctic
arctiidae
arcturus
arcuate
ard
arda
ardabil
ardagh
ardahan
ardas
ardashir
ardeche
ardeidae
arden
ardenne
ardennes
ardent
ardently
ardmore
ardrossan
ards
arduous
are
area
area's
area.
area.the
areal
arearights
areas
areas.
areas.the
areasthe
areathe
arecaceae
arecibo
aree
areeba
areeeee
areenge
areeshei
arellano
aren't
arena
arenabowl
arenas
arend
arendal
arendt
arenrightt
arent
arequipa
ares
aretha
arethusa
areva
arevalo
arey
arezzo
arf
arfsten
arfsten@bflassociates.com
arfstenbflassociatescom
arg
argent
argentia
argentina
argentina.the
argentinathe
argentine
argentinean
argentineans
argentines
argentinian
argentino
argentinos
argento
arges
argghhh
argghhh!
arghezi
arginine
argo
argon
argonaut
argonautica
argonauts
argonne
argos
argosy
args
arguable
arguably
argue
argued
arguello
arguement
argues
arguing
argument
argumentation
argumentative
arguments
argus
argyle
argyll
arhus
ari
aria
ariadne
arial
arian
ariana
ariane
arianism
arianna
arians
arias
ariba
aribers
arica
arid
arie
ariege
ariel
aries
arif
arik
arika
arild
arima
arin
ariola
arion
ariosto
aris
arise
arisen
arises
arish
arishri
arising
arista
aristide
aristides
aristocracy
aristocrat
aristocratic
aristocrats
aristophanes
aristotelian
aristotle
arithmetic
arithmetical
arius
ariyalur
arizona
arizonacategory
arjan
arjen
arjona
arjun
arjuna
arjunirplast
arjunkfan
ark
ark.
arkady
arkansas
arkansascategory
arkham
arkhangelsk
arkin
arkwright
arl
arleigh
arlen
arlene
arles
arlington
arlo
arlott
arm
arma
armaan
armaano
armada
armadale
armadillo
armadillos
armaey
armageddon
armagh
armagnac
armament
armaments
arman
armanban
armand
armando
armani
armanon
armas
armatho
armature
armatures
armband
armbands
armbar
armbrust
armchair
armed
armee
armeekorps
armen
armenia
armenian
armenianarmenianarmenian
armenianarmenianarmenianarmenian
armenianarmenianarmenianarmenianarmenian
armenianarmenianarmenianarmenianarmenianarmenian
armenianarmenianarmenianarmenianarmenianarmenianarmenian
armenianarmenianarmenianarmenianarmenianarmenianarmenianarmenian
armenianarmenianarmenianarmenianarmenianarmenianarmenianarmenianarmenian
armenians
armes
armia
armidale
armies
armin
arming
arminia
arminian
arminianism
arminius
armistead
armistice
armitage
armogida
armor
armored
armorial
armors
armory
armour
armoured
armoury
armpit
arms
armsthe
armstrong
army
armyrights
arn
arnaldo
arnaud
arnaz
arndt
arne
arneson
arnett
arnhem
arni
arnie
arnim
arno
arnold
arnon
arnor
arnot
arnott
arnoux
arnulf
aro
aroma
aromanian
aromas
aromatic
aron
arond
aronofsky
aronson
arooba
aroostook
arora
arose
around
arousal
arouse
aroused
arousing
arp
arpa
arpad
arpanet
arpeggios
arpingstone
arpit
arppix
arquette
arr
arra
arraigned
arraignment
arran
arrange
arranged
arrangement
arrangements
arranger
arrangers
arranges
arranging
arras
array
arrayed
arrays
arre
arrears
arrest
arrested
arresting
arrests
arrey
arrhenius
arrhythmia
arrhythmias
arrian
arriba
arrigo
arrington
arriva
arrival
arrivals
arrive
arrived
arrives
arriving
arrogance
arrogant
arrogantly
arrondissement
arrondissements
arrow
arrowhead
arrowheads
arrows
arrowsmith
arroyo
arrv
arrv.
ars
arsacid
arse
arsenal
arsenals
arsene
arsenic
arsenide
arsenio
arshad
arshadsyed
arshi
arshikyy
arsinoe
arslan
arso
arson
arsonist
arsten
art
arta
artaud
artaxerxes
arte
artefact
artefacts
artem
artemis
artemisia
arterial
arteries
artery
artes
artesia
artesian
artest
artforum
artful
arth
arthouse
arthritis
arthropod
arthropods
arthur
arthurian
arthurs
arti
artical
articipation
article
article.
articled
articles
articles.
articlescategory
articular
articulate
articulated
articulates
articulating
articulation
articulations
artie
artifact
artifacts
artifice
artificial
artificially
artigas
artillery
artillerymen
artin
artis
artisan
artisanal
artisans
artist
artiste
artistes
artistic
artistically
artistrights
artistry
artists
arto
artois
arts
artsakh
artsy
artthe
artur
arturo
artvin
artwork
artworks
aru
aruba
aruch
arun
aruna
arunabh
arunachal
arundel
arundell
arundhati
arunjaitley
arunlallogic
arup
arusha
arvid
arvin
arvind
arvindkejriwal
arvindkejriwalplz
arvn
arvo
ary
arya
aryan
aryans
aryeh
aryl
arzte
as
as.
as400
asa
asaan
asad
asadowaisi
asaf
asahi
asakura
asakusa
asal
asami
asan
asani
asano
asansol
asante
asap
asap.
asaph
asar
asb
asbestos
asbury
asc
ascalon
ascap
ascari
asce
ascend
ascendancy
ascendant
ascended
ascending
ascends
ascension
ascenso
ascent
ascents
ascertain
ascertained
ascertaining
ascetic
asceticism
ascetics
asch
aschaffenburg
ascii
ascii's
asciis
asclepius
ascoli
ascomycota
ascorbic
ascot
ascribe
ascribed
ascribes
ascribing
asd
asda
ase
asean
asem
asen
asesoria
asexual
asexually
asf
asgard
asgardian
asghar
ash
asha
ashamed
ashanti
ashbourne
ashbrook
ashburn
ashburnham
ashburton
ashbury
ashby
ashcroft
ashdod
ashdown
ashe
asher
ashes
asheville
ashfaq
ashfield
ashford
ashgabat
ashgate
ashi
ashik
ashikaga
ashina
ashington
ashiq
ashique
ashish
ashkelon
ashkenazi
ashkenazic
ashland
ashlar
ashlee
ashleigh
ashley
ashman
ashmolean
ashmore
ashok
ashoka
ashokan
ashore
ashot
ashraf
ashram
ashtabula
ashtamudi
ashton
ashur
ashura
ashurst
ashutosh
ashvasant
ashween
ashwin
ashworth
asi
asia
asia.the
asiacupt
asiago
asian
asianet
asians
asiarights
asiathe
asiatic
asiaweek
asic
aside
asides
asif
asifamugal
asim
asimov
asimshahidpti
asin
asio
asis
asistencia
ask
askari
aske
asked
asker
askew
askin
asking
asks
askthepankazzzz
asl
aslah
aslam
aslan
asleep
asleep.
asli
asliyat
asm
asma
asman
asmara
asmashirazi
asme
asmin
asmodeus
asn
asner
aso
asociacion
asoka
asolei
asomjai
asomok
asomot
asp
asp.net
asparagus
aspartame
aspartate
aspasia
aspect
aspected
aspects
aspen
asperger
aspergillus
asphalt
asphyxiation
aspinall
aspinwall
aspirant
aspirants
aspirated
aspiration
aspirational
aspirations
aspire
aspired
aspires
aspirin
aspiring
aspnet
aspx
asquith
asr
ass
ass't.
assad
assailant
assailants
assailed
assam
assamaccord
assamese
assan
assange
assassin
assassinate
assassinated
assassinating
assassination
assassinations
assassins
assault
assaulted
assaulting
assaults
assay
assays
assemblage
assemblages
assemble
assembled
assemblee
assembler
assembles
assemblies
assembling
assembly
assemblyman
assen
assent
assented
asser
assert
assertaion
asserted
asserting
assertion
assertions
assertive
asserts
asses
assess
assessed
assesses
assessing
assessment
assessments
assessor
assessors
asset
assets
assh@%$e
asshe
asshole
assiduously
assign
assigned
assigning
assignment
assignments
assigns
assimilate
assimilated
assimilating
assimilation
assiniboia
assiniboine
assis
assisi
assist
assistance
assistant
assistants
assisted
assisting
assistive
assists
assize
assizes
asslaam
assoc
assoc.
associacao
associate
associated
associates
associating
association
associations
associationthe
associative
associazione
assorted
assortment
assr
asst
assuage
assume
assumed
assumes
assuming
assumption
assumptions
assur
assurance
assurances
assure
assured
assures
assuring
assyria
assyrian
assyrians
ast
asta
astaire
astana
astarte
astbury
aster
asteraceae
asterisk
asterism
asterix
astern
asteroid
asteroids
asthabhardwaj
asthma
asti
astigmatism
astily
astin
astitva
astley
astm
aston
astonished
astonishing
astonishingly
astonishment
astor
astorga
astoria
astounded
astounding
astr
astra
astragalus
astrakhan
astral
astray
astrazeneca
astrid
astride
astringent
astro
astrocytes
astrodome
astrolabe
astrologer
astrologers
astrological
astrology
astronaut
astronaut's
astronautics
astronauts
astronomer
astronomers
astronomical
astronomy
astrophysical
astrophysicist
astrophysics
astros
asturian
asturias
astute
asu
asuka
asuncion
asura
asus
asv
asw
aswad
aswan
aswered
aswering
asx
asylum
asylums
asymmetric
asymmetrical
asymmetry
asymptomatic
asymptotic
asymptotically
asynchronous
asyut
at
at&t
ata
atabek
atacama
atahualpa
atal
atalanta
atankwadi
atari
ataturk
ataxia
atay
atb
atc
atchafalaya
atchison
atco
ate
atef
atelier
aten
ateneo
atey
atf
ath
athabasca
athabaskan
athanasius
atharr
atheism
atheist
atheistic
atheistkrishna
atheists
athelstan
athena
athenaeum
athenaeus
athenean
atheneum
athenian
athenians
athenry
athens
atherosclerosis
atherstone
atherton
athiya
athlete
athletes
athletic
athleticism
athletics
athleticsthe
athlon
athlone
athol
atholl
athos
ati
atif
atithi
atkin
atkins
atkinson
atl
atlanta
atlante
atlantean
atlanteans
atlantic
atlantic.
atlantico
atlantique
atlantiques
atlantis
atlas
atlases
atleast
atletico
atlus
atm
atma
atmosphere
atmospheres
atmospheric
atms
atn
ato
atoll
atolls
atom
atomic
atoms
atonal
atone
atonement
atop
atp
atp.
atpase
atr
atreides
atria
atrial
atrium
atrocious
atrocities
atrocity
atrophied
atrophy
atropine
ats
atsc
atsushi
att
atta
attach
attache
attached
attaches
attaching
attachment
attachments
attack
attacked
attacker
attackers
attacking
attacks
attain
attainable
attainder
attained
attaining
attainment
attainments
attains
attainted
attalus
attar
atte
attempt
attempted
attempting
attempts
attenborough
attend
attendance
attendances
attendant
attendants
attended
attendee
attendees
attending
attends
attention
attentional
attentions
attentive
attenuate
attenuated
attenuation
atterbury
attest
attestation
attested
attesting
attests
attic
attica
attics
atticus
attila
attilio
attire
attired
attitude
attitudes
attleboro
attlee
attn
attn.
attock
attorney
attorneys
attract
attracted
attracting
attraction
attractions
attractionsthe
attractive
attractiveness
attractor
attracts
attributable
attribute
attributed
attributes
attributing
attribution
attributions
attrition
attu
attuned
attwood
atty
attys
atul
atulya
atv
atvs
atwater
atwell
atwood
atyachar
atypical
atzmon
au
au.
aube
aubert
aubin
aubrey
aubry
auburn
auc
auch
auchinleck
auckland
auction
auctioned
auctioneer
auctions
aud
audacious
audacity
audax
aude
auden
audi
audible
audie
audience
audiences
audiencia
audio
audiobook
audiobooks
audioslave
audiotape
audiovisual
audit
audited
auditing
audition
auditioned
auditioning
auditions
auditor
auditorio
auditorium
auditoriums
auditors
auditory
audits
audley
audra
audrey
audubon
aue
auer
auerbach
auf
aug
aug.
auger
augie
auglaize
augment
augmentation
augmented
augmenting
augments
augsburg
august
augusta
augustan
augustana
auguste
augusti
augustin
augustine
augustinian
augustinians
augusto
augustow
augustus
auhtority
auk
aulaad
auld
ault
aulus
aum
aung
aunga
aunt
aunte
auntie
aunties
aunts
aunty
aur
aura
aural
aurangabad
aurangzeb
aurat
auraton
aurea
aurealis
aurel
aurelia
aurelian
aurelio
aurelius
aureus
aurich
aurobindo
aurochs
aurora
aurton
aurum
aus
auschwitz
ausf
ausgabe
auska
auspices
auspicious
aussie
aust
austell
austen
auster
austere
austerities
austerity
austerlitz
austin
austral
australasia
australasian
australia
australia.
australia.the
australiain
australian
australians
australiarights
australiathe
australis
australopithecus
austrasia
austria
austrian
austrians
austro
austronesian
auteur
authentic
authentically
authenticate
authenticated
authentication
authenticity
author
author.
authoramish
authored
authorhouse
authorial
authoring
authorisation
authorise
authorised
authorising
authoritarian
authoritarianism
authoritative
authorities
authority
authorization
authorize
authorized
authorizes
authorizing
authorjohn
authorrights
authors
authorship
autism
autistic
auto
autobahn
autobiographical
autobiographies
autobiography
autoblock
autobot
autobots
autocad
autocar
autocephalous
autochthonous
autoclave
autoconfirmed
autocorrects.com
autocorrectscom
autocorrelation
autocracy
autocratic
autodesk
autodromo
autofocus
autofollow
autograph
autographed
autographs
autoimmune
autologous
automaker
automakers
automata
automate
automated
automatic
automatically
automating
automation
automaton
automobile
automobiles
automorphism
automorphisms
automotive
automotives
autonoma
autonomic
autonomous
autonomously
autonomy
autopilot
autopsies
autopsy
autoroute
autos
autosomal
autosport
autostale
autovia
autres
autry
autumn
autun
auvergne
aux
auxerre
auxiliaries
auxiliary
av
av.
av?nash
ava
avail
availability
available
availed
avala
avalanche
avalanches
avalokitesvara
avalon
avant
avanti
avantika
avar
avars
avasarama
avatar
avatars
avaya
avc
avco
ave
avebury
avec
avedon
avei
aveiro
aveling
avellaneda
avellino
avenge
avenged
avenger
avengers
avenging
avenida
aventine
aventis
aventura
avenue
avenues
average
averaged
averages
averaging
averell
averill
averroes
averse
aversion
aversive
avert
averted
averting
avery
aves
avesta
avestan
avex
aveyron
avg
avi
avia
aviacion
avian
aviary
aviation
aviator
aviators
avicenna
avid
avidly
avifauna
avigdor
avignon
avila
aviles
avionics
avis
aviv
aviv.
aviva
avm
avn
avnash
avni
avoca
avocado
avocets
avogadro
avoid
avoidable
avoidance
avoided
avoiding
avoids
avon
avondale
avonmouth
avowed
avp
avr
avraham
avram
avril
avro
avruch
avtaar
avval
avvo
aw
awa
awaam
awaas
awaaz
awacs
awad
awadewit
awadh
await
awaited
awaiting
awaits
awake
awaken
awakened
awakening
awakens
awakes
awam
awami
awan
awara
award
award.
awarded
awardee
awardees
awarding
awards
awards####
awardshe
awardsin
awardsthe
awardthe
aware
awareness
awash
away
aways
awaz
awb
awd
awdry
awe
aweesome
awesome
awesum
awful
awfully
awhile
awinash
awkward
awkwardly
awkwardness
awlaki
awm
awo
awoke
awoken
awol
awry
aws
awsat
awsm
awsome
awwww
ax
axa
axe
axed
axel
axelrod
axes
axial
axillary
axils
axiom
axiomatic
axioms
axis
axl
axle
axles
axon
axonal
axons
axum
ay
aya
ayaa
ayacucho
ayad
ayain
ayala
ayalon
ayatollah
ayay
ayayyo
ayazsamoo
ayckbourn
aydlatinn
aye
ayega
ayege
ayegi
ayen
ayer
ayers
ayesha
ayi
ayishabaloch
aykroyd
ayla
aylesbury
aylmer
aylward
aylwin
ayman
aymara
ayn
ayodhya
ayooshgupta
ayp
ayr
ayre
ayres
ayrshire
ayrton
ayton
ayu
ayub
ayumi
ayurveda
ayurvedic
ayush
ayutthaya
ayya
ayyavazhi
ayyo
ayyub
ayyubid
az
az#####
az.
aza
azaad
azad
azadegan
azadi
azalea
azam
azan
azar
azarenka
azaria
azazel
azeeb
azerbaijan
azerbaijani
azerbaijanis
azeri
azeris
azerrad
azevedo
azha
azhar
azharali
azide
azim
azimuth
aziz
azkaban
azmat
azmi
azmishabana
aznar
aznavour
azores
azov
azrael
aztec
azteca
aztecan
aztecs
azul
azuma
azure
azurix
azusa
azzam
azzaman
a||##||#||
a}
b
b#
b##
b###
b####
b#b
b&b
b&m
b&o
b&w
b'
b'day
b'nai
b'rith
b'tselem
b'z
b****
b+
b.
b.#
b.####
b.a
b.a.
b.b.
b.c
b.c.
b.c.e.
b.d.
b.e.
b.ed
b.f.
b.g.
b.h.
b.i.g.
b.j.
b.l.
b.m.
b.p.
b.r.
b.s.
b.sc
b.sc.
b.t.
b.tech
b.v.
b/c
b/t
b2b
b2r
b_#
ba
ba'al
ba'ath
ba'athist
ba'athists
ba.consumers
baa
baa's
baad
baade
baader
baadhaa
baadiyahe
baadshah
baaghi
baaghioffical
baaghiposter
baahar
baahon
baaji
baaju
baaki
baal
baalak
baalbek
baalikay
baalon
baalveer
baap
baapre
baapu
baar
baara
baaraatein
baare
baari
baarish
baaron
baas
baat
baate
baatein
baaten
baath
baathist
baathists
baaton
baaz
baazigar
bab
baba
babaji
babajobu
babak
babalon
babangida
babar
babb
babbage
babbar
babbitt
babbler
babbling
babcock
babe
babel
babelfish
babelsberg
babes
babette
babi
babic
babies
babington
bable
babool
baboon
baboons
babri
babs
babson
babu
babubhaiyaa
babuji
babur
baby
babyface
babylon
babylonia
babylonian
babylonians
babysitter
babysitting
bac
baca
bacall
bacardi
bacardibaa
bacau
baccalaureate
baccha
bacchan
bacchane
baccho
bacchon
bacchus
bach
bacha
bachalo
bachan
bachana
bacharach
bachay
bachaye
bachchan
bachcho
bache
bacheinge
bachelet
bachelor
bachelorrights
bachelors
bachhan
bachhe
bachi
bachman
bachmann
bachna
bacho
bachon
bachpan
bachrach
bachy
bacillus
back
backa
backbeat
backbench
backbencher
backbone
backcountry
backdoor
backdrop
backdrops
backed
backend
backer
backers
backfield
backfire
backfired
backfires
backgammon
background
backgrounda
backgroundafter
backgroundborn
backgroundcolors
backgroundduring
backgroundfollowing
backgroundhe
backgroundin
backgroundit
backgroundon
backgrounds
backgroundthe
backhand
backhouse
backing
backlash
backless
backline
backlit
backlog
backlogged
backlogger
backloggers
backlogs
backlot
backlund
backman
backpack
backpackers
backpacking
backpacks
backpedalling
backroom
backs
backseat
backside
backslash
backstage
backstory
backstreet
backstroke
backtracking
backup
backups
backus
backward
backwardness
backwards
backwater
backwaters
backweb
backyard
bacolod
bacon
baconsumers
bacteria
bacterial
bacteriologist
bacteriology
bacteriophage
bacterium
bactionedit
bactria
bactrian
bad
bada
badaam
badahai
badajoz
badakhshan
badal
badalna
badalte
badami
badan
badana
badaney
badawi
baday
badboo
badbu
badd
baddeley
badder
baddest
baddua
bade
badee
baden
badenoch
bader
badfinger
badge
badged
badger
badgers
badges
badging
badgirl
badh
badha
badhai
badhaibharat
badhaiya
badhaiyan
badhana
badhawa
badhe
badhiya
badho
badi
badia
badiya
badkar
badla
badlaav
badlands
badlapur
badlapura
badlapurfilm
badlarelo
badle
badlo
badlon
badly
badmaash
badman
badminton
bado
badoglio
badolat
badr
badri
badrinath
badshaah
badshah
badtameez
badte
badti
badu
bae
baek
baekje
baen
baer
baez
baeza
baffin
baffle
baffled
baffles
baffling
bafta
bag
bagair
bagal
bagan
bagat
bagaya
bagby
bagdad
bagel
bagels
baggage
bagge
bagged
bagging
baggins
baggio
baggy
bagh
baghdad
baghdadi
baghdadis
bagley
bagmati
bagnall
bago
bagong
bagot
bagpipe
bagpipes
bagram
bagrat
bagration
bagrationi
bags
baguio
bagwell
bah
baha
baha'i
baha'is
baha'u
bahaane
bahaar
bahaaron
bahadur
bahaduri
bahaha
bahai
bahais
bahama
bahamas
bahamian
bahana
bahane
bahar
bahasa
bahate
bahau
bahauddin
bahaut
bahawalpur
bahe
bahekta
bahen
bahi
bahia
bahini
bahir
bahman
bahmani
bahn
bahnhof
bahon
bahoon
bahot
bahr
bahrain
bahraini
bahram
bahrat
bahri
bahru
baht
bahu
bahuat
bahujan
bahujansenaind
bahur
bahut
bahut-bahut
bahutbahut
bahutosh
bahutt
bai
baia
baibars
baichne
baidu
baie
baig
baiji
baikal
baikonur
bail
baile
bailed
bailey
bailiff
bailiffs
bailing
bailiwick
baillie
bailly
bailout
bails
baily
bain
bainbridge
bainer
baines
bainimarama
bains
bair
baird
bais
bait
baited
baith
baitha
baithe
baithi
baithte
baiting
baits
baja
bajaatey
bajaj
bajana
bajar
bajay
baje
bajegi
bajehoga
baji
bajir
bajne
bajo
bajoran
bak
baka
bakar
bakbak
bake
baked
baker
bakeries
bakerloo
bakers
bakersfield
bakery
bakewell
bakharev
bakhsh
bakhtin
bakhuda
baki
baking
bakke
bakker
bakna
bakne
bakr
bakra
bakri
baksh
bakshi
baku
bakufu
bakugan
bakunin
bakwaas
bakwas
bakwash
bakwass
bal
bala
balaam
balaban
balaclava
balad
balaguer
balaji
balak
balakirev
balakrishnan
balam
balan
balance
balanced
balances
balanchine
balancing
balarama
balard
balasingham
balatkar
balaton
balazick
balazs
balboa
balch
balconies
balcony
bald
balder
balding
baldness
baldock
baldrick
baldry
baldur
baldwin
baldy
bale
balearic
baleen
bales
balfe
balfour
balhae
balham
bali
balika
balikpapan
balin
balinese
balint
balkan
balkans
balkaranchahal
balked
balkenende
balkh
ball
balla
ballad
ballade
ballads
ballance
ballantine
ballantyne
ballarat
ballard
ballast
balle
ballebazi
ballee
balleeee
ballerina
ballesteros
ballet
ballets
ballgame
balliawalebaba
ballina
ballinger
balliol
ballistic
ballistics
ballo
ballon
balloon
ballooned
ballooning
balloonman
balloons
ballot
balloting
ballots
ballou
ballpark
ballparks
ballroom
ballrooms
balls
ballston
bally
ballymena
balm
balma
balmain
balmer
balmoral
balo
baloch
balochi
balochistan
balochistsn
baloncesto
balooch
balsa
balsam
baltar
baltasar
baltazar
balthasar
balthazar
balti
baltic
baltica
baltics
baltimore
baltistan
balto
balu
baluch
baluchistan
balustrade
balustrades
balzac
bam
bama
bamako
bamba
bambaataa
bambang
bambara
bamber
bamberg
bamberger
bambi
bambino
bamboo
bamboos
bamford
bampton
bamyan
ban
bana
banaayeagar
banach
banain
banaiye
banake
banal
banana
bananarama
bananas
banane
bananewale
banani
banao
banao-rubbish
banaogy
banaorubbish
banaras
banarasi
banarsidass
banat
banata
banate
banaunga
banay
banaya
banaye
banayega
banayenge
banaynge
banbridge
banbury
banc
banca
banco
bancorp
bancroft
banczak
band
band.
band.the
banda
bandage
bandaged
bandages
bandai
bandar
bandara
bandaranaike
bandd
bande
banded
bandera
banderas
bandey
bandgap
bandh
bandi
bandicoot
banding
bandini
bandis
bandit
banditry
bandits
bandiyo
bandleader
bandmaster
bandmate
bandmates
bando
bandon
bandra
bandrights
bands
bandstand
bandthe
bandung
bandura
bandwagon
bandwidth
bandy
bane
banega
banege
banene
banerjee
banff
banfield
bang
banga
bangalore
banging
bangkok
bangla
bangladesh
bangladeshi
bangladeshis
bangladeshiyo
banglapedia
bangles
bangor
bangs
bangui
banham
bani
banik
banish
banished
banishes
banishing
banishment
banister
baniya
banja
banjar
banjara
banjo
banjul
bank
banka
banke
banked
banker
bankers
bankhead
banking
banknote
banknotes
bankrights
bankroll
bankrupt
bankruptcies
bankruptcy
bankrupted
banks
banksia
bankstown
banksy
bankura
bann
banna
bannatyne
banne
banned
banned#
banner
bannerman
banners
banning
bannister
bannock
bannockburn
bannon
bannu
bano
banoga
banoge
banos
banovina
banque
banquet
banqueting
banquets
bans
bansal
banshee
banshees
bansi
banska
bant
banta
bantam
bantamweight
bantch
bante
banteay
banten
banter
banti
banting
banto'nnafrat
banton
bantonnafrat
bantry
bantu
banu
banvpak
bany
banyan
banzai
bao
baoding
bap
bappi
baptised
baptism
baptismal
baptisms
baptist
baptista
baptiste
baptistery
baptists
baptize
baptized
bapu
baqi
baqubah
bar
bar-one
bar-one\
bara
barabar
barabari
barack
baraita
barajas
barak
baraka
barakat
baramad
baramad*azad
baramad+azad
baramadazad
baran
barangay
barangays
baranja
baranya
barasat
barat
baray
barb
barba
barbaadi
barbad
barbadian
barbados
barbara
barbarian
barbarians
barbaric
barbarism
barbaro
barbarossa
barbarous
barbary
barbe
barbeau
barbecue
barbecues
barbed
barbels
barber
barbera
barberini
barbers
barbershop
barbershops
barbet
barbette
barbettes
barbican
barbie
barbier
barbieri
barbirolli
barbiturates
barbizon
barbosa
barbossa
barbour
barbra
barbs
barbu
barbuda
barbus
barca
barcelo
barcelona
barcelos
barclay
barclays
barcode
barcodes
barcoding
barcolor
bard
barda
bardasht
barden
bardhaman
bardi
bardic
bardo
bardon
bardot
bards
bardstown
bardwell
bare
bare-chested
bareback
barechested
barefoot
bareilly
barely
barenaked
barenboim
barents
barese
barf
barfani
barfield
barford
bargain
bargained
bargaining
bargains
barge
barger
barges
barh
barham
barhta
bari
barincrement
baring
barisal
barisan
barish
baritone
barium
bark
barkaraar
barker
barkha
barking
barkley
barks
barksdale
barlaam
barletta
barley
barling
barlow
barmaid
barman
barn
barna
barnabas
barnaby
barnacle
barnacles
barnard
barnegat
barnes
barnet
barnett
barneveld
barney
barnhart
barnim
barno
barns
barnsley
barnstable
barnstaple
barnstar
barnstars
barnstormers
barnstorming
barnum
barnwell
baro
baroda
barometer
barometers
barometric
baron
barone
baroness
baronet
baronetage
baronetcies
baronetcy
baronets
baroni
baronial
baronies
barons
barony
barood
baroque
barossa
barqarar
barque
barr
barra
barrack
barracks
barracuda
barracudas
barragan
barrage
barrages
barranquilla
barras
barrass
barratt
barre
barred
barrel
barreled
barrelled
barrels
barren
barrens
barrera
barret
barreto
barrett
barrh
barrhead
barri
barricade
barricaded
barricades
barrichello
barrick
barrie
barrientos
barrier
barriers
barring
barringer
barrington
barrio
barrios
barris
barrister
barristers
barron
barros
barroso
barrow
barrowman
barrows
barry
barrymore
bars
barsaat
barset
barsha
barsi
barso
barson
barstow
bart
bartan
bartel
bartels
bartender
bartenders
barter
bartercard
barth
barthel
barthelemy
barthes
bartholomew
bartle
bartleby
bartlesville
bartlet
bartlett
bartley
bartok
bartoli
bartolo
bartolome
bartolomeo
barton
bartoszyce
bartow
bartrail
bartram
bartsch
bartz
baru
barua
baruch
barwick
barwon
baryshnikov
barzani
bas
basa
basal
basalt
basaltic
basalts
basanti
basara
basaya
basayev
bascom
bascule
base
base.the
baseball
baseband
based
basel
baseless
baseline
baseman
basemen
basement
basements
basepagename
baserunners
bases
basescu
basethe
basf
bash
basha
basham
bashar
bashers
bashing
bashir
bashirbukhari
bashkir
bashkortostan
basho
basic
basically
basics
basidia
basie
basil
basilan
basildon
basile
basilica
basilicas
basilicata
basilio
basilisk
basin
basing
basinger
basingstoke
basins
basis
basis.the
basisthe
baskerville
basket
basketball
basketry
baskets
baskin
basking
basky
basle
basmati
basque
basques
basquiat
basra
bass
bassa
bassano
bassar
basse
basses
basset
bassett
bassey
bassi
bassist
bassists
bassline
basslines
basso
bassoon
bassoons
bast
basta
bastard
bastards
basten
basti
bastia
bastian
bastien
bastille
bastion
bastions
bastogne
bastos
bastrop
basu
bat
bata
bataa
bataan
bataaye
bataen
bataille
bataiye
batak
batana
batang
batangas
batani
batao
bataon
batata
batau
bataun
bataungi
batavia
batavian
batawi
bataya
bataye
batayega
batayein
batayeji
batayeke
batcave
batch
batchelor
batches
batchfigure
bate
batein
bateleurs
bateman
baten
bates
bateson
batesville
batey
batgirl
bath
bathe
bathed
bathein
bathers
bathgate
bathhouse
bathhouses
bathing
bathory
bathroom
bathrooms
baths
bathsheba
bathtub
bathurst
batie
batik
batista
batley
batman
bato
baton
batons
bator
batory
batra
bats
batsford
batsman
batsmen
batson
batt
batta
battaglia
battalion
battalions
battambang
batted
battelle
batten
battenberg
batter
battered
batteries
battering
batters
battersby
battersea
battery
batticaloa
batting
battista
battisti
battle
battlecruiser
battlecruisers
battled
battlefield
battlefields
battleford
battlefront
battleground
battlements
battles
battleship
battleships
battlestar
battlethe
battling
battuta
batty
batu
batumi
batwoman
bau
bauchi
baud
baudelaire
baudelaires
bauder
baudin
baudouin
baudrillard
bauer
baugh
bauhaus
bauhinia
baum
bauman
baumann
baume
baumgarten
baumgartner
baunaa
baur
bausch
bautista
bautzen
bauxite
bava
bavaria
bavarian
bavarians
bawal
bawdy
bawra
bax
baxter
bay
baya
bayamon
bayan
bayard
bayer
bayerische
bayern
bayernliga
bayes
bayesian
bayeux
bayezid
bayfield
baygon
bayh
bayi
bayless
bayley
baylis
bayliss
baylor
bayly
bayne
baynes
bayonet
bayonets
bayonne
bayou
bayreuth
bays
bayshore
bayside
bayswater
bayt
baytown
bayview
baywatch
baz
bazaar
bazaars
bazan
bazar
bazari
bazi
bazin
bazooka
bb
bb#
bb8
bba
bbb
bbb##
bbc
bbc#
bbc.co.uk
bbccouk
bbcrights
bbfc
bbffbb
bbl
bbq
bbs
bbva
bbwaa
bc
bc#
bc.the
bca
bcaa
bcal
bcc
bcci
bcd
bce
bce.
bcf
bcg
bcha
bci
bcm
bcoz
bcp
bcr
bcs
bct
bcthe
bcz
bd
bd#
bd####
bda
bday
bdbo
bdday
bde
bdfb
bdho
bdhya
bdi
bdiy
bdiya
bdo
bdp
bdr
bds
bdsm
bdutt
bdw
be
be#
be-dard
bea
beach
beachcrofts
beached
beaches
beachfront
beachhead
beachy
beacon
beacons
beaconsfield
beacuse
bead
beaded
beadle
beads
beagle
beak
beaked
beaker
beaks
beal
beale
beall
beals
beam
beamed
beamer
beaming
beamish
beams
bean
beane
beaneaters
beanie
beano
beans
beanstalk
bear
bearcat
bearcats
beard
bearded
bearden
beardies
beardmore
beards
beardsley
beared
bearer
bearers
bearian
bearing
bearings
bearkadette
bearn
bears
beas
beasley
beast
beastie
beasts
beat
beata
beate
beaten
beater
beatification
beatified
beating
beatings
beatle
beatles
beato
beaton
beatrice
beatrix
beatriz
beats
beattie
beatty
beaty
beatz
beau
beauce
beauchamp
beauclerk
beaudoin
beaufort
beauharnais
beaujolais
beaulieu
beaumaris
beaumont
beaune
beaupre
beauregard
beausejour
beauties
beautification
beautiful
beautifully
beautify
beauty
beauvais
beauvoir
beaux
beaver
beaverbrook
beavers
beaverton
beavis
beazley
beback
bebe
bebo
bebop
bec
became
because
because...
becca
becerra
bech
bechaari
bechara
bechare
bechari
bechen
bechene
becher
bechet
bechhare
bechnewale
bechta
bechtel
bechtolsheim
bechuanaland
beck
beckenbauer
beckenham
becker
becket
beckett
beckford
beckham
beckinsale
beckley
beckman
beckmann
beckwith
becky
become
becomes
becoming
becouse
becoz
becuase
becuse
bed
beda
bedard
bedchamber
bedded
bedding
bede
bedell
bedeviling
bedford
bedfordshire
bedi
bedingfield
bedlam
bedminster
bedok
bedouin
bedouins
bedridden
bedrock
bedroom
bedrooms
beds
bedser
bedsheet
bedside
bedtime
bedworth
bee
beebe
beeblebrox
beech
beechak
beecham
beechcraft
beecher
beeching
beechwood
beecroft
beedbae
beedi
beeee
beef
beefcake
beefheart
beehive
beehives
beej
beek
beekeepers
beekeeping
beekman
been
beep
beer
beerbohm
beermen
beers
beerschot
beersheba
beery
bees
bees'
beesley
beeson
beeston
beeswax
beet
beeta
beete
beetein
beethoven
beetle
beetles
beets
beetstra
beevor
bef
befall
befell
befitting
before
beforehand
befriend
befriended
befriending
befriends
befuddled
beg
bega
began
begana
begat
begg
beggar
beggars
begged
begging
beghairat
begiinning
begin
beginalign
beginarray
beginbmatrix
begincases
beginmatrix
beginner
beginners
beginning
beginnings
beginpmatrix
begins
begley
begotten
begs
begum
begun
beh
behaad
behad
behalf
behan
behanchod
behanhunteri
behar
behari
behass
behave
behaved
behaves
behaving
behavior
behavioral
behaviorism
behaviors
behaviour
behavioural
behaviours
behead
beheaded
beheading
behekta
behemoth
behen
behest
behind
behn
behno
behold
behr
behrens
behring
behtar
behte
bei
beiderbecke
beige
beijing
beijing####.cn
beijingcn
beijjati
beimano
being
beingadinair
beingakashss
beingchirag
beinghitasha
beingkushsharma
beingridham
beings
beingsalmaniac
beingsalmankhan
beingskchetan
beingsksoul
beinn
beira
beirut
beis
beit
beitar
beith
beitrage
beiyang
beizzati
beizzatia
beja
bejaati
bek
bekaar
bekaraar
bekarar
bekele
bekraar
bel
bela
belafonte
belair
beland
belanger
belarus
belarusian
belarusians
belasco
belated
belatedly
belatinchatow
belcher
belconnen
belden
belding
beleaguered
beleive
belem
belen
belenenses
beleriand
belew
belfast
belford
belfort
belfry
belgaum
belge
belgian
belgians
belgica
belgique
belgium
belgorod
belgrade
belgrano
belgrave
belgravia
belhaven
beli
belial
belichick
belief
beliefs
belies
believable
believe
believed
believer
believers
believes
believing
belinda
belisarius
belittle
belittling
belive
beliya
belize
belizean
belk
belkin
belknap
bell
bella
bellagio
bellaire
bellamy
bellanca
bellarmine
bellary
bellas
bellator
bellcote
belle
belleau
bellefontaine
bellefonte
bellegarde
bellerive
bellerophon
belles
belleville
bellevue
bellew
belleza
bellflower
belli
bellied
bellies
belligerent
belligerents
bellinger
bellingham
bellingshausen
bellini
bellinzona
bellman
bello
belloc
bellona
bellow
bellows
bells
bellshill
bellsouth
belltower
bellum
belluno
belly
belmar
belmont
belmonte
belmore
belo
beloit
belong
belonged
belonging
belongings
belongs
belorussian
beloved
below
below.
below.the
belowthe
belper
belsen
belt
belted
belton
beltrami
beltran
belts
beltway
beluga
belur
belushi
belvedere
belvidere
belvoir
belz
belzer
bem
bemar
bemari
bemba
bemidji
bemis
bemused
ben
benalla
benares
benatar
benaud
benavides
benazir
benbow
bench
benched
bencher
bencherlite
benches
benchley
benchmark
benchmarking
benchmarks
benchod
bend
benda
bender
bendigo
bending
bendis
bendix
bends
bene
beneath
benedetti
benedetto
benedict
benedictine
benedictines
benediction
benedictus
benedikt
benefactor
benefactors
benefice
beneficent
benefices
beneficial
beneficiaries
beneficiary
benefit
benefited
benefiting
benefits
benefitted
benefitting
benelli
benelux
benes
benet
benetton
benevento
benevolence
benevolent
benfica
benford
beng
bengal
bengali
bengalibengali
bengalibengalibengali
bengalibengalibengalibengali
bengalibengalibengalibengalibengali
bengalibengalibengalibengalibengalibengali
bengalibengalibengalibengalibengalibengalibengali
bengalis
bengals
bengalure
bengaluru
benghazi
bengt
bengtsson
benguela
benham
benhenchod
beni
benicia
benidorm
benifit
benign
benigno
benin
benitez
benito
benjamin
benjamins
benji
benn
benner
bennet
bennett
bennetts
bennie
benning
bennington
benno
benny
benoist
benoit
benson
bensonhurst
bent
bentham
bentheim
benthic
bentinck
bentley
bento
benton
bentonville
benue
benvenuto
benz
benzband
benzene
benzoate
benzodiazepine
benzodiazepines
benzyl
beograd
beourtrendteampartner
beowulf
bequeathed
bequest
bequests
ber
bera
berar
berard
berardinelli
berat
berate
berated
berates
berating
berbaad
berber
berbers
berbice
berchtesgaden
bercy
berdych
bere
berea
bereaved
bereavement
bereft
bereich
beren
berengar
berenger
berenguer
berenice
berenson
beresford
beret
berets
beretta
berezovsky
berg
bergamo
berge
bergedorf
bergen
berger
bergerac
bergeron
bergh
berghahn
bergin
bergisch
berglund
bergman
bergmann
bergson
bergstrom
berhad
beria
bering
berio
berisha
berk
berke
berkeley
berkhamsted
berklee
berkley
berkman
berkowitz
berks
berkshire
berkshires
berle
berlet
berlin
berliner
berlioz
berlitz
berlusconi
berm
berman
bermingham
bermondsey
bermuda
bermudez
bermudian
bern
bernabe
bernabeu
bernadette
bernadotte
bernal
bernanke
bernard
bernardi
bernardin
bernardino
bernardo
bernays
bernburg
bernd
berndt
berne
berner
berners
bernese
bernhard
bernhardt
bernice
bernicia
bernie
bernier
bernina
bernini
bernoulli
berns
bernstein
bernt
berra
berri
berrien
berries
berrigan
berrios
berry
berryman
berserk
bert
berta
bertelsmann
berth
bertha
berthe
berthed
berthier
berthing
berthold
berths
berti
bertie
bertil
bertin
berto
bertolt
bertolucci
berton
bertone
bertone@enron_development
bertoneenrondevelopment
bertram
bertrand
bertuzzi
beruki
berwick
berwickshire
berwyn
beryl
beryllium
besak
besancon
besant
besar
beschta
beseech
beset
beshaq
besharmi
beshear
beside
besides
besiege
besieged
besiegers
besieging
besiktas
beslan
bespoke
bess
bessarabia
bessarabian
bessel
bessemer
besser
bessie
besson
best
bested
bester
bestiality
besting
bestow
bestowed
bestowing
bestows
bests
bestseller
bestsellers
bestselling
beswick
bet
beta
betaal
betacommand
betamax
betances
betancourt
betar
bete
betel
betelgeuse
beth
betha
bethany
bethe
bethel
bethell
bethesda
bethlehem
bethlen
bethmann
bethnal
betho
bethpage
bethune
beti
betikia
betis
betiyan
betjeman
beto
betray
betrayal
betrayed
betraying
betrays
betriebszahlung
betrothal
betrothed
bets
betsey
betsy
betta
bettas
bette
bettencourt
bettendorf
better
bettered
bettering
betterment
betti
bettie
bettina
betting
bettis
bettr
betts
betty
betula
between
betwen
bety
betz
beulah
beutel
beuys
bev
bevajah
bevan
bevel
beverage
beverages
beveridge
beverley
beverly
bevin
bevis
bevkoof
bevkoofi
bevolkerungsentwicklung
bevolkingskernen
bewafa
bewafaa
bewafab
bewafai
bewah
bewaja
bewakoof
bewaqufi
beware
bewdley
bewfa
bewick
bewildered
bewildering
bewitched
bexar
bexhill
bexley
bextor
bey
beyer
beyonce
beyond
bezalel
bezark
beziers
bezirk
bezirksliga
bezirksoberliga
bezti
beztified
bezzti
bf
bf#
bfa
bfc
bfi
bg
bg#
bgc
bgcolor
bgcolor=
bgcolor=#ccffcc
bgcolor=#cfc
bgcolor=#dddddd
bgcolor=#fcc
bgcolor=#ffcccc
bgcolorccffcc
bgcolorcfc
bgcolordddddd
bgcolorfcc
bgcolorffcccc
bghair
bgle
bgm
bgp
bgs
bgwhite
bh
bhaad
bhaag
bhaage
bhaagne
bhaang
bhaangkulfi
bhaar
bhaarat
bhaav
bhabha
bhabhi
bhabi
bhad
bhadake
bhadiyq
bhadka
bhadki
bhadooooo
bhadra
bhadwa
bhae
bhaeee
bhag
bhaga
bhagalpur
bhagao
bhagaode
bhagat
bhagavad
bhagavan
bhagavata
bhagega
bhagirathi
bhagna
bhago
bhagwaan
bhagwad
bhagwan
bhagwant
bhagwat
bhagya
bhai
bhaii
bhaiiii
bhaiiiii
bhaij
bhaijaan
bhaiji
bhains
bhais
bhaisaab
bhaiya
bhaiyas
bhaiyo
bhaiyon
bhaiyoooo
bhaiyya
bhaiyyajispeaks
bhajan
bhajpa
bhak
bhakht
bhaksala
bhakt
bhakta
bhakti
bhaktivedanta
bhakton
bhakts
bhal
bhala
bhalai
bhale
bhalla
bhamo
bhandari
bhandarkar
bhangi
bhangra
bhanu
bhar
bhara
bharae
bharat
bharata
bharatanatyam
bharath
bharathi
bharati
bharatiya
bharatmata
bharatmatakijai
bharatmatakijay
bharatpur
bharay
bhardwaj
bhare
bhargava
bhari
bharkha
bharna
bharne
bharni
bharosa
bharose
bhart
bharta
bharti
bhartiya
bharu
bharuch
bhasa
bhasad
bhasan
bhasha
bhashan
bhasi
bhaskar
bhaskara
bhat
bhateketan
bhatia
bhatije
bhatiji
bhatiyani
bhatnagar
bhatt
bhatta
bhattacharya
bhatti
bhau
bhaui
bhav
bhavan
bhavanakumari
bhavani
bhavar
bhavesh
bhaveshastik
bhavey
bhavi
bhavna
bhavnagar
bhawan
bhawar
bhaya
bhayya
bhd
bhe
bhedi
bhediye
bhee
bheed
bheege
bheegi
bheek
bheesad
bhej
bheja
bhejain
bhejain03002744219
bheje
bheji
bhejna
bhejne
bhejo
bhejte
bhejti
bhen
bhencho
bhenchod
bhens
bheta
bhi
bhid
bhiga
bhijwa
bhikahriyo
bhikaminey
bhikhari
bhikiee
bhikkhu
bhilkul
bhim
bhima
bhinit
bhishma
bhja
bhlana
bhlayi
bhmb
bhogle
bhogleharsha
bhoja
bhojan
bhojpuri
bhokaltweet
bhokte
bhola
bhonkna
bhonky
bhook
bhookamp
bhool
bhoola
bhoole
bhootni
bhopal
bhoraskar
bhosadike
bhosdike
bhosdini
bhosdiwala
bhosle
bhosrri
bhot
bhp
bhr
bhramin
bhrashtachaar
bhrashtachariyo
bhratra
bhs
bht
bhu
bhubaneswar
bhudhe
bhuj
bhuke
bhukh
bhukhe
bhukkad
bhul
bhula
bhulna
bhulne
bhumibol
bhupathi
bhushan
bhushanji
bhut
bhutan
bhutanese
bhutto
bhuumi
bhuvi
bhyi
bi
bia
biafra
biagio
biak
bialatina
bialatinogard
bialatinystok
bialik
bialystok
bian
bianca
bianchi
bianco
biannual
biannually
biao
biarritz
bias
biased
biases
biathlete
biathlon
bibb
bibby
bibi
bible
bibles
biblia
biblical
bibliographer
bibliographic
bibliographical
bibliographies
bibliography
bibliophile
biblioteca
bibliotheca
bibliothek
bibliotheque
bicameral
bicarbonate
bicchar
bice
bicentenary
bicentennial
biceps
bicester
bich
bicharay
bichari
bichuuuu
bickel
bickering
bickerton
bickford
bickley
bicknell
bicol
bicolor
bicuspid
bicycle
bicycles
bicycling
bicyclists
bid
bidah
bidar
bidat
bidder
bidders
bidding
biddle
biddu
biddulph
bideford
biden
bidgee
bidi
bidirectional
bidnurmath
bids
bidwell
bie
bieber
biel
bielefeld
biella
bielsk
bielsko
bien
biennale
bienne
biennial
biennially
bienvenue
bienville
bier
bierce
biff
biffle
biffy
bifida
bifurcated
bifurcation
big
bigad
bigadh
bigamy
bigar
bigby
bigdi
bigelow
bigfoot
bigg
biggar
biggboss
bigger
biggest
biggie
biggin
biggrenade
biggs
bighorn
bight
bigot
bigoted
bigotry
bigra
bih
bihac
bihar
bihari
biharis
bihor
bij
bijapur
bije
bijection
bijective
bijelo
bijli
bijou
biju
bijuriya
bik
bikaner
bike
biker
bikers
bikes
bikhrephool
biki
biking
bikini
bikinis
biko
bikram
bikta
bikull
bil
bila
bilal
bilalahmadwazir
bilaspur
bilateral
bilaterally
bilatingoraj
bilayer
bilbao
bilbo
bilboa
bilbray
bild
bilderberg
bile
bilge
biliary
bilinear
bilingual
bilingualism
bilirubin
bilked
bilkuk
bilkul
bill
billa
billabong
billancourt
billboard
billboard.com
billboardcom
billboards
bille
billed
billerica
billericay
billet
billeted
billets
billiard
billiards
billie
billing
billingham
billings
billingsley
billington
billion
billionaire
billionaires
billions
billiton
bills
billups
billy
bilmes
biloxi
bilson
bilston
bilten
biltmore
bim
bimal
bimbo
bimonthly
bin
bina
binalshibh
binaries
binary
bind
binder
binders
binding
bindings
bindiya
binds
bindu
binet
bing
binge
bingen
bingham
binghamton
bingley
bingo
binh
binksternet
binney
binnie
binns
binny
binocular
binoculars
binomial
bins
bint
bintang
binyamin
bio
bioavailability
biochem
biochemical
biochemist
biochemistry
biodefense
biodegradable
biodiesel
biodiversity
bioethics
biofeedback
biofilm
biofuel
biofuels
biogas
biogenesis
biogeography
biograph
biographer
biographers
biographical
biographie
biographies
biography
biographya
biographyaccording
biographyafter
biographyborn
biographyhe
biographyhis
biographyin
biographyjohn
biographyshe
biographythe
biohazard
bioinformatics
biol
biolab
biologic
biological
biologically
biologist
biologists
biology
biomarker
biomarkers
biomass
biome
biomechanics
biomedical
biomes
biometric
biometrics
biomolecules
bion
bionic
bionicle
bionicsix
biophys
biophysical
biophysics
biopic
biopsies
biopsy
bios
bioscience
biosciences
bioshock
biosphere
biosynthesis
biosynthetic
biota
biotech
biotechnology
biotic
biotin
biotite
bioware
bioweaponeer
bipartisan
bipartite
bipasha
bipedal
biplane
biplanes
bipod
bipolar
bir
bira
birbhum
birch
bird
birdie
birdies
birding
birdland
birdlife
birdman
birds
birdsong
birdwatching
birdy
birger
birgit
birgitta
birgitte
biriyaani
birjand
birkbeck
birkenau
birkenfeld
birkenhead
birkett
birkin
birks
birla
birley
birmingham
birnbaum
birney
biro
birodhi
biron
birr
birt
birth
birthdate
birthday
birthdays
birthing
birthplace
birthright
births
birthsdeath
biruitorul
biruni
biryani
bis
bisbee
biscay
biscayne
bischoff
biscoe
bisconti
biscuit
biscuits
bisected
bisecting
bisects
bisexual
bisexuality
bishan
bishesh
bishkek
bishnupur
bishonen
bishop
bishopric
bishoprics
bishoprights
bishops
bishopsgate
bislas
bisleri
bisley
bismarck
bismillah
bismuth
bison
bisons
bisphosphate
bissau
bissell
bisset
bissett
bisson
bistrica
bistrita
bistro
biswas
bit
bitaaye
bitaenge
bitayee
bitburg
bitch
bitches
bite
bites
bithana
bithate
bithynia
biting
bitmap
bitola
bitrate
bits
bitten
bitter
bitterly
bittern
bitterness
bitterns
bitterroot
bittersweet
bittorrent
bittu
bitumen
bituminous
bitwaa
bivalve
bivalves
bivi
bivins
biweekly
biwi
bix
bixby
biya
biz
bizarre
bizarrely
bizarro
bizerte
bizet
bizkit
bizzarebhide
bizzarely
bj
bjae
bjaodn
bjarne
bjelke
bjj
bjne
bjork
bjorkman
bjorn
bjp
bjpassam
bjpexposed
bjpindia
bjpjai
bjpkegunde
bjprajnathsingh
bk
bk.
bkchodi
bl
bl**dy
bla
blabber
blabbermouth
black
blackadder
blackba...@excite.com
blackbaexcitecom
blackbayou
blackbeard
blackberry
blackbird
blackboard
blackburn
blackburne
blacked
blackened
blacker
blackest
blackett
blackface
blackfeet
blackfoot
blackford
blackfriars
blackhawk
blackhawks
blackheath
blackie
blackish
blackjack
blackley
blackline
blacklined
blacklist
blacklisted
blacklisting
blackmail
blackmailed
blackmailing
blackmails
blackman
blackmore
blackmun
blackness
blackout
blackouts
blackpool
blackrock
blacks
blacksburg
blacksmith
blacksmithing
blacksmiths
blackstone
blacktown
blackwall
blackwater
blackwell
blackwood
blackworms
bladder
bladders
blade
bladed
bladen
blades
bladmineerders
blaenau
blagoevgrad
blagojevich
blah
blaikie
blain
blaine
blaine@enron_development
blaineenrondevelopment
blair
blais
blaise
blak
blake
blakeley
blakely
blakemore
blakeney
blakey
blalock
blame
blamed
blameless
blames
blamey
blaming
blanc
blanca
blanchard
blanchardb
blanche
blanchet
blanchett
blanco
bland
blandford
blanding
blandings
blane
blaney
blank
blanked
blankenburg
blankenship
blanket
blankets
blanking
blanks
blanning
blanton
blantyre
blas
blasphemous
blasphemy
blass
blast
blasted
blaster
blasters
blasting
blasts
blatant
blatantly
blatchford
blatt
blatter
blau
blavatsky
blaxland
blaxploitation
blaylock
blaze
blazeaxle
blazed
blazer
blazers
blazes
blazing
blazon
blazoned
blblackck
bldy
bleach
bleached
bleacher
bleachers
bleaching
bleak
bled
bledsoe
bleecker
bleed
bleedblue
bleeding
bleeds
blekinge
blemish
blench
blend
blended
blender
blending
blends
blenheim
blenny
bleriot
bless
blessed
blesses
blessing
blessings
bletchley
bleu
blevins
blew
blewett
bley
bli
blige
bligh
blight
blighted
blimp
blimps
blind
blinded
blindfold
blindfolded
blindfolds
blinding
blindly
blindness
blinds
bling
blink
blinked
blinking
blinky
bliss
blissful
blister
blistering
blisters
blitz
blitzkrieg
blizzard
blizzards
blm
blnguyen
blo
bloach
bloat
bloated
blob
blobs
bloc
bloc.
bloch
block
block#
blockable
blockade
blockaded
blockades
blockading
blockage
blockbuster
blockbustermsg
blockbusters
blocked
blocker
blockers
blockhouse
blockhouses
blocking
blocklist
blocks
blocky
blocs
blodgett
bloemfontein
blofeld
blog
blogged
blogger
bloggers
blogging
blogosphere
blogs
blogshares
blogspotcom
blogspotcomthis
blohm
blois
blok
bloke
blom
blomberg
blomfield
blond
blonde
blondel
blondes
blondie
blood
bloodaxe
bloodbath
blooddonation
blooded
bloodenbrain
bloodforlife
bloodhound
bloodied
bloodiest
bloodless
bloodletting
bloodline
bloodlines
bloods
bloodshed
bloodstone
bloodstream
bloodthirsty
bloodworms
bloody
bloodying
bloom
bloomberg
bloomberg.com
bloombergcom
bloomer
bloomfield
blooming
bloomingdale
bloomington
blooms
bloomsburg
bloomsbury
bloor
blore
blossom
blossomed
blossoming
blossoms
blot
blotch
blotches
blount
blouse
blouses
bloustein
blouvard
blow
blowback
blowdry
blower
blowers
blowfish
blowing
blown
blowout
blows
bloxham
blp
blp.
blps
blrrocks
bls
blt
blu
blubber
blucher
blue
bluebeard
bluebell
blueberries
blueberry
bluebird
bluebirds
blueboar
blueboy
blueboy##
bluefield
bluegill
bluegrass
bluemoonset
blueprint
blueprints
blues
bluestone
bluesy
bluetooth
bluewater
bluewings
bluff
bluffs
bluffton
bluish
blum
blumberg
blume
blumenfeld
blumenthal
blundell
blunder
blunders
blunkett
blunt
blunted
bluntly
blur
blurb
blurred
blurring
blurry
blurs
blush
bluth
blvd
blvd.
bly
blyth
blythe
blyton
bm
bma
bmar
bmc
bmc...@patriot.net
bmcpatriotnet
bmd
bme
bmg
bmg.
bmi
bmil
bmj
bmo
bmp
bms
bmt
bmw
bmw,
bmx
bn
bna
bnai
bnakar
bnana
bnate
bnaya
bnayi
bnc
bnd
bndash
bndi
bnega
bnei
bni
bnl
bnni
bnoge
bnp
bnsf
bnwa
bnwane
bnyngy
bo
boa
boac
boal
boar
board
boarded
boarder
boarders
boarding
boardings
boardman
boardroom
boards
boardthe
boardwalk
boaring
boars
boas
boast
boasted
boasting
boasts
boat
boateng
boaters
boathouse
boating
boatman
boatmen
boatner
boats
boatswain
boavista
boaz
bob
boba
boban
bobber
bobbi
bobbie
bobbing
bobbio
bobby
bobcat
bobcats
bobet
bobo
bobsledder
bobsleigh
boc
boca
bocage
bocas
boccaccio
bocelli
bochnia
bochum
bock
bockius
bod
bodden
boddy
bode
bodega
boden
bodhi
bodhidharma
bodhisattva
bodice
bodie
bodied
bodies
bodil
bodily
bodin
bodine
bodkin
bodleian
bodley
bodmer
bodmin
bodo
bodom
bodu
body
bodybuilder
bodybuilders
bodybuilding
bodyguard
bodyguards
bodyline
bodyrights
bodytalk
bodywork
bodyworker
boe
boehm
boehner
boeing
boeotia
boeotian
boer
boers
boethius
bofors
bog
bogan
bogarde
bogart
bogat
bogdan
bogdanov
bogdanovich
bogey
bogged
boggles
boggs
boggy
bogie
bogies
bogislaw
bogle
bognor
bogomilsky
bogor
bogota
bogra
bogs
bogue
bogus
bohai
bohat
bohdan
boheme
bohemia
bohemian
bohemians
bohemond
bohlen
bohm
bohme
bohn
bohol
bohot
bohr
bohra
bohs
boht
bohun
bohut
boi
boia
boigny
boil
boileau
boiled
boiler
boilermakers
boilerplate
boilers
boiling
boils
boing
bois
boise
boisterous
bojan
bojinka
bok
bokaro
bokassa
bokeh
bokhla
bokmal
boko
bol
bola
bolan
boland
bolanos
bold
bolded
bolden
bolder
boldface
boldklub
boldly
boldness
boldo
boldsymbol
bole
bolega
bolero
boles
boleslatinaw
boleslav
boleslaw
boletus
boleya
boleyn
bolger
boli
bolin
bolingbroke
bolio
bolivar
bolivarian
bolivia
bolivian
bolivians
boliwod
boliya
boliyega
boliyein
bolko
boll
bolland
bolles
bolling
bollinger
bollocks
bollywood
bolna
bolne
bolnese
bolo
bologna
bolognese
bolon
bolsa
bolshevik
bolsheviks
bolshevism
bolshoi
bolsover
bolster
bolstered
bolstering
bolt
bolta
bolte
bolted
bolti
bolton
bolts
boltzmann
bolun
bolungi
bolyai
bolzano
bom
boman
bomanirani
bomb
bomba
bombard
bombarded
bombardier
bombarding
bombardment
bombardments
bombast
bombastic
bombay
bombed
bomber
bomberman
bombers
bombing
bombings
bombo
bombs
bombshell
bon
bona
bonafide
bonaire
bonanno
bonanza
bonaparte
bonar
bonaventura
bonaventure
bonavista
bond
bondad
bondage
bondarenko
bonded
bondholders
bondi
bonding
bonds
bone
boneless
bonelli
bones
bonet
boney
bonfire
bonfires
bong
bongi
bongo
bongos
bongs
bongwarrior
bonham
bonhoeffer
boni
boniface
bonifacio
bonilla
bonin
bonita
bonito
bonjour
bonn
bonnard
bonnaroo
bonne
bonnell
bonner
bonnet
bonneville
bonney
bonnie
bonnier
bonny
bono
bonsai
bonus
bonuses
bony
bonzo
boo
boob
boobies
booby
booed
boogie
booing
book
bookchin
booked
booker
bookies
booking
bookings
bookkeeper
bookkeeping
booklet
booklets
booklist
bookmaker
bookmakers
bookmaking
bookman
bookmark
bookmarks
bookrights
books
bookseller
booksellers
bookshelf
bookshop
bookshops
bookstore
bookstores
boola
boole
boolean
boom
boomed
boomer
boomerang
boomers
booming
booms
boomtown
boon
boondi
boone
boonstra
boonton
boonville
boop
boorman
boos
boosa
boosey
boosh
boost
boosted
booster
boosters
boosting
boosts
boot
booted
booth
boothbay
boothby
boothe
boothroyd
booths
booting
bootle
bootleg
bootlegged
bootlegging
bootlegs
boots
bootstrap
bootsy
booty
booz
booze
boozer
bop
bopp
bor
bora
borac
boras
borat
borax
borbon
bord
borda
borde
bordeaux
borden
bordentown
border
border.the
bordered
borderers
bordering
borderland
borderlands
borderline
borders
borderthe
bore
boreal
borealis
boreas
bored
boredom
borehole
boreholes
borek
borel
boren
borenste@haas.berkeley.edu
borenstehaasberkeleyedu
borenstein
borer
bores
borg
borge
borger
borges
borghese
borgia
borgir
borgnine
borgo
borgqueen
boricua
boring
boris
borisov
borisovich
borja
bork
borland
borman
bormann
born
borne
bornean
borneo
borngen
bornholm
borno
bornu
boro
borobudur
borodin
borodino
boron
boros
borough
boroughs
borrego
borritos
borromeo
borrow
borrowed
borrower
borrowers
borrowing
borrowings
borrows
borsod
borthwick
boru
borussia
bos
bosanquet
boscawen
bosch
bosco
boscombe
bose
bosh
boshin
bosko
bosley
bosman
bosna
bosne
bosnia
bosniak
bosniaks
bosnian
boso
bosom
boson
bosons
bosphorus
bosporus
bosque
boss
bossa
bosse
bosses
bossi
bossier
bossy
bostock
boston
bostonian
bostrom
bostwick
boswell
bosworth
bot
botafogo
botal
botanic
botanical
botanist
botanists
botany
botched
botching
botev
both
both.
botha
botham
bothell
bother
bothered
bothering
bothers
bothwell
boti
botn
botnet
botolph
bots
botswana
bott
botticelli
bottle
bottled
bottlein
bottleneck
bottlenecks
bottlenose
bottles
bottling
bottom
bottomed
bottomless
bottomley
bottoms
botulinum
botvinnik
bou
bouchard
boucher
bouches
bouchet
boudin
boudreau
bougainville
bough
bought
boughton
bouild
bouillon
boulanger
boulder
boulders
boulenger
boulevard
boulevards
boulez
boulogne
boult
boulton
bounce
bounced
bouncer
bouncers
bounces
bouncing
bouncy
bound
boundaries
boundariesthe
boundary
bounded
bounding
boundless
bounds
bounties
bountiful
bounty
bouquet
bourassa
bourbon
bourbons
bourchier
bourdais
bourdieu
bourdon
bourg
bourgeois
bourgeoisie
bourges
bourget
bourgogne
bourguiba
bourke
bourn
bourne
bournemouth
bourque
bourret
bourse
bout
boutique
boutiques
bouton
boutros
bouts
bouvet
bouvier
bouzouki
bovine
bow
bowden
bowditch
bowdoin
bowe
bowed
bowel
bowell
bowels
bowen
bower
bowerman
bowers
bowery
bowes
bowie
bowing
bowker
bowl
bowland
bowlby
bowled
bowler
bowlers
bowles
bowling
bowls
bowman
bown
bowness
bowring
bows
bowser
bowsprit
bowtie
bowyer
box
boxbox
boxboxtreasury
boxcar
boxcars
boxed
boxer
boxers
boxes
boxescategory
boxing
boxset
boxy
boy
boy-mucchi
boy-sorry
boya
boyaca
boyar
boyars
boyband
boyce
boycie
boycott
boycotted
boycotting
boycotts
boyd
boydell
boyden
boye
boyer
boyes
boyfriend
boyfriends
boyfrnd
boyhood
boyish
boykin
boylan
boyle
boyles
boylston
boymucchi
boyne
boynton
boyrights
boys
boysorry
boyz
boyzone
boz
bozeman
bozo
bozos
bp
bp.
bpa
bpd
bpi
bpl
bpm
bpo
bpp
bps
br
bra
braathens
brabant
brabar
brabazon
brabham
brac
brace
braced
bracelet
bracelets
braces
bracewell
brachial
brachiopods
bracing
brack
bracken
bracket
bracketed
brackets
brackett
brackish
brackley
bracknell
bracts
brad
bradbury
braddock
braden
bradenton
bradfield
bradford
bradley
bradman
bradshaw
bradstreet
bradt
bradwell
brady
brae
braemar
braff
braga
braganca
braganza
bragg
braggart
bragged
bragging
braham
brahe
brahma
brahman
brahmana
brahmans
brahmaputra
brahmi
brahmin
brahmins
brahmo
brahms
braid
braided
braids
braidwood
braila
braille
brain
brainard
brainchild
brainer
brainerd
brainiac
braining
brains
brainstem
brainstorm
brainstorming
braintree
brainwash
brainwashed
brainwashing
braithwaite
brak
brake
brakes
braking
bram
bramall
braman
bramble
bramen
bramhall
bramley
brampton
bramwell
bran
branagh
branca
branch
branched
branches
branching
branco
brancusi
brand
branded
brandee
brandeis
branden
brandenburg
brandes
brandi
branding
brandishing
brando
brandon
brandreth
brands
brandt
brandy
brandywine
branford
branham
braniewo
braniff
branigan
branislav
branko
brankovic
brann
brannan
brannigan
branning
brannon
branom
branson
brant
brantford
brantley
braose
braque
bras
brase
brasenose
brash
brashear
brashtachaar
brasil
brasileira
brasileiro
brasilia
brasiliensis
brasov
brass
brassey
brassica
brassy
brat
bratianu
bratislava
brats
bratt
brattle
brattleboro
bratton
bratz
braudel
brauer
braun
braunfels
braunschweig
brava
bravado
brave
braveheart
bravely
bravery
braves
bravest
bravo
brawl
brawler
brawley
brawling
brawls
brawn
braxton
bray
brayton
brazen
brazier
brazil
brazilian
brazilians
brazoria
brazos
brazosport
brazzaville
brca
brca#
brd
brdo
brea
breach
breached
breaches
breaching
bread
breads
breadth
bready
break
break=yes
breakage
breakaway
breakbeat
breakdown
breakdowns
breaker
breakers
breakfast
breakfasts
breaking
breaking_news
breakingnews
breakout
breaks
breakthrough
breakthroughs
breakup
breakups
breakwater
breakyes
bream
brearley
breast
breasted
breastfeeding
breastplate
breasts
breaststroke
breath
breathable
breathe
breathed
breathes
breathing
breaths
breathtaking
breathy
breaux
breccia
brechin
brecht
breck
breckenridge
brecker
breckinridge
brecon
bred
breda
bredders
bree
breech
breeches
breed
breeder
breeders
breeding
breedon
breeds
breeeding
breen
brees
breese
breeze
breezes
breezy
brega
bregenz
breguet
breisgau
breitbart
breivik
brel
bremen
bremer
bremerhaven
bremerton
bremmer
bremner
bren
brenda
brendan
brendel
brendon
brennan
brenneman
brenner
brent
brentano
brentford
brenton
brentwood
brera
brereton
brescia
breslau
breslin
bresse
bresson
brest
bret
bretagne
brethren
breton
bretons
brett
bretton
breuer
brevard
breve
brevet
brevetted
breviary
brevis
brevity
brew
brewed
brewer
breweries
brewers
brewery
brewing
brews
brewster
breyer
breyers
brezhnev
brfa
brgy
brh
briain
brian
brianboulton
briand
brianna
brianp@aiglincoln.com
brianpaiglincolncom
brianza
briar
bribe
bribed
bribery
bribes
bribing
brice
brick
bricked
brickell
bricklayer
brickman
bricks
brickwork
brickworks
brickyard
bridal
bride
bridegroom
brides
bridesmaid
bridewell
bridge
bridged
bridgehead
bridgeheads
bridgeline
bridgeman
bridgend
bridgeport
bridger
bridges
bridgestone
bridget
bridgeton
bridgetown
bridgewater
bridging
bridgman
bridgnorth
bridgwater
bridies
bridle
bridlington
bridport
brie
brief
briefcase
briefe
briefed
briefing
briefings
briefly
briefs
brien
brienne
brier
briere
brierley
briers
brig
brigade
brigades
brigadier
brigands
brigantine
brigg
briggs
brigham
brighouse
bright
brighten
brighter
brightest
brightly
brightman
brightness
brighton
brigid
brigitte
brigs
brill
brillant
brilliance
brilliant
brilliantly
brilll
brim
brimmed
brimming
brimstone
brin
brindisi
brindley
brine
bring
bringer
bringing
brings
brink
brinker
brinkley
brinkman
brinkmanship
brinsley
brinton
brion
brisbane
brisco
briscoe
brisk
bristle
bristles
bristly
bristol
bristow
brit
britain
britain.
britain.the
britainrights
britainthe
britani
britannia
britanniae
britannic
britannica
brite
brith
british
britney
brito
briton
britons
britpop
brits
britt
britta
brittain
brittany
britten
brittle
britton
brive
brixton
brk
brkup
brlnt
brm
brno
bro
broached
broad
broadband
broadbent
broadcast
broadcasted
broadcaster
broadcasters
broadcasting
broadcasts
broadcom
broaden
broadened
broadening
broadens
broader
broadest
broadhurst
broadleaf
broadly
broadmoor
broads
broadsheet
broadside
broadsides
broadview
broadwater
broadway
broca
brocade
broccoli
brochure
brochures
brock
brocken
brockett
brockhaus
brockley
brockman
brockport
brockton
brockville
brockway
brod
broder
broderick
brodeur
brodhead
brodie
brodmann
brodnica
brodsky
brody
broeck
brogan
broglie
brokaw
broke
brokeback
broken
broker
brokerage
brokered
brokering
brokers
brolin
brom
bromberg
brome
bromeliad
bromfield
bromide
bromine
bromley
brompton
bromsgrove
bromwich
bron
bronchial
bronchitis
bronco
broncos
bronfman
bronislatinaw
bronner
bronson
bronstein
bronte
bronwyn
bronx
bronze
bronzes
brooch
brooches
brood
brooding
broodmare
broods
brook
brooke
brooker
brookes
brookfield
brookhaven
brookings
brooklands
brookline
brookly
brooklyn
brooks
brookside
brookville
brookwood
broom
broome
broomfield
brooms
brophy
bros
bros,
bros.
brosnan
broth
brothel
brothels
brother
brotherhood
brotherhoods
brotherly
brotherrights
brothers
brotherton
brough
brougham
brought
broughton
broun
broussard
brouwer
brow
broward
browder
browed
brower
brown
brownback
brownbrumby
browncover
browne
browned
brownell
brownfield
brownian
brownie
brownies
browning
brownish
brownlee
brownlow
browns
brownstone
brownsville
brownwood
browse
browsed
browser
browsers
browsing
broxbourne
broyles
broz
brp
brst
brt
bru
brubaker
brubeck
bruce
bruch
bruck
brucke
bruckheimer
bruckner
bruder
bruegel
bruford
bruges
brugge
bruha
bruhl
bruijn
bruin
bruins
bruise
bruised
bruiser
bruises
bruising
brule
brumation
brumbies
brumbley
brumby
brun
brunch
brundage
brundle
brundtland
brune
brunei
brunel
brunelleschi
bruner
brunet
brunette
bruni
bruning
brunn
brunner
brunnhilde
bruno
bruns
brunson
brunswick
brunt
brunton
brus
brush
brushed
brushes
brushing
brushstrokes
brushy
brussel
brussels
brut
brutal
brutality
brutally
brute
brutish
bruton
brutus
bruun
bruxelles
bryan
bryansk
bryant
bryce
bryden
brydges
brydon
bryer
bryn
bryne
bryngelson
bryngelson@azurix
bryngelsonazurix
brynner
bryson
brythonic
brzeg
brzezinski
brzeziny
bs
bsa
bsb
bsc
bsd
bse
bsf
bsg
bsi
bskyb
bsl
bsn
bsnl
bso
bsp
bss
bst
bsu
bt
bt##
bta
btaa
btaaa
btae
btaen
btak
btana
btao
btaoo
btau
btaungi
btaya
btaye
btayega
btc
btcc
btec
btech
bton
btp
btr
bts
btselem
btw
btwn
bu
bua
bubba
bubba##
bubble
bubblegum
bubbles
bubbling
bubbly
buber
buble
bubloogs
bubonic
buc
buccal
buccaneer
buccaneers
buccinidae
buccleuch
bucer
buch
buchan
buchanan
bucharest
buchenwald
bucher
buchholz
buchman
buchner
buchwald
buck
bucket
buckethead
buckets
buckeye
buckeyes
buckhead
bucking
buckingham
buckinghamshire
buckland
buckle
buckled
buckler
buckles
buckley
buckling
buckman
buckminster
bucknell
buckner
bucks
buckwheat
bucky
bucolic
bucs
bucuresti
bud
buda
budapest
budaphe
budd
buddakan
budday
budden
buddha
buddhas
buddhe
buddhism
buddhist
buddhists
buddhu
buddies
budding
buddleja
buddt
buddy
bude
budejovice
budge
budget
budgetary
budgetbt
budgeted
budgeting
budgets
budgie
budgies
budhdha
budhumani
budo
budokan
buds
buducnost
budva
budweiser
buell
bueller
buen
buena
buenaventura
buenavista
bueno
buenos
buff
buffalo
buffaloes
buffer
buffered
buffering
buffers
buffet
buffett
buffon
buffs
buffy
buffyverse
bufo
bufonidae
buford
bug
bug.
buganda
bugatti
bugge
bugged
buggies
bugging
buggy
bughaz
bughz
bugis
bugle
bugless
bugs
bugsy
bugti
bugzilla
buhl
buhler
buhut
bui
buick
buie
build
builder
builders
building
building.
building.the
buildingrights
buildings
buildings.the
buildingsthe
buildingthe
builds
buildup
built
built.the
builtthe
buin
buis
bujhaye
buk
bukhara
bukharay
bukhari
bukharin
bukhey
bukidnon
bukit
bukovina
bukowski
bula
bulaaney
bulacan
bulate
bulawayo
bulaya
bulb
bulbophyllum
bulbous
bulbs
bulbul
bulbulain
bulent
bulfinch
bulgakov
bulgar
bulgaria
bulgarian
bulgarians
bulgars
bulge
bulger
bulges
bulging
bulimia
bulk
bulkeley
bulkhead
bulkheads
bulky
bull
bulla
bullard
bulldog
bulldogs
bulldozed
bulldozer
bulldozers
bulleid
bullen
buller
bullet
bulleted
bulletin
bulletins
bulletproof
bullets
bullfighting
bullfights
bullfrog
bullied
bullies
bullion
bullish
bullitt
bulloch
bullock
bullough
bullpen
bulls
bullseye
bullshit
bullwark
bullwinkle
bully
bullying
bulmer
bulow
bulwark
bulwer
bulwersator
bum
bumble
bumblebee
bumbling
bumm
bumm##
bump
bumped
bumper
bumpers
bumping
bumps
bumpy
bumrah
bumrungard
bumrungrad
bun
buna
bunbury
bunce
bunch
bunches
bund
bundaberg
bundelkhand
bundesarchiv
bundesbahn
bundesliga
bundesrat
bundestag
bundeswehr
bundle
bundled
bundles
bundling
bundren
bundy
bungalow
bungalows
bungay
bunge
bungee
bungie
bungle
bungling
bunin
bunk
bunked
bunker
bunkers
bunking
bunko
bunks
bunn
bunnell
bunnies
bunning
bunny
bunnymen
bunnyo
buns
bunsen
bunt
bunting
bunton
bunuel
bunyan
buono
buoy
buoyancy
buoyant
buoyed
buoys
buprestidae
bur
bura
buraai
buran
burana
burbage
burbank
burberry
burbridge
burch
burchard
burchill
burckhardt
burden
burdened
burdens
burdensome
burdett
burdette
burdick
burdon
burdwan
bure
bureau
bureaucracies
bureaucracy
bureaucrat
bureaucratic
bureaucratically
bureaucrats
bureaus
buren
burford
burg
burgas
burge
burgenland
burgeoning
burger
burgers
burges
burgess
burgesses
burgh
burghers
burghley
burghs
burgin
burglar
burglaries
burglars
burglary
burgon
burgos
burgoyne
burgundian
burgundians
burgundy
burhan
buri
burial
burials
buried
buries
buring
burj
burk
burke
burkert
burkett
burkhard
burkhardt
burkina
burkinabe
burks
burl
burleigh
burleson
burlesque
burley
burlingame
burlington
burly
burma
burman
burmese
burn
burnaby
burne
burned
burnell
burner
burners
burnet
burnett
burnette
burney
burnham
burnie
burning
burnings
burnley
burnout
burns
burnside
burnsville
burnt
burocracy
burr
burra
burrard
burrell
burridge
burris
burrito
burrough
burroughs
burrow
burrowed
burrowing
burrows
burrrrped
burrrrped\
bursa
bursaries
bursary
bursaspor
burslem
burson
burst
burstein
bursting
bursts
burstyn
burt
burton
buru
burundi
burwell
burwood
bury
buryat
burying
bus
bus*girl
busan
busby
buscema
buscemi
busch
buses
busey
busgirl
bush
bushehr
bushel
bushell
bushels
bushes
bushey
bushfire
bushfires
bushido
bushland
bushman
bushmaster
bushmen
bushnell
bushranger
bushrights
bushwick
bushy
busier
busiest
business
business.
business.the
businesses
businessman
businessmen
businesspeople
businessperson
businessthe
businessweek
businesswoman
busing
buskerud
busking
busko
busoni
buss
busse
busses
bussey
bussy
bust
busta
bustamante
bustard
busted
buster
busters
busting
bustle
bustling
bustos
busts
busway
busy
busybodies
but
butadiene
butane
butch
butcher
butchered
butchering
butchers
bute
butkus
butler
butlers
butlin
butlins
butt
butte
butter
buttercup
buttered
butterfflies
butterfield
butterflies
butterfly
buttering
buttermilk
butters
butterworth
buttes
butthole
butting
buttmona
buttock
buttocks
button
buttons
buttress
buttressed
buttresses
butts
butuan
butyl
buuren
buurten
buxtehude
buxton
buy
buyer
buyers
buying
buyout
buyouts
buys
buzau
buzdil
buzug
buzz
buzzard
buzzards
buzzcocks
buzzer
buzzing
buzzmachine
bv
bw
bwf
bwilkins
bwoyblunder
bwv
bx
by
byam
byargeon
byblos
bycatch
bydgoszcz
bydgoszcz.
bye
byeee
byelection
byelorussian
byers
byes
byfield
bygone
byk
bylaw
bylaws
byline
byng
bynum
bypass
bypassed
bypasses
bypassing
byproduct
byproducts
byram
byrd
byrds
byrne
byrnes
byron
bysshe
bystander
bystanders
bystrica
byte
bytecode
bytes
bytom
bytow
byu
byu.
byung
bywater
byway
byways
byzantine
byzantines
byzantium
bz
b}
c
c#
c##
c###
c####
c$
c&c
c&g
c&ic
c&o
c'est
c'm
c*
c+
c++
c.
c.##
c.###
c.####
c.####en####
c.a.
c.b.
c.c.
c.d.
c.dtf
c.e.
c.f
c.f.
c.f.e.
c.g.
c.h.
c.i.
c.i.a.
c.i.p.
c.j.
c.k.
c.l.
c.m.
c.michael
c.p.
c.r.
c.s.
c.t.
c.v
c.v.
c.w.
c^#
c_#
c_{##}
ca
ca#
ca.
ca.####
caa
caan
cab
cabal
cabalah
caballero
caballeros
cabana
cabanas
cabaret
cabarets
cabazon
cabbage
cabell
cabernet
cabeza
cabildo
cabin
cabinda
cabinet
cabinetmaker
cabinets
cabins
cable
cabled
cables
cablevision
cabling
cabo
caboose
cabot
cabral
cabrera
cabrillo
cabrini
cabriolet
cabs
cac
cacak
cacao
caceres
cache
cached
caches
cachet
caching
cacti
cactus
cad
cadastral
cadaver
cadavers
cadbury
caddo
caddy
cade
cadell
cadena
cadence
cadences
cadenza
cadet
cadets
cadfael
cadillac
cadillacs
cadiz
cadman
cadmium
cadmus
cadogan
cadre
cadres
cadwalader
cady
cae
caecilius
caem
caen
caer
caerleon
caernarfon
caerphilly
caerwine
caesar
caesarea
caesarean
caesars
caesium
caetano
caf
cafe
cafes
cafeteria
cafeterias
caffe
caffeine
cafr
cag
cagayan
cage
caged
cages
cagle
cagliari
cagney
caguas
cah
cahat
cahiers
cahill
cahir
cahiye
cahn
cahokia
cahuilla
cai
caicos
caillat
cain
caine
cair
caird
cairn
cairns
cairo
caisse
caisson
caithness
caitlin
caius
caixa
caja
cajamarca
cajon
cajun
cajunish
cajuns
cake
cakes
caknuck
cakobau
cal
cala
calabar
calabasas
calabrese
calabria
calabrian
calais
calakmul
calamities
calamity
calaria
calarts
calatrava
calaveras
calcareous
calcasieu
calcification
calcified
calcio
calcite
calcium
calculate
calculated
calculater
calculates
calculating
calculation
calculations
calculator
calculators
calculi
calculus
calcutta
caldas
caldecott
calder
caldera
calderdale
calderon
calderwood
caldwell
cale
caleb
caledon
caledonia
caledonian
calendar
calendars
calender
caley
calf
calgary
calhoun
cali
caliban
caliber
calibers
calibrate
calibrated
calibration
calibrations
calibre
calibres
calico
calicut
caliente
calif
calif.
california
california.
california.the
californian
californians
californiarights
californiathe
californica
californication
caligula
calinescu
calipers
caliph
caliphate
caliphs
caljw
calkins
call
callaghan
callahan
callan
callander
callao
callas
callaway
callback
calle
called
callender
caller
callers
calles
calley
callie
calligrapher
calligraphic
calligraphy
callimachus
calling
calliope
calliopejen
calliopejen#
calliostoma
callipers
callipers\
callisto
callmenini
callon
callosum
callous
callow
calloway
calls
callsign
callsigns
callum
callus
cally
calm
calmed
calmer
calming
calmly
calmness
calms
calne
calo
caloocan
calor
caloric
calorie
calories
caloy
caltech
calthorpe
calton
caltrain
caltrans
caltural
calum
calumet
calvados
calvary
calvert
calves
calvi
calvin
calving
calvinism
calvinist
calvinistic
calvinists
calvino
calvo
calypso
calyx
calzaghe
calzones
cam
camacho
camaguey
camanachd
camara
camaraderie
camargo
camarillo
camarines
camaro
camas
camber
camberley
camberwell
cambio
cambodia
cambodian
cambodians
camborne
cambrai
cambria
cambrian
cambridge
cambridgebayweather
cambridgeshire
cambuslang
cambyses
camcorder
camcorders
camden
came
camel
camellia
camelot
camels
cameo
cameos
camera
cameraman
cameramen
cameras
camerata
camerlengo
cameron
cameroon
cameroonian
cameroons
cameroun
camila
camilla
camille
camilleri
camillo
camillus
camilo
camino
cammell
camo
camoes
camogie
camorra
camouflage
camouflaged
camp
campagna
campaign
campaign.
campaigned
campaigner
campaigners
campaigning
campaigns
campaignthe
campana
campanella
campania
campanian
campanile
campaning
campbell
campbells
campbellsville
campbelltown
campbeltown
campeche
camped
campenni
campeonato
camper
camperdown
campers
campese
campfire
campground
campgrounds
camphor
campinas
camping
campion
campo
campobasso
campos
camps
campsite
campsites
campus
campus.the
campuses
campusite
campusite's
campusites
campusthe
campy
camrose
camry
cams
camshaft
camshafts
camus
can
can't
cana
canaan
canaanite
canaanites
canada
canada.
canada.the
canadain
canadair
canadarights
canadathe
canadensis
canadian
canadians
canadien
canadiens
canakkale
canal
canal+
canale
canales
canals
canan
canandaigua
canape's
canapes
canara
canard
canaria
canarian
canarias
canaries
canaris
canarsie
canary
canas
canavan
canaveral
canberra
canby
cancel
canceled
canceling
cancellara
cancellariidae
cancellation
cancellations
cancelled
cancelling
cancels
cancer
cancerous
cancers
cancion
cancri
cancun
cand
candace
candelaria
candi
candia
candice
candid
candida
candidacies
candidacy
candidate
candidatedear
candidates
candidating
candidature
candide
candidly
candido
candies
candle
candlelight
candler
candles
candlestick
candy
cane
canens
canes
canever
caney
canfield
canibal
canine
canines
caning
canis
canisius
canister
canisters
canley
canmore
cann
canna
cannabinoid
cannabinoids
cannabis
cannae
canned
cannell
cannery
cannes
cannibal
cannibalism
cannibalistic
cannibals
canning
cannistaro
cannock
cannon
cannonball
cannons
cannot
cannula
cano
canoe
canoeing
canoer
canoes
canola
canon
canongate
canonical
canonically
canonised
canonization
canonized
canons
canonsburg
canopies
canopus
canopy
canova
canrightt
cans
canseco
canso
cant
cantabria
cantabrian
cantal
cantata
cantatas
cantbeatindia
canted
canteen
canteens
canter
canterbury
cantering
cantilever
cantilevered
canting
canto
canton
cantona
cantonal
cantonese
cantonment
cantons
cantopop
cantor
cantorum
cantos
cantrell
cantt
cantu
cantus
cantwell
canty
canuck
canucks
canute
canvas
canvases
canvass
canvassed
canvassing
canvey
canwest
canyon
canyons
cao
caoimhe
cap
cap'n
capa
capabilities
capability
capablanca
capable
capacitance
capacities
capacitive
capacitor
capacitors
capacity
capaldi
capcom
cape
capek
capel
capelin
capell
capella
capelli
capello
capensis
caper
capers
capes
capet
capetian
capilano
capillaries
capillary
capistrano
capita
capital
capitalisation
capitalise
capitalised
capitalism
capitalist
capitalistic
capitalistroadster
capitalists
capitalization
capitalize
capitalized
capitalizing
capitals
capitan
capitol
capitoline
capitulate
capitulated
capitulation
capiz
caplan
capn
capo
capoeira
capone
capote
capp
cappadocia
cappadocian
capped
cappella
cappelletto
capper
capping
capps
capra
capri
caprica
capriccio
caprice
capricious
capricorn
capricorni
caprivi
capron
caproni
caps
capsaicin
capsid
capsize
capsized
capstone
capsule
capsules
capt
capt.
captain
captaincy
captained
captaining
captains
captcha
caption
captioned
captioning
captions
captionthispic
captivated
captivating
captive
captives
captivity
captor
captors
capture
captured
captures
capturing
capua
capuchin
caputo
car
car-
cara
carabidae
carabinae
carabinieri
carabobo
caracalla
caracas
caracciolo
caracol
carafa
caragiale
caralluma
caramel
carapace
caras
carat
carats
caravaggio
caravan
caravans
caray
carb
carbene
carberry
carbery
carbide
carbine
carbines
carbo
carbohydrate
carbohydrates
carbon
carbonaceous
carbonate
carbonated
carbonates
carbondale
carbone
carbonell
carbonic
carboniferous
carbons
carbonyl
carboxy
carboxyl
carboxylate
carboxylic
carbuncle
carburetor
carburetors
carburettor
carburettors
carcass
carcasses
carcassonne
carcetti
carcharoth
carcinogen
carcinogenic
carcinogens
carcinoma
carcinomas
card
cardamom
cardassian
cardboard
carded
carden
cardenal
cardenas
cardiac
cardiacs
cardiff
cardigan
cardiganshire
cardin
cardinal
cardinalate
cardinale
cardinality
cardinals
carding
cardio
cardiologist
cardiology
cardiomyopathy
cardiopulmonary
cardiovascular
cardona
cardoso
cardozo
cards
cardwell
care
cared
career
career-wise
career.
career.the
careera
careerafter
careeralthough
careeras
careerat
careerbefore
careerborn
careerduring
careereducated
careerfollowing
careerfrom
careerhe
careerher
careerhis
careerin
careeron
careerprior
careers
careershe
careersince
careerthe
careerupon
careerwhen
careerwhile
careerwise
carefree
careful
carefully
caregiver
caregivers
careless
carelessly
carelessness
carell
carer
carers
cares
caretaker
caretakers
carew
carex
carey
cargill
cargo
cargoes
caria
carib
caribbean
caribe
cariboo
caribou
caribs
caricature
caricatured
caricatures
caricaturist
caricom
caries
carignan
carillon
carina
carinae
caring
carinthia
carinthian
carioca
caritas
carl
carla
carle
carlebach
carles
carless
carleton
carley
carli
carlile
carlin
carling
carlingford
carlisle
carlist
carlists
carlito
carlo
carloman
carlos
carlossuarez
carlossuarez##
carlota
carlotta
carlow
carlsbad
carlsberg
carlsen
carlson
carlsson
carlton
carly
carlyle
carmack
carman
carmarthen
carmarthenshire
carmel
carmela
carmelita
carmelite
carmelites
carmella
carmelo
carmen
carmichael
carmina
carmine
carmo
carmody
carmona
carn
carnage
carnahan
carnal
carnarvon
carnatic
carnation
carnaval
carne
carnegie
carneiro
carnell
carnes
carney
carnildo
carniola
carnival
carnivale
carnivals
carnivora
carnivorans
carnivore
carnivores
carnivorous
carnot
carnoustie
caro
carol
carol.st.clair@enron.com
carola
carole
carolina
carolinacategory
carolinas
caroline
carolines
carolingian
carolinian
carolla
carols
carolstclairenroncom
carolus
carolyn
caron
carondelet
caror
carotene
carotenoids
carotid
carousel
carp
carpal
carpark
carpathia
carpathian
carpathians
carpentaria
carpenter
carpenters
carpentier
carpentry
carpet
carpeted
carpeting
carpets
carpi
carpio
carptrash
carr
carracci
carradine
carranza
carrara
carrasco
carre
carreau
carrefour
carreno
carrer
carrera
carreras
carrere
carretera
carrey
carri
carriage
carriages
carriageway
carriageways
carribbean
carribean
carrick
carrickfergus
carrie
carried
carrier
carriere
carriers
carries
carril
carriles
carrillo
carrington
carrion
carrizo
carrol
carroll
carrollton
carron
carronades
carrot
carrots
carrow
carruthers
carry
carrying
cars
carshalton
carson
carstairs
carsten
carswell
cart
carta
cartagena
cartan
carte
carted
cartel
cartels
carter
carteret
cartesian
carthage
carthaginian
carthaginians
carthusian
carthy
cartier
cartilage
cartilaginous
cartman
cartographer
cartographers
cartographic
cartography
carton
cartons
cartoon
cartooning
cartoonish
cartoonist
cartoonists
cartoons
cartouche
cartridge
cartridges
carts
cartwright
carty
caruana
carus
caruso
carvajal
carval
carvalho
carve
carved
carvel
carver
carvers
carville
carving
carvings
cary
caryl
caryn
carytown
cas
casa
casablanca
casal
casale
casals
casanova
casas
casbah
cascade
cascades
cascadia
cascading
casco
case
casebook
cased
casein
casemate
casemates
casement
caserta
cases
casey
cash
cashbox
cashed
cashel
cashes
cashew
cashier
cashing
cashion
cashless
cashman
cashmere
cashout
casillas
casimir
casing
casings
casino
casinos
casio
cask
casket
caskets
casks
casliber
caso
caspar
caspase
casper
caspian
cass
cassady
cassander
cassandra
cassano
cassation
cassatt
cassava
cassavetes
cassegrain
cassel
cassell
cassells
cassette
cassettes
cassia
cassian
cassidy
cassie
cassin
cassini
cassino
cassio
cassiopeia
cassius
casso
cassock
casson
cast
castagnola@enron_development
castagnolaenrondevelopment
castagnoli
castaneda
castano
castano@ees
castanoees
castaways
caste
castel
castell
castellan
castellaneta
castellano
castellanos
castellated
castelli
castello
castellon
castelnuovo
castelo
caster
castes
castiel
castigated
castiglione
castile
castilian
castilians
castilla
castille
castillo
casting
castings
castle
castlebar
castleford
castlemaine
castleman
castlereagh
castles
castleton
castletown
castlevania
castling
castor
castrated
castration
castres
castries
castro
castrol
castroneves
castrum
casts
castthe
casual
casually
casualties
casualtiesthe
casualty
casuarina
caswell
cat
cataclysm
cataclysmic
catacombs
catagory
catala
catalan
catalana
catalano
catalans
catalina
catalog
cataloged
cataloging
catalogo
catalogs
catalogue
catalogued
catalogues
cataloguing
catalonia
catalonian
catalunya
catalysed
catalysis
catalyst
catalysts
catalytic
catalyze
catalyzed
catalyzes
catamaran
catamarca
catan
catania
catanzaro
catapult
catapulted
catapults
cataract
cataracts
catarina
catastrophe
catastrophes
catastrophic
catatonic
catawba
catbar
catch
catcher
catchers
catches
catching
catchment
catchments
catchnews
catchphrase
catchphrases
catchy
cate
catechism
catedral
categoria
categorical
categorically
categories
categorisation
categorise
categorised
categorization
categorize
categorized
categorizes
categorizing
category
catenary
catenin
cater
catered
caterham
caterina
catering
caterpillar
caterpillars
caters
cates
catesby
catfish
catfishes
catford
cath
cathal
cathar
catharina
catharine
catharines
cathars
cathartic
cathay
cathcart
cathedra
cathedral
cathedrale
cathedrals
cather
catherine
catheter
catheters
cathleen
cathode
catholic
catholicism
catholicos
catholics
catholique
cathy
cation
cationic
cations
catkins
catlin
cato
catoctin
catolica
caton
catriona
cats
catshark
catskill
catskills
cattaraugus
cattell
catterick
cattle
cattlemen
cattolica
catton
catullus
catwalk
catwoman
cauca
caucasian
caucasians
caucasus
cauchy
caucus
caucuses
caudal
caudex
caught
cauldron
caulfield
cauliflower
causa
causal
causality
causation
causative
cause
caused
causes
causesthe
causeway
causeways
causey
causing
caussols
caustic
caution
cautionary
cautioned
cautions
cautious
cautiously
cauty
cauvery
caux
cav
cava
cavalcade
cavalier
cavaliere
cavalieri
cavaliers
cavalleria
cavalli
cavallo
cavalry
cavalrymen
cavan
cavanagh
cavanaugh
cave
caveat
caveats
caved
cavell
caveman
cavendish
cavern
cavernous
caverns
caversham
caves
cavett
caviar
cavies
caving
cavitation
cavite
cavities
cavity
cavour
cawley
cawnpore
caxias
caxton
cay
cayce
cayenne
cayetano
cayley
cayman
cayo
cays
cayuga
cb
cb#
cba
cbbc
cbc
cbd
cbd.
cbe
cbeebies
cberlet
cbf
cbgb
cbi
cbm
cbn
cbn.
cbo
cbp
cbr
cbrown
cbrown####
cbs
cbse
cbt
cbz
cc
cca
cca-15
ccc
cccccc
ccccff
ccd
ccf
ccffcc
ccg
ccgm
cch
ccha
cci
ccl
ccm
ccng
ccny
ccp
ccr
ccr#
ccs
cct
cctld
cctv
ccw
cd
cd#
cd##
cd###
cd#+
cd's
cd+dvd
cd.
cda
cdc
cdc##
cddvd
cdec
cdf
cdg
cdi
cdm
cdma
cdn
cdna
cdo
cdot
cdots
cdp
cdp.
cdr
cds
cdt
cdtf
cdu
cdwr
ce
ce.
cea
ceara
cease
ceased
ceasefire
ceases
ceasing
ceausescu
cebu
cebuano
cec
cece
cecelia
cech
cecil
cecile
cecilia
cecily
cecropia
cedar
cedars
cedarville
cede
ceded
ceding
cedric
cee
cef
cefa
cefn
cehf
cei
ceiba
ceiling
ceilings
cel
celaya
celeb
celebes
celebi
celebrant
celebrate
celebrated
celebrates
celebrating
celebration
celebrations
celebratory
celebre
celebrities
celebrity
celeron
celery
celeste
celestia
celestial
celestin
celestine
celestino
celia
celiac
celibacy
celibate
celica
celik
celina
celine
celje
celkoncheersindia
celkonmobile
cell
cell-phone
cella
cellar
cellars
celle
celled
cellfone
cellier
cellini
cellist
cellmate
cello
cellos
cellpadding
cellphone
cellphones
cells
cellspacing
cellular
celluloid
cellulose
cellulosic
celsius
celso
celsus
celt
celta
celtic
celtics
celts
cem
cement
cemented
cementing
cements
cemeteries
cemeteriesthe
cemetery
cen
cena
cenel
cengage
cenotaph
cenozoic
censor
censored
censoring
censors
censorship
censure
censured
census
census.the
censusas
censuses
censusthe
cent
centaur
centauri
centaurs
centaurus
centavos
centenario
centenary
centennial
center
center.the
centered
centerfold
centering
centerline
centerpiece
centers
centerthe
centerville
centilli
centimeter
centimeters
centimetre
centimetres
centipede
centraal
central
centrale
centralia
centralised
centralism
centralist
centrality
centralization
centralize
centralized
centralizing
centrally
centre
centred
centrepiece
centres
centrethe
centreville
centric
centrifugal
centrifuge
centripetal
centrist
centro
centroid
centrum
cents
centuries
centuries.the
centuriesthe
centurion
centurions
century
centuryin
centurythe
ceo
ceo.
ceoil
ceos
cep
cepeda
cephalopod
cephalopods
cera
cerambycidae
ceramic
ceramics
cerberus
cercle
cerda
cere
cereal
cereals
cerebellar
cerebellum
cerebral
cerebrospinal
cerebus
ceredigion
cerejota
ceremonial
ceremonially
ceremonies
ceremoniously
ceremony
ceres
cerevisiae
cerezo
cerf
cerium
cermak
cern
cernat
cerny
ceron
cerrado
cerrito
cerritos
cerro
cert
certain
certainly
certainty
certi
certificate
certificated
certificates
certification
certifications
certified
certifies
certify
certifying
certiorari
cervantes
cervera
cervical
cervix
ces
cesar
cesarb
cesare
cesena
ceska
ceske
cesky
cessation
cession
cessna
cessnock
cest
ceste
cester
cet
cetacea
cetaceans
cetera
ceti
cetinje
cette
ceuta
cev
ceviche
ceyechilam
ceylon
ceylonese
cezanne
cf
cf.
cfa
cfb
cfc
cfd
cfe
cff
cfi
cfl
cfm
cfo
cfoforum.ppt
cfoforumppt
cfp
cfr
cfs
cftc
cfu
cg
cga
cge
cgi
cgmp
cgoehring
cgpa
cgs
cgt
cgy
ch
ch'uan
ch***ya
ch***yapa
cha
chaahe
chaaheyaara
chaahiyay
chaai
chaal
chaalah
chaalu
chaand
chaandni
chaar
chaate
chaav
chaay
chabad
chabi
chabon
chabot
chabrier
chabrol
chace
chacha
chachaji
chachi
chaco
chacon
chad
chada
chadaai
chadarmod
chadbourne
chadderton
chaddi
chade
chadee
chadi
chadian
chadwick
chae
chaeiye
chaey
chafee
chaff
chaffee
chaffey
chaffin
chagall
chagas
chagatai
chagos
chagrin
chah
chahar
chahat
chahata
chahaton
chahay
chahe
chahea
chaheay
chahenge
chaheye
chahiay
chahiey
chahine
chahiye
chahiyeshopkeeper
chahiyr
chahna
chaho
chahre
chaht
chahta
chahte
chahtey
chahti
chahy
chahye
chai
chaicoffee
chaie
chaim
chain
chained
chaining
chains
chainsaw
chair
chaired
chairing
chairlift
chairlifts
chairman
chairmanship
chairmen
chairperson
chairpersons
chairs
chairwoman
chaitanya
chaitra
chaiy
chaiye
chak
chaka
chake
chaker
chakka
chakkar
chakke
chakkr
chakotay
chakra
chakraborty
chakri
chakron
chakwal
chal
chala
chalabi
chalana
chalane
chalang
chalate
chalati
chalay
chalaya
chalcedon
chalcedonian
chalchitra
chalchitron
chalcolithic
chaldean
chaldeans
chale
chalega
chalein
chalen
chalet
chalets
chalfont
chali
chalice
chalisa
chaliye
chalk
chalke
chalked
chalky
challasrkian
challenge
challenged
challenger
challengers
challenges
challenging
challis
challo
challoner
chalmers
chalna
chalne
chalo
chalon
chaloner
chalons
chaloon
chalt
chalta
chalte
chalti
chalty
chalu
chalukya
chalukyas
chaluun
cham
chama
chamaat
chaman
chamba
chambal
chamber
chambered
chamberlain
chamberlin
chambermaid
chambers
chambersburg
chambery
chambliss
chambly
chambord
chambre
chamcha
chamchagiri
chameleon
chamfered
chaminade
chamkega
chamki
chamonix
chamorro
champ
champa
champagne
champaign
champaran
champion
champion.
championed
championing
championnat
champions
championship
championship.
championship.the
championships
championshipthe
champlain
champlin
champs
chams
chan
chana
chanakya
chance
chanced
chancel
chancellery
chancellor
chancellors
chancellorship
chancellorsville
chancery
chances
chanchal
chand
chanda
chandan
chandani
chandelier
chandeliers
chander
chandi
chandigarh
chandler
chandni
chandos
chandpur
chandra
chandragupta
chandran
chandrasekhar
chandresh
chandrika
chandu
chane
chanel
chaney
chang
changchun
change
changeable
changed
changeling
changeover
changer
changers
changes
changesthe
changeup
changi
changing
changsha
changzhou
chania
chanley
channel
channeled
channeling
channelled
channels
channelvindia
channing
channl
channu
chanson
chansons
chant
chantal
chante
chanted
chanter
chanticleer
chantilly
chanting
chantry
chants
chanukah
chanute
chao
chaoon
chaos
chaotic
chaoyang
chap
chapal
chaparral
chapbook
chapbooks
chapel
chapelle
chapels
chaperone
chapin
chaplain
chaplaincy
chaplains
chaplin
chaploos
chaplusi
chapman
chappair
chappal
chappals
chappell
chappelle
chapple
chaps
chapter
chapters
chapultepec
char
chara
character
characterisation
characterise
characterised
characterises
characteristic
characteristically
characteristics
characteristicsthe
characterization
characterizations
characterize
characterized
characterizes
characterizing
characters
charactersthe
charade
charadriiformes
charan
charbonneau
charcha
charcoal
charcot
chard
chardin
chardonnay
charente
charentes
charest
charge
charged
charger
chargers
charges
charging
charha
charhi
chari
charing
chariot
chariots
charisma
charismatic
charitable
charite
charities
charity
charlatans
charlemagne
charlemont
charlene
charleroi
charles
charleston
charlestown
charlesworth
charleville
charlevoix
charley
charlie
charlotte
charlottenburg
charlottesville
charlottetown
charlottewebb
charlton
charly
charm
charmaine
charmed
charming
charms
charney
charno
charnock
charnwood
charon
charpentier
charr
charred
chart
chart.the
charted
charter
chartered
charterhouse
chartering
charteris
charters
chartier
charting
chartist
chartrand
chartres
charts
charts.the
chartsalbum
chartstats
chartsthe
chartthe
chas
chase
chased
chaser
chasers
chases
chashm-e-buddoor
chashmebuddoor
chasing
chasm
chasms
chasse
chasseurs
chassis
chastain
chaste
chastised
chastises
chastity
chat
chatbox
chateau
chateaubriand
chateauneuf
chateauroux
chateaux
chatelet
chater
chatfield
chatham
chatillon
chatme
chats
chatswood
chatsworth
chatt
chattahoochee
chattanooga
chattbhai
chattel
chatter
chatterjee
chatterley
chatterton
chatting
chatto
chattopadhyay
chaturayi
chaturvedi
chau
chaucer
chaudavi
chaudhary
chaudhry
chaudhuri
chaudiere
chauffeur
chauhan
chauka
chaumont
chauncey
chautauqua
chauvel
chauvinism
chauvinisms
chaux
chavannes
chaves
chavez
chavis
chavo
chawalariya
chawalien
chawaln
chawla
chawlen
chay
chaye
chayen
chaykin
chaz
chc
chcken
chd
che
cheadle
cheam
cheap
cheaper
cheapest
cheaply
cheapo
cheapside
cheat
cheated
cheatham
cheating
cheats
cheb
chebyshev
chechen
chechens
chechnya
check
checked
checker
checkerboard
checkered
checkers
checkerspot
checking
checklist
checklists
checkmate
checkout
checkpoint
checkpoints
checkpost
checks
checksum
checkuser
checkusers
ched
cheddar
chedi
chee
cheech
cheeje
cheek
cheeked
cheekh
cheeks
cheeky
cheelcheel
cheem
cheema
cheen
cheenkain
cheep
cheer
cheered
cheerful
cheerfully
cheering
cheerleader
cheerleaders
cheerleading
cheers
cheery
cheese
cheesedreams
cheeses
cheesily
cheesy
cheetah
cheetahs
cheete
cheetham
cheeti
cheever
cheez
cheezain
cheezay
cheezun
chef
chefs
chehalis
chehra
cheikh
chein
chek
cheka
chekhov
chelan
chelating
chelatinm
chelatinmno
chele
chell
chelmsford
chelsea
cheltenham
chelyabinsk
chem
chem.
chemical
chemically
chemicals
chemie
chemin
chemins
chemises
chemist
chemistries
chemistry
chemists
chemnitz
chemokine
chemotherapy
chemung
chen
chenab
chenango
cheney
cheng
chengde
chengdu
chenier
chennai
chennault
chenoweth
cheonan
cheong
chepauk
chepstow
cheque
chequered
chequers
cheques
cher
chera
cheras
cherbourg
cherepovets
cheri
cherie
cherish
cherished
cherkasy
chern
chernigov
chernihiv
chernivtsi
chernobyl
chernomorets
chernykh
cherokee
cherokees
cherries
cherry
cherryh
chert
chertsey
cherubini
cherwell
chery
cheryl
chesapeake
chesham
cheshire
cheshmeh
cheshunt
chesley
chesney
chesnutt
chess
chessboard
chessman
chest
chested
chester
chesterfield
chesterton
chestney
chestnut
chestnuts
chests
chestunnav
chet
chetan
chetanbhagat
chetavani
chetnik
chetniks
chettiar
chetty
chetwynd
cheung
cheval
chevalier
chevelle
cheveux
cheviot
chevrolet
chevron
chevrons
chevy
chew
chewbacca
chewed
chewing
chewy
cheyenne
cheyne
chez
chf
chha
chhaila
chhaiya
chhaiye
chhalange
chhalke
chhatra
chhatrapati
chhattisgarh
chhaya
chhere
chhnang
chhod
chhodenge
chhodte
chhokar
chhora
chhori
chhota
chhote
chhu
chhuda
chhupa
chhupak
chhupakar
chhupi
chi
chia
chiang
chianti
chiapas
chiara
chiaroscuro
chiba
chibi
chic
chica
chicago
chicago.
chicagoland
chicagorights
chicana
chicane
chicano
chichen
chichester
chichibu
chichora
chick
chickamauga
chickasaw
chicken
chickenfries
chickenguniya
chickens
chickie
chicks
chicks\
chico
chicopee
chicoutimi
chidambaram
chided
chief
chiefdom
chiefdoms
chiefly
chiefs
chieftain
chieftains
chien
chiesa
chieti
chieu
chievo
chifley
chigi
chih
chihuahua
chikara
chikarahimanshu
chikitsuk
chil
chilcotin
child
childbearing
childbirth
childcare
childe
childers
childhood
childish
childless
childlike
childofmidnight
children
children.
children.the
childrenrights
childrenthe
childress
childrights
childs
chile
chilean
chileans
chilena
chiles
chili
chilka
chill
chilla
chillaa
chillana
chillar
chilled
chilli
chillicothe
chillies
chilling
chilliwack
chills
chilly
chiloe
chiltern
chilton
chim
chime
chimera
chimes
chimichangas
chiming
chimney
chimneys
chimp
chimpanzee
chimpanzees
chimps
chin
china
china.the
chinathe
chinatown
chinatowns
chinchilla
chincoteague
chine
chineese
chinensis
chinese
chineze
ching
chingaari
chingford
chinki
chinmyah
chinn
chinna
chinnapa
chino
chinook
chint0o
chinta
chinto
chios
chip
chipak
chipka
chipke
chipman
chipmunk
chipmunks
chipotle
chipped
chippendale
chippenham
chippewa
chipping
chips
chipset
chipsets
chipus
chiquita
chirac
chirag
chirak
chiral
chirality
chiranjeevi
chiricahua
chirico
chiriqui
chiro
chiron
chiropractic
chiropractors
chiropractric
chiroptera
chiros
chirping
chirps
chisel
chisholm
chishti
chisinau
chislehurst
chiswick
chit
chita
chitegi
chitha
chitin
chitosan
chitose
chitra
chitradurga
chitral
chittagong
chittenden
chitthi
chitti
chittoor
chittor
chitty
chiu
chivalric
chivalrous
chivalry
chivas
chivers
chiyoda
chiz
chkore
chl
chla
chlega
chlo
chloe
chloride
chlorides
chlorinated
chlorination
chlorine
chlormint
chloroform
chlorophyll
chloroplast
chloroplasts
chnages
chnge
cho
choate
choco
chocolate
chocolatecharsi
chocolates
choctaw
choctaws
chod
choda
chodh
chodi
chodke
chodkr
chodna
chodo
choe
choi
choice
choices
choir
choirmaster
choirs
choiseul
chojnice
chok
choka
choke
choked
chokes
choking
chol
chola
cholas
cholay
cholera
cholesterol
choli
choline
cholinergic
cholmondeley
cholula
chom
chome
chomsky
chon
chonawee
chonburi
chong
chongqing
choo
chood
choom
choortay
choos
choose
chooses
choosing
choot
choote
chootiya
chootiyas
chop
chopin
chopped
chopper
chopping
choppy
chopra
chopratute
chops
chopstick
chor
chora
chorain
choral
chorale
choramine
chord
chordal
chords
chore
chorein
choreograph
choreographed
choreographer
choreographers
choreographic
choreography
chores
chorh
chorho
chori
chorion
chorister
choristers
chorizo
chorley
chorlton
chorni
choro
chorta
chorte
choru
chorus
choruses
chorzow
chose
chosen
choses
choshu
chosun
choszczno
chota
chote
choti
chotu
chou
choudhary
choudhry
choudhury
chouinard
chouteau
chow
chowdhury
chowk
choy
choyoolatinmodifieriihi
chp
chr
chretien
chris
chris.abel@enron.com
chris.germany@enron.com
chrisabelenroncom
chrisgermanyenroncom
chriso
chrissie
chrisssake
chrissy
christ
christa
christabel
christadelphian
christadelphians
christchurch
christen
christendom
christened
christening
christensen
christer
christgau
christhedude
christi
christiaan
christian
christiana
christiane
christiania
christianity
christianization
christianized
christians
christiansborg
christiansen
christie
christina
christine
christmas
christo
christoffel
christoffer
christology
christoph
christophe
christopher
christopherson
christos
christrights
christus
christy
chrisye
chroma
chromatic
chromatin
chromatograph
chromatography
chrome
chromium
chromodorididae
chromosomal
chromosome
chromosomes
chron
chronic
chronica
chronically
chronicle
chronicled
chronicler
chroniclers
chronicles
chronicling
chronicon
chronik
chrono
chronological
chronologically
chronology
chronometer
chronometers
chronos
chrysalis
chrysanthemum
chrysler
chrysostom
chs
chu
chu*
chua
chuahaan
chuan
chuang
chub
chubb
chubby
chubu
chubut
chuck
chuckie
chucky
chud
chudaai
chudai
chudegi
chugli
chugoku
chui
chuitya
chuk
chuka
chukaa
chukchi
chuke
chuki
chukka
chukkah
chukotka
chul
chula
chulainn
chulalongkorn
chullu
chum
chuma
chumash
chumley
chumma
chun
chunav
chung
chunk
chunks
chunky
chunni
chuo
chup
chupa
chupke
chuppa
chuppi
chur
chura
churaayi
churaya
churaye
churayenge
church
church.
churches
churchill
churchman
churchmen
churchrights
churchthe
churchy
churchyard
churn
churned
churning
churya
chut
chute
chutes
chuti
chutia
chutiya
chutiyaa
chutiyap
chutiyapa
chutiyas
chutiye
chutiyo
chutiyon
chutkara
chutkkara
chutney
chutta
chuttae
chutti
chutyapay
chuuk
chuvash
chuy
chuye
chya
chyapa
chye
chym
chymni
chyna
chzz
ci
cia
ciac
ciao
ciara
ciaran
cib
cibber
cibc
cibernetico
cic
cicadas
cicely
cicero
cichlid
cichlidae
cichlids
ciconiiformes
cid
cidade
cider
cie
ciechanow
ciel
cielo
ciencia
ciencias
cienfuegos
cieszyn
cif
cifl
cigar
cigarette
cigarettes
cigars
ciggies
cigrette
cii
cil
cilia
ciliary
cilicia
cilician
cilla
cim
cima
cimarron
cimetiere
cimino
cimmerian
cimon
cincinnati
cinco
cinder
cinderella
cindy
cine
cinema
cinemas
cinemascope
cinematheque
cinematic
cinematographer
cinematographers
cinematographic
cinematography
cinemax
cineos
cineplex
cinerama
cinerea
cingular
cingulate
cinna
cinnamon
cinq
cinque
cinquemani
cinta
cintra
cintron
cio
cio.
cioculescu
cioroianu
cip
cipher
ciphers
ciphertext
cipriani
cipriano
cir
circ
circa
circadian
circassian
circassians
circe
circeus
circle
circled
circles
circling
circuit
circuito
circuitous
circuitry
circuits
circular
circularisation
circularly
circulate
circulated
circulates
circulating
circulation
circulatory
circumcised
circumcision
circumference
circumflex
circumnavigate
circumnavigated
circumnavigation
circumpolar
circumscribed
circumscription
circumstance
circumstances
circumstantial
circumvent
circumvented
circumventing
circumvention
circus
circuses
cirencester
ciro
cirque
cirrhosis
cirrus
cirt
cis
cisalpine
cisco
cisneros
cisse
cistercian
cistercians
cistern
cisterns
cit
cit.
citadel
citation
citationrank
citations
cite
cited
cites
citi
citibank
cities
citigroup
citing
citizen
citizendium
citizenrights
citizenry
citizens
citizenship
citrate
citric
citrix
citroen
citron
citrus
citta
citv
city
citybus
citygate
cityrail
cityscape
citytv
citywide
ciudad
civ
civet
civic
civics
civil
civile
civilian
civilians
civilisation
civilisations
civilised
civility
civilization
civilizations
civilized
civilly
civita
civitas
ciws
cixi
cj
cjk
cjkcjk
cjkcjkcjk
cjkcjkcjkcjk
cjkcjkcjkcjkcjk
cjkcjkcjkcjkcjkcjk
cjkcjkcjkcjkcjkcjkcjk
cjkcjkcjkcjkcjkcjkcjkcjk
cjkcjkcjkcjkcjkcjkcjkcjkcjk
cjkcjkcjkcjkcjkcjkcjkcjkcjkcjk
cjkcjkcjkcjkcjkcjkcjkcjkcjkcjkcjk
cjkcjkcjkcjkcjkcjkcjkcjkcjkcjkcjkcjk
cjkcjkcjkcjkcjkcjkcjkcjkcjkcjkcjkcjkcjk
ck
ckd
cky
cl
cla
cla##
clack
clackamas
clackmannanshire
clacton
clad
cladding
clade
clades
cladistic
cladogram
claes
claiborne
claim
claimant
claimants
claimed
claiming
claims
clair
claire
clairvaux
clairvoyance
clairvoyant
clam
clamoring
clamp
clamped
clampett
clamping
clamps
clams
clamshell
clamshells
clamshellsbulletotter
clan
clancy
clandestine
clandestinely
clank
clann
clannad
clans
clanton
clap
clapboard
clapham
clapp
clapper
clapping
clapton
clara
clare
claremont
clarence
clarendon
clares
claret
clarice
claridge
clarification
clarifications
clarified
clarifies
clarify
clarifying
clarin
clarinet
clarinetist
clarinets
clarion
clarissa
clarita
clarity
clarityfiend
clark
clarke
clarkrights
clarks
clarksburg
clarksdale
clarkson
clarkston
clarksville
claro
clary
clash
clashed
clashes
clashing
clasico
clasp
clasps
class
classe
classed
classes
classic
classical
classically
classicism
classicist
classics
classiest
classification
classifications
classificationthe
classified
classifieds
classifier
classifiers
classifies
classify
classifying
classmate
classmates
classroom
classrooms
classy
clatinur
claud
claude
claudette
claudia
claudian
claudine
claudio
claudius
claus
clause
clausen
clauses
clausewitz
claustrophobic
clausura
clave
clavicle
clavier
claw
clawed
clawing
claws
clawson
claxton
clay
claydon
claymore
claypool
clays
clayson
clayton
clayworth
clc
cld
clea
clean
cleaned
cleaner
cleaners
cleanest
cleaning
cleanings
cleanliness
cleanly
cleans
cleanse
cleansed
cleansing
cleanup
cleanup.the
cleanupthe
clear
clearance
clearances
cleared
clearer
clearest
clearfield
clearing
clearinghouse
clearings
clearly
clears
clearwater
cleary
cleaser
cleavage
cleave
cleaved
cleaver
cleaves
cleburne
cleese
cleethorpes
cleeve
clef
cleft
clegg
cleland
clem
clemence
clemenceau
clemency
clemens
clement
clemente
clementi
clementina
clementine
clements
clemmons
clemons
clemson
clenched
cleo
cleomenes
cleon
cleopatra
clerc
clerestory
clergy
clergyman
clergymen
cleric
clerical
clerics
clerk
clerked
clerkenwell
clerks
clerkship
clermont
cletus
cleve
clevedon
cleveland
clever
cleverly
cleverness
cleves
clewlow
clg
clh
cli
cliburn
clich
cliche
cliched
cliches
clichy
click
clickable
clicked
clicker
clicking
clicks
client
clientelage
clientele
clientrights
clients
cliff
cliffe
cliffhanger
clifford
cliffs
clift
clifton
cliftonville
clijsters
climactic
climate
climates
climatethe
climatic
climatology
climax
climaxed
climaxes
climb
climbed
climber
climbers
climbing
climbs
clin
clinch
clinched
clinching
cline
cling
clinging
clings
clinic
clinical
clinically
clinician
clinicians
clinics
clinker
clint
clinton
clio
clip
clipboard
clipped
clipper
clippers
clipping
clippings
clips
clique
cliques
clitheroe
clitoral
clitoris
clive
cllr
cloak
cloaked
cloaking
cloaks
clock
clocked
clocking
clockmaker
clocks
clockwise
clockwork
clodius
clog
clogged
clogging
clogher
cloister
cloistered
cloisters
clonal
clone
cloned
clones
cloning
clonmel
clontarf
clooney
clos
close
closed
closely
closeness
closer
closes
closest
closet
closeted
closets
closeup
closing
closings
closs
clostridium
closure
closures
clot
cloth
clothed
clothes
clothesline
clothing
cloths
clotilde
clots
clotting
cloture
cloud
cloudbound
clouded
clouds
cloudy
clough
clouseau
clout
cloutier
clove
clover
cloverdale
cloverleaf
cloves
clovis
clow
clowes
clown
clownloach
clownprinceg
clowns
cloyne
clp
clr
cls
club
club.
club.the
clubbed
clubbing
clube
clubhouse
clubin
clubrights
clubs
clubthe
clue
clueless
clues
cluj
clump
clumps
clumsy
clun
clung
cluniac
clunky
cluny
cluster
clustered
clustering
clusters
clutch
clutches
clutching
clute
clutter
cluttered
cluttering
clwyd
clyde
clydebank
clydesdale
clymer
clyne
cm
cma
cmb
cmc
cmd
cmdr
cme
cmf
cmg
cmi
cmichael
cmj
cml
cmll
cmm
cmmnt
cmmtd
cmo
cmos
cmp
cmprezm
cms
cmt
cmu
cn
cna
cnbc
cnc
cncl
cnd
cne
cnet
cnfsr
cnfssin
cnfssion
cnfssn
cnfuzd
cng
cnn
cnn,
cnn.
cnn.com
cnncom
cno
cnr
cnrs
cns
cnt
cntn
cnut
cnwk
co
co#
co$t
co-author
co-founder
co-operate
co-ordination
co-ordinator
co-relation
co-signing
co-star
co-workers
co.
co2
coa
coach
coach.
coached
coachella
coaches
coachescategory
coaching
coachman
coadjutor
coagulated
coagulation
coahuila
coakley
coal
coalesce
coalesced
coalfield
coalfields
coaling
coalition
coalitions
coals
coalville
coan
coanda
coarse
coarsely
coarser
coast
coastal
coaster
coasters
coastguard
coasting
coastline
coastlines
coasts
coat
coatbridge
coated
coates
coating
coatings
coatrack
coats
coauthor
coauthored
coax
coaxed
coaxial
cob
cobain
cobalt
cobb
cobbett
cobbled
cobbler
cobbles
cobblestone
cobbs
cobden
cobh
cobham
cobo
cobol
cobos
cobourg
cobra
cobras
coburg
coburn
coc
coca
cocaine
cochabamba
cochin
cochinchina
cochise
cochlea
cochlear
cochran
cochrane
cock
cock-blocked
cock-blocking
cock-teaser
cockatiel
cockatiels
cockatoo
cockatoos
cockayne
cockblock
cockblocked
cockblocking
cockburn
cocke
cocked
cocker
cockerell
cockermouth
cockiness
cocking
cockney
cockpit
cockpits
cockrell
cockroach
cockroaches
cocks
cocktail
cocktails
cockteaser
cocky
coco
cocoa
cocomo
coconino
coconut
coconuts
cocoon
cocoons
cocos
cocteau
cod
coda
codd
coddington
code
code=
codebase
codec
codecs
coded
codeine
codemasters
codename
codenamed
coder
codes
codeshare
codeword
codex
codices
codification
codified
codify
coding
codon
codons
codreanu
codrington
cody
coe
coed
coeducational
coefficient
coefficients
coelho
coen
coenzyme
coerce
coerced
coercion
coercive
coetzee
coeur
coexist
coexisted
coexistence
coextensive
cofactor
cofactors
coffee
coffeehouse
coffeehouses
coffered
coffers
coffey
coffin
coffins
coffman
coffs
cofounded
cofounder
cog
cogan
cogeco
cogeneration
cogent
cogging
coghill
coghlan
cognac
cognate
cognates
cognition
cognitive
cognitively
cognitivesciencen...@gmail.com
cognitivesciencengmailcom
cognomen
cogs
cogswell
cohabitation
cohan
coheed
cohen
coherence
coherent
cohesion
cohesive
cohesiveness
cohn
cohomology
cohort
cohorts
coi
coi.
coibot
coil
coiled
coiling
coils
coimbatore
coimbra
coin
coinage
coincide
coincided
coincidence
coincidences
coincident
coincidental
coincidentally
coincides
coinciding
coined
coining
coins
coire
coit
coitoolbot
cokayne
coke
coker
coking
col
col.
cola
colada
colaiste
colbert
colborne
colburn
colby
colchester
colchis
cold
colder
coldest
coldfield
colditz
coldly
coldness
coldplay
coldrink
colds
coldstream
coldwater
coldwell
cole
coleg
colegio
coleman
colenso
coleophora
coleophoridae
coleoptera
coleraine
coleridge
coles
coleslaw
colette
coley
colfax
colfer
colgan
colgate
coli
colic
coligny
colima
colin
coliseum
colitis
coll
collaborate
collaborated
collaborates
collaborating
collaboration
collaborationist
collaborations
collaborative
collaboratively
collaborator
collaborators
collage
collagen
collages
collapse
collapsed
collapses
collapsible
collapsing
collar
collarbone
collard
collared
collars
collated
collateral
collation
colle
colleague
colleagues
collect
collectable
collectables
collected
collectible
collectibles
collecting
collection
collections
collectionsthe
collectionthe
collective
collectively
collectives
collectivism
collectivist
collectivization
collectonian
collector
collectors
collects
colleen
college
college's
collegein
collegerights
colleges
collegial
collegian
collegians
collegiate
collegiately
collegio
collegium
collet
collett
collette
colley
colli
collide
collided
collider
collides
colliding
collie
collier
collieries
colliers
colliery
collin
collinear
collings
collingswood
collingwood
collins
collinson
collis
collision
collisions
collison
colloidal
colloquial
colloquialism
colloquially
colloquium
collusion
collyer
colm
colman
colmar
colne
colo
colobus
cologne
coloma
colombia
colombian
colombians
colombo
colon
colonel
colonels
colonia
colonial
colonialism
colonialist
colonialists
colonials
colonie
colonies
colonisation
colonise
colonised
colonist
colonists
colonization
colonize
colonized
colonizers
colonizing
colonna
colonnade
colony
colophon
color
color:c#
colorado
colorado.
coloradocategory
coloration
coloratura
colorc
colorectal
colored
colorful
colorfully
coloring
colorist
colorized
colorless
colors
colorstv
colossal
colosseum
colossus
colour
colouration
coloured
colourful
colouring
colourless
colours
colquhoun
colsehrawat
colson
colspan
colspan=#
colspan=#|
colspan=#|##
colspan=#|electors
colspan=#|rejected
colspan=#|source
colspan=#|total
colspan=#|turnout
colspanelectors
colspanjr
colspanrejected
colspansource
colspantotal
colspanturnout
colston
colt
colter
colton
coltrane
colts
coluim
colum
columb
columba
columbanus
columbia
columbian
columbiana
columbidae
columbine
columbo
columbus
columella
column
columnar
columned
columnist
columnists
columns
columnwidth
colville
colvin
colwell
colwyn
com
coma
comanche
comanches
comarca
comas
comatose
comb
comba
combat
combatant
combatants
combating
combative
combats
combe
combed
combination
combinations
combinatorial
combinatorics
combine
combined
combines
combing
combining
combo
combos
combs
combtooth
combustible
combustion
comcast
comdr
come
comeau
comeback
comebacks
comecon
comedian
comedians
comedic
comedie
comedienne
comedies
comedy
comedynbachao
comenius
comer
comercial
comercio
comerica
comers
comes
comet
comets
comex
comfort
comfortable
comfortably
comforted
comforting
comforts
comfty
comfy
comfyy
comic
comical
comically
comics
comilla
comin
comin'
coming
comintern
comique
comision
comiskey
comital
comitatus
comite
comix
comm
comma
commagene
command
commandant
commanded
commandeered
commander
commanderies
commanders
commandery
commanding
commandment
commandments
commando
commandos
commands
commas
comme
commedia
commemorate
commemorated
commemorates
commemorating
commemoration
commemorations
commemorative
commence
commenced
commencement
commences
commencing
commend
commendable
commendation
commendations
commended
commending
commends
commensurate
comment
commentaries
commentarii
commentary
commentated
commentating
commentator
commentators
commented
commenters
commenting
commentry
comments
commerce
commercial
commercialisation
commercialism
commercialization
commercialize
commercialized
commercially
commercials
comming
commissar
commissariat
commissars
commissary
commission
commissioned
commissioner
commissioners
commissioning
commissions
commit
commitee
commiting
commitment
commitments
commits
committal
committed
committee
committees
committeethe
committing
committment
committments
commment
commmitted
commodities
commodity
commodore
commodores
commodus
common
commonalities
commonality
commoner
commoners
commonest
commonly
commonplace
commons
commonsense
commonwealth
commotion
comms
communal
communale
communally
communaute
commune
communes
communesthe
communicable
communicate
communicated
communicates
communicating
communication
communications
communicative
communicator
communicators
communion
communique
communis
communism
communist
communistic
communists
communities
communities.the
communitiesthe
community
communityrights
commutation
commutative
commutator
commute
commuted
commuter
commuters
commutes
commuting
comnenus
como
comoros
comox
comp
comp.mail.maps
comp.sources.d
comp.sources.unix
compact
compacted
compaction
compactly
compactness
compacts
compagnia
compagnie
compaign
companhia
compania
companie
companies
companies.the
companiesthe
companion
companions
companionship
company
company's
companyrights
companys
companythe
compaq
compaq.com
compaqcom
comparable
comparably
comparative
comparatively
comparator
compare
compared
compares
comparing
comparison
comparisons
compartment
compartmentalize
compartments
compass
compasses
compassion
compassionate
compatibility
compatible
compatriot
compatriots
compel
compelled
compelling
compels
compeltly
compendium
compensate
compensated
compensates
compensating
compensation
compensatory
compete
competed
competence
competences
competencies
competency
competent
competently
competes
competing
competition
competitions
competitionthe
competitive
competitively
competitiveness
competitor
competitors
compiegne
compilation
compilations
compile
compiled
compiler
compilers
compiles
compiling
complacency
complacent
complain
complainant
complainants
complained
complaining
complains
complaint
complaints
compleat
complement
complementarity
complementary
complemented
complementing
complements
complete
completed
completely
completeness
completes
completing
completion
completions
completly
complex
complexes
complexion
complexities
complexity
compliance
compliant
complicate
complicated
complicates
complicating
complication
complications
complicit
complicity
complied
complies
compliment
complimentary
complimented
complimenting
compliments
complutense
comply
complying
compmailmaps
component
components
compose
composed
composer
composers
composes
composing
composite
composites
compositing
composition
compositional
compositionally
compositions
compositionthe
compost
compostela
composting
composure
compound
compounded
compounding
compounds
comprehend
comprehensible
comprehension
comprehensive
comprehensively
comprehensiveness
compress
compressed
compresses
compressible
compressing
compression
compressive
compressor
compressors
comprise
comprised
comprises
comprising
compromise
compromised
compromises
compromising
compsourcesd
compsourcesunix
comptes
compton
comptroller
compulsion
compulsive
compulsorily
compulsory
compuserve
computability
computable
computation
computational
computationally
computations
compute
computed
computer
computerised
computerized
computers
computerworld
computes
computing
comrade
comrades
comrie
comstock
comte
comthis
comunale
comune
comuni
comunidad
comunista
comyn
con
conacher
conaill
conakry
conall
conan
conant
concacaf
concatenation
concave
conceal
concealed
concealing
concealment
conceals
concede
conceded
concedes
conceding
conceicao
conceit
conceivable
conceivably
conceive
conceived
conceives
conceiving
concensus
concentrate
concentrated
concentrates
concentrating
concentration
concentrations
concentric
concepcion
concept
conception
conceptions
concepts
conceptthe
conceptual
conceptualization
conceptualize
conceptualized
conceptually
concern
concerned
concernedvancouverite
concerning
concerns
concert
concertante
concerted
concertgebouw
concerti
concertina
concertmaster
concerto
concertos
concerts
concession
concessionaire
concessions
conch
concha
conchbooks
conchita
concho
conchobair
conchobar
conchology
concierge
conciliation
conciliatory
concise
concisely
conclave
conclaves
conclude
concluded
concludes
concluding
conclusion
conclusions
conclusive
conclusively
concocted
concoction
concomitant
concord
concordance
concordat
concorde
concordia
concours
concourse
concourses
concrete
concretely
concubine
concubines
concur
concurred
concurrence
concurrency
concurrent
concurrently
concurring
concurs
concussion
concussions
conde
condemn
condemnation
condemnations
condemned
condemning
condemns
condensate
condensation
condense
condensed
condenser
condenses
condensing
conder
condescending
condiment
condiments
condit
condita
condition
conditional
conditionally
conditioned
conditioner
conditioners
conditioning
conditions
conditions.the
conditionsthe
conditons
condo
condoleeza
condoleezza
condolence
condolences
condom
condominium
condominiums
condoms
condon
condone
condoned
condor
condorcet
condors
condos
conducive
conduct
conductance
conducted
conducting
conduction
conductive
conductivity
conductor
conductors
conducts
conduit
conduits
cone
coned
cones
conestoga
coney
conf
conf.
confection
confectionery
confederacion
confederacy
confederate
confederates
confederation
confederations
confer
conferees
conference
conferenced
conferences
conferencing
conferred
conferring
confers
confesr
confess
confesse
confessed
confesser
confesses
confessing
confession
confessional
confessions
confessions\
confessor
confessr
confetti
confidant
confidante
confide
confided
confidence
confident
confidential
confidentiality
confidentially
confidently
confides
config
configurable
configuration
configurations
configure
configured
configuring
confine
confined
confinement
confines
confining
confirm
confirmation
confirmations
confirmed
confirming
confirmit
confirms
confiscate
confiscated
confiscating
confiscation
conflagration
conflated
conflation
conflict
conflicted
conflicting
conflicts
confluence
confluent
conform
conformal
conformance
conformation
conformational
conformations
conformed
conforming
conformist
conformity
conforms
confounded
confounding
confraternity
confront
confrontation
confrontational
confrontations
confronted
confronting
confronts
confssion
confssn
confucian
confucianism
confucius
confuse
confused
confuses
confusing
confusingly
confusion
confusions
cong
conga
congaiudfnexus
congas
congdon
congenial
congenital
conger
congested
congestion
congestive
congi
congleton
conglomerate
conglomerates
conglomeration
congo
congolese
congos
congrats
congratulate
congratulated
congratulates
congratulating
congratulation
congratulations
congratulationsbharat
congratulatory
congratulaye
congregants
congregate
congregated
congregation
congregational
congregationalist
congregationalists
congregations
congres
congreso
congress
congresses
congressio
congressional
congressiyon
congressman
congressmen
congresswoman
congreve
congrtlxxx
congruence
congruent
conic
conical
conidae
conifer
coniferous
conifers
coningsby
coniston
conjectural
conjecture
conjectured
conjectures
conjoined
conjugacy
conjugal
conjugate
conjugated
conjugates
conjugation
conjunct
conjunction
conjunctions
conjunctivitis
conjunto
conjure
conjured
conjures
conjuring
conker
conklin
conkling
conley
conlin
conlon
conmebol
conn
conn.
connacht
connally
connaught
connect
connected
connectedness
connecticut
connecticutcategory
connecting
connection
connections
connective
connectivity
connector
connectors
connects
conned
connell
connelly
connemara
conner
connery
connex
connexion
connick
connie
conning
conniving
connoisseur
connoisseurs
connolley
connolly
connor
connors
connotation
connotations
connotes
conny
conocophillips
conolly
conor
conover
conquer
conquered
conquering
conqueror
conquerors
conquers
conquest
conquests
conquistador
conquistadors
conrad
conradi
conrail
conran
conrfirmed
conroe
conroy
cons
conscience
conscientious
conscious
consciously
consciousness
conscript
conscripted
conscription
conscripts
conseco
consecrate
consecrated
consecration
consecrators
consecutive
consecutively
conseguences
conseil
consejo
consensual
consensus
consensus.
consent
consented
consenting
consents
consequence
consequences
consequent
consequential
consequently
conservancy
conservation
conservationist
conservationists
conservationthe
conservatism
conservative
conservatively
conservatives
conservatoire
conservator
conservatories
conservatorio
conservatorium
conservatory
conserve
conserved
conserves
conserving
consett
conshocken
consider
considerable
considerably
considerate
consideration
considerations
considered
considering
considers
considine
consigliere
consiglio
consigned
consignment
consist
consistantly
consisted
consistency
consistent
consistently
consisting
consistory
consists
consolation
console
consoled
consoles
consolidate
consolidated
consolidating
consolidation
consonance
consonant
consonantal
consonants
consort
consortia
consortium
consorts
conspecific
conspicuous
conspicuously
conspiracies
conspiracy
conspirator
conspiratorial
conspirators
conspire
conspired
conspiring
const
constable
constables
constabulary
constance
constancy
constans
constant
constanta
constantia
constantin
constantine
constantinescu
constantino
constantinople
constantius
constantly
constants
constellation
constellations
consternation
constipation
constitucion
constituencies
constituency
constituent
constituents
constitute
constituted
constitutes
constituting
constitution
constitutional
constitutionality
constitutionally
constitutions
constitutive
constrain
constrained
constraining
constrains
constraint
constraints
constricted
constriction
construct
constructed
constructible
constructing
construction
construction.the
constructions
constructionthe
constructive
constructively
constructivism
constructivist
constructor
constructors
constructs
construed
consuelo
consul
consular
consulate
consulates
consuls
consulship
consult
consultancy
consultant
consultants
consultation
consultations
consultative
consulted
consulting
consults
consumable
consumables
consume
consumed
consumer
consumerism
consumers
consumes
consuming
consummate
consummated
consummation
consumption
cont
contact
contactable
contacted
contacting
contactless
contacts
contador
contagion
contagious
contain
contained
container
containers
containing
containment
contains
contaminant
contaminants
contaminate
contaminated
contaminating
contamination
conte
contemplate
contemplated
contemplates
contemplating
contemplation
contemplative
contemporaneous
contemporaneously
contemporaries
contemporary
contempt
contemptuous
contend
contended
contender
contenders
contending
contends
content
contented
contention
contentions
contentious
contentment
contents
contentsthe
contentthe
contessa
contest
contestant
contestants
contested
contesting
contests
context
contexts
contextual
conti
contiguous
continent
continental
continents
contingencies
contingency
contingent
contingents
continual
continually
continuance
continuation
continuations
continue
continued
continues
continuing
continuity
continuo
continuous
continuously
continuum
contorted
contour
contours
contra
contraband
contrabass
contraception
contraceptive
contraceptives
contract
contracted
contractile
contracting
contraction
contractions
contractor
contractors
contracts
contractual
contractually
contradict
contradicted
contradicting
contradiction
contradictions
contradictory
contradicts
contraindicated
contralateral
contralto
contraption
contrapuntal
contrary
contras
contrast
contrasted
contrasting
contrastive
contrasts
contravariant
contravene
contravened
contravention
contre
contreras
contrib
contribs
contribute
contributed
contributes
contributing
contribution
contributions
contributor
contributors
contributory
contrived
control
control.the
controllable
controlled
controller
controllers
controlling
controls
controlthe
controversial
controversially
controversies
controversiesin
controversy
controversyin
controversyon
controversythe
conundrum
conurbation
conus
convair
convalescence
convalescent
convection
convective
convene
convened
convener
convenes
convenience
conveniences
convenient
conveniently
convening
convenor
convent
convention
conventional
conventionally
conventions
convents
converge
converged
convergence
convergent
converges
converging
conversant
conversation
conversational
conversations
converse
conversed
conversely
conversing
conversion
conversions
conversos
convert
converted
converter
converters
convertible
convertibles
converting
converts
convex
convexity
convey
conveyance
conveyed
conveying
conveyor
conveyors
conveys
convict
convicted
conviction
convictions
convicts
convience
convince
convinced
convinces
convincing
convincingly
convo
convocation
convoked
convoluted
convolution
convoy
convoys
convulsed
convulsions
conway
conwy
conyers
conyngham
conz
coo
cooch
coochilost
cooder
coogan
coogee
cook
cookbook
cookbooks
cooke
cooked
cooker
cookers
cookery
cookie
cookies
cookin
cookin'
cooking
cooks
cookson
cookstown
cookware
cool
coolant
cooled
cooler
coolers
coolest
cooley
coolidge
coolies
cooling
coolly
coolness
cools
coombe
coombes
coombs
coon
coonabarabran
cooney
coons
coop
cooper
cooperate
cooperated
cooperates
cooperating
cooperation
cooperative
cooperatively
cooperatives
coopers
cooperstown
coordinate
coordinated
coordinates
coordinating
coordination
coordinator
coordinator's
coordinators
coorg
coors
coos
coosa
coot
coote
coots
cop
copa
copacabana
copan
copd
cope
coped
copeland
copelatinae
copelatus
copenhagen
copepods
copernican
copernicus
copied
copies
coping
copious
copland
copley
copp
coppa
coppell
copper
copperfield
copperhead
coppi
coppin
coppola
copps
copra
coprime
cops
copsey
coptic
copts
copula
copulation
copy
copycat
copyedit
copyedited
copyediting
copyedits
copying
copyist
copyleft
copyright
copyrightable
copyrighted
copyrights
copyvio
copyvios
copywriter
coq
coquille
coquimbo
coquitlam
cor
cora
coraciiformes
coral
corals
corazon
corbeil
corbels
corbet
corbett
corbin
corbusier
corby
corcoran
cord
corday
cordelia
cordell
corden
cordero
cordial
cordially
cordillera
cordilleran
cordite
cordless
cordoba
cordobes
cordon
cordoned
cordova
cords
core
core\
corea
corel
corelation
coreligionists
corell
corelli
coren
cores
coretta
corey
corfe
corfu
corgan
corgi
corgon
cori
coria
coriander
corin
corinna
corinne
corino
corinth
corinthian
corinthians
corio
coriolanus
coriolis
cork
corker
corking
corkscrew
corky
corleone
corley
corliss
cormac
cormack
corman
cormier
cormorant
cormorants
corn
cornea
corneal
corneille
cornel
cornelia
cornelio
cornelis
cornelius
cornell
corner
cornerback
cornered
cornering
corners
cornerstone
cornerstones
cornet
cornett
cornette
cornfield
cornhill
cornhusker
cornhuskers
cornice
cornices
corning
cornish
cornix
cornmeal
corns
cornwall
cornwallis
cornwell
corny
coro
corolla
corollary
coromandel
corona
coronado
coronal
coronary
coronas
coronation
coronations
coronel
coroner
coronet
corot
corp
corp.
corpo
corpora
corporacion
corporal
corporate
corporate-speak
corporatespeak
corporation
corporation.
corporations
corporatism
corporeal
corps
corpse
corpses
corpus
corr
corrado
corral
corrales
correa
correct
corrected
correcting
correction
correctional
corrections
corrective
correctly
correctness
corrector
corrects
corregidor
correia
correlate
correlated
correlates
correlating
correlation
correlations
correll
correspond
corresponded
correspondence
correspondences
correspondent
correspondents
corresponding
correspondingly
corresponds
correze
corrib
corridor
corridors
corrie
corrientes
corriere
corrigan
corrine
corris
corroborate
corroborated
corroborating
corroboration
corroded
corrosion
corrosive
corrs
corrugated
corrupt
corrupted
corrupting
corruption
corry
corsa
corsair
corsairs
corse
corset
corsets
corsi
corsica
corsican
corso
corson
corssing
cort
corte
cortege
cortes
cortese
cortex
cortez
corti
cortical
corticosteroids
cortina
cortisol
cortland
cortlandt
cortona
corum
coruna
corunna
corus
coruscant
corvair
corvallis
corvette
corvettes
corvidae
corvinus
corvus
corwin
cory
corydon
coryell
corzine
cos
cosa
cosby
cosell
cosenza
cosette
cosgrave
cosgrove
coshocton
cosi
cosigning
cosima
cosimo
cosine
cosmas
cosme
cosmetic
cosmetics
cosmic
cosmo
cosmodrome
cosmological
cosmology
cosmonaut
cosmonauts
cosmopolitan
cosmopterigidae
cosmos
cosplay
cossack
cossacks
cossor
cost
costa
costal
costanza
costanzo
costar
costas
costco
costellariidae
costello
coster
costigan
costing
costliest
costly
costner
costs
costume
costumed
costumer
costumes
costuming
cosworth
cosy
cot
cota
cotabato
cote
cotentin
coterie
coterminous
cotes
cotillion
coto
coton
cotonou
cots
cotswold
cotswolds
cott
cotta
cottage
cottages
cottbus
cotten
cotter
cotterill
cottingham
cottle
cotto
cotton
cottonwood
cottonwoods
cottrell
coty
coubertin
couch
couched
couches
cougar
cougars
cough
coughing
coughlan
coughlin
coughs
couk
could
couldn't
couldnt
coulee
coulomb
coulon
coulsdon
coulson
coulter
coulthard
council
council.
council.the
councillor
councillors
councilman
councilor
councilors
councilrights
councils
councilthe
counsel
counseled
counseling
counselling
counsellor
counsellors
counselor
counselors
counsels
count
countable
countably
countdown
counted
countenance
counter
counter-attack
counter-examples
counter-propaganda
counter-terrorism
counteract
counterattack
counterattacked
counterattacks
counterbalance
counterbalanced
counterclockwise
counterculture
countered
counterexample
counterexamples
counterfactual
counterfeit
counterfeiting
countering
counterinsurgency
counterintelligence
counterintuitive
countermeasure
countermeasures
counteroffensive
counterpart
counterparties
counterparts
counterparty
counterpoint
counterproductive
counterpropaganda
counterpunch
counters
countersignature
counterterrorism
countertop
counterweight
countess
counties
counting
countless
countout
countries
countries.
countries.the
countriesthe
country
countryman
countrymen
countryside
countrywide
counts
county
countycategory
countyrights
countywide
coup
coupe
coupee
coupes
coupland
couple
coupled
coupler
couplers
couples
couplet
couplets
coupling
couplings
coupon
coupons
coups
coupsteer
cour
courage
courageous
courageously
courant
courbet
courcelles
courcy
couric
courier
couriers
courland
cours
course
coursed
coursera
courses
coursethe
coursework
coursing
court
courtauld
courted
courtenay
courteney
courteous
courteously
courtesan
courtesans
courtesy
courthouse
courthouses
courtier
courtiers
courting
courtland
courtly
courtney
courtois
courtrights
courtroom
courtrooms
courts
courtship
courtthe
courtyard
courtyards
cousin
cousins
cousteau
coutances
couter-cultural
coutercultural
coutinho
couto
coutts
couture
covalent
covalently
covariance
covariant
covarrubias
cove
coven
covenant
covenanter
covenanters
covenants
covent
coventry
cover
coverage
coverdale
covered
covering
coverings
covers
covert
covertly
coverts
coves
coveted
covey
covina
covington
cow
cowan
coward
cowardice
cowardly
cowards
cowboy
cowboys
cowdenbeath
cowdery
cowdrey
cowell
cowen
cowes
cowichan
cowie
cowl
cowles
cowley
cowling
cowlitz
coworker
coworkers
cowper
cowpland
cowries
cowry
cows
cox
coxe
coxed
coxeter
coxless
coxon
coxswain
coy
coyle
coyne
coyote
coyotes
coz
cozumel
cozy
cozzens
cp
cpa
cpb
cpc
cpcg
cpd
cpe
cpgb
cpi
cpim
cpl
cpm
cpn
cpo
cpp
cpr
cps
cpsu
cpt
cptnono
cpu
cpu.
cpuc
cpus
cpusa
cpys
cq
cr
cra
crab
crabb
crabbe
crabs
crabtree
crack
crackdown
cracked
cracker
crackers
cracking
crackpot
cracks
cracovia
cracow
craddock
cradle
cradles
cradley
cradock
craft
crafted
crafter
crafting
crafts
craftsman
craftsmanship
craftsmen
craftspeople
crafty
crag
cragg
craggy
craghoppers
crags
craig
craigavon
craigie
craigslist
craik
crain
craiova
crake
crakes
cram
crambidae
cramer
crammed
cramp
cramped
cramps
crampton
cranberries
cranberry
cranbourne
cranbrook
crandall
crane
cranes
cranfield
cranford
cranial
cranium
crank
crankcase
cranked
cranks
crankshaft
cranleigh
cranmer
cranmore
cranston
cranwell
crap
crapfest
crapload
crappie
crappy
crash
crashed
crashes
crashing
crass
crassicaudatus
crassus
crataegus
crate
crater
craterlets
craters
cratersby
crates
craton
crave
craven
craving
cravings
craw
crawfish
crawford
crawfordsville
crawl
crawled
crawler
crawley
crawling
crawls
cray
crayfish
crayola
crayon
crayons
craze
crazed
crazier
craziest
crazy
crazyrussian
crc
crcmtances
cre
cream
creamer
creamery
creams
creamy
crean
creanga
crease
create
created
creates
creatine
creating
creatinine
creation
creationism
creationist
creationists
creations
creative
creatively
creativity
creator
creators
creature
creatures
crecy
credence
credential
credentials
credibility
credible
credit
credit's
creditable
credited
crediting
creditor
creditors
credits
credo
cree
creech
creed
creedence
creeds
creek
creeks
creekside
creel
creep
creeper
creeping
creeps
creepy
creighton
cremated
cremation
crematoria
crematorium
creme
cremer
cremona
crenellated
crenshaw
creole
creoles
creon
creosote
crepe
crepes
crept
crescendo
crescent
crespi
crespigny
crespo
cressida
cresson
cresswell
crest
crested
creston
crests
crestview
crestwood
creswell
cretaceous
cretan
crete
creteil
cretins
creuse
crevice
crevices
crew
crewe
crewed
crewman
crewmember
crewmembers
crewmen
crews
crh
cri
cria
crib
cribb
cribs
cricbc
cricetidae
cricfan
crichton
cricinfo
crick
crickbc
cricket
cricketarchive
cricketer
cricketers
cricketeurope
cricketing
crickets
cricketsuperstition
cricketworldcup
cricketzalmi
cricklewood
cried
cries
crim
crime
crimea
crimean
crimes
criminal
criminality
criminalize
criminalized
criminally
criminals
criminology
crimson
crippen
cripple
crippled
crippling
cripps
crips
cris
crisco
crises
crisis
crisler
crisp
crispin
crispy
criss
crist
cristal
cristian
cristiana
cristiano
cristina
cristo
cristobal
cristoforo
cristovao
critchley
criteria
criterion
criterium
critic
critica
critical
criticality
critically
criticise
criticised
criticises
criticising
criticism
criticismin
criticisms
criticismthe
criticize
criticized
criticizes
criticizing
critics
critique
critiqued
critiques
critiquing
critisize
crittenden
critters
crm
crni
cro
croall
croat
croatia
croatian
croatians
croats
croc
croce
crochet
crocker
crockett
crockford
crocodile
crocodiles
crocodilians
crocus
croesus
croft
crofton
crofts
croghan
crohn
croissants
croix
croke
croker
cromartie
cromarty
crombie
cromer
cromford
crompton
cromwell
cromwellian
cron
crone
cronenberg
cronica
cronies
cronin
cronkite
cronulla
cronus
crook
crooked
crookes
crooks
croom
crooner
crop
cropduster
cropdusters
cropland
cropped
cropper
cropping
crops
croquet
crore
crorepati
crores
crosbie
crosby
crosland
crosley
cross
cross-examination
cross-functional
crossbar
crossbow
crossbows
crossbred
crosscountry
crosse
crossed
crosses
crossexamination
crossfire
crossfunctional
crossin
crossing
crossings
crossley
crossman
crossmr
crossover
crossovers
crossrail
crossroad
crossroads
crosstown
crossword
crotalus
crotch
croton
crotone
crotty
crouch
crouching
crouse
crow
crowd
crowded
crowder
crowding
crowds
crowdsourcing
crowe
crowell
crowes
crowley
crowleyan
crown
crowne
crowned
crowning
crowns
crows
crowsnest
crowther
croy
croydon
crozier
crp
crra
crs
crt
crtc
cru
cruces
crucial
crucially
cruciate
crucible
crucified
crucifix
crucifixion
cruciform
crucify
crucis
crude
crudely
crudestocks.pdf
crudestockspdf
crue
cruel
cruelly
cruelty
cruft
cruickshank
cruikshank
cruise
cruisecompete
cruised
cruiseline
cruiser
cruisers
cruiserweight
cruises
cruising
crum
crumb
crumble
crumbled
crumbling
crumbs
crumlin
crump
crumpled
crunch
crunchy
crusade
crusader
crusaders
crusades
crusading
cruse
crush
crushed
crusher
crushes
crushing
crusoe
crust
crustacean
crustaceans
crustal
crutch
crutches
crutchfield
crux
cruyff
cruz
cruze
cruzeiro
crvena
cry
cryer
crying
cryingtime
cryogenic
cryonics
crypt
cryptanalysis
cryptic
cryptically
crypto
cryptographic
cryptography
crypts
crystal
crystalline
crystallization
crystallize
crystallized
crystallizes
crystallographic
crystallography
crystals
cs
cs#
cs5
csa
csaba
csar
csc
csd
csd.
cse
csf
csg
csi
csir
csiro
csis
csk
cska
csl
csm
csn
cso
csp
csr
css
cst
cste
csu
csv
csx
ct
ct.
cta
ctc
ctesiphon
ctf
cthulhu
cti
cto
ctr
ctrl
cts
ctu
ctv
ctvglobemedia
cu
cuando
cuatro
cuauhtemoc
cub
cuba
cuban
cubana
cubans
cube
cubes
cubic
cubicle
cubicles
cubism
cubist
cubits
cubitt
cubs
cucamonga
cuckoo
cuckoos
cuculidae
cucumber
cucumbers
cucuta
cudahy
cuddalore
cuddling
cuddly
cuddlyable
cuddlyable#
cuddy
cudi
cudworth
cue
cuellar
cuenca
cuerden
cuernavaca
cuervo
cues
cuesta
cueva
cuevas
cuff
cuffs
cui
cuisine
cuisines
cukor
cukurova
cul
culbert
culbertson
culebra
culiacan
culinary
culkin
cull
culled
cullen
cullinan
culling
cullman
culloden
cullum
culminate
culminated
culminates
culminating
culmination
culp
culpability
culpable
culpeper
culpepper
culprit
culprits
cult
cultic
cultivable
cultivar
cultivars
cultivate
cultivated
cultivates
cultivating
cultivation
cultivators
cults
cultura
cultural
culturally
culturally-permissible
culturallypermissible
culture
cultured
culturein
cultures
culturethe
culver
culvert
culverts
cum
cuman
cumann
cumans
cumberland
cumbernauld
cumbersome
cumbia
cumbria
cumbrian
cumin
cumming
cummings
cummins
cumnock
cumulative
cumulus
cunard
cunclude
cundinamarca
cuneiform
cuneo
cunha
cunliffe
cunning
cunningham
cunninghame
cunt
cunxu
cuny
cuomo
cup
cup.
cup.the
cupboard
cupen
cupertino
cupid
cupola
cupolas
cupro
cups
cupthe
cur
curacao
curacies
curacy
curate
curated
curates
curating
curative
curator
curatorial
curators
curb
curbed
curbing
curbs
curd
cure
cured
cures
curfew
curia
curiae
curie
curing
curiosities
curiosity
curious
curiously
curitiba
curl
curled
curler
curlew
curley
curling
curls
curly
curps
curr
curragh
curran
currencies
currency
current
currently
currents
currey
curricula
curricular
curriculum
curriculumthe
currie
currier
curries
curry
curse
cursed
curses
cursing
cursive
cursor
cursory
curt
curtail
curtailed
curtailing
curtain
curtains
curtin
curtis
curtiss
curtius
curtiz
curvature
curve
curveball
curved
curves
curvilinear
curving
curvy
curzon
cus
cusack
cusco
cuse
cushing
cushion
cushions
cushitic
cushman
cusick
cusp
cusps
cussing
cust
custard
custer
custis
custodial
custodian
custodians
custody
custom
customarily
customary
customer
customers
customise
customised
customizable
customization
customize
customized
customizing
customs
custos
cut
cutaneous
cutaway
cutbacks
cute
cutemadhu
cuteness
cutest
cuthbert
cuticle
cuticles
cutie
cutlass
cutler
cutlery
cutoff
cutolo
cutout
cutouts
cuts
cutscene
cutscenes
cutt
cuttack
cutter
cutters
cutthroat
cutting
cuttings
cuttlefish
cutts
cutty
cuvier
cuxhaven
cuyahoga
cuyo
cuz
cuza
cuzco
cv
cva
cvc
cve
cvn
cvo
cvp
cvr
cvs
cvt
cvts
cvu
cvw
cw
cw.
cwa
cwc
cwg
cwgc
cwm
cwmbran
cws
cwt
cx
cy
cyan
cyanide
cyanobacteria
cyanogen
cybele
cyber
cybermen
cybernetic
cybernetics
cyberpunk
cyberspace
cybertron
cybertronian
cyborg
cyborgs
cyclades
cyclase
cycle
cycled
cycles
cyclic
cyclical
cyclin
cycling
cyclist
cycliste
cyclists
cyclization
cyclo
cyclone
cyclones
cyclonic
cyclopaedia
cyclopedia
cyclops
cyclotron
cyde
cygni
cygnus
cylinder
cylinders
cylindrical
cylon
cylons
cymbal
cymbals
cymru
cynagon
cynangon
cyndi
cynic
cynical
cynicism
cynon
cynthia
cyp#a#
cypa
cypher
cypress
cyprian
cyprinid
cyprinidae
cypriot
cypriots
cyprus
cyr
cyrano
cyrenaica
cyrene
cyril
cyrille
cyrillic
cyrillic.
cyrillic.cyrillic
cyrilliccyrillic
cyrilliccyrilliccyrillic
cyrilliccyrilliccyrilliccyrillic
cyrilliccyrilliccyrilliccyrilliccyrillic
cyrilliccyrilliccyrilliccyrilliccyrilliccyrillic
cyrilliccyrilliccyrilliccyrilliccyrilliccyrilliccyrillic
cyrilliccyrilliccyrilliccyrilliccyrilliccyrilliccyrilliccyrillic
cyrilliccyrilliccyrilliccyrilliccyrilliccyrilliccyrilliccyrilliccyrillic
cyrilliccyrilliccyrilliccyrilliccyrilliccyrilliccyrilliccyrilliccyrilliccyrillic
cyrilliccyrilliccyrilliccyrilliccyrilliccyrilliccyrilliccyrilliccyrilliccyrilliccyrillic
cyrilliccyrilliccyrilliccyrilliccyrilliccyrilliccyrilliccyrilliccyrilliccyrilliccyrilliccyrillic
cyrilliccyrilliccyrilliccyrilliccyrilliccyrilliccyrilliccyrilliccyrilliccyrilliccyrilliccyrilliccyrillic
cyrilliccyrilliccyrilliccyrilliccyrilliccyrilliccyrilliccyrilliccyrilliccyrilliccyrilliccyrilliccyrilliccyrillic
cyrilliccyrilliccyrilliccyrilliccyrilliccyrilliccyrilliccyrilliccyrilliccyrilliccyrilliccyrilliccyrilliccyrilliccyrillic
cyrilliccyrilliccyrilliccyrilliccyrilliccyrilliccyrilliccyrilliccyrilliccyrilliccyrilliccyrilliccyrilliccyrilliccyrilliccyrillic
cyrus
cys
cyst
cysteine
cystic
cysts
cytochrome
cytokine
cytokines
cytoplasm
cytoplasmic
cytosine
cytoskeleton
cytosol
cytosolic
cytotoxic
cz
czar
czarna
czartoryski
czech
czechoslovak
czechoslovakia
czechoslovakian
czechs
czeslatinaw
czestochowa
czlatinuchow
czn
czw
c}
d
d#
d##
d###
d####
d&d
d'
d'affaires
d'afrique
d'agostino
d'alene
d'amato
d'amico
d'amore
d'ampezzo
d'angelo
d'arc
d'arcy
d'armor
d'art
d'artagnan
d'auvergne
d'azur
d'estaing
d'este
d'etat
d'etudes
d'histoire
d'hondt
d'honneur
d'isonzo
d'italia
d'ivoire
d'oise
d'onofrio
d'or
d'orleans
d'oro
d'orsay
d'oyly
d'souza
d-day
d-uh
d.
d.####
d.a.
d.b.
d.c
d.c.
d.c.category
d.d.
d.e.
d.f.
d.g.
d.h.
d.ii
d.j.
d.k.
d.l.
d.m.
d.o.
d.p.
d.phil
d.r.
d.s.
d.sc.
d.u
d.vii
d.w.
d3
d4
d7000
d:
da
daadeiya
daadri
daag
daaktry
daal
daala
daaldaal
daalegi
daali
daalna
daalne
daalo
daaloon
daam
daan
daant
daar
daaru
daastaan
daastan
daayan
dab
dabanng
dabay
dabbled
dabbling
dabney
dabny
dabo
dabomb
dabomb##
daboomalik
dabrowa
dabrowka
dabrowski
dac
dacca
dachau
dacia
dacian
dacians
dacre
dad
dad's
dada
dadaji
daddies
daddy
dade
dadi
dado
dads
dadu
dae
daedalus
daegu
daejeon
daemon
daewoo
daf
dafa
dafan
daffaires
daffy
dafoe
dafrique
daft
dafydd
dag
daga
dagan
dagar
dagblad
dagbladet
dagenham
dagens
dagestan
dagger
daggers
daggett
dagmar
dagobert
dagon
dagostino
dagupan
dah
dahej
dahi
dahiya
dahl
dahleez
dahlgren
dahlia
dahmer
dahn
dahomey
dai
daiei
daien
daigo
daihatsu
daiichi
daikh
daikha
daikhy
dail
dailey
dailies
dailogue
daily
dailybasharat
dailyem...@ebs.bbc.co.uk
dailyemebsbbccouk
daimler
daimlerchrysler
daimy
daimyo
dain
daina
dainik
dair
dairies
dairy
dairying
dais
daisies
daisuke
daisy
daite
daiteen
daito
daity
daizong
dak
daka
dakait
dakar
daken
daketi
dakhal
dakhila
dakhne
dakin
dakota
dakotas
dakotatalk
daksha
dakshin
dakshina
dal
dal-roti
dala
dalaa
dalaali
dalai
dalali
dalarna
dalby
dale
dalein
dalek
daleks
dalene
daler
dales
daley
dalglish
dalhousie
dali
dalia
dalian
dalida
dalit
dalits
dalke
dalkeith
dalkey
dall
dalla
dallaire
dallara
dallas
dalle
dalles
dally
dalmatia
dalmatian
dalmatians
dalna
dalnaey
dalne
dalroti
dalrymple
dalston
daltaaa
daltei
dalton
daltrey
daly
dalymount
dalziel
dam
dama
damaad
damadji
damage
damaged
damages
damaging
daman
damansara
damas
damascus
damato
dame
damen
dames
damian
damiano
damico
damien
damiens
damietta
damir
damm
dammam
damme
dammed
damming
damn
damnation
damned
damning
damnn
damnnnn
damodar
damoh
damon
damore
damp
damped
dampen
dampened
damper
dampers
dampezzo
dampier
damping
damr
dams
damsel
damselfly
dan
dana
danae
danang
danann
danbury
danby
dance
danceable
danced
dancefloor
dancehall
dancer
dancers
dances
dancewear
dancin
dancin'
dancing
danda
dandelion
dandelions
dandenong
dandha
dando
dandridge
dandy
dane
danelia
danes
danforth
dang
dangelo
danger
danger/help
dangerfield
dangerhelp
dangerous
dangerously
dangers
dangling
dani
danica
daniel
daniel.bryant
daniela
danielbryant
daniele
daniell
daniella
danielle
daniels
danielson
danielsson
daniil
danilo
danish
danjones@paulhastings.com
danjonespaulhastingscom
dank
danko
danmark
danmarks
dann
dannebrog
danner
danni
dannii
danny
danny_jones%enron@eott.com
dannyjonesenroneottcom
dano
danone
danorum
dans
danse
dansk
danske
danson
dante
dantes
danton
danube
danubian
danvers
danville
dany
danza
danzig
danziger
dao
daoism
daoist
daoud
dap
dapat
daphne
daphnia
dar
dara
daraa
daraar
darasal
darashata
darbar
darbary
darbhanga
darby
darc
darcy
dard
dardanelles
darde
dardedisco
dardeintazaar
darden
dare
dared
daredevil
daredevils
daren
dares
darfur
dargah
dari
daria
darien
darin
daring
dario
darius
dariusz
dariya
darjeeling
darji
dark
darke
darken
darkened
darkening
darker
darkest
darkgrey
darkhuwast
darkly
darkness
darko
darkroom
darkseid
darkside
darkstar
darla
darlene
darley
darling
darlinghurst
darlington
darmian
darmiya
darmor
darmstadt
darn
darna
darne
darnell
darnley
daron
daroo
darood
darpa
darpan
darpook
darr
darragh
darreh
darrel
darrell
darren
darrin
darrkeaage
darrow
darryl
darshan
dart
darta
dartagnan
darte
darter
dartford
darth
darti
dartington
dartmoor
dartmouth
darts
daru
darul
darunta
darussalam
darwazay
darwen
darwin
darwinek
darwinian
darwinism
darwish
darya
daryl
darzi
das
dasa
daschle
dasgupta
dash
dasharath
dashboard
dashed
dashes
dashiell
dashing
dasht
dashwood
dasovich
[...]
