!Name
!Outcome
!Percent
!RIGHT
!Total||##||#
!Total||#||#
!Votes
!\
!align
!bgcolor
!colspan
!colspan=#
!colspan=#|
!colspan=#|JR
!important
!rowspan
!style
!vote
!votes
!width
!width=##
#########X
######.jpg
######EN######
#####:####
#####EN#####
####'
####'s
####*
####*###
####+
####,####
####.
####.#
####.##
####.###
####.####
####.#######
####.##.##
####.,
####..
####...
####.A
####.According
####.After
####.All
####.Also
####.Although
####.Among
####.An
####.Another
####.As
####.At
####.Before
####.Between
####.Born
####.By
####.Citation
####.Currently
####.DEFAULTSORT
####.Despite
####.Due
####.During
####.Following
####.For
####.From
####.He
####.Her
####.His
####.However
####.In
####.It
####.Its
####.JPG
####.John
####.Later
####.Like
####.Many
####.Most
####.On
####.One
####.Other
####.Over
####.Prior
####.RIGHT
####.She
####.Since
####.Some
####.The
####.Their
####.There
####.They
####.This
####.To
####.Today
####.Two
####.Under
####.Upon
####.When
####.While
####.With
####.jpg
####.jpgFile
####.jpg|
####.jpg|The
####.png
####:#
####:##
####:###
####:####
####:####R##
####;##
####?
####A
####AD
####After
####As
####At
####B
####BC
####By
####C
####Category
####During
####EM
####EM##
####EM####
####EMthe
####EN
####EN#
####EN##
####EN###
####EN####
####EN####.
####EN####After
####EN####In
####EN####The
####EN##.
####ENApril
####ENDecember
####ENFebruary
####ENJanuary
####ENJuly
####ENJune
####ENMarch
####ENMay
####ENNovember
####ENOctober
####ENPresent
####ENSeptember
####ENpresent
####Following
####For
####From
####He
####In
####LEFT-TO-RIGHT
####M
####MINUS####
####On
####RIGHT
####RIGHTs
####S
####Source
####Talk
####The
####This
####United
####With
####a
####b
####c
####cc
####d
####i
####m
####mm
####p
####px
####s
####s####
####s.
####s.A
####s.The
####sAfter
####sEN####s
####sIn
####sThe
####st
####th
####x###
####x####
####||
####}
###'
###*
###*###
###+
###,
###,#
###,##
###,###
###,###+
###,###,###
###,###.##
###,###.The
###.#FM
###.#°
###...
###...###
###.In
###.The
###.jpg
###.jpgFile
###.jpg|
###.jpg|The
###:#
###:##
###:###
###:####
###A
###A.
###AD
###B
###BC
###C
###D
###E
###EM###
###EN#
###EN##
###EN###
###EN####
###EN###.
###ER
###F
###G
###GB
###H
###J
###K
###L
###List
###M
###MB
###MW
###N
###P
###R
###RIGHT
###S
###T
###Talk
###The
###V
###W
###X
###Z
###a
###b
###c
###cc
###cefa
###d
###e
###f
###ff
###ft
###g
###h
###hp
###i
###k
###kg
###km
###m
###ml
###mm
###nd
###p
###pp
###px
###rd
###s
###st
###th
###x
###x###
###||##||
###||##||##||#||##||#||###||##
###°
###°C
###°F
###×###
##%
##'
##'##
##'s
##*
##*###
##+
##+#
##.#EN##.#
##.#FM
##.#m
##.#mm
##.#°
##.#°C
##...
##.A
##.After
##.He
##.His
##.In
##.It
##.JPG
##.On
##.The
##.jpg
##.jpgFile
##.jpg|
##.jpg|The
##1FRACTION2
##1FRACTION3
##:#
##:##
##:###
##:####
##:###EN###
##:##.##
##:##:##
##:##EN##
##:##Z
##:##am
##:##pm
##:#.
##;##
##;###
##A
##A##
##A.
##As
##B
##B.
##Bs
##C
##C.
##Cs
##D
##E
##EM##
##EN#
##EN##
##EN###
##EN##.
##EN##EN#
##EN##EN##
##EN#EN#
##F
##G
##GB
##H
##In
##J
##K
##L
##M
##MB
##N
##On
##P
##PRIME
##Portal
##R
##RIGHT
##RIGHTs
##S
##T
##T##
##T##:##
##T##:##:##
##Talk
##The
##This
##U
##V
##W
##Wikipedia
##X
##a
##am
##b
##c
##cc
##cm
##d
##e
##er
##ers
##f
##ff
##ft
##g
##h
##hr
##k
##kg
##km
##m
##mm
##nd
##o
##p
##pm
##pts
##px
##rd
##rpm
##s
##st
##th
##th.
##thEN##th
##v
##x
##x#
##x##
##xx
##|##
##|##:##
##||
##||#
##||##||#||
##||#||
##||#||#||#||#||#||##||#
##||#||#||#||#||#||#||#||##||#
##||rowspan
##}
##¢
##°
##°##'
##°##'##
##°##'##E
##°##'##N
##°##'N
##°C
##°C.
##°F
##°N
##°S
##×
##×##
#$
#&#
#'
#'#
#'##
#'s
#*
#*###
#**
#+
#+#
#,
#,#
#,##
#,###
#,####
#,###+
#,###,###
#,###,###,###
#,###,###.##
#,###.
#,###.#
#,###.##
#,###.The
#,###EN#,###
#,###m
#,###th
#,##,###
#,#,#
#,#,#,#
#,#.#,#.#
#,E
#,N
#.
#.#
#.##
#.###
#.####
#.#####
#.######
#.#######
#.#########
#.###########
#.###############,##.##############,#
#.######,##.######,#
#.###.###
#.###m
#.##,#.##,#.##
#.##.#
#.##.##
#.##.####
#.##.In
#.##.The
#.##:#
#.##EN#.##
#.##am
#.##m
#.##mm
#.##pm
#.##x##mm
#.##×##mm
#.#,
#.#,#.#,#.#
#.#.
#.#.#
#.#.##
#.#.####
#.#.#.#
#.#:
#.#:#
#.#EN#
#.#EN##
#.#EN#.#
#.#L
#.#M
#.#bn
#.#em
#.#km
#.#m
#.#mm
#.#x
#.#°
#.,
#...
#.A
#.He
#.In
#.It
#.JPG
#.JPG|
#.Nc#
#.Nf#
#.On
#.See
#.The
#.c#
#.d#
#.e#
#.jpg
#.jpgFile
#.jpg|
#.jpg|Conus
#.jpg|The
#.png
#.x
#3FRACTION4
#:##AM
#:##EN##
#:##PM
#:##am
#:##pm
#:#.
#:#:#
#;
#=
#A
#A#
#A.
#AAPSavesYourMoney
#AD
#AM
#AcademicOfficeFail
#Acha_sorry_boys
#Adarsh
#Addiction1stFanmeetinginBKK
#Aero
#Afghanistan
#Al_Quran
#AntiIndiaAroonPurie
#ArunJaitley
#ArunLalLogic
#As
#Ashwin
#AsiaCupT20
#Av
#B
#B#D#FB
#B.
#BAN
#BEWAFAB
#BaaghiPoster
#Baalveer
#BadlaRelo
#Badlapura
#BeOurTrendTeamPartner
#Bengaluru
#BhaangKulfi
#Bhai
#Bharat
#BharatMataKiJai
#BharatMataKiJay
#Birthday
#BleedBlue
#BlockBusterMSG
#BudgetBT
#C
#CCC15
#CCCCCC
#CCCCFF
#CD
#CSK
#CV
#CWC
#CWC15
#CWC2015
#CantBeatIndia
#CelkonCheers4India
#ChickenFries
#Chu
#CongAIUDFNexus
#D
#D.
#DC
#DFEDFD
#DO
#DS
#DUMEM
#Dahleez
#DeclineOfIITB
#DesiRejectionLines
#Dhawan
#Dhoni
#DilSay
#DilwaleOnSony
#DimagSay
#Donedan
#E
#E#
#E#E#E#
#EN
#EN#
#EN##
#EN###
#EN##EN#
#EN#.#
#EN#.In
#EN#EN#
#EntertainmentNews
#F
#FFFFFF
#FakrHai
#February
#First
#FirstBollywood
#G
#GB
#GPP
#GREEK
#Gandalf
#GirlsInGreen
#Gudmrng_family
#H
#HBDIntellectualAffan
#Hansraj
#HappySunday
#HumIndiaWale
#I
#ICCT20WORLDCUP2016
#ICCWT20
#ICCWorldT20
#INDvPAK
#INDvsPAK
#INDvsSA
#IPLAuction
#In
#IndVPak
#IndVsPak
#IndVsSA
#IndWins
#India
#IndiaVsSouthAfrica
#IndianCricketTeam
#Indians
#IndiavsSA
#Indore
#IndvPak
#IndvdPak
#IndvsNZ
#IndvsPak
#IndvsSA
#IndvsSa
#IndvsWI"
#J
#JNU
#Janhavi
#January
#Jeet
#JeetKaNasha
#JioIndoreMarathon
#K
#K#
#K##
#KARACHI
#KapoorAndSons
#KheloFansKhelo
#Kids
#KiranKher
#L
#LIVE_10
#LifeTimeAchievement
#LoveForMSG2MSG2
#M
#MB
#MINUS
#MSG2Celebration
#MSG2in500CrClub
#MarchForProperty
#MarchMadness
#Mauka
#MaukaMauka
#Mirchi_Music_Awards2016
#MoodICG2k13
#Morkel
#MoukaMouka
#MyTeamMyPride
#N
#NE#
#NEWS
#NT
#October
#OldDelhi
#OldMonk
#On
#OneWhoGotAway
#Our
#P
#P2
#PAK
#PAKPhotoshop
#PAKvIND
#PAKvsIND
#PCB
#PCkumar
#PM
#PO
#PRIME
#Pac
#Pak
#Pakistan
#Party_Shoss
#Phatake
#PlayBold
#Portal
#Q
#R
#REDIRECT
#RIGHT
#RIGHTs
#RR
#RSS4India
#RaviShankarPrasad
#Respect
#Roadies
#RollBackExcise
#RollBackExciseOnJewellery
#RunIndoreRun
#S
#SAvsIND
#SadaSexyRaho
#SadarGabbarSingh
#SalutingSudhirChaudhry
#Saturday
#SiyaKeRam
#SouthAfrica
#SouvenirFromManali
#SriLanka
#Sunday
#SunoMyHeartSaysIshq
#Surprised
#SwaSan
#T
#Talk
#Tamasha
#TeamIndia
#Tera
#The
#This
#Thursday
#Tollywood
#U
#UP
#UP.com
#UPDATE
#V
#Victim
#W
#WC2015
#WCT20
#WD
#WT20
#WTFDHONI
#WakeMeUpWhen
#WantSwaSanIntenseTrack
#WeWontGiveItBack
#Wednesday
#WestIndies
#WewantCWC2015
#Wikipedia
#WontGiveItBack
#WorldCup2015
#X
#X#
#Xtra
#Yeh_Nahi_Dekha
#\
#\\
#\pi
#\right
#^#
#^{
#a
#aaa
#am
#amazing
#aus
#b
#badgirl
#bbffbb
#bjpexposed
#bjpkegunde
#blooddonation
#bloodforlife
#boaring
#buddha
#c
#ccffcc
#chan
#chawlen
#clap
#cm
#cricketsuperstition
#cryingTIME
#cwc15
#d
#e
#e#e#e#
#e#e#ff
#eeeeee
#efefef
#em
#eme
#er
#f
#f#f#f#
#faf#f#
#ffcccc
#ffffff
#ft
#g
#giveup
#gorgeous
#h
#heroinwebseries
#highlights
#hindi
#i
#if
#imrankhan
#in
#ind
#indvsPal
#indvsSA
#indvspak
#insomnia
#jije
#jingyu
#justsaying
#k
#kanhaiya
#keepcalm
#km
#kohli
#loadofcrap
#love
#m
#male
#massive
#media
#mekhlawings
#misbah
#mm
#morning
#ms
#n
#n+#
#nabia
#nametag
#national
#nd
#nz
#o
#office
#oldMonk
#p
#pak
#plz
#pm
#pravachanbaba
#printadverts
#pt
#pts
#px
#pzchat
#pzsundaychat
#qandeelbaloch
#r
#racist
#rd
#rr
#s
#s_ylw
#saWaly
#samestory
#sh_ylw
#shami
#sleepless
#soimportant
#st
#stars
#sunday_plans
#t
#tgif
#th
#thEN##th
#thEN#th
#timeline
#to
#today
#v
#vedic
#vo
#weizhou
#whatajoke
#wikipedia
#worlcupdobara
#wt20
#x
#x#
#x##
#x###
#x###m
#x##mm
#xx
#ye
#yuvi
#|
#||
#||##||#||
#||##||#||#||#||#||#||##||#
#||##||#||#||#||colspan
#||#||
#||#||#||#||#||#||#||#
#||#||#||#||#||#||#||#||#
#||#||#||#||#||colspan
#||align=left
#}
#}\
#}\left
#}\right
#}{
#¢
#°
#°C
#×
#×#
#×##
#×###
$
$$$
$ervice
$involved
$ome
$ometime$
$oya
%
%##
%##_noticeboard
%##amp
%#B######&action=edit
%#B#####&action=edit
%#Bndash
%#D
%#F#####
%#F######
%.The
%A#
%B#
%D#
%E#
%age
%d
%s
&
&#
&&
&=
&c
&c.
&theater
&{
'
'#
'##
'###
'####
'###'
'##'
'##s
'##th
''
'''
',
'.
'...
'.In
'.The
'000's
'02
'05
'07
'09
'60s
'67
'68
'70
'71
'72
'73
'74
':
'A
'Abd
'Akkab
'C'
'D
'Em
'Great
'Green
'It
'LL
'N
'National
'Ndrangheta
'R
'RIGHT
'S
'St
'The
'a
'ah
'ai
'all
'an
'and
'anic
'anti
'arte
'as
'at
'bad
'best
'big
'black
'bout
'cause
'd
'de
'do
'e
'easter
'ed
'em
'en
'er
'etat
'etudes
'ev
'ez
'first
'for
'free
'good
'great
'he
'high
'his
'histoire
'home
'honneur
'i
'in
'is
'it
'l
'left
'little
'live
'll
'llah
'm
'man
'mon
'more
'most
'mun
'my
'n
'n'
'n'Roll
'n'roll
'na
'natural
'new
'no
'non
'normal
'not
'nt
'o
'of
'official
'old
'on
'one
'or
'out
'pedia
'r
're
'real
'red
'right
'round
's
's.The
'second
'self
'small
'special
't
'that
'the
'this
'til
'to
'true
'two
'u
'un
'une
've
'very
'what
'white
'you
'}
(
(:
(?)
)
))
*
*#
*####
**
***
****
*****
******
**********
*******************
********************************
***********************************
*************************************
************************************************
******************************************************************
**yapa
*....**
*Delete
*Keep
*The
*ss
*}
*~*~*~*~*~*~*~*~*~*
+
+#
+##
+###
+####
+##.#
+#.#
+#.##
+#.###
++
+++
++++
+++++
++++++
++++++++++++++++++
+++Ye
++Lar
+1
+44
+852
+923443049401
,
,#
,##
,###
,####
,##,##,#,N,###,##,#,E
,##,##,#,N,###,#,#,E
,##,#,#,N,###,##,#,E
,$
,'
,,
,,,
,,,,
,,,,,
,,,,,,,,,,
,.
,...
,?
,East
,GREEK
,Mymensingh
,RIGHT
,Satkhira
,Vardak
,\
,\dots
,\ldots
,\n
,a
,and
,as
,b
,black
,but
,etc.
,he
,i
,in
,is
,it
,j
,m
,n
,or
,p
,p.
,premier
,q
,s
,so
,t
,the
,they
,to
,v
,where
,which
,white
,who
,with
,x
,x_#
,y
,y,z
-
-*Acha
-*Achay
-*Agr
-*Bhi
-*Din
-*Hain
-*Insaan
-*Ko
-*Kr
-*Kro
-*Subha
-*To
-*Uth
-*Yaad
--
---
----
-----
------
---------
-------------------
---------------------------
------------------------------
-----------------------------------------------
------------------------------------------------
--------------------------------------------------
------------------------------------------------------
-------------------------------------------------------------
----------------------------------------------------------------
------------------------------------------------------------------
-------------------------------------------------------------------
---------------------------------------------------------------------
----------------------------------------------------------------------
-----------------------------------------------------------------------
---------------------------------------------------------------------------
-----=
-----==
----==
---->===}*{===<----
---=
-.-
-2-F.doc
-=>
->
-Been
-ECT-KEDNE
-FINAL.doc
-I
-Stip
-_-
-are
-ll
-raHuL™
-s
.
.!
.!!!
.#
.##
.###
.####
.##.#
.##.###.###.###
.##:##
.#.
.#.#
.#em
.*
.,
.,.,
.,.,.
.,.,.,
.,.,..
..
..!
..!!
..!!!
..,
...
...!
...!!
...!!!
...!.
...,
....
....!!
....!!!
....!.
.....
.....!!!!!!
.....,
......
......!
.......
........
.........
..........
...........
............
..............
...............
....................
.....................
.......?
....?
....????
....?????
....The
...?
...?!!!
...???
...And
...But
...He
...I
...In
...It
...RIGHT
...The
...This
...We
...a
...an
...and
...as
...but
...for
...he
...if
...in
...is
...it
...one
...or
...so
...that
...the
...there
...they
...this
...to
...was
...we
...which
...with
...you
..:
..?
..??
./
.04
.15
.:
.==
.==References
.?
.??
.???
.A
.About
.According
.Additional
.Additionally
.After
.All
.Along
.Also
.Although
.American
.Among
.An
.And
.Another
.Any
.Apart
.Arbitrators
.Around
.Article
.Articles
.As
.Aside
.At
.BULLET
.Back
.Based
.Because
.Before
.Beginning
.Being
.Below
.Ben
.Besides
.Best
.Between
.Beyond
.Bill
.Bishop
.Black
.Bob
.Born
.Both
.British
.Brown
.Built
.But
.By
.Currently
.DEFAULTSORT
.Daniel
.David
.Davis
.De
.Depending
.Despite
.Different
.Do
.Does
.Dr.
.Due
.During
.EMKww
.EMThe
.Each
.Earlier
.Early
.East
.Edit
.Edward
.Episode
.Established
.Even
.Eventually
.Every
.Example
.Examples
.Famous
.Final
.Finally
.First
.Five
.Following
.For
.Former
.Formerly
.Fort
.Founded
.Four
.From
.Full
.Further
.Furthermore
.General
.Generally
.George
.Given
.Having
.He
.Her
.High
.Highway
.His
.Historically
.History
.How
.Howard
.However
.If
.Image
.Immediately
.In
.Initially
.Is
.It
.Its
.JPG
.JPG|
.JPG|A
.JPG|The
.James
.John
.Johnson
.Jones
.King
.Known
.LEFTThe
.Later
.Let
.Like
.Local
.Located
.Lord
.Main
.Major
.Many
.Mark
.Martin
.Mary
.May
.Meanwhile
.Members
.Michael
.Mike
.Miller
.Modern
.More
.Moreover
.Most
.Mr.
.Mrs
.Much
.My
.NET
.NOTE
.National
.Near
.Net
.Nevertheless
.New
.Next
.No
.North
.Not
.Notable
.Note
.Now
.Numerous
.Of
.Often
.Old
.On
.Once
.One
.Only
.Original
.Originally
.Other
.Others
.Our
.Out
.Outside
.Over
.Overall
.PNG
.Part
.Paul
.People
.Perhaps
.Peter
.Players
.Please
.President
.Previously
.Prior
.Professor
.Public
.RIGHT
.RIGHTIn
.RIGHTRIGHT
.RIGHTThe
.Recent
.Recently
.Regarding
.Released
.Research
.Returning
.Richard
.Robert
.Saint
.Sam
.San
.Scene
.Scott
.Season
.Second
.Section
.See
.Set
.Seven
.Several
.She
.Shortly
.Similar
.Similarly
.Simon
.Since
.Sir
.Six
.Small
.Smith
.So
.Social
.Some
.Sometime
.Sometimes
.Soon
.Source
.South
.Special
.Species
.St
.Starting
.State
.Stephen
.Steve
.Still
.Students
.Subsequent
.Subsequently
.Such
.Support
.Thank
.Thanks
.That
.The
.Their
.Then
.There
.These
.They
.This
.Thomas
.Those
.Though
.Three
.Through
.Throughout
.Thus
.To
.Today
.Together
.Top
.Two
.U.S.
.Ultimately
.Up
.Upon
.Use
.User
.Users
.Using
.Usually
.Van
.Various
.Very
.Walker
.Washington
.Water
.We
.Well
.West
.Wikipedia
.William
.Williams
.Wilson
.Windows
.With
.Within
.Without
.Wright
.Years
.Yet
.You
.Young
._.
.a
.ac.uk
.am
.and
.append
.ar
.arp.###pix
.aspx
.at
.au
.bbc.co.uk
.blogspot.com
.blogspot.com.This
.ca
.co.nz
.co.uk
.com
.com.This
.css
.d
.de
.de.This
.dk
.doc
.e
.edu
.es
.eu
.exe
.fi
.fm
.fr
.fr.This
.g
.g.
.gif
.gifFile
.gifFile:Census
.google
.gov
.gov.uk
.h
.hack
.hr
.htm
.html
.hu
.i
.ie
.in
.info
.info.
.it
.jp
.jpeg
.jpg
.jpgFile
.jpg|
.jpg|#
.jpg|##
.jpg|####
.jpg|A
.jpg|An
.jpg|File
.jpg|Former
.jpg|Lake
.jpg|Looking
.jpg|Old
.jpg|Portrait
.jpg|St
.jpg|The
.jpg|View
.js
.jur
.l
.length
.m.
.mil
.net
.net.This
.nl
.no
.ns
.nz
.o
.ogg
.org
.org.This
.pdf
.php
.pl
.png
.pngFile
.py
.replace
.rf
.ro
.ru
.ru.This
.s
.se
.sg
.sk
.state
.style
.svg
.svgFile
.svg|
.svg|Coat
.svg|Flag
.svg|The
.the
.tv
.txt
.ua
.uk
.us
.v.
.value
.vcf
.wiki
.wikimedia
.wikipedia
.wordpress.com
.x
.xxx
.}Users
/
//
/\
0
0.0022
0.0076
0.0585
0.10
0.1171
0.27
0.3931
0.70
0000108806
00:20
01
01-Feb-02
01/11/2001
01/12/2001
01/13/2001
01/19/01
01/19/2001
01/24/2001
01/25/2001
01/25/2002
01/26/2001
0102
01040-2841
01634
01:00:51
01:02
01:04
01:09
01:09:32
01:14
01:32:35
01:35
01:39:56
01:47
01:50
01:57
01:58
02
02-05-02.doc
02/13/2001
02/22/2001
02/27/2001
02/28/2001
02920
02:02
02:10
02:17
02:18
02:19
02:21
02:28
02:29
02:34
02:39:27
02:42
02:45:50
02:49
03
03/01/2001
03/02/2001
03/04/2001
03/08/2000
03/09/2000
03/10/2000
03/15/2001
03/16/2001
03/21/2001
03/23/2001
03/26/2001
03/27/2001
03/28/2001
03/29/2001
0308.doc
03:00
03:10:35
03:11
03:13:58
03:14:14
03:15
03:16
03:17:01
03:20
03:22
03:31
03:33
03:43
03:48
03:51
03:58
04
04/04/2001
04/16/2001
04/25/01
04/26/2001
04/28/2000
04/30/2001
0400
0417
0448
0491
04:03
04:06:52
04:11
04:13
04:17
04:18
04:28
04:31
04:34
04:37
04:41
04:44
04:49
04:50
04:52
05
05/01/2001
05/02/2001
05/03/2001
05/17/99
05/22/2001
05/25/2001
05/30/2001
05/31/2001
050901.doc
05:07
05:09
05:12:00
05:17
05:37
05:39
05:51
05:54
05:59
06
06/01/2000
06/01/2001
06/02/2001
06/04/01
06/04/2001
06/12/2000
06:00:56
06:02
06:03:48
06:05
06:07
06:15
06:16
06:20
06:23
06:28
07
07/06/2000
07/14/2000
07/17/2000
07/18/2000
07/19/2001
07/30/2001
07412-235423
07551310002
07:03:00
07:17
07:18:20
07:24
07:35
07:48:44
07:50
07:55
08/01/2001
08/03/2000
08/07/2001
08/08/2000
08/10/2000
08/15/2000
08/16/2000
08/17/2000
0800
0832
08759
08:00
08:02
08:14:00
08:15
08:22
08:23
08:27:46
08:28
08:36:00
08:38
08:50
08:50:01
08:52
08:55
08:58
09
09/03/99
09/08/2000
09/11/99
09/15/99
09/16/99
09/17/99
09/20/2000
09250512222
09819602175
09838709391
09:01
09:11
09:14
09:22
09:24
09:25
09:27
09:32
09:36
09:36:00
09:37
09:40
09:45
09:46
09:48
09:52
09:55
09:56
0:4
0n
0nside
1
1%P701!.doc
1,000
1,100
1,183
1,200
1,250,000
1,350
1,613
1,650,000
1,700
1,922,000
1,993,045
1-
1-800-238-5355
1-800-991-9019
1-877-331-6867
1.00
1.024
1.1
1.25
1.3
1.5
1.50
1.6
1.65
1.8
1.800.233.1234
1.877.999.3223
1.888.509.3736
1/2
1/29/02
1/30/10
1/31
10
10,000
10,000.00
10,274,494
10-12
10.0
10.000.000
10.2
10.6
10.74
10.9
10.99
10/08/99
10/20/2000
10/23/2000
10/26/2000
10/27/2000
10/29/2000
10/31/00
10/31/2000
100
100%
100's
100,000
100,000,000,000
1000
1000.00
10016
1002`s
10030
100ka
101
102
1027
103
10300
104
10461
10468
10469
1049
105
1051
106
108.333
1080
10:00
10:05
10:07
10:13
10:16
10:20
10:25
10:30
10:34
10:39:03
10:40
10:44
10:45
10:46
10:46:08
10:51
10:52
10:53
10:56
10:57:32
10K
10MM
10k
10th
11
11-20-2000
11.5
11/01/01
11/03
11/08/2000
11/09/2000
11/1/01
11/10/2000
11/13/2000
11/14/2000
11/15/2000
11/16/2005
11/2
11/20/2004
11/22/2000
11/27/2000
11/28/2000
11/29/00
11/29/2000
11/30/2000
11/7/08
11/8/00
11/8/2000
110
110,555
1100
11030
111
112
112,610
11201
11222
113
115
11608
1179
11831
119runs
11:00
11:02
11:05
11:07
11:08
11:15:11
11:16:00
11:16:25
11:16:58
11:21
11:23
11:25
11:26
11:30
11:32
11:34
11:35
11:36
11:37
11:42
11:45
11:48
11:57
11:58
11AM
11th
12
12's
12,000
12,514,373
12-20-00.doc
12-20-2000
12.45
12.46
12.48
12.99
12/07/2000
12/14/2000
12/21/2000
12/22/2000
12/26/2000
12/26/2004
12/27
12/28
120
120,000
125
1251
126
129
12:00
12:01
12:03
12:05
12:12
12:15
12:21
12:24
12:30
12:33
12:35
12:36
12:42
12:42:55
12:45
12:48
12th
13
13.9
130
1300
13011
1302
1307
1316
1327
13279
13339
13381
13389
1341
1348
137
1381
13s
13th
14
14,000
14.2
140
1400
143
14721
1483
1490s
14:14
14:57
14th
15
15+
15,000
15-20
150
150,000
1500
150301
1504
1520
1525
1527
1528
1530
1533
1535
153B09
1542
1550
1551
1552
1555
1559
1560
1561
1562
1570
1572
1574
1575
1576
1579
1580
1584
1588
1590
1590's
1593
1594
15th
16
16's
16,000,000,000
16,900
16-…
16.2
16.3
16.379
16.4
16/10/2004
16/11/2004
160-170
160.00
1600
16000
1605
1611
1614
1647
165.9
166,960
1689
1691
16:29
16s
16th
17
170
1701
1717
175
17611
177
1774
1775
1776
17:32
17H
17th
18
18,000
180.9
181
1810
185
187
1888
189
1890
1892
18:11
18:20
18:32
18T
18th
19
19,250,000
19/11/2004
1904
1908
191
1912
1920s
1926
1928
1937
1943
1945
1946
1947
1949
195,610
1954
1955
1957
1960's
1960s
1962
1964
1966
1967
1968
1969
1970
1970s
1971
1972
1973
1974
1975
1976
1977
1978
1980
1980s
1982
1983
1984
1986
1987
1989
1990
1990s
1991
1992
1993
1995
1996
1997
1998
1998-99
1999
19:14
19th
1:00
1:30
1?!?!?
1FRACTION2
1FRACTION3
1FRACTION4
1Q
1S9
1am
1baje
1e
1pm
1st
1yr
2
2,000
2,210
2,239,879
2,500
2-
2-4
2.0
2.00
2.2
2.3
2.4
2.5
2.7
2.8
2.975
2/14/2005
2/15/2005
2/2
2/3
2/7/2005
20
20%
20's
20,000
20,000,000
20.000
20.doc
200
200,000
200,000,000,000
200,987.33
2000
20001
20005
20006
20006-3700
2001
2002
2003
2004
2005
2006
2007
2008
2009
2010
2011
2012
2013
2013-15
2014
2014-15)ka
2015
2016
2018
2019
202
202,989
202-466-9142
202-828-3372
202.429.1700
202.456.1111
202.456.1414
202.456.2461
202.582.1234
202.637.4781
202.739.0134
202.785.0786
2029
203-719-7031
203-719-8385
203.674.7723
203.961.7523
205
2050
207
20s
20th
20years
21
21,000
21,600
21/03/2001
210
2102
211
212
212-428-1181
212-848-8400
212-902-3724
21202
215
215,000
2158
216-292-2855
216-292-7207
217
21st
22
22,101
22,600
22,750,000
220
220a
220b
22301
22nd
22s
22th
23
23,000
23.8
230
2300
2301
235-1972
237
238
23rd
24
24,000
240
243,000
248
249
25
25,000
25.00
25/01/2001
250
250,393
2500
253
2539
2543
2545
256,000
259
25th
26
26/09/2000
260
264
265,932
268
26th
26…
27
27,361
27,886
27.doc
270
2710
272,000
27th
28
28-2-2016
28/10/2004
281
281-435-0295
281-443-3744
281-514-3183
281-518-1081
281-518-9526
281-735-5919
281.848.1619
284
28601
28th
29
295870
296-3858
29th
2:00
2:25
2:30
2:300
2;30
2hr
2nd
2no
2scompany
3
3,
3,000
3,200
3,202.61
3,300,000
3,40
3,500
3,500,000
3,993,310
3-1
3-1663
3-3264
3-4
3-5076
3-5213
3-5290
3-5297
3.
3.0
3.1
3.2
3.29
3.30
3.5
3.7
3.75
3.8
3/03
3/10/00
3/8/00
3/9/00
3/9/2005
30
30,858
30.00
300
300+
300,000
3002311931
303-294-4499
303-832-8160
306
3067
30s
30th
31
31,000
31,180
311
312-666-2372
3143C
315
315-460-3344
315-460-3349
31st
32
32,387
32.500
3200
328
33
33,000
330
330i
331
34
34.6
340
3400
345-3436
345-8702
345-9945
35
35,000
350
350,000
35620
36
36,000,000,000
36,398
360
3611
362416
36349
365013
366
36647
37
375
376-9004
37625
38
38,000
38,750,000
380
3801A
3801a
3889
39
3901
3926
398,487
39938
3:00
3:15
3:29
3:30
3FRACTION4
3G
3am
3d
3no
3rd
3s
4
4,223,000
4,700
4-12
4-pointer
4.0
4.319
4.355
4.5
4.6
4.7
4.98
4.99
4/14/00
40
40,000
40,000,000
40-50
400
4000
401.3
404-449-1026
40404
4054
408
41
410-468-3499
410-468-3798
4101
4105SF
411507
413
415
415.621.8317
415.782.7822
4153030
416-865-3700
416-865-3703
416-865-3704
4193
41st
42
42,000
42,000.00
42,008
420,588
420072
422
4222
42299
425-415-3052
425-415-3098
425-922-0475
42am
43
43,548
43.6
430
43228
432785
4350
44
44,000
44122
4434
445
448-9499
45
45's
45000
451
46
460,000
46093
4632
4641
46C1
47
47's
47,500
4783
47K202!.DOC
48
4809
483.00
48604
4861
489
49
4:00
4:30
4:50
4G
4TH
4_28_00.doc
4g
4gamer
4s
4th
4thie
5
5,000
5.1
5.10
5.2
5.30
5.37
5.5
5.6
5.76
5.8
5.87
5/1/01
5/18
5/28/00
5/30/00
50
50%
50%macth
50's
50,000
500
500%
500.00
5000
501
503/464-7927
505-625-8031
508
50k
50th
51
510-642-3689
510-642-5145
5107
512
512-232-2787
512-471-5073
52
5233
5249025
5250
528-8636
53
53,000
532-3836
535-4000
53596
538
54
540,000
548
55
55,008
55,678
550
55th
56
567.77
57
571-9571
572
575
5765
577
582
58369
59
59,339
5:00
5:30
5pm
5th
5x
6
6,000
6,363,217
6,606
6.00
6.1
6.2.1
6.25
6.3
6.5
6.8
6/1/01
6/14
6/4/11
60
60's
60,000
60,008
600
600-480
60000
60622
60s
61
61,000,000,000
610
611
612-205-9814
615
619-231-9449
619-696-6966
62
62,500
620-294-1909
620-294-3000
620-294-4000
63
631
64.2
64.73
6400
646-2495
646-2600
646-3490
646-5847
646-8420
648
65
650
651-7106
6565
65k
66
66.80
665
67
68
68.4
680
6871082#
69
6:00
6:30
6TH
6th
7
7,000
7,5
7.22
7.5
7/16
7/26/08
70
70's
70.85
700
70000
703.729.2710
7034
7037686710
705-7201
707-885-2508
70s
71
710-6084
710033
713
713-546-5000
713-646-3393
713-654-0365
713-654-1281
713-664-7478
713-790-2605
713-793-1429
713-793-2000
713-819-2784
713-853-1696
713-853-3044
713-853-3098
713-853-3989
713-853-4743
713.306.7940
713.837.1638
713.853.3102
713.864.4149
713/345-7942
713/646-6505
713/853-5025
713/853-5984
713/853-6197
713/871-5119
718-780-0046
718-780-0276
72
72,000
723
725
73
730
732-657-3416
744
74419
7484
75
750
750,000
755-1109
759933
76
763736
77.92
77002
77030-2707
77042-2016
7737897988
77388-5746
77415-0027
77541
78
78's
78712-1179
788
79
79,000
7979
7:00
7:30
7:35
7pm
7th
7years
8
8,000
8.25
8.95
8/28/2005
8/30/2005
80
80%
80's
80,000
800
800-553-3119
800.713.8600
800/711-8000
80435
80Y
80s
81
814014
82
825
8274
828-296-8466
828-3933
83
83.5
832.676.1329
832.676.3177
83N
84
84838389593
85
85,000
85.000
850
850-748-0740
853-0569
853-3242
853-5620
853-7408
853-7557
853-7906
857-771
859-7187
860-665-2368
869
86M
87
88
884
888-422-7132
888.916.7184
891-5042
899-4310
899-4425
8:00
8:15
8:30
8:35
8am
8k
8oo
8th
9
9-11
9.3
9.30
9.45
9.5
9.62
9.95
9/11
9/26/2005
9/30/01
90
90%
90's
9000
9002271571
909-0951
90s
916
917
919819602175
92
92.7
920
92101
9221
92842
93
93.5
94
94.40
940
9406636779
943
94305-5015
945
94720-1900
94720-5180
95
95,000
950
96
965
969
973-2776
973-3634
974-6721
978
978-376-9004
979
9800
98011
9822357330
985
9866
989
99
9922902946
995
9:30
9pm
9th
9vi
:
:#
:##
:###
:####
:#####
:######
:#######
:########
:####.##
:####EN##
:####EN####
:####PlotData=
:####R##
:####h
:####s
:###.###.###.##
:###.###.###.###
:###.###.##.###
:###EN###
:###PlotData=
:###px
:###th
:##.#
:##.##
:##.####
:##.###.###.##
:##.###.###.###
:##.###.##.##
:##.###.##.###
:##.##.###.##
:##.##.###.###
:##.##.##.###
:##:##
:##EN##
:##Z
:##px
:##th
:#.
:#.#
:#.##
:#.#em
:#E#E#E#
:#FF####
:#FF####;color
:#FFFFFF
:#b#e#e#
:#e#e#e#
:#em
:#f#f#e#
:#f#f#f#
:#fff
:#ffffff
:#nd
:#px
:#rd
:#st
:#th
:$
:'(
:')
:(
:(((
:)
:))
:*
:-)
:-)))
:-/
:-D
:-P
:-\\
:-p
:.
:/
::
::Talk
:=
:?
:A
:Adam
:African
:Al
:Albert
:Alexander
:All
:American
:An
:Ancient
:Andrew
:Andy
:Anglican
:Anthony
:Anti
:Arizona
:Arkansas
:Art
:Arthur
:Articles
:As
:Australian
:B
:BULLET
:Barack
:Baseball
:Bass
:Battle
:Ben
:Benjamin
:Big
:Bill
:Biographies
:Bishops
:Black
:Blue
:Bob
:Books
:BorgQueen
:Boston
:Bots
:Brian
:British
:Brown
:Buildings
:Bundesarchiv
:CJKCJK
:CJKCJKCJK
:Canadian
:Category
:Christian
:Cities
:Companies
:D
:DR
:Dams
:Dan
:Daniel
:Data
:Dave
:David
:Defunct
:Delaware
:Deletion
:Did
:Do
:Don
:Drums
:ES####
:Early
:East
:Eastern
:Ed
:Education
:Edward
:El
:England
:English
:Estonian
:Etiquette
:European
:Example
:F
:FI####
:FO####
:Fair
:Featured
:Federal
:Female
:Fictional
:File
:Film
:Films
:First
:Flag
:Football
:For
:Former
:Fort
:GE####
:GP
:Gary
:General
:Geography
:George
:Georgia
:German
:Government
:Grand
:Gray###.png|The
:Great
:Green
:Guitar
:Guitars
:HW####
:Harry
:High
:Historic
:History
:House
:Houston
:How
:IMG
:Idaho
:If
:Image
:Images
:India
:Indian
:Indiana
:Indianapolis
:Infobox
:International
:Irish
:It
:Italian
:Jack
:Jackson
:James
:Jan
:Japan
:Japanese
:Jean
:Jeff
:Jewish
:Jim
:Jimbo
:Joe
:John
:Joseph
:Kansas
:Kentucky
:Kevin
:King
:Korea
:Korean
:LGBT
:La
:Lake
:Law
:Lincoln
:List
:Lists
:Little
:Living
:Logo
:London
:Louis
:Louisiana
:Louisville
:M
:ME####
:Main
:Manual
:Map
:Mark
:Martin
:Mary
:Massachusetts
:Matt
:Media
:Mediation
:Members
:Metro
:Michael
:Middle
:Mike
:Military
:Miscellany
:Mississippi
:Motto
:Mount
:Museums
:Music
:My
:NAM#
:NAM##
:NM####
:Naming
:National
:Nebraska
:Neutral
:New
:Nick
:Nickelodeon
:No
:Non
:North
:Northern
:Norway
:Norwegian
:Notability
:Note
:O
:Ohio
:Old
:Olympic
:On
:One
:Oregon
:OrphanBot|OrphanBot
:P
:PA
:PD
:Pages
:Paul
:Peer
:People
:Peter
:Pichilemu
:Picture
:Political
:Politics
:Populated
:Port
:Prisoners
:Proposed
:Protected
:Public
:RI####
:Radio
:Railway
:Red
:Redirects
:Reference
:Reference_desk
:Reliable
:Religion
:Requested
:Requests
:Requests_for_arbitration
:Richard
:River
:Robert
:Rock
:Roman
:Royal
:Russian
:S
:SK####
:SM####
:STS
:Saint
:Sam
:Samuel
:San
:SandyGeorgia
:Santa
:Saskatchewan
:School
:Schools
:Science
:Scott
:Seal
:Seattle
:Seb
:Sheffield
:Sockpuppet
:South
:Southern
:Speculative
:Sports
:St
:Star
:State
:Stephen
:Steve
:Stub
:Suspected
:TD
:TS
:Television
:Texas
:The
:This
:Thomas
:Tom
:Transportation
:U.S.
:UK
:US
:USA
:USCongRep
:USS
:User
:Utah
:Van
:Verifiability
:Version
:Victoria
:View
:Village
:Visitor
:Vocals
:Votes
:Walter
:Washington
:Water
:West
:Western
:Wiki
:WikiProject
:WikiProject_Spam
:Wikipedia
:Wikipedian
:Wikipedians
:William
:Women
:World
:Wyoming
:X
:XS
:Yorkshire
:Zoe|
:Zscout###
:a
:auto
:back
:barcolor
:barra
:bass
:bg
:bl#
:black
:blue
:blue#
:bold
:bottom
:break
:canvas
:center
:darkgrey
:drums
:end
:eocene
:era
:from
:gray
:gray#
:green
:guitar
:horizontal
:in
:left
:lightgrey
:line
:miocene
:none
:o
:orange
:p
:pink
:powderblue
:purple
:red
:red#
:rgb
:right
:s
:sfondo
:sfondoBarData=
:silver
:silver;text
:solid
:space
:start
:the
:till
:v
:vertical
:vocals
:white
:whitesmoke
:year
:yellow
:yellowgreen
:yyyy
:yyyyColors
;
;#
;##
;###
;'''
;)
;,-
;-)
;D
;P
;\
<
<!
<-
</3
</S>
<3
<<
<PAD>
<S>
<UNK>
=
=#
=##
=(
=)
=---
=-----
=3
==
==----
===================================================
====================================================
==============================================================================
===>
==External
==History
==References
=D
>
>#
>##
>###
>----------------------------------------------------------------------------|
>:(
>:o
>=
>>
>>>
?
?!
?!?
?!?!?
?#
?##.###.###.###
?##.##.###.###
?##:##
?'
?.
??
??.
???
???!!!
????
?????
??????
?????????....
????????????
???????????????
?????????????????????????????????????????????????????????
?EN####
?It
?RIGHT
?ng
?title=
?title=List+of+asteroids
?title=User_talk
?title=Wikipedia
@
@###
@0__1
@101santosh1
@10Hazarddd
@1CricFan
@1Shelina
@2012_guha
@240
@65Alazeem
@6jhmk
@8beedb8223a84e9
@AAPInNews
@AAPKA_RK
@ADILJIBRAN
@AHS20022
@AJumbled
@ANI_news
@ANJALIS91314362
@ARangarajan1972
@AaadiVaashi
@AamAadmiParty
@AamirMeriJaan
@Aap
@AapKaGopalRai
@Aashi_81
@AashuParashar3
@Aasshiqq
@AatifAzio
@AbbtakkE
@Abhineetofkings
@Addi_Salman
@AdiAlone_
@Afaq_Sharif
@AjmalAwan18
@AkkiTalks
@AksharPathak
@AkshayA80203737
@AleenaRajputPTI
@AliRazaMangi
@AmaalMallik
@AmanKayamHai
@Amrapaligroups
@AneelaWKhan
@AnjumIqbalPTI
@Anoushey_a
@AnubhaShukla7
@AnupamPkher
@Anureet18
@AnushkaSharma
@Areenge
@Ariba1603
@Aribers
@ArjunIrplast
@ArvindKejriwal
@ArvindKejriwalplz
@AsifaMugal
@AsimShahidPTI
@AskThePankazzzz
@Astha_Bhardwaj
@Athar_r
@Atheist_Krishna
@AyishaBaloch
@AzmiShabana
@BCCI
@BDUTT
@BJP4India
@BJPAssam2016
@BJPRajnathSingh
@BLRrocKS
@BUBLOO_GS
@BaaghiOffical
@Babu_Bhaiyaa
@BadlapurFilm
@BashirBukhari1
@BehanHunTeri
@BeingAdiNair
@BeingKushSharma
@BeingSK_Soul
@BeingSalmanKhan
@BeingSalmaniac1
@BeingSkChetan
@Being_Ridham
@Beingakashss
@BhateKetan
@Bhavna22
@BhokalTweet
@Bhu_umi
@BiKhRe_PhOoL
@BigGrenade
@BilalAhmadwazir
@Bunny0_o
@CRICKET_ZALMI
@CallMeNini_
@CatchNews
@CelkonMobile
@Challa_SRKian
@ChannelvIndia
@ChawalaRiya
@ChikaraHimanshu
@ChocolateCharsi
@ClownPrinceG
@ColSehrawat
@ColorsTV
@Comedy_N_Bachao
@CoupSteer
@CuteMadhu16
@DDNewsHindi
@Daily_Basharat
@DarrKeAage
@Dawoodnusrat
@Desireux
@Dhoniobesessed
@DhonixFaithful
@DilliDurAst
@Dipti1104
@Divya_Bhaskar
@DrGarekar
@DreamLike1D
@DuttYogi
@Eatstory
@EchoOfIndia
@Ek_AAPtard
@Ekakkian
@ErNayansingh
@Evangelic_Sanzu
@FanSidharth
@FanTheFilm
@FarhanKVirk
@FaslaRakhein
@FatimaKiMoM
@FilzaHafeezian8
@FragranceO_Oo_
@FreddieFaizan
@FuN_PaKiStAnON
@GaietiesOfMind
@Gurmeetramrahim
@HDFCLIFE
@HMOIndia
@HRDMinistry
@HajraAbbottaba
@HakeemHera
@HamzaIdrees
@HasnaZarooriHai
@Hassoo84
@HiiSRK
@HinduRajyam
@Hones8Liar
@HudHud_Dabangg
@HudaKhan_
@Humor_Donor
@Huss_Master
@ICC
@I_Love_U_SRK
@I_RimjhimR
@IamAbhijit
@IamMansoorKhan
@IamSalaar
@IamSunilPathak
@Iam_bhagyasree
@Iamharry007
@IdrisGandhi
@ImKrish35
@Ime_n_mySalman
@ImpatientWoman
@ImranKhanPTI
@ImranSaeedKhan1Ur
@ImranaK86597974
@Imrankhanworld
@Imshellyverma
@Incognito_River
@IndiaSpeaksPR
@IndiaToday
@India_Policy
@InzamamLive
@ItsARipper
@ItzJatt
@JacyKhan
@JahanurAamir
@Jammy_PK
@JantaKaReporter
@Javedakhtarjadu
@JhaSanjay
@JhaSumanta
@Jhalli_AS
@JodhpurTrafficP
@JokesDostiEtc
@JoySrkian
@Justice_ORNAB
@KHer
@KajuKatli__
@KaleemAltafi
@Kallerz37
@KashifSRKian
@KatrinaDiAishu9
@KattarSalmaniac
@KesariyaBalam_
@KhanKiTigress
@KhiladiForever
@Khushi_Ranbir
@KohliForLife
@KumarVkd
@KyaUkhaadLega
@LSmallScreen
@LaghateParth
@LaherSingh1
@Lakshmila_
@LavanyaUrLust
@Laza_ruse
@LeMeBuntty
@LeoticMadridist
@Liaqat842
@LifelessTweep
@Lovemymessi
@MANISHHAZRA1
@MANJULtoons
@MSdhoni_7781
@MUKESH42957410
@Madan_Chikna
@MairaFaiz
@MakhanMalaai
@Manu_Moyal
@MdRizwan4
@MeeratTariq1
@MehakTweets_
@MehekF
@MehrTarar
@MhatrePriyu
@MikaSingh
@MildlyClassic
@Mirchi_Uff
@MirzaSania
@Mishi091_
@Mithil200
@MrsGandhi
@MubashirZaidi
@Murtaxa_Syed
@Muskurahateinn
@MyCricWin
@MyLifeRCM
@MyloMegha
@NEELM4NI
@NSaina
@NabeelaAapa
@Nair_Rinku
@NamlaSZ
@NasimZehra
@Nawabzaadaa
@Nazir28Sheri
@NazranaYusufzai
@Neelkhan0209
@NeetuGarg6
@NeverForgetpk
@NextToSRK
@NimmyRajan
@Nirmalogy
@NowToSRK
@OG_Breezyy
@OfficeOfRG
@OfficialHelly7
@OmamaGhauri
@Onedotin
@Only1swapOneal
@OyeMaria
@PMOIndia
@Pallaweee
@PandaJay
@PawanDurani
@Pharmacist_awan
@PiuChatterjee1
@Piyar_Ki_BarSaTSnd
@PowerPlayWorld
@PrabhakarDwiv20
@Pree_Preethi_
@ProfOfDarkArts
@ProuddPakistani
@Ps_Sangwani
@Pyyar_se_Michel
@QandeelQuebee
@QararaRasha
@QuidEAzam1948
@ROCKINGRAMLAL
@RSSorg
@RaghuveeSayyam
@RajaBrar_INC
@RamgarhKaJai
@RanaAyyub
@RanveerOfficial
@RashtrapatiBhvn
@RealTeamSwastik
@RichieMuney
@RitaG74
@Rizwan1149
@RoflCritic
@RoflGandhi_
@RoflKumar
@RottenSundae
@RoyalViratian
@RubikaLiyaquat
@S1dAddicteD
@S1dharthM
@SAN2824
@SAfridiOfficial
@SD_5796
@SDhawan25
@SGGeet
@SHPA4016
@SKsCombatant
@SRKFanship
@SRKhyati
@SRKsCigarette
@SRKsDrishh
@SRKswarrior1
@SSForeva
@STARCricketIN
@SaadHere_
@SaakshiSRawat
@Sab_PK
@Sairamalik99
@Salman_Loverr
@Salman_ki_sena
@SamKhan999
@SamanthaNair23
@SanjayAzadSln
@SansadBhawan
@Sarcastic_Raj
@SatyendarJain
@SenRehmanMalik
@ShafqatAmanatA
@Shaheer_S
@SharyAhmad19
@Shehbaz71127562
@ShivAroor
@ShivSharma400
@ShivshankarS
@ShkhRasheed
@ShootinThoughts
@ShraddhaKapoor
@ShuddhiS
@Shumyl
@ShwetacuteSs
@Singhlicious
@SirJadeja
@SiyamSheikh
@SniperSpot
@SohilPTI
@SonyTV
@SrBachchan
@SriSri
@Srk_HolicJaved
@SrkianAjh
@Ssaniya25
@StarSportsIndia
@SufiTalks
@SugarSad_
@SukshnderShinda
@Sunil_Dixit_15
@Sushildwivedi9
@Swamii_says
@SwatiSaxen
@Swatiprakash14
@Sweet_Liqueur
@Syed_Zaidier
@SyedaShehlaRaza
@TARSEMCHANANA
@TEHLEELHUSSAIN4
@TSeries
@TanuLuvShreya
@TeamFaizaTrends
@ThatFilmyGirl
@ThatSalmanFan
@TheDilliMirror
@TheDrunkRider
@TheGautamGulati
@TheKaranPatel
@TheKirfan
@TheMannatSingh
@ThePreCambrian
@TheRealPCB
@TheVikasKhanna
@The_Bapu7
@TigerAzmi201
@Tina32kaur
@TonkeePonkee
@Trendulkar
@Tweetyy_pie
@UTVfilms
@Ujala4u
@UmairMukhtar16
@UrmilUrmila
@Uroosa_Salman
@VanBhatti
@VeePari_
@VigneshRG
@VioletVeronique
@VishalDadlani
@WCF2016
@WMPOLIN
@Wajiha_SG
@Wallah_Reeeno
@WoRahaChand
@WriterIntrovert
@YUVSTRONG12
@YetToExplore
@YouTube
@YourKoel
@YusufDFI
@ZaalimGF
@ZaferMinhaj
@ZainabHanif
@Zainab_reyaz
@Zaya4Jaya
@ZeeNews
@ZeeNewsHindi
@ZeeTV
@_IamSrkFan1
@_Khaadi
@_Ramsha_
@_SanjayGupta
@__Amnna__
@_cheem_
@_gujjubaba
@_ravidubey
@_sabanaqvi
@_swapneal
@aaanupriyaaa
@aajtak
@aashikapokharel
@abdullah_omar
@abhinashanjuman
@abidifactor
@abpnewstv
@actorvijay
@adagio_aria
@adhoripiyaas
@afrogirlll
@afsanaahmed
@aindrila350
@aisha_shabbir
@ajaikumar12
@akhtar_hayyat
@akhtarmeerut
@akkian__girl
@akshatgoel08
@akshaykumar
@akshaykumarLove
@aliaa08
@alijeesarwar
@alishbanaaz8
@alohomora0606
@amber_rafi3
@anak2422anak
@anaulhaq
@aneeqa_shaikh
@angelvishii
@anjanaomkashyap
@annijoseph77
@anti_virus_
@areeshei
@arishri
@arjunk26fan
@arooba512
@arshadsyed001
@arshikyy
@aru36629
@arunjaitley
@asadowaisi
@ashvasant
@asmashirazi
@assam_accord
@authoramish
@ayazsamoo
@ayooshgupta
@bahujansenaind
@balkaranchahal1
@balliawalebaba
@beingChirag_
@beinghitasha
@bhaiyyajispeaks
@bhak_sala
@bhakton
@bhavanakumari9
@bhaveshastik
@bhavi_1603
@bhogleharsha
@bidnurmath
@bionicsix1
@bizzarebhide
@blaZe__aXle
@bomanirani
@brownbrumby
@buttmona098
@bwoyblunder
@channelvindia
@chetan_bhagat
@coochilost
@cricBC
@crickBC
@cricketworldcup
@daboomalik
@deshratna
@dhume
@dibang
@didarhossain761
@dipali_sh0
@divine_esha
@dls2015
@dna
@dr_maheshsharma
@drajoykumar
@dranitasam
@drslalk
@duarazashaikh
@ekta_singh2k14
@emp
@eqrab
@espiritz_
@faisals97069761
@faizan_mubarak
@faizanlakhani
@faizansrkkhan
@fanthegame
@farahshafi1234
@faysalquraishi
@filmyjoyo
@firstpost
@g_onessupergirl
@gaana
@gajabajab
@garima_64
@geonews_urdu
@get_sgk
@gippyysingh1
@girxlswg
@golumechanics
@greatrabranimm
@guldaar
@gulmuhammad195
@gurusales
@halwai_mayank
@haniqureshi1
@har1603
@hardik
@harishrawatcmuk
@hartoshsinghbal
@henrygayle
@himanshujainon
@hira_Awan28
@honeybunnymaahi
@huma_asghar2000
@iAnaya__
@iAnkitaLal
@iBratati
@iCuree
@iHrithik
@iJaiDeep_
@iJustinFanatic
@iNationalSRKian
@iNirajVerma
@iRudeF
@iShaktimaan
@iShivangi21
@iTIGERSHROFF
@iTigerShroff
@iZoyaAli
@i_fattimaayyy
@i_k_b
@i_ramiz3
@iamSRKFanLJ
@iamSinghaniya
@iam_hashmi
@iam_prs
@iamjimmyjinx
@iamproudsrkian
@iamsagarwal
@iamshruti7
@iamsrk
@iamsrk_vraj
@iamteamik
@iamvrt
@iamwaqaryunus
@imPR10
@imRo45_
@imVkohli
@imaisharya
@imbeingindian
@imgur
@imranwaseem
@imrins1siddiqui
@imshas
@imshi_saini
@indiantweeter
@indiatoday
@indujalali
@intaffairs
@intern
@invincible_vss
@ipritamofficial
@iqrabashir482
@iramizraja
@irrfan_k
@itsbisha
@itspakukhan
@iyerdeepshri
@javedmansari
@jayyvenk
@jehanzeb92
@jhunjhunwala
@jorana_khan
@jsduggal
@jyothimalik
@k01768938
@kailashkaushik8
@kamaalrkhan
@kamasutra___
@kamranYC
@kanzy_ka
@kapilv20012001
@karancricketer
@katamulgi
@kesha_says
@kevalvora8
@khabarbaazi
@khanakram421
@khi_wala
@khimanisagar
@khusshhagrawal
@king_ranjhna
@kinn_sm
@kiranFati_Kirru
@kkundra
@knv519
@kritika_kamra
@kritisanon
@kuldpvys
@kvQuote
@legsidestrangle
@lifelovesuma
@light_0n
@lmRo45
@lovejihadi
@luckyali
@lve_mom
@lvu04
@madam_robena
@madehanaqvi
@maham2910
@maheen___sheikh
@mahimaaax__
@mahisharma1492
@mahobili
@main_tera_baap
@mana_apple
@mangeshkarlata
@manishkaushik19
@mannants
@md_baran
@meghnagulzar
@mendhro
@meprachimishra
@mercyfatal
@mhassanaimc
@milisilichilli
@mir_sana05
@mitra_meghna
@mnMalhi
@mohamm_s
@momiwasi
@mr_khiladi24
@mridupawandas4
@msdhoni
@mudasar_zaffar
@mufc_affanf9
@mukeshk23791931
@mukta109
@murugesh1234
@nabeelafzalmkd
@nadeemalmas1
@nahid
@nakulve
@namratavy
@narendramodi
@naseebpathanmlc
@naziarubbani
@nazmulbdhussain
@ndtv
@news24tvchannel
@newsflickshindi
@nexttosrk
@ngemovies
@nidak_
@nightstarprod
@nima19497
@nimesh4all
@nimrah307
@no1_Villain
@noorikhan119
@o____Helloo
@oblmir
@ohhmygold
@oldkrish
@omar_quraishi
@oye_P_S
@pal_jagdambika
@pari_cious
@patilpradipsupa
@paul_nitesh
@paulhastings.com
@phand00
@phanerozoic11
@pillya
@poothegr8
@postpickle
@ppbajpai
@ppritam009
@pragya_as
@pragyas1192
@praktabh
@prasanto
@princenarula88
@priyalgada47
@probir2011
@purushotam1305
@puza_kashyap
@rabiamumtaz191
@rachitst
@rahulkanwal
@rajabetasharad
@rajcheerfull
@rajpernen
@ramniwasb83
@ranichawdhary
@ranijif
@ranote_aman
@rashidcha1
@rashisingh02
@rashmiwade
@ravishndtv
@razonater
@realpreityzinta
@realteamswastik
@remodsouza
@rinib1
@rishibagree
@riskiest_poison
@ritumaheshwari5
@rohit_nakhwa
@romeomustlivee
@rt_Kalle
@ruanclever
@rubikaliyaquat
@ruchikokcha
@rumanmalik
@saadiaafzaal
@sabei_xd
@sabtv
@sachin2310
@sachin_rt
@sadiatistic
@sagarcasm
@salmanaddict
@sambha_bhilane
@sanat397
@sangita_salman
@sanjanasabu
@sanjaymasoomm
@sanjivsinha73
@sanket_bafna
@saranshk
@sardanarohit
@sardesairajdeep
@saritashandilya
@satyaprakashty1
@saurabh_prayag
@scratchysingh
@shaharyarkhan61
@shaheerk779
@shahidaffridi
@shaifali_goel
@shakkuiyer
@shapendra
@sharmanagendar
@sharmilafaruqi
@sheikhimaan
@sherryontopp
@shivakumarpat14
@shivangijoshi10
@shubhamk145
@shuklapinku
@singh_sushrut
@siyakuchu
@siyal_khan
@somy_bored
@sona2905
@soniasharmasha1
@sonunigam
@sophiasahillove
@srkiany_blood
@sssingh21
@stenodeepika23
@sudhir131968
@sudhirchaudhary
@suhelseth
@sukaina_ali
@sumit_vivek
@surajbn1
@sureshnakhua
@sureshpprabhu
@suzali86
@swapan55
@sweety_rukhsar
@taher07
@tannuLP
@tearejoice
@teelu9540
@teengirlstext
@tehseenp
@tellymasala
@theFirstHandle
@theUglyDude007
@the_queeness
@thearghyadutta
@thekiranbedi
@thetanmay
@timesofindia
@titincanti
@titli29
@tomnjerrytwo
@tufailelif
@tushardave15
@tweets_manish
@ujwala18113
@ursbhumi
@vantaskigoli
@varun_dvn
@varunsharma90
@venky9999999
@vidyarthee
@vigneshmvicky71
@vijaystambh
@vikrantkumar
@village_wale
@vine
@virsanghvi
@vishalsingh713
@vklovesfk
@waleednasir00
@waqasirshad1989
@wayou14
@writetoghazni
@xtahzy
@yadavakhilesh
@yajkushal20
@yashika86gupta
@yashikamehta04
@yganesh0208
@you_ShutUpp
@yrf
@zani_zain
@zapdeIuxe
@zarmenakhan3
@zartasha_maryam
A
A#
A##
A###
A####
A###s
A#A
A#M
A$
A&E
A&K
A&M
A&M.
A&P
A&R
A'
A'nandamu'rti
A's
A*
A+
A.
A.#
A.##
A.A.
A.B.
A.C.
A.D
A.D.
A.E.
A.F.
A.F.C.
A.G.
A.H.
A.I.
A.J.
A.K.
A.L.
A.M.
A.N.
A.O.
A.P.
A.R.
A.S.
A.T.
A.V.
A.W.
A:
AA
AAA
AAAA
AAAAAGGGHHHHHH
AAAS
AAC
AACSB
AADT
AAF
AAFC
AAGPBL
AAI
AAJ
AAM
AAMI
AAP
AAPSE
AAR
AARP
AAS
AAU
AAYA
AAYE
AB
AB.
ABA
ABB
ABBA
ABBY
ABC
ABC#
ABCD
ABCRIGHTs
ABHI
ABI
ABL
ABM
ABN
ABOUT
ABOVE
ABP
ABS
ABSOLUTELY
ABV
AC
AC.
ACA
ACAN
ACB
ACC
ACCA
ACCC
ACCHA
ACCIDENT
ACE
ACF
ACHA
ACI
ACIA
ACL
ACLU
ACM
ACME
ACN
ACO
ACORN
ACP
ACR
ACS
ACT
ACT.
ACTH
ACTION
ACTOR
ACU
AD
AD&D
AD.
ADA
ADAC
ADB
ADC
ADCC
ADD
ADDRESS
ADF
ADHD
ADI
ADL
ADM
ADMINNAME
ADMISSION
ADO
ADP
ADR
ADS
ADSL
ADT
ADV
AE
AEA
AEC
AED
AEF
AEG
AEGON
AEI
AEK
AEL
AEP
AER
AES
AF
AF#
AFA
AFAIK
AFB
AFB.
AFC
AFD
AFD.
AFDs
AFF
AFI
AFL
AFM
AFN
AFP
AFS
AFT
AFTER
AG
AGA
AGAIN
AGC
AGE
AGF
AGK
AGM
AGP
AGS
AH
AH#
AHA
AHL
AHL.
AHS
AI
AIA
AIAA
AIADMK
AIAW
AIB
AIBA
AIC
AICTE
AID
AIDS
AIDS.
AIF
AIG
AIHL
AII
AIK
AIM
AIMS
AIP
AIPAC
AIR
AIRPLANE
AIS
AISA
AIT
AIV
AIX
AJ
AJAX
AJC
AJIB
AJPW
AJS
AK
AK47's
AK47s
AKA
AKB##
AKC
AKP
AKSHAY
AKSHAY…
AL
ALA
ALC
ALCO
ALCS
ALDS
ALF
ALGOL
ALI
ALITO
ALK
ALL
ALLAH
ALLOWANCE
ALMOST
ALMS
ALMap
ALONE
ALONG
ALP
ALR
ALS
ALSO
ALT
ALTERNATIVE
ALWAY
ALWAYS
AM
AM#
AM.
AMA
AMAZE
AMAZING
AMAZINGLY
AMC
AMD
AME
AMEER
AMERICA
AMERICAN
AMERICANS
AMERICAS
AMES
AMF
AMG
AMI
AML
AMP
AMPA
AMR
AMRO
AMS
AMT
AMX
AN
ANA
ANARE
ANC
ANCA
AND
ANDHAER
ANG
ANI
ANI.
ANN
ANONYMOUSLY
ANP
ANS
ANSI
ANSWERS
ANT
ANTHONY
ANTONIO
ANU
ANWB
ANY
ANYONE
ANYTHING
ANYWAY
ANZ
ANZAC
AO
AOA
AOC
AOL
AONB
AOR
AP
AP.
APA
APC
APCs
APD
APEC
APEX
APG
API
API.
API.pdf
APIs
APJAK
APL
APM
APNY
APO
APOEL
APP
APPLICATIONS
APPROVAL
APPROVE
APR
APRA
APS
APT
APU
AQ
AQHA
AR
ARA
ARABIC
ARABICARABIC
ARABICARABICARABIC
ARABICARABICARABICARABIC
ARABICARABICARABICARABICARABIC
ARABICARABICARABICARABICARABICARABIC
ARABICARABICARABICARABICARABICARABICARABIC
ARABICARABICARABICARABICARABICARABICARABICARABIC
ARABICARABICARABICARABICARABICARABICARABICARABICARABIC
ARABICARABICARABICARABICARABICARABICARABICARABICARABICARABIC
ARB
ARC
ARCA
ARCHIBALD
ARCHILOCHUS
ARCO
ARD
ARE
AREA
AREA'S
ARF
ARG
ARI
ARIA
ARIN
ARL
ARM
ARMENIAN
ARMENIANARMENIANARMENIAN
ARMENIANARMENIANARMENIANARMENIAN
ARMENIANARMENIANARMENIANARMENIANARMENIAN
ARMENIANARMENIANARMENIANARMENIANARMENIANARMENIAN
ARMENIANARMENIANARMENIANARMENIANARMENIANARMENIANARMENIAN
ARMENIANARMENIANARMENIANARMENIANARMENIANARMENIANARMENIANARMENIAN
ARMENIANARMENIANARMENIANARMENIANARMENIANARMENIANARMENIANARMENIANARMENIAN
ARMY
AROUND
ARP
ARPA
ARPANET
ARRA
ARS
ARSENAL
ART
ARTICLE
ARTICLES
ARTS
ARUN
ARVN
ARY
ARe
AS
AS.
AS400
ASA
ASAP
ASAP.
ASB
ASC
ASCAP
ASCE
ASCII
ASCII's
ASD
ASE
ASEAN
ASEM
ASF
ASI
ASIAN
ASIC
ASIN
ASIO
ASK
ASL
ASM
ASME
ASN
ASO
ASOMJAI
ASP
ASP.NET
ASR
ASSISTANCE
ASSR
AST
ASTERISK
ASTILY
ASTM
ASU
ASV
ASW
ASWERING
ASX
AT
AT&T
ATA
ATB
ATC
ATE
ATF
ATI
ATL
ATLANTIC
ATLAS
ATM
ATMs
ATN
ATO
ATP
ATP.
ATPase
ATR
ATS
ATSC
ATTACK
ATTENTION
ATV
ATVs
AU
AU.
AUBREY
AUC
AUCTION
AUD
AUG
AUR
AUS
AV
AVA
AVC
AVE
AVG
AVI
AVID
AVM
AVN
AVOID
AVP
AVR
AVVO
AW
AWA
AWACS
AWARD
AWARDS
AWAY
AWB
AWD
AWESOME
AWFUL
AWM
AWOL
AWS
AX
AXA
AY
AYP
AZ
AZ.
A_#
Aa
AaB
Aaaaaaaaahhh
Aaaagai
Aaaargh
Aaawwiee
Aacha
Aacha😜😜
Aachen
Aadha
Aafia
Aage
Aagey
Aai
AaisyJaisy
Aaj
Aaja
Aajkal
Aakash
Aake
Aakrosh
Aalborg
Aalen
Aaliyah
Aalto
Aamir
Aamny
Aamod
Aan
Aana
Aang
Aankhon
Aansu
Aap
Aapka
Aapko
Aapse
Aar
Aaraam
Aarau
Aardvark
Aare
Aargau
Aarhus
Aarne
Aaron
Aarti
Aashiq
Aata
Aayien
Aayo
Aa…
Ab
Aba
Ababa
Abacha
Abacus
Abad
Abadan
Abandon
Abandoned
Abandonment
Abarth
Abauj
Abba
Abbado
Abbas
Abbasi
Abbasid
Abbasids
Abbaye
Abbe
Abbess
Abbeville
Abbey
Abbie
Abbot
Abbots
Abbotsford
Abbott
Abbottabad
Abbrev.
Abbreviation
Abbreviations
Abbu
Abbudi
Abby
Abd
Abdali
Abdallah
Abdel
Abdelaziz
Abdelhaleen
Abdi
Abdoulaye
Abduction
Abdul
Abdulaziz
Abdulla
Abdullah
Abdullahi
Abdur
Abdus
Abe
Abecedare
Abed
Abel
Abelard
Abelian
Abell
Abenaki
Aber
Aberavon
Abercorn
Abercrombie
Abercromby
Aberdare
Aberdeen
Aberdeenshire
Abergavenny
Aberhart
Abernathy
Abernethy
Aberystwyth
Abha
Abhay
Abhi
Abhimanyu
Abhishek
Abhisit
Abi
Abia
Abid
Abidin
Abidjan
Abies
Abigail
Abilene
Abilities
Ability
Abingdon
Abington
Abitibi
Abitur
Abkhaz
Abkhazia
Abkhazian
Able
Ablett
Abner
Abney
Abnormal
Abo
Aboard
Abode
Abolition
Abolitionist
Abomination
Aboriginal
Aboriginals
Aborigines
Abortion
Abou
About
About.com
Above
Abra
Abraham
Abrahamian
Abrahamic
Abrahams
Abram
Abramo@ENRON
Abramoff
Abramovich
Abramowitz
Abrams
Abramson
Abreu
Abridged
Abril
Abroad
Abruzzi
Abruzzo
Abs
Absalom
Absalon
Abschnitte
Absence
Absent
Absinthe
Absolute
AbsolutePunk
Absolutely
Absorption
Absoul
Abstract
Abstracting
Abstraction
Abstracts
Absurd
Abt
Abteilung
Abu
Abu'l
Abubakar
Abuja
Abul
Abundance
Abuse
Abused
Abuses
Abvp
Abwehr
Aby
Abydos
Abyss
Abyssinia
Abyssinian
Aca
Acacia
Acad
Academia
Academic
Academica
Academical
Academically
Academician
Academics
AcademicsIn
AcademicsThe
Academie
Academies
Academy
AcademyRIGHTs
Acadia
Acadian
Acadiana
Acadians
Acapulco
Acather##
Accademia
Accel
Accelerated
Acceleration
Accelerator
Accent
Accenture
Accept
Acceptable
Acceptance
Accepted
Accepting
Access
AccessThe
Accessed
Accessibility
Accessible
Accession
Accessories
Accha
Accha😅😅
Accident
Accidental
Accidents
Accion
Accipitridae
Acclaim
Acclaimed
Accolade
Accolades
Accommodation
Accomodating
Accompanied
Accompanying
Accomplishments
Accord
According
Accordingly
Accordion
Accords
Account
Accountabilities
Accountability
Accountancy
Accountant
Accountants
Accounting
Accounts
Accra
Accreditation
Accredited
Accrediting
Accrington
Accumulation
Accuracy
Accurate
Accusations
Accused
Ace
Acedraz
Aceh
Acer
Aces
Acevedo
Acha
Achaea
Achaean
Achaeans
Achaemenid
Achanak
Acharya
Ache
Achebe
Acheron
Acheson
Achievement
Achievements
Achieving
Achille
Achilles
Achim
Acholi
Achtung
Acid
Acids
Acker
Ackerman
Ackermann
Ackland
Ackroyd
Acland
Acme
Acolytes
Acoma
Acorn
Acosta
Acoustic
Acoustics
Acquire
Acquired
Acquires
Acquiring
Acquisition
Acquisitions
Acraea
Acre
Acres
Acriflaven
Acrobat
Acropolis
Across
Acrylics
Act
ActThe
Acta
Acting
Action
Actions
Activated
Activation
Active
ActiveX
Activision
Activism
Activist
Activists
Activities
ActivitiesThe
Activity
Acton
Actor
Actors
Actress
Actresses
Acts
Actual
Actually
Actuarial
Actuaries
Acuff
Acuna
Acupuncture
Acura
Acute
Ad
AdLATINyaman
Ada
Adachi
Adad
Adagio
Adair
Adak
Adal
Adalat
Adalbert
Adam
Adama
Adamant
Adamawa
Adamo
Adams
Adamson
Adan
Adana
Adaptation
Adaptations
AdaptationsThe
Adapted
Adapter
Adaptive
Adar
Adare
Adarsh
Adcock
Add
Adda
Addams
Added
Addendum
Adder
Adderley
Addhoc
Addict
Addicted
Addiction
Addie
Adding
Addington
Addis
Addison
Addition
Additional
Additionally
Additions
AdditionsNo
Address
Addresses
Addressing
Adds
Addu
Addy
Ade
Adebisi
Adel
Adela
Adelaide
Adelbert
Adele
Adelheid
Adelia
Adelina
Adeline
Adelman
Adelphi
Adelson
Adem
Aden
Adena
Adenauer
Adept
Adequate
Adevarul
Adha
Adhamiya
Adherents
Adhikari
Adi
Adidas
Adige
Adil
Adina
Adios
Adirondack
Adirondacks
Aditi
Aditya
Adjacent
Adjectives
Adjoining
Adjunct
Adjusted
Adjustment
Adjutant
Adkins
Adlai
Adler
Adm
Admin
Administered
Administracion
Administration
AdministrationAs
AdministrationCore
AdministrationThe
Administrations
Administrative
Administratively
Administrator
Administrators
Admins
Adminship
Admiral
Admirals
Admiralty
Admirer
Admission
Admissions
Admitted
Admittedly
Adnan
Ado
Adobe
Adolescence
Adolescent
Adolescents
Adolf
Adolfo
Adoliadini
Adolph
Adolphe
Adolphus
Adonis
Adoor
Adopt
Adopted
Adopting
Adoption
Adopts
Adorama
Adoration
Adorn
Adorno
Adrenaline
Adria
Adriaan
Adriaen
Adrian
Adriana
Adrianna
Adriano
Adrianople
Adriatic
Adrien
Adrienne
Ads
Adult
Adults
Adulyadej
Advaita
Advance
Advanced
Advancement
Advances
Advancing
Advani
Advantage
Advantages
Advent
Adventism
Adventist
Adventists
Adventure
Adventurer
Adventurers
Adventures
Adversary
Adverse
Advert
Advertisement
Advertisements
Advertiser
Advertising
Advice
Adviser
Advisers
Advisor
Advisors
Advisory
Advocacy
Advocate
Advocates
Ady
Adyar
Adyghe
Adz
Ae
Aechmea
Aed
Aegean
Aegina
Aegis
Aelius
Aemilius
Aeneas
Aeneid
Aeolian
Aeolus
Aeon
Aer
Aerea
Aereas
Aereo
Aereos
Aerial
Aero
Aero-09
Aerocom
Aerodrome
Aerodynamics
Aeroflot
Aeron
Aeronautica
Aeronautical
Aeronautics
Aeronautique
Aeroplane
Aeros
Aerosmith
Aerospace
Aerospatiale
Aerts
Aervanath
Aes
Aeschylus
Aesop
Aesthetic
Aesthetics
Aetius
Aetna
Aetolia
AfD
AfD.
AfDs
Afar
Afd
Affair
Affairs
Affect
Affected
Affective
Affiliate
Affiliated
Affiliates
Affiliation
Affiliations
Affinity
Affirmative
Affleck
Affliction
Affordable
Afghan
Afghani
Afghanistan
Afghans
Afiridi
Aflaq
Afon
Afonso
Afraad
Afrad
Afraid
Africa
Africa.The
Africaine
African
Africana
Africanist
Africans
Africanus
Afridi
Afridi-Band
Afrika
Afrikaans
Afrikaner
Afrikaners
Afrique
Afro
Afroasiatic
Afrotropical
Afshar
Afshari
Afshin
Aftab
Aftenposten
After
Afterlife
Aftermath
AftermathAfter
AftermathIn
AftermathThe
Afternoon
Afterward
Afterwards
Afterword
Afton
Aftonbladet
Afyonkarahisar
Afzal
Ag
Aga
Agadir
Agai
Again
Against
Agama
Agamemnon
Agape
Agar
Agaricus
Agartala
Agarwal
Agassi
Agassiz
Agate
Agatha
Agathe
Agathocles
Agave
Agaya
Agayeghaziabad
Agder
Age
Aged
Agee
Ageing
Agel
Agen
Agena
Agence
Agencia
Agencies
Agency
Agenda
Agent
Agents
Ager
Ages
Aggie
Aggies
Aggregate
Aggression
Aggressive
Agha
Agham
Agia
Agile
Agility
Agincourt
Aging
Agios
Agip
Agnelli
Agnes
Agnew
Agni
Agnieszka
Agnostic
Agnus
Ago
Agon
Agong
Agony
Agora
Agostinho
Agostini
Agostino
Agosto
Agra
Agrarian
Agrawal
Agree
Agreed
Agreement
Agreements
Agri
Agricola
Agricole
Agricultural
Agriculture
Agrigento
Agrippa
Agrippina
Agro
Agron
Agronomy
Agua
Aguadilla
Aguas
Aguascalientes
Aguayo
Aguero
Aguiar
Aguila
Aguilar
Aguilera
Aguinaldo
Aguirre
Agulhas
Agung
Agusan
Agusta
Agustin
Agye
Ah
Aha
Ahaaan
Ahaan
Ahab
Ahan
Aharon
Ahead
Ahearn
Ahern
Ahhhhh
Ahl
Ahli
Ahluwalia
Ahly
Ahmad
Ahmadi
Ahmadinejad
Ahmadis
Ahmadiyya
Ahmanson
Ahmed
Ahmedabad
Ahmednagar
Ahmet
Ahmose
Ahn
Aho
Ahoerstemeier
Ahom
Ahoms
Ahoy
Ahram
Ahrens
Ahriman
Ahsan
Ahtar
Ahura
Ahvaz
AhzaabAyat
Ai
Aichi
Aid
Aida
Aidan
Aide
Aided
Aiden
Aids
Aiello
Aigle
Aik
Aiken
Aikido
Aikman
Aiko
Aileen
Ailey
Aili
Ailill
Ailsa
Aim
Aime
Aimed
Aimee
Aiming
Aims
Ain
Ain't
Ainger
Ainslie
Ainsworth
Aintree
Ainu
Air
AirAsia
Aira
Airbase
Airbender
Airborne
Airbus
Airco
Aircraft
Aird
Airdate
Airdrie
Airdrieonians
Aire
Aired
Airedale
Aires
Airey
Airfare
Airfield
Airfields
Airforce
Airing
Airlift
Airline
Airlines
Airman
Airmen
Airpark
Airplane
Airplanes
Airplay
Airport
Airport.The
Airports
Airs
Airship
Airshow
Airspeed
Airstrip
Airtel
Airwaves
Airways
Airy
Aisa
Aisha
Aishwarya
Aisi
Aisle
Aisne
Ait
Aitchison
Aitias
Aitken
Aix
Aizu
Aj
Aja
Ajaccio
Ajahn
Ajax
Ajay
Ajeeb
Ajit
Ajith
Ajmal
Ajmer
Ak
Aka
Akademi
Akademia
Akademie
Akagi
Akai
Akal
Akali
Akan
Akane
Akari
Akash
Akashi
Akatsuki
Akbar
Akbari
Ake
Akela
Aker
Akerman
Akers
Akershus
Akhbar
Akhenaten
Akhil
Akhilleus
Akhtar
Akhter
Aki
Akiba
Akihabara
Akiko
Akin
Akin@ECT
Akins
Akio
Akira
Akita
Akiva
Akiyama
Akiyoshi
Akkad
Akkadian
Akki
Akkian
Aklan
Akmal
Akml
Ako
Akola
Akon
Akram
Akron
Aksa
Aksaray
Akshay
Aksu
Aksum
Aktion
Aku
Akuma
Akureyri
Akwa
Al
Al_Quran
Ala
Ala.
Alabama
Alachua
Aladdin
Alag
Alagoas
Alai
Alaikum!''-*Kehte
Alain
Alam
Alamance
Alamanni
Alameda
Alamein
Alamgir
Alamitos
Alamo
Alamogordo
Alamos
Alamut
Alan
Alana
Aland
Alania
Alanis
Alanna
Alans
Alanya
Alappuzha
Alarcon
Alaric
Alarm
Alas
Alasdair
Alaska
AlaskaCategory
Alaskan
Alastair
Alatorre@ENRON
Alauddin
Alava
Alaves
Alb
Alba
Albacete
Albacore
Alban
Albanese
Albani
Albania
Albanian
Albanians
Albano
Albans
Albany
Albarn
Albatros
Albatross
Albay
Albee
Albemarle
Albergo
Alberni
Albers
Albert
Alberta
Alberti
Albertina
Albertine
Alberto
Alberts
Albertson
Albertsons
Albertus
Albertville
Albi
Albian
Albie
Albigensian
Albin
Albini
Albino
Albinus
Albion
Albizu
Alboreto
Alborz
Albrecht
Albright
Album
Albums
Albuquerque
Albury
Albus
Alby
Alcala
Alcalde
Alcan
Alcantara
Alcatel
Alcatraz
Alcazar
Alchemist
Alchemy
Alcibiades
Alcide
Alco
Alcoa
Alcock
Alcohol
Alcoholic
Alcoholics
Alcoholism
Alcor
Alcorn
Alcott
Alcuin
Alda
Aldabra
Aldeburgh
Alden
Alder
Alderley
Alderman
Aldermaston
Aldermen
Alderney
Aldershot
Alderson
Aldgate
Aldi
Aldine
Aldo
Aldous
Aldred
Aldrich
Aldridge
Aldrin
Aldwych
Ale
Alec
Alef
Alegre
Alegria
Aleister
Alejandra
Alejandro
Alejo
Alekhine
Aleksandar
Aleksander
Aleksandr
Aleksandra
Aleksandrovich
Aleksandrow
Aleksei
Aleksey
Alem
Aleman
Alemannia
Alemannic
Alen
Alena
Alencon
Alenia
Alentejo
Aleph
Aleppo
Alert
Alerts
Ales
Alesha
Alesi
Alessandra
Alessandri
Alessandria
Alessandro
Alessi
Alessio
Alesund
Aleut
Aleutian
Aleutians
Alevi
Alex
Alexa
Alexander
AlexanderRIGHTs
Alexandr
Alexandra
Alexandre
Alexandria
Alexandrian
Alexandrina
Alexandrine
Alexandros
Alexandrov
Alexandrovich
Alexandrovna
Alexandru
Alexei
Alexey
Alexi
Alexia
Alexios
Alexis
Alexius
Alf
Alfa
Alfalfa
Alfaro
Alfie
Alfieri
Alfons
Alfonse
Alfonsin
Alfonso
Alford
Alfred
Alfredo
Alfreton
Algae
Algarve
Algebra
Algebraic
Algeciras
Alger
Algeria
Algerian
Algerians
Algerie
Algernon
Algiers
Algirdas
Algol
Algoma
Algonquian
Algonquin
Algorithm
Algorithms
Alhaji
Alhambra
Alhaznawi
Ali
Alia
Alianza
Alias
Alibek
Alibi
Alicante
Alice
Alicia
Alief
Alien
Aliens
Alifaanuge
Aligarh
Alighieri
AlignBars
Alignbars
Aligned
Alignment
Aligudarz
Alike
Alina
Aline
Alisa
Alisha
Aliso
Alison
Alistair
Alister
Alita
Alitalia
Alito
Alive
Alix
Aliya
Aliyah
Aliyev
Alka
Alkali
Alkaline
Alkan
Alkivar
Alkmaar
All
AllMusic
AllMusic.com
Alla
AllaH
Allah
Allahabad
Allaire
Allama
Allan
Allard
Allardyce
Allawi
Alle
Allee
Allegan
Allegany
Allegations
Alleged
Allegedly
Alleghany
Allegheny
Allegiance
Allegory
Allegra
Allegro
Alleluia
Allen
Allen#
Allenby
Allendale
Allende
Allentown
Aller
Allergy
Allerton
Alles
Alley
Alleyn
Alleyne
Allgau
Allgemeine
Alli
Alliance
Alliances
Allianz
Allie
Allied
Allier
Allies
Allievi
Alligator
Allin
Allingham
Allington
Allis
Allison
Allium
Allman
Allmendinger
Allmovie
Allmusic
Allmusic.com
Allo
Alloa
Allocation
Allon
Allosaurus
Allow
Allowance
Allowed
Allowing
Allows
Alloy
Alloys
Allport
Allred
Allround
Allstars
Allstate
Allston
Allsvenskan
Allt
Alltel
Allure
Allusions
Ally
Allyn
Allyson
Alma
Almada
Almaden
Almagro
Almanac
Almanac.
Almanach
Almanack
Almas
Almaty
Almaz
Almeida
Almelo
Almere
Almeria
Almighty
Almirante
Almodovar
Almohad
Almohads
Almond
Almonte
Almora
Almoravid
Almoravids
Almost
Almy
Alnus
Alnwick
Alo
Aloe
Aloha
Alois
Alok
Alomar
Alon
Alone
Along
Alongside
Alonso
Alonzo
Alor
Alou
Aloud
Alouette
Alouettes
Aloys
Aloysius
Alp
Alpena
Alpert
Alpes
Alpha
Alpha_Quadrant
Alphabet
Alphabetical
Alpharetta
Alpheus
Alphonse
Alphonso
Alphonsus
Alpine
Alpini
Alps
Already
Alright
Als
Alsace
Alsatian
Also
Alsop
Alstom
Alston
Alt
Alta
Altadena
Altaf
Altai
Altaic
Altair
Altamira
Altamont
Altan
Altar
Altarpiece
Altay
Alte
Alten
Altenberg
Altenburg
Alter
Alteration
Alterations
Altered
Alternate
Alternately
Alternates
Alternating
Alternative
Alternatively
Alternatives
Altes
Althea
Althing
Although
Althusser
Altitude
Altman
Altmann
Alto
Altogether
Alton
Altona
Altoona
Altos
Altrincham
Altstadt
Altus
Alucard
Alum
Aluminium
Aluminum
Alumnae
Alumni
Alumni-time
Alumnus
Alun
Alva
Alvar
Alvarado
Alvares
Alvarez
Alvaro
Alvear
Alves
Alvi
Alvin
Alvis
Alwar
Always
Alwyn
Aly
Alyson
Alyssa
Alzheimer
AlzheimerRIGHTs
Am
Am...
Ama
Amaal
Amadeo
Amadeus
Amado
Amador
Amadou
Amager
Amal
Amalfi
Amalgam
Amalgamated
Amalia
Amalie
Amalric
Amalthea
Amami
Aman
Amana
Amand
Amanda
Amanita
Amano
Amanullah
Amar
Amara
Amaral
Amarillo
Amarna
Amarnath
Amaro
Amartya
Amaru
Amasya
Amaterasu
Amateur
Amateurliga
Amateurs
Amati
Amato
Amaury
Amaya
Amaye
Amazing
Amazingly
Amazon
Amazon.co.uk
Amazon.com
Amazonas
Amazonia
Amazonian
Amazons
Amba
Ambala
Ambani
Ambassador
Ambassadors
Ambedkar
Amber
Amberg
Amberley
Ambi
Ambient
Ambika
Ambition
Ambitious
Ambler
Ambon
Amboy
Ambrogio
Ambroise
Ambrose
Ambrosia
Ambrosian
Ambrosio
Ambrosius
Ambulance
Ambush
Ame
Amedee
Amedeo
Ameer
Amelia
Amelie
Amen
Amended
Amendment
Amendments
Amenhotep
Amenities
Ament
Amer
AmeriCorps
America
America.
America.The
AmericaIn
AmericaRIGHTs
AmericaThe
American
American.There
Americana
Americanism
Americanization
Americanized
Americano
Americans
Americas
Americo
Americus
Amerigo
Amerika
Amerindian
Amerindians
Amerithrax
Amersfoort
Amersham
Amery
Ames
Amesbury
Amethyst
Amex
Amhara
Amharic
Amherst
Ami
Amici
Amicus
Amid
Amida
Amidst
Amie
Amiens
Amiga
AmigaOS
Amigo
Amigos
Amin
Amina
Amino
Amir
Amir-Accha
Amira
Amiri
Amiriya
Amis
Amish
Amistad
Amit
Amitabh
Amitabha
Amity
Amityville
Amjad
Amla
Amlaib
Amle
Amma
Amman
Ammann
Ammar
Ammianus
Ammo
Ammon
Ammonia
Ammonian
Ammonium
Ammons
Ammunition
Amnesia
Amnesty
Amnon
Amo
Amoco
Amon
Among
Amongst
Amor
Amora
Amore
Amory
Amos
Amount
Amour
Amoy
Amp
Ampang
Amparo
Ampere
Ampex
Amphibian
Amphibians
Amphibious
Amphion
Amphitheater
Amphitheatre
Amphoe
Ampleforth
Amplifiar
Amplification
Amplifier
Amplifiers
Amr
Amram
Amrapali
Amravati
Amrit
Amrita
Amritsar
Amrullah
Amstel
Amsterdam
Amstrad
Amt
Amtliches
Amtrak
Amu
Amul
Amulet
Amun
Amundsen
Amur
Amuro
Amusement
Amusements
Amway
Amy
An
Ana
Anabaptist
Anabaptists
Anabel
Anaconda
Anacostia
Anadolu
Anaheim
Anahuac
Anais
Anak
Anakin
Anal
Analog
Analogue
Analyses
Analysis
AnalysisThe
Analysis_0712
Analyst
Analysts
Analytic
Analytical
Analytics
Analyzer
Analyzing
Anambra
Anand
Ananda
Anant
Anantapur
Anarchism
Anarchist
Anarchists
Anarcho
Anarchy
Anarky
Anas
Anasazi
Anastacia
Anastasia
Anastasio
Anastasius
Anat
Anatidae
Anatol
Anatole
Anatoli
Anatolia
Anatolian
Anatoliy
Anatoly
Anatomical
Anatomy
Anaya
Anbar
Ancaster
Ancestor
Ancestors
Ancestral
Ancestry
Anchor
Anchorage
Anchors
Ancien
Ancient
Ancients
Ancona
And
Anda
Andalucia
Andalus
Andalusia
Andalusian
Andalusians
Andaman
Andamans
Andante
Andar
Andean
Anderlecht
Anders
Andersen
Anderson
Andersons
Andersonville
Andersson
Anderton
Andes
Andha
Andheri
Andhra
Andi
Andiamo
Andie
Ando
Andong
Andorra
Andorran
Andover
Andra
Andrade
Andras
Andre
Andrea
Andreas
Andree
Andreev
Andrei
Andrej
Andreotti
Andres
Andresen
Andretti
Andreu
Andrew
AndrewRIGHTs
Andrews
Andrey
Andreyevich
Andria
Andries
Andrija
Andris
Andriy
Android
Andromeda
Andromedae
Andronicus
Andronikos
Andropov
Andros
Androscoggin
Andrus
Andrzej
Andujar
Andy
Ane
Anecdotes
Anemone
Anesthesia
Anette
Anfield
Ang
Angara
Angas
Ange
Angel
Angela
Angeles
Angeli
Angelic
Angelica
Angelico
Angelika
Angelina
Angeline
Angelique
Angelis
Angell
Angelo
Angelos
Angelou
Angels
Angelus
Anger
Angered
Angers
Angevin
Angie
Angiosperm
Angkor
Angle
Angler
Anglers
Angles
Anglesey
Angleton
Anglia
Anglian
Anglican
Anglicanism
Anglicans
Anglicised
Anglicized
Angling
Anglo
Anglophone
Anglorum
Angola
Angolan
Angora
Angouleme
Angr
Angra
Angry
Angst
Anguilla
Angular
Angulo
Angus
Anh
Anhalt
Anheuser
Anhui
Ani
Anibal
Anil
Anima
Animal
Animals
Animaniacs
Animas
Animated
Animation
Animations
Animator
Animax
Anime
Animorphs
Anishinaabe
Aniston
Anita
Anja
Anjali
Anjou
Anjouan
Anjuman
Anka
Ankara
Ankeny
Anker
Anketell
Ankh
Ankit
Anlong
AnmaFinotera
Ann
Anna
Annabel
Annabella
Annabelle
Annabeth
Annalen
Annales
Annals
Annam
Annamalai
Annan
Annandale
Annapolis
Annapurna
Anne
Annecy
Annemarie
Annenberg
Annes
Annesley
Annette
Annex
Annexation
Anni
Annibale
Annick
Annie
Annihilation
Annika
Annis
Anniston
Anniversaries
Anniversary
Anno
Annonaceae
Annotated
Annotations
Announce
Announced
Announcement
Announcements
Announcer
Announces
Announcing
Annual
Annually
Annunciation
Annunziata
Annyong
Ano
Anoka
Anomalous
Anomaly
Anome
AnomieBOT
AnomieCROSSED
Anon
AnonMoos
Anonymous
Anorthosis
Anos
Another
Anquetil
Ans
Ansaldo
Ansar
Ansari
Ansbach
Anschluss
Anschutz
Anse
Ansel
Ansell
Anselm
Anselmo
Ansems
Anseriformes
Ansett
Ansgar
Anson
Ansonia
Anstey
Anstruther
Ansu
Answer
Answered
Answering
Answers
Answers.com
Ant
Antaeus
Antagonists
Antal
Antalya
Antananarivo
Antanas
Antar
Antarctic
Antarctica
Antares
Ante
Antebellum
Antelope
Antena
Antenna
Antennae
Anterior
Anthea
Anthem
Anthems
Anthologies
Anthology
Anthon
Anthony
Anthrax
Anthropological
Anthropologist
Anthropologists
Anthropology
Anti
Anti-Fraud
Anti-Israeli
Anti-Virus
Antibes
Antic
Antichrist
Anticipating
Antietam
Antigone
Antigonish
Antigonus
Antigua
Antillean
Antilles
Antioch
Antiochus
Antioquia
Antipas
Antipasto
Antipater
Antipodes
Antipolo
Antipope
Antiqua
Antiquarian
Antiquaries
Antique
Antiques
Antiquities
Antiquity
Antisemitism
Antitrust
Antlers
Antofagasta
Antoine
Antoinette
Anton
Antonelli
Antonescu
Antoni
Antonia
Antonin
Antonina
Antonine
Antonino
Antoninus
Antonio
Antonioni
Antonis
Antonius
Antonov
Antony
Antrim
Ants
Antti
Antun
Antunes
Antwerp
Antwerpen
Anu
Anubis
Anuj
Anupam
Anura
Anuradha
Anuradhapura
Anurag
Anushka
Anvers
Anvil
Anwar
Anwesha
Anxiety
Anxious
Any
Anya
Anyang
Anybody
Anyhow
Anymore
Anyone
Anything
Anytime
Anyway
Anyways
Anywhere
Anza
Anzac
Anzio
Ao
Aodh
Aoi
Aoki
Aomori
Aosta
Aotearoa
Aoyama
Ap
Apa
Apache
Apaches
ApakiJaneta
Apalachee
Apalachicola
Apamea
Apane
Aparicio
Aparna
Apart
Apartheid
Apartment
Apartments
Apatow
Ape
Apel
Apeldoorn
Apennine
Apennines
Apertura
Aperture
Apes
Apex
Aphex
Aphrodite
Apia
Apiaceae
Apis
Apko
Aplo.
Aplocheilus
Apna
Apne
Apni
Apny
Apo
Apocalypse
Apocalyptic
Apocrypha
Apocynaceae
Apodiformes
Apogee
Apokolips
Apollinaire
Apollinaris
Apollo
Apollodorus
Apollon
Apollonia
Apollonius
Apologies
Apology
Aponte
Apostasy
Apostle
Apostles
Apostol
Apostolic
App
Appalachia
Appalachian
Appalachians
Appaloosa
Apparatus
Apparel
Apparent
Apparently
Appeal
Appeals
Appear
Appearance
AppearanceThe
Appearances
Appeared
Appearing
Appears
Appel
Appellate
Appellation
Appendices
Appendix
Appenzell
Appetite
Appia
Appian
Appius
Appl
Applause
Apple
Applebaum
Applebee
Appleby
Appledore
Applegate
Apples
Appleseed
Appleton
Appleyard
Appliance
Appliances
Applicable
Applicants
Application
Applications
ApplicationsThe
Applied
Apply
Applying
Appointed
Appointment
Appointments
Appomattox
Appraisal
Appreciate
Appreciation
Apprentice
Apprentices
Apprenticeship
Approach
Approaches
Approaching
Appropriate
Appropriation
Appropriations
Approval
Approvals
Approved
Approves
Approx
Approximate
Approximately
Apps
Apr
Apr.
Apra
Apratim
Apricot
April
AprilEN
AprilENMay
Aprile
Aprilia
Apsley
Apt
Aptitude
Apu
Apuesta
Apuleius
Apulia
Aqaba
Aqal
Aqsa
Aqua
Aquabats
Aquaculture
Aquaman
Aquarian
Aquarii
Aquarium
Aquariums
Aquarius
Aquatic
Aquatics
Aqueduct
Aqueedat
Aqui
Aquifer
Aquila
Aquileia
Aquinas
Aquino
Aquire
Aquiriums
Aquitaine
Aquitania
Ar
Ara
Araam
Arab
ArabENIsraeli
Arabella
Arabi
Arabia
Arabian
Arabians
Arabic
Arabidopsis
Arabism
Arabists
Arabiya
Arabs
Araceae
Arad
Arado
Arafat
Arago
Aragon
Aragonese
Aragorn
Arai
Arak
Arakan
Arakawa
Araki
Arakshan
Aral
Aram
Aramaic
Aramco
Aramis
Aran
Arana
Aranda
Araneta
Arango
Aranjuez
Aransas
Arantxa
Arapaho
Arapahoe
Arar
Ararat
Aras
Arash
Arashi
Araucania
Arauco
Araujo
Arawak
Aray
Araya
Arb
ArbCom
Arbcom
Arbeiter
Arbeitsstatten
Arbenz
Arbil
Arbiter
Arbitrary
Arbitration
Arbitrator
Arbitrators
Arbitron
Arbogast
Arbor
Arborea
Arboretum
Arbour
Arbroath
Arbuckle
Arbus
Arbuthnot
Arbutus
Arby
Arc
ArcAngel
Arcade
Arcadia
Arcadian
Arcana
Arcane
Arcangel
Arcata
Arcayne
Arce
Arcee
Arch
Archaea
Archaeological
Archaeologist
Archaeologists
Archaeology
Archaeopteryx
Archaic
Archana
Archangel
Archbishop
Archbishopric
Archbishops
Archbold
Archdeacon
Archdiocesan
Archdiocese
Archduchess
Archduke
Archean
Archelaus
Archeological
Archeology
Archer
Archers
Archery
Arches
Archibald
Archie
Archimandrite
Archimedean
Archimedes
Archipelago
Architect
Architects
Architectural
Architecture
ArchitectureThe
Archiv
Archival
Archive
Archived
Archives
Archiving
Archivist
Archivo
Archon
Archuleta
Archway
Arco
Arcola
Arcos
Arcot
Arctic
Arctiidae
Arcturus
Ard
Arda
Ardabil
Ardagh
Ardahan
Ardashir
Ardeche
Ardeidae
Arden
Ardenne
Ardennes
Ardent
Ardmore
Ardrossan
Ards
Are
Area
Area.The
AreaThe
Areas
Arecaceae
Arecibo
Aree
Areeba
Areeeee
Arellano
Arena
ArenaBowl
Arenas
Arend
Arendal
Arendt
Arequipa
Ares
Aretha
Arethusa
Areva
Arevalo
Arey
Arezzo
Arfsten
Arg
Argent
Argentia
Argentina
Argentina.The
Argentine
Argentinean
Argentineans
Argentines
Argentinian
Argentino
Argentinos
Argento
Arges
Argghhh!
Arghezi
Argo
Argon
Argonaut
Argonautica
Argonauts
Argonne
Argos
Argosy
Arguably
Arguello
Arguing
Argument
Arguments
Argus
Argyle
Argyll
Arhus
Ari
Aria
Ariadne
Arial
Arian
Ariana
Ariane
Arianism
Arianna
Arians
Arias
Arica
Arid
Arie
Ariege
Ariel
Aries
Arif
Arik
Arika
Arild
Arima
Ariola
Arion
Ariosto
Aris
Arise
Arish
Arista
Aristide
Aristides
Aristocracy
Aristophanes
Aristotelian
Aristotle
Arithmetic
Arius
Ariyalur
Arizona
ArizonaCategory
Arjan
Arjen
Arjona
Arjun
Arjuna
Ark
Ark.
Arkady
Arkansas
ArkansasCategory
Arkham
Arkhangelsk
Arkin
Arkwright
Arleigh
Arlen
Arlene
Arles
Arlington
Arlo
Arlott
Arm
Arma
Armada
Armadale
Armadillo
Armageddon
Armagh
Armagnac
Armament
Armaments
Arman
ArmanBan
Armand
Armando
Armani
Armanon
Armas
Armatho
Armbrust
Armchair
Armed
Armee
Armeekorps
Armen
Armenia
Armenian
Armenians
Armes
Armia
Armidale
Armies
Armin
Arminia
Arminian
Arminianism
Arminius
Armistead
Armistice
Armitage
Armogida
Armor
Armored
Armory
Armour
Armoured
Armoury
Arms
Armstrong
Army
ArmyRIGHTs
Arn
Arnaldo
Arnaud
Arnaz
Arndt
Arne
Arneson
Arnett
Arnhem
Arni
Arnie
Arnim
Arno
Arnold
Arnon
Arnor
Arnot
Arnott
Arnoux
Arnulf
Aro
Aromanian
Aron
Aronofsky
Aronson
Aroostook
Arora
Around
Arp
Arpad
Arpingstone
Arquette
Arran
Arrange
Arranged
Arrangement
Arrangements
Arras
Array
Arre
Arrest
Arrested
Arrests
Arrhenius
Arrian
Arriba
Arrigo
Arrington
Arriva
Arrival
Arrivals
Arrived
Arriving
Arrondissement
Arrow
Arrowhead
Arrows
Arrowsmith
Arroyo
Arrv.
Ars
Arsacid
Arsenal
Arsene
Arsenic
Arsenio
Arshad
Arshi
Arsinoe
Arslan
Arson
Arsten
Art
Arta
Artaud
Artaxerxes
Arte
Artem
Artemis
Artemisia
Arterial
Artery
Artes
Artesia
Artest
Artforum
Artful
Arth
Arthritis
Arthur
Arthurian
Arthurs
Arti
Article
Articles
Articulation
Artie
Artifact
Artifacts
Artificial
Artigas
Artillery
Artin
Artis
Artisan
Artist
Artiste
Artistes
Artistic
Artistry
Artists
Arto
Artois
Arts
Artsakh
Artur
Arturo
Artvin
Artwork
Aru
Aruba
Aruch
Arun
Aruna
Arunachal
Arundel
Arundell
Arundhati
Arup
Arusha
Arvid
Arvin
Arvind
Arvo
Arya
Aryan
Aryans
Aryeh
Arzte
As
Asa
Asad
Asaf
Asahi
Asakura
Asakusa
Asami
Asan
Asano
Asansol
Asante
Asaph
Asbestos
Asbury
Ascalon
Ascari
Ascendancy
Ascended
Ascending
Ascension
Ascenso
Ascent
Asch
Aschaffenburg
Asclepius
Ascoli
Ascomycota
Ascot
Asda
Asen
Asesoria
Asgard
Asgardian
Asghar
Ash
AshWIN
Asha
Ashanti
Ashbourne
Ashbrook
Ashburn
Ashburnham
Ashburton
Ashbury
Ashby
Ashcroft
Ashdod
Ashdown
Ashe
Asher
Ashes
Asheville
Ashfaq
Ashfield
Ashford
Ashgabat
Ashgate
Ashi
Ashikaga
Ashina
Ashington
Ashiq
Ashish
Ashkelon
Ashkenazi
Ashkenazic
Ashland
Ashlee
Ashleigh
Ashley
Ashman
Ashmolean
Ashmore
Ashok
Ashoka
Ashokan
Ashot
Ashraf
Ashram
Ashtabula
Ashtamudi
Ashton
Ashur
Ashura
Ashurst
Ashutosh
Ashween
Ashwin
Ashworth
Asi
Asia
Asia.The
AsiaRIGHTs
Asiago
Asian
Asianet
Asians
Asiatic
Asiaweek
Aside
Asif
Asim
Asimov
Asin
Asis
Asistencia
Ask
Askari
Aske
Asked
Asker
Askew
Askin
Asking
Asks
Aslah
Aslam
Aslan
Asleep
Asli
Asma
Asmara
Asmin
Asmodeus
Asner
Aso
Asociacion
Asoka
Asomot
Asp
Asparagus
Aspasia
Aspect
Aspects
Aspen
Asperger
Aspergillus
Asphalt
Aspinall
Aspinwall
Aspire
Aspirin
Asquith
Asr
Ass
Ass't.
Assad
Assam
Assamese
Assan
Assange
Assassin
Assassinate
Assassination
Assassinations
Assassins
Assault
Assay
Assemblage
Assemblee
Assemblies
Assembly
Assemblyman
Assen
Assent
Asser
Assessed
Assessing
Assessment
Assessments
Assessor
Asset
Assets
Assh@%$e
Assigned
Assignment
Assignments
Assimilation
Assiniboia
Assiniboine
Assis
Assisi
Assist
Assistance
Assistant
Assistants
Assisted
Assisting
Assists
Assize
Assizes
Asslaam
Assoc.
Associacao
Associate
Associated
Associates
Association
AssociationThe
Associations
Associazione
Asst
Assume
Assuming
Assumption
Assur
Assurance
Assyria
Assyrian
Assyrians
Asta
Astaire
Astana
Astarte
Astbury
Aster
Asteraceae
Asterisk
Asterix
Asteroid
Asteroids
Asthma
Asti
Astin
Astley
Aston
Astonishing
Astor
Astorga
Astoria
Astounding
Astr
Astra
AstraZeneca
Astragalus
Astrakhan
Astral
Astrid
Astro
Astrodome
Astrology
Astronaut
Astronautics
Astronauts
Astronomer
Astronomers
Astronomical
Astronomy
Astrophysical
Astrophysics
Astros
Asturian
Asturias
Asuka
Asuncion
Asura
Asus
Aswad
Aswan
Asylum
Asymmetric
Asynchronous
Asyut
At
Ata
Atabek
Atacama
Atahualpa
Atal
Atalanta
Atari
Ataturk
Atchafalaya
Atchison
Atco
Ate
Atef
Atelier
Aten
Ateneo
Ath
Athabasca
Athabaskan
Athanasius
Atheism
Atheist
Atheists
Athelstan
Athena
Athenaeum
Athenaeus
Athenean
Atheneum
Athenian
Athenians
Athenry
Athens
Atherstone
Atherton
Athlete
Athletes
Athletic
Athletics
AthleticsThe
Athlon
Athlone
Athol
Atholl
Athos
Ati
Atithi
Atkin
Atkins
Atkinson
Atlanta
Atlante
Atlantean
Atlanteans
Atlantic
Atlantic.
Atlantico
Atlantique
Atlantiques
Atlantis
Atlas
Atletico
Atlus
Atma
Atmosphere
Atmospheric
Atoll
Atom
Atomic
Atoms
Atonement
Atop
Atreides
Atrium
Atrocities
Atsushi
Att
Atta
Attache
Attached
Attachment
Attack
Attacked
Attacker
Attackers
Attacking
Attacks
Attalus
Attar
Attempt
Attempted
Attempting
Attempts
Attenborough
Attendance
Attendances
Attended
Attendees
Attending
Attention
Attentive
Atterbury
Attic
Attica
Atticus
Attila
Attilio
Attitude
Attitudes
Attleboro
Attlee
Attn.
Attock
Attorney
Attorneys
Attraction
Attractions
AttractionsThe
Attribute
Attributes
Attribution
Attrition
Attu
Attwood
Atty
Atul
Atwater
Atwell
Atwood
Atzmon
Au
AuR
Aube
Aubert
Aubin
Aubrey
Aubry
Auburn
Auch
Auchinleck
Auckland
Auction
Auctions
Audacity
Audax
Aude
Auden
Audi
Audie
Audience
Audiences
Audiencia
Audio
Audioslave
Audiovisual
Audit
Auditing
Audition
Auditions
Auditor
Auditorio
Auditorium
Auditors
Auditory
Audley
Audra
Audrey
Audubon
Aue
Auer
Auerbach
Auf
Aug
Aug.
Auger
Augie
Auglaize
Augmented
Augsburg
August
Augusta
Augustan
Augustana
Auguste
Augusti
Augustin
Augustine
Augustinian
Augustinians
Augusto
Augustow
Augustus
Auk
Auld
Ault
Aulus
Aum
Aung
Aunga
Aunt
Auntie
Aunty
Aur
Aura
Aural
Aurangabad
Aurangzeb
Aurat
Aurea
Aurealis
Aurel
Aurelia
Aurelian
Aurelio
Aurelius
Aurich
Aurobindo
Aurora
Aurum
Aus
Auschwitz
Ausf
Ausgabe
Aussie
Aust
Austell
Austen
Auster
Austerlitz
Austin
Austral
Australasia
Australasian
Australia
Australia.
Australia.The
AustraliaIn
AustraliaRIGHTs
AustraliaThe
Australian
Australians
Australis
Australopithecus
Austrasia
Austria
Austrian
Austrians
Austro
Austronesian
Authentic
Authentication
Authenticity
Author
AuthorHouse
Authored
Authorised
Authorities
Authority
Authorization
Authorized
Authors
Authorship
Autism
Auto
AutoCAD
Autobahn
Autobiographical
Autobiography
Autobot
Autobots
Autocar
Autodesk
Autodromo
Autograph
Automated
Automatic
Automatically
Automation
Automobile
Automobiles
Automotive
Automotives
Autonoma
Autonomous
Autonomy
Autopsy
Autoroute
Autos
Autosport
Autostale
Autovia
Autry
Autumn
Autun
Auvergne
Aux
Auxerre
Auxiliaries
Auxiliary
Av
Av.
Av?nash
Ava
Availability
Available
Avala
Avalanche
Avalokitesvara
Avalon
Avant
Avanti
Avantika
Avar
Avars
Avasarama
Avatar
Avatars
Avaya
Avco
Ave
Avebury
Avedon
Aveiro
Aveling
Avellaneda
Avellino
Avenged
Avenger
Avengers
Avenida
Aventine
Aventis
Aventura
Avenue
Avenues
Average
Averages
Averell
Averill
Averroes
Avery
Aves
Avesta
Avestan
Avex
Aveyron
Avg
Avi
Avia
Aviacion
Avian
Aviation
Aviator
Aviators
Avicenna
Avid
Avigdor
Avignon
Avila
Aviles
Avionics
Avis
Aviv
Aviv.
Aviva
Avni
Avoca
Avogadro
Avoid
Avoidance
Avoiding
Avon
Avondale
Avonmouth
Avraham
Avram
Avril
Avro
Avruch
Aw
Awa
Awad
Awadewit
Awadh
Awaiting
Awake
Awakening
Awami
Awan
Awara
Award
Award.
AwardThe
Awarded
Awardees
Awards
Awards####
AwardsHe
AwardsIn
AwardsThe
Aware
Awareness
Away
Awaz
Awdry
Awe
Aweesome
Awesome
Awful
Awinash
Awkward
Awlaki
Awsat
Awsome
Awwww
Ax
Axe
Axel
Axelrod
Axial
Axiom
Axis
Axl
Axle
Axum
Ay
Aya
Ayacucho
Ayad
Ayala
Ayalon
Ayatollah
Ayayyo
Ayckbourn
AydLATINn
Aye
Ayega
Ayer
Ayers
Ayesha
Aykroyd
Ayla
Aylesbury
Aylmer
Aylward
Aylwin
Ayman
Aymara
Ayn
Ayodhya
Ayr
Ayre
Ayres
Ayrshire
Ayrton
Ayton
Ayu
Ayub
Ayumi
Ayurveda
Ayurvedic
Ayush
Ayutthaya
Ayya
Ayyavazhi
Ayyo
Ayyub
Ayyubid
Az
Aza
Azad
Azadegan
Azadi
Azalea
Azam
Azar
Azarenka
Azaria
Azazel
Azerbaijan
Azerbaijani
Azerbaijanis
Azeri
Azeris
Azerrad
Azevedo
Azhar
Azim
Aziz
Azkaban
Azmi
Aznar
Aznavour
Azores
Azov
Azrael
Aztec
Azteca
Aztecan
Aztecs
Azul
Azuma
Azure
Azurix
Azusa
Azzam
Azzaman
A||##||#||
A}
Aâpke
B
B#
B##
B###
B####
B#B
B&B
B&M
B&O
B&W
B'
B'Tselem
B'nai
B'rith
B'z
B+
B.
B.#
B.A
B.A.
B.B.
B.C
B.C.
B.C.E.
B.D.
B.E.
B.Ed
B.F.
B.G.
B.H.
B.I.G.
B.J.
B.L.
B.M.
B.P.
B.R.
B.S.
B.Sc
B.Sc.
B.T.
B.Tech
B.V.
B2B
B2R
BA
BAA
BABA
BAC
BACK
BAD
BADHAI
BADI
BAE
BAFTA
BAG
BAHAHA
BAHUT
BAI
BAKWAS
BALLET
BALLROOM
BAM
BAN
BANGLA
BANK
BANO
BAO
BAP
BAQI
BAR
BARFANI
BART
BARTrail
BAS
BASE
BASEPAGENAME
BASF
BASIC
BAT
BATCH
BATEY
BAY
BAe
BB
BB8
BBA
BBB
BBC
BBC#
BBC.co.uk
BBCRIGHTs
BBFC
BBL
BBQ
BBS
BBVA
BBWAA
BC
BC.The
BCA
BCAA
BCC
BCCI
BCD
BCE
BCE.
BCF
BCG
BCI
BCM
BCP
BCR
BCS
BCT
BCal
BD
BD####
BDA
BDO
BDP
BDS
BDSM
BE
BEA
BEAMED
BEC
BECAUSE
BEEN
BEF
BEFORE
BEING
BEN
BENEFIT
BENGALI
BENGALIBENGALI
BENGALIBENGALIBENGALI
BENGALIBENGALIBENGALIBENGALI
BENGALIBENGALIBENGALIBENGALIBENGALI
BENGALIBENGALIBENGALIBENGALIBENGALIBENGALI
BENGALIBENGALIBENGALIBENGALIBENGALIBENGALIBENGALI
BEST
BET
BETTER
BETWEEN
BEWARE
BF
BFA
BFC
BFI
BG
BGLE
BGM
BGP
BGS
BH
BHAAR
BHAI
BHARAT
BHENCHOD
BHI
BHMB
BHP
BHS
BI
BIA
BIG
BILL
BIM
BIO
BIOS
BIS
BIT
BJ
BJAODN
BJJ
BJP
BJPJAI
BK
BK.
BL
BLACK
BLACKLINE
BLAST
BLI
BLM
BLP
BLP.
BLPs
BLS
BLT
BLUE
BM
BMA
BMC
BMD
BME
BMG
BMG.
BMI
BMJ
BMO
BMP
BMS
BMT
BMW
BMW,
BMX
BN
BNA
BNC
BNL
BNP
BNSF
BO
BOA
BOAC
BOARD
BOB
BOC
BOD
BOLD
BOLTA
BONES
BOOK
BOOKS
BOP
BOT
BOTH
BOTHER
BOTHERED
BOWL
BOX
BOXBOX
BOXBOXTreasury
BP
BP.
BPA
BPD
BPI
BPL
BPM
BPO
BPP
BPS
BR
BRAC
BRADLEY
BRAWLER
BRCA#
BRD
BRENNER
BRETT
BREYER
BRFA
BRIDGET
BRILL
BRING
BRINGING
BRINGS
BRIT
BRM
BROKERS
BROUGHT
BRP
BRT
BS
BSA
BSB
BSC
BSD
BSE
BSF
BSG
BSI
BSL
BSN
BSNL
BSO
BSP
BSS
BST
BSU
BSc
BSkyB
BT
BT##
BTA
BTC
BTCC
BTEC
BTP
BTR
BTS
BTW
BU
BUA
BUFFALO
BULLET
BUNCH
BURGER
BURNT
BUS
BUSH
BUSINESS
BUT
BV
BW
BWF
BWV
BWilkins
BX
BY
BYU
BYU.
BZ
Ba
Ba'al
Ba'ath
Ba'athist
Ba'athists
Baa
Baa's
Baad
Baader
Baaki
Baal
Baalbek
Baalon
Baar
Baarish
Baat
Baath
Baathist
Baathists
Bab
Baba
Babajobu
Babak
Babalon
Babangida
Babar
Babb
Babbage
Babbar
Babbitt
Babbler
Babcock
Babe
Babel
Babelsberg
Babes
Babette
Babi
Babic
Babies
Babington
Bable
Babri
Babs
Babson
Babu
Babuji
Babur
Baby
Babyface
Babylon
Babylonia
Babylonian
Babylonians
Bac
Baca
Bacall
Bacardi
BacardiBaa
Bacau
Baccalaureate
Baccha
Bacchan
Baccho
Bacchus
Bach
Bacha
Bacharach
Bachchan
Bache
Bachelet
Bachelor
BachelorRIGHTs
Bachelors
Bachman
Bachmann
Bachon
Bachpan
Bachrach
Bacillus
Back
BackWeb
Backa
Backbeat
Backbone
Backdrop
Backed
Backer
Background
BackgroundA
BackgroundAfter
BackgroundBorn
BackgroundColors
BackgroundDuring
BackgroundFollowing
BackgroundHe
BackgroundIn
BackgroundIt
BackgroundOn
BackgroundThe
Backhouse
Backing
Backlash
Backlog
Backlund
Backman
Backs
Backslash
Backstage
Backstreet
Backstroke
Backup
Backus
Backward
Backwards
Backyard
Bacolod
Bacon
Bacteria
Bacterial
Bacteriology
Bactria
Bactrian
Bad
Bada
Badahai
Badajoz
Badakhshan
Badal
Badami
Badan
Badawi
Badbu
Badd
Baddeley
Bade
Baden
Badenoch
Bader
Badfinger
Badge
Badger
Badgers
Badges
Badh
Badhai
Badi
Badia
Badiya
Badlands
Badlo
Badly
Badman
Badminton
Badoglio
Badr
Badri
Badrinath
Badu
Bae
Baek
Baekje
Baen
Baer
Baez
Baeza
Baffin
Baffled
Bag
Bagan
Bagby
Bagdad
Bagel
Bagels
Baggage
Bagge
Baggins
Baggio
Bagh
Baghdad
Baghdadi
Baghdadis
Bagley
Bagmati
Bagnall
Bago
Bagong
Bagot
Bagram
Bagrat
Bagration
Bagrationi
Bags
Baguio
Bagwell
Bah
Baha
Baha'i
Baha'is
Baha'u
Bahadur
Bahama
Bahamas
Bahamian
Bahar
Bahasa
Bahauddin
Bahawalpur
Bahia
Bahini
Bahman
Bahmani
Bahn
Bahnhof
Bahr
Bahrain
Bahraini
Bahram
Bahri
Bahru
Bahu
Bahujan
Bahut
Bahutosh
Bai
Baia
Baibars
Baidu
Baie
Baig
Baiji
Baikal
Baikonur
Bail
Baile
Bailey
Bailiff
Bailiwick
Baillie
Bailly
Baily
Bain
Bainbridge
Baines
Bainimarama
Bains
Bair
Baird
Bais
Bait
Baja
Bajaj
Baje
BajeHoga
Baji
Bajir
Bajo
Bajoran
Bak
Baka
Bakar
Bakbak
Bake
Baked
Baker
Bakerloo
Bakers
Bakersfield
Bakery
Bakewell
Bakharev
Bakhsh
Bakhtin
Baking
Bakke
Bakker
Bakr
Bakri
Baksh
Bakshi
Baku
Bakufu
Bakugan
Bakunin
Bal
Bala
Balaam
Balaban
Balaclava
Balad
Balaguer
Balaji
Balak
Balakirev
Balakrishnan
Balam😝😝😝😝😝😝😝😝
Balan
Balance
Balanced
Balances
Balanchine
Balancing
Balarama
Balard
Balasingham
Balaton
Balazick
Balazs
Balboa
Balch
Balcony
Bald
Balder
Baldock
Baldrick
Baldry
Baldur
Baldwin
Baldy
Bale
Balearic
Bales
Balfe
Balfour
Balhae
Balham
Bali
Balikpapan
Balin
Balinese
Balint
Balkan
Balkans
Balkenende
Balkh
Ball
Balla
Ballad
Ballade
Ballads
Ballance
Ballantine
Ballantyne
Ballarat
Ballard
Ballast
Balle
Ballerina
Ballesteros
Ballet
Ballets
Ballina
Ballinger
Balliol
Ballistic
Ballon
Balloon
Balloonman
Balloons
Ballot
Ballots
Ballou
Ballpark
Ballroom
Balls
Ballston
Bally
Ballymena
Balmain
Balmer
Balmoral
Baloch
Balochi
Balochistan
Balochistsn
Baloncesto
Balooch
Balsam
Baltar
Baltasar
Baltazar
Balthasar
Balthazar
Balti
Baltic
Baltica
Baltics
Baltimore
Baltistan
Balto
Balu
Baluch
Baluchistan
Balzac
Bam
Bama
Bamako
Bamba
Bambaataa
Bambang
Bambara
Bamber
Bamberg
Bamberger
Bambi
Bambino
Bamboo
Bamford
Bampton
Bamyan
Ban
Bana
Banach
Banana
Bananarama
Bananas
Banaras
Banarsidass
Banat
Banaye
Banbridge
Banbury
Banca
Banco
Bancorp
Bancroft
Banczak
Band
BandThe
Banda
Bandai
Bandar
Bandara
Bandaranaike
Bande
Banded
Bandera
Banderas
Bandicoot
Bandini
Bandit
Bandits
Bando
Bandon
Bandra
Bands
Bandstand
Bandung
Bandura
Bandwidth
Bandy
Bane
Banerjee
Banff
Banfield
Bang
Banga
Bangalore
Bangkok
Bangla
Bangladesh
Bangladeshi
Bangladeshis
Banglapedia
Bangles
Bangor
Bangs
Bangui
Banham
Bani
Banik
Banister
Banja
Banjo
Banjul
Bank
BankRIGHTs
Banka
Banker
Bankers
Bankhead
Banking
Banknotes
Bankrupt
Bankruptcy
Banks
Banksia
Bankstown
Banksy
Bankura
Bann
Banna
Bannatyne
Banned
Banner
Bannerman
Banners
Banning
Bannister
Bannock
Bannockburn
Bannon
Bannu
Bano
Banos
Banovina
Banque
Banquet
Bans
Bansal
Banshee
Banshees
Banska
Bant
Bantam
Bantamweight
Bantch
Bante
Banteay
Banten
Banting
Banton
Bantry
Bantu
Banu
BanvPak
Banyan
Banzai
Bao
Baoding
Baptism
Baptist
Baptista
Baptiste
Baptists
Bapu
Baqi
Baqubah
Bar
Bara
Barack
Baraita
Barajas
Barak
Baraka
Barakat
Baramad
Baramad*Azad
Baramad+Azad
Baran
Barangay
Barangays
Baranja
Baranya
Barasat
Barat
Barb
Barba
Barbaadi
Barbadian
Barbados
Barbara
Barbarian
Barbarians
Barbaro
Barbarossa
Barbary
Barbe
Barbeau
Barbecue
Barbed
Barber
Barbera
Barberini
Barbers
Barbershop
Barbet
Barbican
Barbie
Barbier
Barbieri
Barbirolli
Barbizon
Barbosa
Barbossa
Barbour
Barbra
Barbu
Barbuda
Barbus
Barca
Barcelo
Barcelona
Barcelos
Barclay
Barclays
Bard
Barda
Barden
Bardhaman
Bardi
Bardo
Bardon
Bardot
Bards
Bardstown
Bardwell
Bare
Barefoot
Bareilly
Barely
Barenaked
Barenboim
Barents
Barese
Barfani
Barfield
Barford
Bargain
Bargaining
Barge
Barger
Barham
Bari
Baring
Barisal
Barisan
Barish
Baritone
Bark
Barker
Barkha
Barking
Barkley
Barks
Barksdale
Barlaam
Barletta
Barley
Barling
Barlow
Barman
Barn
Barna
Barnabas
Barnaby
Barnacle
Barnard
Barnegat
Barnes
Barnet
Barnett
Barneveld
Barney
Barnhart
Barnim
Barno
Barns
Barnsley
Barnstable
Barnstaple
Barnstar
Barnstormers
Barnum
Barnwell
Baro
Baroda
Baron
Barone
Baroness
Baronet
Baronetage
Baronetcy
Baronets
Baroni
Barons
Barony
Baroque
Barossa
Barr
Barra
Barrack
Barracks
Barracuda
Barracudas
Barragan
Barrage
Barranquilla
Barras
Barrass
Barratt
Barre
Barred
Barrel
Barrels
Barren
Barrens
Barrera
Barret
Barreto
Barrett
Barrhead
Barri
Barricade
Barrichello
Barrick
Barrie
Barrientos
Barrier
Barriers
Barringer
Barrington
Barrio
Barrios
Barris
Barrister
Barron
Barros
Barroso
Barrow
Barrowman
Barrows
Barry
Barrymore
Bars
Barsi
Barstow
Bart
Bartel
Bartels
Bartercard
Barth
Barthel
Barthelemy
Barthes
Bartholomew
Bartle
Bartleby
Bartlesville
Bartlet
Bartlett
Bartley
Bartok
Bartoli
Bartolo
Bartolome
Bartolomeo
Barton
Bartoszyce
Bartow
Bartram
Bartsch
Bartz
Baru
Barua
Baruch
Barwick
Barwon
Baryshnikov
Barzani
Bas
Basa
Basal
Basalt
Basara
Basayev
Bascom
Base
Baseball
Based
Basel
Baseline
Basement
Bases
Basescu
Bash
Basha
Basham
Bashar
Bashers
Bashir
Bashkir
Bashkortostan
Basho
Basic
Basically
Basics
Basie
Basil
Basilan
Basildon
Basile
Basilica
Basilicata
Basilio
Basilisk
Basin
Basing
Basinger
Basingstoke
Basins
Basis
Baskerville
Basket
Basketball
Baskin
Basle
Basque
Basques
Basquiat
Basra
Bass
Bassa
Bassano
Bassar
Basse
Basses
Basset
Bassett
Bassey
Bassi
Bassist
Basso
Bast
Basta
Bastard
Bastards
Basten
Basti
Bastia
Bastian
Bastien
Bastille
Bastion
Bastogne
Bastos
Bastrop
Basu
Bat
Bata
Bataan
Bataille
Batak
Batang
Batangas
Batavia
Batavian
Batawi
Batcave
Batch
Batchelor
Bate
Bateleurs
Bateman
Bates
Bateson
Batesville
Batgirl
Bath
Bathgate
Bathing
Bathory
Bathroom
Baths
Bathsheba
Bathurst
Batista
Batley
Batman
Bato
Baton
Bator
Batory
Batra
Bats
Batsford
Batsman
Batsmen
Batson
Batt
Battaglia
Battalion
Battalions
Battambang
Batted
Battelle
Batten
Battenberg
Batteries
Battersby
Battersea
Battery
Batticaloa
Batting
Battista
Battisti
Battle
BattleThe
Battlefield
Battleford
Battlefront
Battleground
Battles
Battleship
Battleships
Battlestar
Battling
Battuta
Batty
Batu
Batumi
Batwoman
Bau
Bauchi
Baudelaire
Baudelaires
Bauder
Baudin
Baudouin
Baudrillard
Bauer
Baugh
Bauhaus
Bauhinia
Baum
Bauman
Baumann
Baume
Baumgarten
Baumgartner
Baur
Bausch
Bautista
Bautzen
Bava
Bavaria
Bavarian
Bavarians
Bax
Baxter
Bay
Bayamon
Bayan
Bayard
Bayer
Bayerische
Bayern
Bayernliga
Bayes
Bayesian
Bayeux
Bayezid
Bayfield
Bayh
Bayi
Bayless
Bayley
Baylis
Bayliss
Baylor
Bayly
Bayne
Baynes
Bayonne
Bayou
Bayreuth
Bays
Bayshore
Bayside
Bayswater
Bayt
Baytown
Bayview
Baywatch
Baz
Bazaar
Bazan
Bazar
Bazin
Bazooka
Bb
Bb#
Bbb##
Bc
Bc#
Bcz
Bd
Bd#
Bde
Bdiya
Be
Be#
BeLATINchatow
Bea
Beach
Beachcrofts
Beaches
Beachy
Beacon
Beacons
Beaconsfield
Beadle
Beads
Beagle
Beak
Beaker
Beal
Beale
Beall
Beals
Beam
Beamer
Beamish
Beams
Bean
Beane
Beaneaters
Beanie
Beano
Beans
Beanstalk
Bear
Bearcat
Bearcats
Beard
Bearded
Bearden
Beardies
Beardmore
Beards
Beardsley
Bearer
Bearers
Bearian
Bearing
Bearkadette
Bearn
Bears
Beas
Beasley
Beast
Beastie
Beasts
Beat
Beata
Beate
Beaten
Beating
Beatle
Beatles
Beato
Beaton
Beatrice
Beatrix
Beatriz
Beats
Beattie
Beatty
Beaty
Beatz
Beau
Beauce
Beauchamp
Beauclerk
Beaudoin
Beaufort
Beauharnais
Beaujolais
Beaulieu
Beaumaris
Beaumont
Beaune
Beaupre
Beauregard
Beausejour
Beauties
Beautiful
Beautifully
Beauty
Beauvais
Beauvoir
Beaux
Beaver
Beaverbrook
Beavers
Beaverton
Beavis
Beazley
Beback
Bebe
Bebo
Bebop
Bec
Became
Because
Becca
Becerra
Bechara
Bechari
Becher
Bechet
Bechtel
Bechtolsheim
Bechuanaland
Beck
Beckenbauer
Beckenham
Becker
Becket
Beckett
Beckford
Beckham
Beckinsale
Beckley
Beckman
Beckmann
Beckwith
Becky
Become
Becomes
Becoming
Bed
Beda
Bedard
Bedchamber
Bede
Bedell
Bedford
Bedfordshire
Bedi
Bedingfield
Bedi😍😍😍😍😍Saeed
Bedlam
Bedminster
Bedok
Bedouin
Bedouins
Bedrock
Bedroom
Beds
Bedser
Bedtime
Bedworth
Bee
Beebe
Beeblebrox
Beech
Beecham
Beechcraft
Beecher
Beeching
Beechwood
Beecroft
Beef
Beefcake
Beefheart
Beehive
Beek
Beekman
Been
Beep
Beer
Beerbohm
Beermen
Beers
Beerschot
Beersheba
Beery
Bees
Beesley
Beeson
Beeston
Beet
Beethoven
Beetle
Beetles
Beetstra
Beevor
Before
Beg
Bega
Began
Begg
Beggar
Beggars
Begin
Beginner
Beginners
Beginning
Beginnings
Begins
Begley
Begum
Begun
Behan
Behanchod
Behar
Behari
Behass
Behavior
Behavioral
Behaviour
Behavioural
Behemoth
Behen
Behind
Behn
Behold
Behr
Behrens
Behring
Behtar
Bei
Beiderbecke
Beijing
Being
Beings
Beinn
Beira
Beirut
Beis
Beit
Beitar
Beith
Beitrage
Beiyang
BeizzatiA
Beja
Bek
Bekele
Bel
Bela
Belafonte
Belair
Beland
Belanger
Belarus
Belarusian
Belarusians
Belasco
Belcher
Belconnen
Belden
Belding
Belem
Belen
Belenenses
Beleriand
Belew
Belfast
Belford
Belfort
Belgaum
Belge
Belgian
Belgians
Belgica
Belgique
Belgium
Belgorod
Belgrade
Belgrano
Belgrave
Belgravia
Belhaven
Beli
Belial
Belichick
Belief
Beliefs
Believe
Believed
Believer
Believers
Believing
Belinda
Belisarius
Belize
Belizean
Belk
Belkin
Belknap
Bell
BellSouth
Bella
Bellagio
Bellaire
Bellamy
Bellanca
Bellarmine
Bellary
Bellas
Bellator
Belle
Belleau
Bellefontaine
Bellefonte
Bellegarde
Bellerive
Bellerophon
Belles
Belleville
Bellevue
Bellew
Belleza
Bellflower
Belli
Bellinger
Bellingham
Bellingshausen
Bellini
Bellinzona
Bellman
Bello
Belloc
Bellona
Bellow
Bellows
Bells
Bellshill
Bellum
Belluno
Belly
Belmar
Belmont
Belmonte
Belmore
Belo
Beloit
Belong
Belonging
Belongs
Belorussian
Beloved
Below
Belper
Belsen
Belt
Belton
Beltrami
Beltran
Belts
Beltway
Beluga
Belur
Belushi
Belvedere
Belvidere
Belvoir
Belz
Belzer
Bem
Bemba
Bemidji
Bemis
Ben
Benalla
Benares
Benatar
Benaud
Benavides
Benazir
Benbow
Bench
Bencherlite
Benchley
Benchmark
Bend
Benda
Bender
Bendigo
Bending
Bendis
Bendix
Bene
Beneath
Benedetti
Benedetto
Benedict
Benedictine
Benedictines
Benedictus
Benedikt
Benefice
Benefit
Benefits
Benelli
Benelux
Benes
Benet
Benetton
Benevento
Benevolent
Benfica
Benford
Beng
Bengal
Bengali
Bengalis
Bengals
Bengalure
Bengaluru
Benghazi
Bengt
Bengtsson
Benguela
Benham
Beni
Benicia
Benidorm
Benigno
Benin
Benitez
Benito
Benjamin
Benjamins
Benji
Benn
Benner
Bennet
Bennett
Bennetts
Bennie
Benning
Bennington
Benno
Benny
Benoist
Benoit
Benson
Bensonhurst
Bent
Bentham
Bentheim
Bentinck
Bentley
Bento
Benton
Bentonville
Benue
Benvenuto
Benz
Beograd
Beowulf
Ber
Bera
Berar
Berard
Berardinelli
Berat
Berber
Berbers
Berbice
Berchtesgaden
Bercy
Berdych
Bere
Berea
Bereich
Beren
Berengar
Berenger
Berenguer
Berenice
Berenson
Beresford
Beret
Berets
Beretta
Berezovsky
Berg
Bergamo
Berge
Bergedorf
Bergen
Berger
Bergerac
Bergeron
Bergh
Berghahn
Bergin
Bergisch
Berglund
Bergman
Bergmann
Bergson
Bergstrom
Berhad
Beria
Bering
Berio
Berisha
Berk
Berke
Berkeley
Berkhamsted
Berklee
Berkley
Berkman
Berkowitz
Berks
Berkshire
Berkshires
Berle
Berlet
Berlin
Berliner
Berlioz
Berlitz
Berlusconi
Berman
Bermingham
Bermondsey
Bermuda
Bermudez
Bermudian
Bern
Bernabe
Bernabeu
Bernadette
Bernadotte
Bernal
Bernanke
Bernard
Bernardi
Bernardin
Bernardino
Bernardo
Bernays
Bernburg
Bernd
Berndt
Berne
Berner
Berners
Bernese
Bernhard
Bernhardt
Bernice
Bernicia
Bernie
Bernier
Bernina
Bernini
Bernoulli
Berns
Bernstein
Bernt
Berra
Berri
Berrien
Berrigan
Berrios
Berry
Berryman
Bert
Berta
Bertelsmann
Bertha
Berthe
Berthier
Berthold
Berti
Bertie
Bertil
Bertin
Berto
Bertolt
Bertolucci
Berton
Bertone
Bertone@ENRON_DEVELOPMENT
Bertram
Bertrand
Bertuzzi
Berwick
Berwickshire
Berwyn
Beryl
Besancon
Besant
Besar
Beschta
Beshear
Beside
Besides
Besiktas
Beslan
Bess
Bessarabia
Bessarabian
Bessel
Bessemer
Besser
Bessie
Besson
Best
Bester
Bestseller
Beswick
Bet
Beta
Betacommand
Betamax
Betances
Betancourt
Betar
Betelgeuse
Beth
Bethany
Bethe
Bethel
Bethell
Bethesda
Bethlehem
Bethlen
Bethmann
Bethnal
Bethpage
Bethune
Beti
BetiKia
Betis
Betjeman
Beto
Betrayal
Betrayed
Betriebszahlung
Betsey
Betsy
Bette
Bettencourt
Bettendorf
Better
Betti
Bettie
Bettina
Betting
Bettis
Betts
Betty
Betula
Between
Bety
Betz
Beulah
Beutel
Beuys
Bev
Bevan
Beverage
Beverages
Beveridge
Beverley
Beverly
Bevin
Bevis
Bevolkerungsentwicklung
Bevolkingskernen
Bewah
Beware
Bewdley
Bewick
Bewitched
Bexar
Bexhill
Bexley
Bextor
Bey
Beyer
Beyonce
Beyond
Bezalel
Bezark
Beziers
Bezirk
Bezirksliga
Bezirksoberliga
Bf
Bf#
Bg#
Bgwhite
Bhaad
Bhaang
Bhabha
Bhabhi
Bhabi
Bhadiyq
Bhadra
Bhagalpur
Bhagat
Bhagavad
Bhagavan
Bhagavata
Bhagirathi
Bhagwan
Bhagwat
Bhagwa…
Bhai
Bhaii
Bhaiji
Bhaiya
Bhaiyas
Bhaiyon
Bhaiyoooo
Bhaiyya
Bhajan
Bhak
Bhakht
Bhakta
Bhakti
Bhaktivedanta
Bhalla
Bhamo
Bhandari
Bhandarkar
Bhangra
Bhanu
Bhar
Bharat
Bharata
Bharatanatyam
Bharath
Bharathi
Bharati
Bharatiya
Bharatmata
Bharatpur
Bhardwaj
Bhargava
Bharkha
Bhart
Bharti
Bharu
Bharuch
Bhasa
Bhasha
Bhaskar
Bhaskara
Bhat
Bhatia
Bhatiyani
Bhatnagar
Bhatt
Bhatta
Bhattacharya
Bhatti
Bhau
Bhavan
Bhavani
Bhavesh
Bhavnagar
Bhawan
Bhd
Bheek
Bheja
Bhejain03002744219
Bhejte
Bhencho
Bhi
Bhikkhu
Bhilkul
Bhim
Bhima
Bhishma
Bhoja
Bhojpuri
Bhola
Bhool
Bhopal
Bhoraskar
Bhosle
Bhr
Bhubaneswar
Bhuj
Bhukkad
Bhumibol
Bhupathi
Bhushan
Bhut
Bhutan
Bhutanese
Bhutto
Bi
BiH
BiLATINgoraj
Bia
BiaLATINa
BiaLATINogard
BiaLATINystok
Biafra
Biagio
Biak
Bialik
Bialystok
Bian
Bianca
Bianchi
Bianco
Biao
Biarritz
Bias
Biased
Biathlon
Bibb
Bibby
Bibi
Bible
Bibles
Biblia
Biblical
Bibliographic
Bibliographical
Bibliography
Biblioteca
Bibliotheca
Bibliothek
Bibliotheque
Bice
Bicentennial
Bicester
Bickel
Bickerton
Bickford
Bickley
Bicknell
Bicol
Bicycle
Bicycles
Bid
Bidar
Bidding
Biddle
Biddulph
Bideford
Biden
Bidgee
Bids
Bidwell
Bie
Bieber
Biel
Bielefeld
Biella
Bielsk
Bielsko
Bien
Biennale
Bienne
Biennial
Bienvenue
Bienville
Bier
Bierce
Biff
Biffle
Biffy
Big
Bigby
Bigelow
Bigfoot
Bigg
Biggar
Bigger
Biggest
Biggie
Biggin
Biggs
Bighorn
Bight
Bihac
Bihar
Bihari
Biharis
Bihor
Bijapur
Bijelo
Bijou
Biju
Bikaner
Bike
Biker
Bikes
Bikini
Biko
Bikram
Bikull
Bil
Bila
Bilal
Bilaspur
Bilateral
Bilbao
Bilbo
Bilboa
Bilbray
Bild
Bilderberg
Bilingual
Bilkul
Bill
Billa
Billabong
Billancourt
Billboard
Billboard.com
Billboards
Bille
Billed
Billerica
Billericay
Billiard
Billiards
Billie
Billing
Billingham
Billings
Billingsley
Billington
Billion
Billionaire
Billiton
Bills
Billups
Billy
Bilmes
Biloxi
Bilson
Bilston
Bilten
Biltmore
Bim
Bimal
Bimbo
Bin
Bina
Binalshibh
Binary
Bind
Binder
Binding
Bindu
Binet
Bing
Bingen
Bingham
Binghamton
Bingley
Bingo
Binh
Binksternet
Binney
Binnie
Binns
Bint
Bintang
Binyamin
Bio
BioShock
BioWare
Biochem
Biochemical
Biochemistry
Biodiversity
Bioethics
Biofuels
Biogeography
Biograph
Biographer
Biographical
Biographie
Biographies
Biography
BiographyA
BiographyAccording
BiographyAfter
BiographyBorn
BiographyHe
BiographyHis
BiographyIn
BiographyJohn
BiographyShe
BiographyThe
Biohazard
Bioinformatics
Biol
Biological
Biologists
Biology
Biomass
Biomedical
Biometrics
Bion
Bionic
Bionicle
Biophys
Biophysics
Bios
Bioscience
Biosciences
Biosphere
Biota
Biotech
Biotechnology
Bipolar
Bir
Birbhum
Birch
Bird
BirdLife
Birdie
Birdies
Birding
Birdland
Birdman
Birds
Birdsong
Birdy
Birger
Birgit
Birgitta
Birgitte
Birjand
Birkbeck
Birkenau
Birkenfeld
Birkenhead
Birkett
Birkin
Birks
Birla
Birley
Birmingham
Birnbaum
Birney
Biro
Biron
Birr
Birt
Birth
Birthday
Birthplace
Birthright
Births
BirthsDeath
Biruitorul
Biruni
Bis
Bisbee
Biscay
Biscayne
Bischoff
Biscoe
Bisconti
Biscuit
Biscuits
Bisexual
Bishan
Bishkek
Bishnupur
Bishonen
Bishop
BishopRIGHTs
Bishopric
Bishops
Bishopsgate
Bisleri
Bisley
Bismarck
Bison
Bisons
Bissau
Bissell
Bisset
Bissett
Bisson
Bistrica
Bistrita
Bistro
Biswas
Bit
BitTorrent
Bitburg
Bitch
Bitches
Bite
Bites
Bithynia
Bitmap
Bitola
Bits
Bitter
Bittern
Bitterns
Bitterroot
Bittersweet
Bivins
Bix
Bixby
Biya
Biz
Bizarre
Bizarro
Bizerte
Bizet
Bizkit
Bjarne
Bjelke
Bjork
Bjorkman
Bjorn
Bjørn
Bk
BlBLACKck
Bla
Blabbermouth
Black
BlackBa...@excite.com
BlackBayou
BlackBerry
Blackadder
Blackbeard
Blackberry
Blackbird
Blackboard
Blackburn
Blackburne
Blacker
Blackest
Blackett
Blackfeet
Blackfoot
Blackford
Blackfriars
Blackhawk
Blackhawks
Blackheath
Blackie
Blackjack
Blackley
Blackman
Blackmore
Blackmun
Blackness
Blackout
Blackpool
Blackrock
Blacks
Blacksburg
Blacksmith
Blackstone
Blacktown
Blackwall
Blackwater
Blackwell
Blackwood
Bladder
Blade
Bladen
Blades
Blaenau
Blagoevgrad
Blagojevich
Blah
Blaikie
Blain
Blaine
Blaine@ENRON_DEVELOPMENT
Blair
Blais
Blaise
Blake
Blakeley
Blakely
Blakemore
Blakeney
Blakey
Blalock
Blame
Blamey
Blanc
Blanca
Blanchard
Blanchardb
Blanche
Blanchet
Blanchett
Blanco
Bland
Blandford
Blanding
Blandings
Blane
Blaney
Blank
Blankenburg
Blankenship
Blanket
Blanks
Blanning
Blanton
Blantyre
Blas
Blasphemy
Blass
Blast
Blaster
Blasters
Blatant
Blatchford
Blatt
Blatter
Blau
Blavatsky
Blaxland
Blaylock
Blaze
Blazer
Blazers
Blazing
Blazon
Bleach
Bleak
Bled
Bledsoe
Bleecker
Bleed
Bleeding
Blekinge
Blench
Blend
Blender
Blenheim
Bleriot
Bless
Blessed
Blessing
Blessings
Bletchley
Bleu
Blevins
Blewett
Bley
Blige
Bligh
Blight
Blimp
Blind
Blinded
Blindness
Bling
Blink
Blinky
Bliss
Blitz
Blitzkrieg
Blizzard
Blnguyen
Bloach
Blob
Bloc
Bloc.
Bloch
Block
Blockade
Blockading
Blockbuster
Blocked
Blocker
Blocking
Blocks
Blodgett
Bloemfontein
Blofeld
Blog
Blogger
Bloggers
Blogging
Blogs
Blogshares
Blohm
Blois
Blok
Blom
Blomberg
Blomfield
Blond
Blonde
Blondel
Blondes
Blondie
Blood
Bloodaxe
Bloodhound
Bloodlines
Bloods
Bloodstone
Bloody
Bloom
Bloomberg
Bloomberg.com
Bloomer
Bloomfield
Blooming
Bloomingdale
Bloomington
Bloomsburg
Bloomsbury
Bloor
Blore
Blossom
Blossoms
Blount
Bloustein
Blow
Blowback
Blowfish
Blowing
Blown
Blows
Bloxham
Blu
Blucher
Blue
BlueMoonset
Bluebeard
Bluebell
Blueberry
Bluebird
Bluebirds
Blueboar
Blueboy##
Bluefield
Bluegrass
Blueprint
Blues
Bluestone
Bluetooth
Bluewater
Bluewings
Bluff
Bluffs
Bluffton
Blum
Blumberg
Blume
Blumenfeld
Blumenthal
Blundell
Blunkett
Blunt
Blur
Blush
Bluth
Blvd
Blvd.
Bly
Blyth
Blythe
Blyton
Bn
Bnaya
Bnei
Bo
BoA
Boa
Boal
Boar
Board
BoardThe
Boarding
Boardman
Boardroom
Boards
Boardwalk
Boas
Boat
Boateng
Boathouse
Boating
Boatner
Boats
Boatswain
Boavista
Boaz
Bob
Boba
Boban
Bobbi
Bobbie
Bobbio
Bobby
Bobcat
Bobcats
Bobet
Bobo
Bobsleigh
Boc
Boca
Bocage
Bocas
Boccaccio
Bocelli
Bochnia
Bochum
Bock
Bockius
Bodden
Boddy
Bode
Bodega
Boden
Bodhi
Bodhidharma
Bodhisattva
Bodie
Bodies
Bodil
Bodin
Bodine
Bodkin
Bodleian
Bodley
Bodmer
Bodmin
Bodo
Bodom
Body
Bodybuilding
Bodyguard
Bodyline
Bodø
Boe
Boehm
Boehner
Boeing
Boeotia
Boeotian
Boer
Boers
Boethius
Bofors
Bog
Bogan
Bogarde
Bogart
Bogdan
Bogdanov
Bogdanovich
Boggs
Bogislaw
Bogle
Bognor
Bogomilsky
Bogor
Bogota
Bogra
Bogue
Bogus
Bohai
Bohdan
Boheme
Bohemia
Bohemian
Bohemians
Bohemond
Bohlen
Bohm
Bohme
Bohn
Bohol
Bohot
Bohr
Bohra
Bohs
Bohun
Boi
Boia
Boigny
Boil
Boileau
Boiled
Boiler
Boilermakers
Boiling
Boing
Bois
Boise
Bojan
Bojinka
Bok
Bokaro
Bokassa
Bol
Bola
Bolan
Boland
Bolanos
Bold
Bolden
Boldklub
Bole
Bolero
Boles
BolesLATINaw
Boleslav
Boleslaw
Boletus
Boleyn
Bolger
Bolin
Bolingbroke
Bolivar
Bolivarian
Bolivia
Bolivian
Bolivians
Bolko
Boll
Bolland
Bolles
Bolling
Bollinger
Bollywood
Bolo
Bologna
Bolognese
Bolsa
Bolshevik
Bolsheviks
Bolshevism
Bolshoi
Bolsover
Bolt
Bolta
Bolton
Bolts
Boltzmann
Bolyai
Bolzano
Bom
Boman
Bomb
Bomba
Bombardier
Bombardment
Bombay
Bomber
Bomberman
Bombers
Bombing
Bombings
Bombo
Bombs
Bombshell
Bon
Bona
Bonafide
Bonaire
Bonanno
Bonanza
Bonaparte
Bonar
Bonaventura
Bonaventure
Bonavista
Bond
Bondad
Bondage
Bondarenko
Bondi
Bonding
Bonds
Bone
Bonelli
Bones
Bonet
Boney
Bonfire
Bong
Bongi
Bongo
Bongs
Bongwarrior
Bonham
Bonhoeffer
Boni
Boniface
Bonifacio
Bonilla
Bonin
Bonita
Bonito
Bonjour
Bonn
Bonnard
Bonnaroo
Bonne
Bonnell
Bonner
Bonnet
Bonneville
Bonney
Bonnie
Bonnier
Bonny
Bono
Bonsai
Bonus
Bonzo
Boo
Booby
Boogie
Book
Bookchin
Booker
Booking
Booklet
Booklist
Bookman
Books
Bookseller
Booksellers
Bookshelf
Bookshop
Bookstore
Boola
Boole
Boolean
Boom
Boomer
Boomerang
Boomers
Boomtown
Boon
Boone
Boonstra
Boonton
Boonville
Boop
Boorman
Boosey
Boosh
Boost
Booster
Boosters
Boot
Booth
Boothbay
Boothby
Boothe
Boothroyd
Bootle
Bootleg
Boots
Bootsy
Booty
Booz
Booze
Boozer
Bop
Bopp
Bor
Bora
Borac
Boras
Borat
Borax
Borbon
Bord
Borda
Borde
Bordeaux
Borden
Bordentown
Border
Borderers
Bordering
Borderland
Borderlands
Borderline
Borders
Bore
Boreal
Borealis
Boreas
Bored
Borek
Borel
Boren
Borenstein
Borer
Borg
Borge
Borger
Borges
Borghese
Borgia
Borgir
Borgnine
Borgo
Boricua
Boring
Boris
Borisov
Borisovich
Borja
Bork
Borland
Borman
Bormann
Born
Borne
Bornean
Borneo
Borngen
Bornholm
Borno
Bornu
Boro
Borobudur
Borodin
Borodino
Boron
Boros
Borough
Boroughs
Borrego
Borromeo
Borrow
Borrowed
Borrowing
Borsod
Borthwick
Boru
Borussia
Bos
Bosanquet
Boscawen
Bosch
Bosco
Boscombe
Bose
Bosh
Boshin
Bosko
Bosley
Bosman
Bosna
Bosne
Bosnia
Bosniak
Bosniaks
Bosnian
Boso
Bosphorus
Bosporus
Bosque
Boss
Bossa
Bosse
Bosses
Bossi
Bossier
Bossy
Bostock
Boston
Bostonian
Bostrom
Bostwick
Boswell
Bosworth
Bot
Botafogo
Botanic
Botanical
Botanist
Botany
Botev
Both
Botha
Botham
Bothell
Bothwell
Botolph
Bots
Botswana
Bott
Botticelli
Bottle
Bottles
Bottling
Bottom
Bottomley
Bottoms
Botvinnik
Bou
Bouchard
Boucher
Bouches
Bouchet
Boudin
Boudreau
Bougainville
Bough
Bought
Boughton
Bouillon
Boulanger
Boulder
Boulenger
Boulevard
Boulez
Boulogne
Boult
Boulton
Bounce
Bouncing
Bound
Boundaries
BoundariesThe
Boundary
Bounded
Bounds
Bountiful
Bounty
Bouquet
Bourassa
Bourbon
Bourbons
Bourchier
Bourdais
Bourdieu
Bourdon
Bourg
Bourgeois
Bourges
Bourget
Bourgogne
Bourguiba
Bourke
Bourn
Bourne
Bournemouth
Bourque
Bourret
Bourse
Bout
Boutique
Bouton
Boutros
Bouvet
Bouvier
Bow
Bowden
Bowditch
Bowdoin
Bowe
Bowell
Bowen
Bower
Bowerman
Bowers
Bowery
Bowes
Bowie
Bowker
Bowl
Bowland
Bowlby
Bowled
Bowler
Bowlers
Bowles
Bowling
Bowls
Bowman
Bown
Bowness
Bowring
Bowser
Bowtie
Bowyer
Box
Boxed
Boxer
Boxers
Boxes
Boxing
Boy
Boy-Mucchi
Boy-Sorry
Boyaca
Boyce
Boycie
Boycott
Boyd
Boydell
Boyden
Boye
Boyer
Boyes
Boyfriend
Boykin
Boylan
Boyle
Boyles
Boylston
Boyne
Boynton
Boys
Boyz
Boyzone
Boz
Bozeman
Bozo
Br
Bra
Braathens
Brabant
Brabazon
Brabham
Brace
Bracewell
Brack
Bracken
Bracket
Brackets
Brackett
Brackley
Bracknell
Brad
Bradbury
Braddock
Braden
Bradenton
Bradfield
Bradford
Bradley
Bradman
Bradshaw
Bradstreet
Bradt
Bradwell
Brady
Brae
Braemar
Braff
Braga
Braganca
Braganza
Bragg
Braham
Brahe
Brahma
Brahman
Brahmana
Brahmans
Brahmaputra
Brahmi
Brahmin
Brahmins
Brahmo
Brahms
Braid
Braidwood
Braila
Braille
Brain
Brainard
Brainerd
Brainiac
Brains
Brainstorm
Braintree
Braithwaite
Brak
Brake
Brakes
Bram
Bramall
Braman
Bramble
Bramen
Bramhall
Bramley
Brampton
Bramwell
Bran
Branagh
Branca
Branch
Branches
Branco
Brancusi
Brand
Branded
Brandee
Brandeis
Branden
Brandenburg
Brandes
Brandi
Branding
Brando
Brandon
Brandreth
Brands
Brandt
Brandy
Brandywine
Branford
Branham
Braniewo
Braniff
Branigan
Branislav
Branko
Brankovic
Brann
Brannan
Brannigan
Branning
Brannon
Branom
Branson
Brant
Brantford
Brantley
Braose
Braque
Bras
Brasenose
Brash
Brashear
Brasil
Brasileira
Brasileiro
Brasilia
Brasov
Brass
Brassey
Brassica
Brat
Bratianu
Bratislava
Brats
Bratt
Brattle
Brattleboro
Bratton
Bratz
Braudel
Brauer
Braun
Braunfels
Braunschweig
Brava
Brave
Braveheart
Bravery
Braves
Bravo
Brawl
Brawler
Brawley
Brawn
Braxton
Bray
Brayton
Brazier
Brazil
Brazilian
Brazilians
Brazoria
Brazos
Brazosport
Brazzaville
Brdo
Brea
Breach
Bread
Break
Breakaway
Breakdown
Breaker
Breakers
Breakfast
Breaking
Breaking_News
Breakout
Breaks
Breakthrough
Breakup
Breakwater
Bream
Brearley
Breast
Breasted
Breaststroke
Breath
Breathe
Breathing
Breathtaking
Breaux
Brechin
Brecht
Breck
Breckenridge
Brecker
Breckinridge
Brecon
Bred
Breda
Bredders
Bree
Breed
Breeder
Breeders
Breeding
Breedon
Breeds
Breen
Brees
Breese
Breeze
Brega
Bregenz
Breguet
Breisgau
Breitbart
Breivik
Brel
Bremen
Bremer
Bremerhaven
Bremerton
Bremmer
Bremner
Bren
Brenda
Brendan
Brendel
Brendon
Brennan
Brenneman
Brenner
Brent
Brentano
Brentford
Brenton
Brentwood
Brera
Brereton
Brescia
Breslau
Breslin
Bresse
Bresson
Brest
Bret
Bretagne
Brethren
Breton
Bretons
Brett
Bretton
Breuer
Brevard
Brevet
Breviary
Brew
Brewer
Breweries
Brewers
Brewery
Brewing
Brews
Brewster
Breyer
Brezhnev
Brgy
Briain
Brian
Brianboulton
Briand
Brianna
Brianza
Briar
Bribery
Brice
Brick
Brickell
Brickman
Bricks
Brickyard
Bridal
Bride
Brides
Bridewell
Bridge
Bridgeline
Bridgeman
Bridgend
Bridgeport
Bridger
Bridges
Bridgestone
Bridget
Bridgeton
Bridgetown
Bridgewater
Bridging
Bridgman
Bridgnorth
Bridgwater
Bridies
Bridlington
Bridport
Brie
Brief
Briefe
Briefing
Briefly
Briefs
Brien
Brienne
Brier
Briere
Brierley
Briers
Brig
Brigade
Brigades
Brigadier
Brigg
Briggs
Brigham
Brighouse
Bright
Brighter
Brightest
Brightman
Brighton
Brigid
Brigitte
Brill
Brilliant
Brilll
Brimstone
Brin
Brindisi
Brindley
Bring
Bringer
Bringing
Brings
Brink
Brinker
Brinkley
Brinkman
Brinsley
Brinton
Brion
Brisbane
Brisco
Briscoe
Bristol
Bristow
Brit
Britain
Britain.
Britain.The
BritainRIGHTs
Britani
Britannia
Britanniae
Britannic
Britannica
Brite
British
Britney
Brito
Briton
Britons
Britpop
Brits
Britt
Britta
Brittain
Brittany
Britten
Britton
Brive
Brixton
Brk
Brlnt
Brno
Bro
Broad
Broadband
Broadbent
Broadcast
Broadcaster
Broadcasters
Broadcasting
Broadcasts
Broadcom
Broadhurst
Broadly
Broadmoor
Broads
Broadside
Broadview
Broadwater
Broadway
Broca
Broccoli
Brochure
Brock
Brocken
Brockett
Brockhaus
Brockley
Brockman
Brockport
Brockton
Brockville
Brockway
Brod
Broder
Broderick
Brodeur
Brodhead
Brodie
Brodmann
Brodnica
Brodsky
Brody
Broeck
Brogan
Broglie
Brokaw
Broke
Brokeback
Broken
Broker
Brokerage
Brokering
Brokers
Brolin
Brom
Bromberg
Brome
Bromeliad
Bromfield
Bromley
Brompton
Bromsgrove
Bromwich
Bron
Bronco
Broncos
Bronfman
BronisLATINaw
Bronner
Bronson
Bronstein
Bronte
Bronwyn
Bronx
Bronze
Brood
Brook
Brooke
Brooker
Brookes
Brookfield
Brookhaven
Brookings
Brooklands
Brookline
Brookly
Brooklyn
Brooks
Brookside
Brookville
Brookwood
Broom
Broome
Broomfield
Brophy
Bros
Bros,
Bros.
Brosnan
Brother
Brotherhood
Brothers
Brotherton
Brough
Brougham
Brought
Broughton
Broun
Broussard
Brouwer
Brow
Broward
Browder
Brower
Brown
Brownback
Browncover
Browne
Brownell
Brownfield
Brownian
Brownie
Brownies
Browning
Brownlee
Brownlow
Browns
Brownsville
Brownwood
Browse
Browser
Broxbourne
Broyles
Broz
Bru
Brubaker
Brubeck
Bruce
Bruch
Bruck
Brucke
Bruckheimer
Bruckner
Bruder
Bruegel
Bruford
Bruges
Brugge
Bruha
Bruhl
Bruijn
Bruin
Bruins
Bruiser
Brule
Brumbies
Brumbley
Brumby
Brun
Brundage
Brundle
Brundtland
Brune
Brunei
Brunel
Brunelleschi
Bruner
Brunet
Bruni
Bruning
Brunn
Brunner
Brunnhilde
Bruno
Bruns
Brunson
Brunswick
Brunt
Brunton
Brus
Brush
Brushy
Brussel
Brussels
Brut
Brutal
Brute
Bruton
Brutus
Bruun
Bruxelles
Bryan
Bryansk
Bryant
Bryce
Bryden
Brydges
Brydon
Bryn
Bryne
Bryngelson
Bryngelson@AZURIX
Brynner
Bryson
Brythonic
Brzeg
Brzezinski
Brzeziny
Brøndby
Bs
Bt
Btw
Btwn
Bu
Bua
Bubba
Bubba##
Bubble
Bubblegum
Bubbles
Bubbling
Buber
Buble
Buc
Buccaneer
Buccaneers
Buccinidae
Buccleuch
Bucer
Buch
Buchan
Buchanan
Bucharest
Buchenwald
Bucher
Buchholz
Buchman
Buchner
Buchwald
Buck
Bucket
Buckethead
Buckeye
Buckeyes
Buckhead
Buckingham
Buckinghamshire
Buckland
Buckle
Buckler
Buckley
Buckman
Buckminster
Bucknell
Buckner
Bucks
Bucky
Bucs
Bucuresti
Bud
Buda
Budapest
Budd
Buddakan
Budden
Buddha
Buddhas
Buddhism
Buddhist
Buddhists
Buddhu
Buddies
Buddleja
Buddy
Bude
Budejovice
Budge
Budget
Budgie
Budgies
Budo
Budokan
Buducnost
Budva
Budweiser
Buell
Bueller
Buen
Buena
Buenaventura
Buenavista
Bueno
Buenos
Buff
Buffalo
Buffaloes
Buffer
Buffet
Buffett
Buffon
Buffs
Buffy
Buffyverse
Bufo
Bufonidae
Buford
Bug
Buganda
Bugatti
Bugge
Buggy
Bugis
Bugle
Bugs
Bugsy
Bugti
Bugzilla
Buhl
Buhler
Bui
Buick
Buie
Build
Builder
Builders
Building
BuildingThe
Buildings
BuildingsThe
Builds
Built
Buin
Buis
Buk
Bukhara
Bukhari
Bukharin
Bukidnon
Bukit
Bukovina
Bukowski
Bulacan
Bulawayo
Bulb
Bulbophyllum
Bulbul
Bulent
Bulfinch
Bulgakov
Bulgar
Bulgaria
Bulgarian
Bulgarians
Bulgars
Bulge
Bulger
Bulk
Bulkeley
Bull
Bulla
Bullard
Bulldog
Bulldogs
Bulldozer
Bulleid
Bullen
Buller
Bullet
Bulletin
Bulletins
Bullets
Bullfrog
Bullion
Bullitt
Bulloch
Bullock
Bullough
Bullpen
Bulls
Bullseye
Bullshit
Bullwark
Bullwinkle
Bully
Bullying
Bulmer
Bulow
Bulwark
Bulwer
Bulwersator
Bum
Bumble
Bumblebee
Bumm##
Bump
Bumper
Bumps
Bumrah
Bumrungard
Bumrungrad
Bun
Buna
Bunbury
Bunce
Bunch
Bund
Bundaberg
Bundelkhand
Bundesbahn
Bundesliga
Bundesrat
Bundesstraße
Bundestag
Bundeswehr
Bundle
Bundren
Bundy
Bungalow
Bungay
Bunge
Bungie
Bungle
Bunin
Bunk
Bunker
Bunko
Bunn
Bunnell
Bunnies
Bunning
Bunny
Bunnymen
Bunsen
Bunting
Bunton
Bunuel
Bunyan
Buono
Buprestidae
Bur
Buran
Burana
Burbage
Burbank
Burberry
Burbridge
Burch
Burchard
Burchill
Burckhardt
Burden
Burdett
Burdette
Burdick
Burdon
Burdwan
Bure
Bureau
Bureaucrat
Bureaucrats
Buren
Burford
Burg
Burgas
Burge
Burgenland
Burger
Burgers
Burges
Burgess
Burgesses
Burgh
Burghley
Burghs
Burgin
Burgon
Burgos
Burgoyne
Burgundian
Burgundians
Burgundy
Burhan
Buri
Burial
Burials
Buried
Burj
Burk
Burke
Burkert
Burkett
Burkhard
Burkhardt
Burkina
Burkinabe
Burks
Burl
Burleigh
Burleson
Burlesque
Burley
Burlingame
Burlington
Burma
Burman
Burmese
Burn
Burnaby
Burne
Burned
Burnell
Burner
Burnet
Burnett
Burnette
Burney
Burnham
Burnie
Burning
Burnley
Burnout
Burns
Burnside
Burnsville
Burnt
Burr
Burra
Burrard
Burrell
Burridge
Burris
Burrito
Burrough
Burroughs
Burrow
Burrows
Bursa
Bursaspor
Burslem
Burson
Burst
Burstein
Burstyn
Burt
Burton
Buru
Burundi
Burwell
Burwood
Bury
Buryat
Burying
Bus
Bus*Girl
Busan
Busby
Buscema
Buscemi
Busch
Buses
Busey
Bush
BushRIGHTs
Bushehr
Bushell
Bushey
Bushido
Bushman
Bushmaster
Bushmen
Bushnell
Bushranger
Bushwick
Bushy
Business
BusinessWeek
Businesses
Businessman
Businessmen
Businessweek
Buskerud
Busko
Busoni
Buss
Busse
Bussey
Bussy
Bust
Busta
Bustamante
Bustard
Busted
Buster
Busters
Bustos
Busway
Busy
But
Butch
Butcher
Butchers
Bute
Butkus
Butler
Butlers
Butlin
Butlins
Butt
Butte
Butter
Buttercup
Butterfield
Butterflies
Butterfly
Butters
Butterworth
Buttes
Butthole
Button
Buttons
Buttress
Butts
Butuan
Buuren
Buxtehude
Buxton
Buy
Buyer
Buyers
Buying
Buys
Buzau
Buzz
BuzzMachine
Buzzard
Buzzards
Buzzcocks
Bw
By
Byam
Byargeon
Byblos
Bydgoszcz
Bydgoszcz.
Bye
Byeee
Byelorussian
Byers
Bye😝😝😝
Byfield
Bylaws
Byng
Bynum
Bypass
Byram
Byrd
Byrds
Byrne
Byrnes
Byron
Bysshe
Bystrica
Byte
Bytes
Bytom
Bytow
Byung
Bywater
Byway
Byways
Byzantine
Byzantines
Byzantium
B}
Bærum
C
C#
C##
C###
C####
C$
C&C
C&G
C&IC
C&O
C'est
C*
C+
C++
C.
C.###
C.A.
C.B.
C.C.
C.D.
C.DTF
C.E.
C.F.
C.F.E.
C.G.
C.H.
C.I.
C.I.A.
C.I.P.
C.J.
C.K.
C.L.
C.M.
C.Michael
C.P.
C.R.
C.S.
C.T.
C.V
C.V.
C.W.
CA
CA#
CA.
CAA
CAB
CAC
CAD
CAE
CAEM
CAF
CAFR
CAG
CAH
CAI
CAIN
CAIR
CAJUNISH
CAL
CALL
CAM
CAME
CAMERA
CAMS
CAN
CANADA
CANADIAN
CAP
CAPS
CAPTCHA
CAR
CARE
CARICOM
CAROLINA
CARREAU
CART
CAS
CASA
CASE
CASH
CAST
CASTLE
CAT
CATS
CAV
CB
CB#
CBA
CBBC
CBC
CBD
CBD.
CBE
CBF
CBGB
CBI
CBM
CBN
CBN.
CBO
CBP
CBR
CBS
CBSE
CBT
CBZ
CBeebies
CC
CCA
CCA-15
CCC
CCD
CCF
CCG
CCGM
CCH
CCHA
CCI
CCL
CCM
CCNG
CCNY
CCP
CCR
CCR#
CCS
CCT
CCTV
CCW
CD
CD#
CD##
CD###
CD#+
CD's
CD+DVD
CD.
CDA
CDC
CDEC
CDF
CDG
CDI
CDM
CDMA
CDN
CDO
CDP
CDP.
CDR
CDS
CDT
CDU
CDWR
CDs
CE
CE.
CEA
CEC
CEE
CEF
CEI
CEM
CEN
CENTER
CENTRAL
CEO
CEO.
CEOs
CEP
CERN
CERT
CES
CET
CEV
CF
CF.
CFA
CFB
CFC
CFD
CFE
CFF
CFI
CFL
CFM
CFO
CFP
CFR
CFS
CFTC
CFU
CG
CGA
CGI
CGPA
CGS
CGT
CGoehring
CH
CHA
CHAIY
CHAMCHAGIRI
CHAMPIONS
CHANGE
CHANNU
CHANT
CHAPTER
CHC
CHEAPER
CHED
CHEEN
CHEF
CHERNOBYL
CHESS
CHF
CHI
CHICK
CHILD
CHILL
CHIN
CHINA
CHINESE
CHITHA
CHITRAL
CHL
CHON
CHP
CHR
CHRIS
CHRISTIAN
CHS
CHU
CHUM
CHURCH
CHUTIYO
CI
CIA
CIAC
CIB
CIBC
CIC
CID
CIE
CIF
CIFL
CII
CIL
CIM
CIMA
CINEOS
CIO
CIO.
CIP
CIRCLED
CIS
CISCO
CIT
CITES
CITV
CITY
CIWS
CJ
CJK
CJKCJK
CJKCJKCJK
CJKCJKCJKCJK
CJKCJKCJKCJKCJK
CJKCJKCJKCJKCJKCJK
CJKCJKCJKCJKCJKCJKCJK
CJKCJKCJKCJKCJKCJKCJKCJK
CJKCJKCJKCJKCJKCJKCJKCJKCJK
CJKCJKCJKCJKCJKCJKCJKCJKCJKCJK
CJKCJKCJKCJKCJKCJKCJKCJKCJKCJKCJK
CJKCJKCJKCJKCJKCJKCJKCJKCJKCJKCJKCJK
CJKCJKCJKCJKCJKCJKCJKCJKCJKCJKCJKCJKCJK
CK
CKD
CKY
CL
CLA
CLASS
CLATINur
CLC
CLEAN
CLEMENT
CLH
CLI
CLIO
CLOSED
CLOSING
CLP
CLR
CLS
CLUB
CLUSTER
CM
CMA
CMB
CMC
CMD
CME
CMF
CMG
CMI
CMJ
CML
CMLL
CMM
CMO
CMOS
CMP
CMS
CMT
CMU
CN
CNA
CNBC
CNC
CND
CNE
CNET
CNG
CNN
CNN,
CNN.
CNN.com
CNO
CNR
CNRS
CNS
CNT
CO
CO#
CO.
CO2
COA
COALITION
COB
COBOL
COC
COD
CODE
COE
COFFEE
COI
COI.
COIBot
COIN
COIToolBot
COL
COLLEGE
COM
COMCAST
COME
COMES
COMM
COMMS
COMMUNICATIONS
COMPANIES
COMPANY
COMPLETE
COMp
CON
CONCACAF
CONCERNED
CONFESS
CONFIDENCE
CONFIDENTIAL
CONFIDENTIALITY
CONFIRMIT
CONGRATULATION
CONGRATULATIONS
CONGRESS
CONMEBOL
CONSENSUS.
CONSULTANTS
CONTACT
CONVENIENT
COO
COP
COPD
COPE
CORE
CORRECT
CORRUPT
COS
COST
COSTS
COTS
COULD
COUNTRY
COUNTY
COUPLE
COURT
COX
COwpland
CP
CPA
CPB
CPC
CPCG
CPD
CPE
CPGB
CPI
CPIM
CPL
CPM
CPN
CPO
CPP
CPR
CPS
CPSU
CPT
CPU
CPU.
CPUC
CPUSA
CPUs
CQ
CR
CRA
CRACKDOWN
CRAZY
CRC
CRH
CRI
CRIA
CRICKET
CRM
CRP
CRRA
CRS
CRT
CRTC
CRUEL
CRY
CS
CS#
CS5
CSA
CSAR
CSC
CSD
CSD.
CSE
CSF
CSG
CSI
CSIR
CSIRO
CSIS
CSK
CSKA
CSL
CSM
CSN
CSO
CSP
CSR
CSS
CST
CSU
CSV
CSX
CT
CT.
CTA
CTC
CTF
CTI
CTO
CTR
CTS
CTU
CTV
CTVglobemedia
CU
CUISINE
CUNEIFORM
CUNY
CUP
CURES
CURSE
CURSED
CUT
CV
CVA
CVC
CVE
CVN
CVO
CVP
CVR
CVS
CVT
CVTS
CVU
CVW
CW
CW.
CWA
CWC
CWG
CWGC
CWS
CX
CY
CYP#A#
CYRILLIC
CYRILLIC.
CYRILLIC.CYRILLIC
CYRILLICCYRILLIC
CYRILLICCYRILLICCYRILLIC
CYRILLICCYRILLICCYRILLICCYRILLIC
CYRILLICCYRILLICCYRILLICCYRILLICCYRILLIC
CYRILLICCYRILLICCYRILLICCYRILLICCYRILLICCYRILLIC
CYRILLICCYRILLICCYRILLICCYRILLICCYRILLICCYRILLICCYRILLIC
CYRILLICCYRILLICCYRILLICCYRILLICCYRILLICCYRILLICCYRILLICCYRILLIC
CYRILLICCYRILLICCYRILLICCYRILLICCYRILLICCYRILLICCYRILLICCYRILLICCYRILLIC
CYRILLICCYRILLICCYRILLICCYRILLICCYRILLICCYRILLICCYRILLICCYRILLICCYRILLICCYRILLIC
CYRILLICCYRILLICCYRILLICCYRILLICCYRILLICCYRILLICCYRILLICCYRILLICCYRILLICCYRILLICCYRILLIC
CYRILLICCYRILLICCYRILLICCYRILLICCYRILLICCYRILLICCYRILLICCYRILLICCYRILLICCYRILLICCYRILLICCYRILLIC
CYRILLICCYRILLICCYRILLICCYRILLICCYRILLICCYRILLICCYRILLICCYRILLICCYRILLICCYRILLICCYRILLICCYRILLICCYRILLIC
CYRILLICCYRILLICCYRILLICCYRILLICCYRILLICCYRILLICCYRILLICCYRILLICCYRILLICCYRILLICCYRILLICCYRILLICCYRILLICCYRILLIC
CYRILLICCYRILLICCYRILLICCYRILLICCYRILLICCYRILLICCYRILLICCYRILLICCYRILLICCYRILLICCYRILLICCYRILLICCYRILLICCYRILLICCYRILLIC
CYRILLICCYRILLICCYRILLICCYRILLICCYRILLICCYRILLICCYRILLICCYRILLICCYRILLICCYRILLICCYRILLICCYRILLICCYRILLICCYRILLICCYRILLICCYRILLIC
CZ
CZW
C_#
C_{##}
Ca
Caan
Cab
Cabal
Cabalah
Caballero
Caballeros
Cabana
Cabanas
Cabaret
Cabazon
Cabbage
Cabell
Cabernet
Cabeza
Cabildo
Cabin
Cabinda
Cabinet
Cabinets
Cable
Cables
Cablevision
Cabo
Caboose
Cabot
Cabral
Cabrera
Cabrillo
Cabrini
Cabriolet
Cabs
Cacak
Caceres
Cache
Cached
Cactus
Cadbury
Caddo
Caddy
Cade
Cadell
Cadena
Cadence
Cadet
Cadets
Cadfael
Cadillac
Cadillacs
Cadiz
Cadman
Cadmus
Cadogan
Cadre
Cadwalader
Cady
Caecilius
Caen
Caer
Caerleon
Caernarfon
Caerphilly
Caerwine
Caesar
Caesarea
Caesarean
Caesars
Caetano
Cafe
Cafes
Cafeteria
Caffe
Caffeine
Cagayan
Cage
Caged
Cagle
Cagliari
Cagney
Caguas
Cahiers
Cahill
Cahir
Cahn
Cahokia
Cahuilla
Cai
Caicos
Caillat
Cain
Caine
Caird
Cairn
Cairns
Cairo
Caisse
Caithness
Caitlin
Caius
Caixa
Caja
Cajamarca
Cajon
Cajun
Cajuns
Cake
Cakes
Caknuck
Cakobau
Cal
CalArts
CalJW
Cala
Calabar
Calabasas
Calabrese
Calabria
Calabrian
Calais
Calakmul
Calamity
Calaria
Calatrava
Calaveras
Calcasieu
Calcio
Calcium
Calculater
Calculating
Calculation
Calculations
Calculator
Calculus
Calcutta
Caldas
Caldecott
Calder
Caldera
Calderdale
Calderon
Calderwood
Caldwell
Cale
Caleb
Caledon
Caledonia
Caledonian
Calendar
Caley
Calf
Calgary
Calhoun
Cali
Caliban
Caliber
Calico
Calicut
Caliente
Calif
Calif.
California
California.
California.The
CaliforniaRIGHTs
Californian
Californians
Californication
Caligula
Calinescu
Caliph
Caliphate
Caliphs
Calkins
Call
Callaghan
Callahan
Callan
Callander
Callao
Callas
Callaway
Calle
Called
Callender
Caller
Calles
Calley
Callie
Calligraphy
Callimachus
Calling
Calliope
Calliopejen#
Calliostoma
Callipers\
Callisto
Callon
Callow
Calloway
Calls
Callum
Cally
Calm
Calne
Calo
Caloocan
Caltech
Calthorpe
Calton
Caltrain
Caltrans
Calum
Calumet
Calvados
Calvary
Calvert
Calvi
Calvin
Calvinism
Calvinist
Calvinistic
Calvinists
Calvino
Calvo
Calypso
Calzaghe
Calzones
Cam
Camacho
Camaguey
Camanachd
Camara
Camargo
Camarillo
Camarines
Camaro
Camas
Camber
Camberley
Camberwell
Cambio
Cambodia
Cambodian
Cambodians
Camborne
Cambrai
Cambria
Cambrian
Cambridge
CambridgeBayWeather
Cambridgeshire
Cambuslang
Cambyses
Camden
Came
Camel
Camellia
Camelot
Camels
Cameo
Camera
Cameras
Camerata
Camerlengo
Cameron
Cameroon
Cameroonian
Cameroons
Cameroun
Camila
Camilla
Camille
Camilleri
Camillo
Camillus
Camilo
Camino
Cammell
Camoes
Camogie
Camorra
Camouflage
Camp
Campagna
Campaign
CampaignThe
Campaigning
Campaigns
Campana
Campanella
Campania
Campanian
Campaning
Campbell
Campbells
Campbellsville
Campbelltown
Campbeltown
Campeche
Campenni
Campeonato
Camper
Camperdown
Campers
Campese
Campground
Campinas
Camping
Campion
Campo
Campobasso
Campos
Camps
Campus
CampusThe
Campuses
Camrose
Camry
Camus
Can
Can't
CanRIGHTt
CanWest
Cana
Canaan
Canaanite
Canaanites
Canada
Canada.
Canada.The
CanadaIn
CanadaRIGHTs
CanadaThe
Canadair
Canadian
Canadians
Canadien
Canadiens
Canakkale
Canal
Canal+
Canale
Canales
Canals
Canandaigua
Canara
Canard
Canaria
Canarian
Canarias
Canaries
Canaris
Canarsie
Canary
Canas
Canavan
Canaveral
Canberra
Canby
Cancel
Cancellara
Cancellariidae
Cancellation
Cancelled
Cancer
Cancion
Cancri
Cancun
Candace
Candelaria
Candi
Candia
Candice
Candid
Candida
Candidacy
Candidate
Candidates
Candide
Candido
Candle
Candlelight
Candler
Candles
Candlestick
Candy
Cane
Canens
Canes
Canever
Caney
Canfield
Canibal
Canine
Canis
Canisius
Canley
Canmore
Cann
Canna
Cannabis
Cannae
Canned
Cannell
Cannery
Cannes
Cannibal
Canning
Cannistaro
Cannock
Cannon
Cannonball
Cannons
Cannot
Cano
Canoe
Canoeing
Canon
Canongate
Canonical
Canons
Canonsburg
Canopus
Canopy
Canova
Canseco
Canso
Cant
Cantabria
Cantabrian
Cantal
Cantata
Canteen
Canter
Canterbury
Canto
Canton
Cantona
Cantonal
Cantonese
Cantonment
Cantons
Cantopop
Cantor
Cantorum
Cantos
Cantrell
Cantu
Cantus
Cantwell
Canty
Canuck
Canucks
Canute
Canvas
Canvey
Canwest
Canyon
Canyons
Cao
Caoimhe
Cap
Cap'n
Capa
Capabilities
Capability
Capablanca
Capable
Capacity
Capaldi
Capcom
Cape
Capek
Capel
Capell
Capella
Capelli
Capello
Caper
Capers
Capes
Capet
Capetian
Capilano
Capistrano
Capita
Capital
Capitalism
Capitalist
Capitalistroadster
Capitalize
Capitals
Capitan
Capitol
Capitoline
Capitulation
Capiz
Caplan
Capo
Capoeira
Capone
Capote
Capp
Cappadocia
Cappadocian
Cappella
Cappelletto
Capper
Capps
Capra
Capri
Caprica
Capriccio
Caprice
Capricorn
Capricorni
Caprivi
Capron
Caproni
Caps
Capstone
Capsule
Capt
Capt.
Captain
Captaincy
Captains
Caption
CaptionThisPic
Captive
Captivity
Capture
Captured
Capturing
Capua
Capuchin
Caputo
Car
Cara
Carabidae
Carabinae
Carabinieri
Carabobo
Caracalla
Caracas
Caracciolo
Caracol
Carafa
Caragiale
Caramel
Caras
Caravaggio
Caravan
Caray
Carberry
Carbery
Carbide
Carbine
Carbo
Carbon
Carbondale
Carbone
Carbonell
Carboniferous
Carcass
Carcassonne
Carcetti
Carcharoth
Card
Cardassian
Carden
Cardenal
Cardenas
Cardiac
Cardiacs
Cardiff
Cardigan
Cardiganshire
Cardin
Cardinal
Cardinale
Cardinals
Cardiology
Cardiovascular
Cardona
Cardoso
Cardozo
Cards
Cardwell
Care
Career
CareerA
CareerAfter
CareerAs
CareerAt
CareerBefore
CareerBorn
CareerDuring
CareerFrom
CareerHe
CareerHer
CareerHis
CareerIn
CareerOn
CareerShe
CareerThe
CareerWhile
Careers
Careful
Careless
Carell
Cares
Caretaker
Carew
Carex
Carey
Cargill
Cargo
Caria
Carib
Caribbean
Caribe
Cariboo
Caribou
Caribs
Carignan
Carillon
Carina
Carinae
Caring
Carinthia
Carinthian
Carioca
Caritas
Carl
Carla
Carle
Carlebach
Carles
Carleton
Carley
Carli
Carlile
Carlin
Carling
Carlingford
Carlisle
Carlist
Carlists
Carlito
Carlo
Carloman
Carlos
Carlossuarez##
Carlota
Carlotta
Carlow
Carlsbad
Carlsberg
Carlsen
Carlson
Carlsson
Carlton
Carly
Carlyle
Carmack
Carman
Carmarthen
Carmarthenshire
Carmel
Carmela
Carmelita
Carmelite
Carmelites
Carmella
Carmelo
Carmen
Carmichael
Carmina
Carmine
Carmo
Carmody
Carmona
Carn
Carnage
Carnahan
Carnarvon
Carnatic
Carnation
Carnaval
Carne
Carnegie
Carneiro
Carnell
Carnes
Carney
Carnildo
Carniola
Carnival
Carnivale
Carnivora
Carnivorous
Carnot
Carnoustie
Caro
Carol
Carola
Carole
Carolina
CarolinaCategory
Carolinas
Caroline
Carolines
Carolingian
Carolinian
Carolla
Carols
Carolus
Carolyn
Caron
Carondelet
Carousel
Carp
Carpathia
Carpathian
Carpathians
Carpentaria
Carpenter
Carpenters
Carpentier
Carpet
Carpets
Carpi
Carpio
Carptrash
Carr
Carracci
Carradine
Carranza
Carrara
Carrasco
Carre
Carrefour
Carreno
Carrer
Carrera
Carreras
Carrere
Carretera
Carrey
Carri
Carriage
Carribbean
Carrick
Carrickfergus
Carrie
Carried
Carrier
Carriere
Carriers
Carril
Carriles
Carrillo
Carrington
Carrion
Carrizo
Carrol
Carroll
Carrollton
Carron
Carrot
Carrow
Carruthers
Carry
Carrying
Cars
Carshalton
Carson
Carstairs
Carsten
Carswell
Cart
Carta
Cartagena
Cartan
Carte
Cartel
Carter
Carteret
Cartesian
Carthage
Carthaginian
Carthaginians
Carthusian
Carthy
Cartier
Cartman
Cartography
Carton
Cartoon
Cartoonist
Cartoonists
Cartoons
Cartridge
Cartwright
Carty
Caruana
Carus
Caruso
Carvajal
Carvalho
Carve
Carved
Carvel
Carver
Carville
Carving
Cary
Caryl
Caryn
Carytown
Cas
Casa
Casablanca
Casal
Casale
Casals
Casanova
Casas
Casbah
Cascade
Cascades
Cascadia
Casco
Case
Casebook
Casement
Caserta
Cases
Casey
Cash
Cashbox
Cashel
Cashion
Cashman
Cashmere
Casillas
Casimir
Casino
Casinos
Casio
Casket
Casliber
Caso
Caspar
Casper
Caspian
Cass
Cassady
Cassander
Cassandra
Cassano
Cassation
Cassatt
Cassavetes
Cassegrain
Cassel
Cassell
Cassells
Cassette
Cassia
Cassian
Cassidy
Cassie
Cassin
Cassini
Cassino
Cassio
Cassiopeia
Cassius
Casso
Casson
Cast
CastThe
Castagnola@ENRON_DEVELOPMENT
Castagnoli
Castaneda
Castano
Castano@EES
Caste
Castel
Castell
Castellaneta
Castellano
Castellanos
Castelli
Castello
Castellon
Castelnuovo
Castelo
Castes
Castiel
Castiglione
Castile
Castilian
Castilians
Castilla
Castille
Castillo
Casting
Castle
Castlebar
Castleford
Castlemaine
Castleman
Castlereagh
Castles
Castleton
Castletown
Castlevania
Castling
Castor
Castres
Castries
Castro
Castrol
Castroneves
Casts
Casual
Casualties
CasualtiesThe
Casualty
Casuarina
Caswell
Cat
Catacombs
Catala
Catalan
Catalana
Catalano
Catalans
Catalina
Catalog
Catalogo
Catalogue
Catalonia
Catalonian
Catalunya
Catalyst
Catamarca
Catan
Catania
Catanzaro
Cataract
Catarina
Catastrophe
Catawba
Catbar
Catch
Catcher
Catching
Catchment
Cate
Catechism
Catedral
Categoria
Categories
Categorization
Category
Caterham
Caterina
Catering
Caterpillar
Cates
Catesby
Catfish
Catford
Cath
Cathal
Cathar
Catharina
Catharine
Catharines
Cathars
Cathay
Cathcart
Cathedral
Cathedrale
Cathedrals
Cather
Catherine
Cathleen
Catholic
Catholicism
Catholicos
Catholics
Catholique
Cathy
Catlin
Cato
Catoctin
Catolica
Caton
Catriona
Cats
Catskill
Catskills
Cattaraugus
Cattell
Catterick
Cattle
Cattolica
Catton
Catullus
Catwoman
Cauca
Caucasian
Caucasians
Caucasus
Cauchy
Caucus
Caught
Cauldron
Caulfield
Causa
Causal
Cause
Caused
Causes
CausesThe
Causeway
Causey
Caussols
Caution
Cauty
Cauvery
Caux
Cava
Cavalcade
Cavalier
Cavaliere
Cavalieri
Cavaliers
Cavalleria
Cavalli
Cavallo
Cavalry
Cavan
Cavanagh
Cavanaugh
Cave
Caveat
Cavell
Cavendish
Cavern
Caverns
Caversham
Caves
Cavett
Cavite
Cavour
Cawley
Cawnpore
Caxias
Caxton
Cay
Cayce
Cayenne
Cayetano
Cayley
Cayman
Cayo
Cayuga
Cberlet
Cbrown####
Cd
Cdc##
Cdr
Ce
CeCe
Ceara
Cease
Ceausescu
Cebu
Cebuano
Cecelia
Cech
Cecil
Cecile
Cecilia
Cecily
Cecropia
Cedar
Cedars
Cedarville
Cedric
Cee
Cefn
Ceiba
Ceiling
Celaya
Celebes
Celebi
Celebrate
Celebrated
Celebrates
Celebrating
Celebration
Celebrations
Celebrities
Celebrity
Celeron
Celeste
Celestia
Celestial
Celestin
Celestine
Celestino
Celia
Celica
Celik
Celina
Celine
Celje
Cell
Cell-Phone
Cellar
Cellars
Celle
Cellier
Cellini
Cello
Cells
Cellular
Celluloid
Celsius
Celso
Celsus
Celt
Celta
Celtic
Celtics
Celts
Cem
Cement
Cemeteries
CemeteriesThe
Cemetery
Cen
Cena
Cenel
Cengage
Cenotaph
Cenozoic
Censor
Censored
Censors
Censorship
Census
CensusAs
Cent
Centaur
Centauri
Centaurus
Centenario
Centenary
Centennial
Center
Center.The
CenterThe
Centered
Centers
Centerville
Centilli
Centipede
Centraal
Central
Centrale
Centralia
Centre
CentreThe
Centres
Centreville
Centric
Centro
Centrum
Cents
Centuries
Centurion
Centurions
Century
Ceoil
Cepeda
Cera
Cerambycidae
Ceramic
Ceramics
Cerberus
Cercle
Cerda
Cereal
Cerebral
Cerebus
Ceredigion
Cerejota
Ceremonial
Ceremonies
Ceremony
Ceres
Cerezo
Cerf
Cermak
Cernat
Cerny
Ceron
Cerrado
Cerrito
Cerritos
Cerro
Certain
Certainly
Certificate
Certificates
Certification
Certifications
Certified
Cervantes
Cervera
Cesar
Cesare
Cesena
Ceska
Ceske
Cesky
Cessna
Cessnock
Cester
Cetacea
Ceti
Cetinje
Ceuta
Ceylon
Ceylonese
Cezanne
Cf
Cf.
CfD
Cfa
Cfoforum.ppt
Ch
Ch***yapa
Cha
Chaai
Chaalu
Chabad
Chabon
Chabot
Chabrier
Chabrol
Chace
Chaco
Chacon
Chad
Chadarmod
Chadbourne
Chadderton
Chadian
Chadwick
Chae
Chafee
Chaffee
Chaffey
Chaffin
Chagall
Chagas
Chagatai
Chagos
Chagrin
Chah
Chahar
Chahine
Chai
Chaim
Chain
Chains
Chainsaw
Chair
Chairman
Chairmanship
Chairmen
Chairperson
Chairs
Chairwoman
Chaitanya
Chaitra
Chak
Chaka
Chakotay
Chakra
Chakraborty
Chakri
Chakwal
Chal
Chalabi
Chalana
Chalay
Chalcedon
Chalcedonian
Chalcolithic
Chaldean
Chaldeans
Chale
Chalet
Chalfont
Chalice
Chalk
Challenge
Challenged
Challenger
Challengers
Challenges
Challenging
Challis
Challoner
Chalmers
Chalo
Chalon
Chaloner
Chalons
Chalukya
Chalukyas
Cham
Chama
Chaman
Chamba
Chambal
Chamber
Chamberlain
Chamberlin
Chambers
Chambersburg
Chambery
Chambliss
Chambly
Chambord
Chambre
Chamcha
Chameleon
Chaminade
Chamonix
Chamorro
Champ
Champa
Champagne
Champaign
Champaran
Champion
Championnat
Champions
Championship
Championship.
Championship.The
ChampionshipThe
Championships
Champlain
Champlin
Champs
Chams
Chan
Chana
Chanakya
Chance
Chancellery
Chancellor
Chancellors
Chancellorsville
Chancery
Chances
Chand
Chanda
Chandan
Chandeliers
Chander
Chandi
Chandigarh
Chandler
Chandni
Chandos
Chandpur
Chandra
Chandragupta
Chandran
Chandrasekhar
Chandresh
Chandrika
Chandu
Chanel
Chaney
Chang
Changchun
Change
Changed
Changeling
Changes
Changi
Changing
Changsha
Changzhou
Chania
Chanley
Channel
Channels
Channing
Chanson
Chant
Chantal
Chante
Chanticleer
Chantilly
Chantry
Chants
Chanukah
Chanute
Chao
Chaoon
Chaos
Chaotic
Chaoyang
Chap
Chaparral
Chapel
Chapelle
Chapels
Chapin
Chaplain
Chaplaincy
Chaplains
Chaplin
Chapman
Chappal
Chappell
Chappelle
Chapple
Chapter
Chapters
Chapultepec
Char
Chara
Character
Characteristic
Characteristics
CharacteristicsThe
Characterization
Characters
CharactersThe
Charadriiformes
Charan
Charbonneau
Charcoal
Charcot
Chard
Chardin
Chardonnay
Charente
Charentes
Charest
Charge
Charged
Charger
Chargers
Charges
Charging
Chari
Charing
Chariot
Chariots
Charisma
Charismatic
Charitable
Charite
Charities
Charity
Charlatans
Charlemagne
Charlemont
Charlene
Charleroi
Charles
Charleston
Charlestown
Charlesworth
Charleville
Charlevoix
Charley
Charlie
Charlotte
CharlotteWebb
Charlottenburg
Charlottesville
Charlottetown
Charlton
Charly
Charm
Charmaine
Charmed
Charming
Charney
Charnock
Charnwood
Charon
Charpentier
Chart
Charted
Charter
Chartered
Charterhouse
Charteris
Charters
Chartier
Charting
Chartist
Chartrand
Chartres
Charts
ChartsAlbum
Chartstats
Chas
Chase
Chaser
Chasers
Chashm-e-buddoor
Chasing
Chasse
Chasseurs
Chassis
Chastain
Chastity
Chat
ChatMe
Chateau
Chateaubriand
Chateauneuf
Chateauroux
Chatelet
Chater
Chatfield
Chatham
Chatillon
Chatswood
Chatsworth
Chattahoochee
Chattanooga
Chattbhai
Chatterjee
Chatterley
Chatterton
Chatto
Chattopadhyay
Chaturvedi
Chau
Chaucer
Chaudhary
Chaudhry
Chaudhuri
Chaudiere
Chauhan
Chaumont
Chauncey
Chautauqua
Chauvel
Chaux
Chavannes
Chaves
Chavez
Chavis
Chavo
Chawla
Chay
Chaykin
Chaz
Che
CheLATINm
CheLATINmno
Cheadle
Cheam
Cheap
Cheaper
Cheapest
Cheapside
Cheat
Cheatham
Cheating
Cheb
Chebyshev
Chechen
Chechens
Chechnya
Check
CheckUser
Checked
Checker
Checkers
Checking
Checklist
Checkmate
Checkpoint
Checks
Checkuser
Cheddar
Chedi
Chee
Cheech
Cheek
Cheeks
Cheema
Cheen
Cheer
Cheerleader
Cheerleaders
Cheerleading
Cheers
Cheese
CheeseDreams
Cheetah
Cheetahs
Cheete
Cheetham
Cheever
Chef
Chefs
Chehalis
Cheikh
Chek
Cheka
Chekhov
Chelan
Chell
Chelmsford
Chelsea
Cheltenham
Chelyabinsk
Chem
Chem.
Chemical
Chemicals
Chemie
Chemin
Chemins
Chemist
Chemistry
Chemists
Chemnitz
Chemung
Chen
Chenab
Chenango
Cheney
Cheng
Chengde
Chengdu
Chenier
Chennai
Chennault
Chenoweth
Cheonan
Cheong
Chepauk
Chepstow
Chequers
Cher
Chera
Cheras
Cherbourg
Cherepovets
Cheri
Cherie
Cherish
Cherkasy
Chern
Chernigov
Chernihiv
Chernivtsi
Chernobyl
Chernomorets
Chernykh
Cherokee
Cherokees
Cherry
Cherryh
Chertsey
Cherubini
Cherwell
Chery
Cheryl
Chesapeake
Chesham
Cheshire
Cheshmeh
Cheshunt
Chesley
Chesney
Chesnutt
Chess
Chessman
Chest
Chester
Chesterfield
Chesterton
Chestney
Chestnut
Chet
Chetan
Chetnik
Chetniks
Chettiar
Chetty
Chetwynd
Cheung
Cheval
Chevalier
Chevelle
Cheveux
Cheviot
Chevrolet
Chevron
Chevy
Chew
Chewbacca
Cheyenne
Cheyne
Chez
Chhatrapati
Chhattisgarh
Chhere
Chhnang
Chhori
Chhota
Chi
Chia
Chiang
Chianti
Chiapas
Chiara
Chiba
Chibi
Chic
Chica
Chicago
Chicago.
ChicagoRIGHTs
Chicagoland
Chicana
Chicano
Chichen
Chichester
Chichibu
Chick
Chickamauga
Chickasaw
Chicken
Chickenguniya
Chickens
Chickie
Chicks
Chico
Chicopee
Chicoutimi
Chidambaram
Chief
Chiefs
Chieftain
Chieftains
Chien
Chiesa
Chieti
Chieu
Chievo
Chifley
Chigi
Chih
Chihuahua
Chikara
Chil
Chilcotin
Child
Childe
Childers
Childhood
Childish
ChildofMidnight
Children
ChildrenRIGHTs
Childress
Childs
Chile
Chilean
Chileans
Chilena
Chiles
Chili
Chill
Chilli
Chillicothe
Chilliwack
Chiloe
Chiltern
Chilton
Chim
Chimera
Chimes
Chimney
Chimp
Chin
China
China.The
Chinatown
Chinatowns
Chinchilla
Chincoteague
Chine
Chineese
Chinese
Ching
Chingford
Chinn
Chinna
Chinnapa
Chino
Chinook
Chint0o
Chios
Chip
Chipman
Chipmunk
Chipmunks
Chipotle
Chippendale
Chippenham
Chippewa
Chipping
Chips
Chiquita
Chirac
Chirag
Chiranjeevi
Chiricahua
Chirico
Chiriqui
Chiron
Chiropractic
Chiroptera
Chisel
Chisholm
Chishti
Chisinau
Chislehurst
Chiswick
Chit
Chita
Chitose
Chitra
Chitradurga
Chitral
Chittagong
Chittenden
Chittoor
Chittor
Chitty
Chiu
Chivalry
Chivas
Chivers
Chiyoda
Chlo
Chloe
Chloride
Chlorine
Cho
Choate
Choco
Chocolate
Choctaw
Choctaws
Choe
Choi
Choice
Choices
Choir
Choirs
Choiseul
Chojnice
Chok
Choke
Chol
Chola
Cholas
Cholera
Cholmondeley
Cholula
Chomsky
Chon
Chonawee
Chonburi
Chong
Chongqing
Choo
Choose
Choosing
Chop
Chopin
Chopper
Chopra
ChopraTute
Chor
Choral
Chorale
Chord
Chords
Choreographer
Choreography
Chorley
Chorlton
Chorus
Chorzow
Chosen
Choshu
Chosun
Choszczno
Chota
Chou
Choudhary
Choudhry
Choudhury
Chouinard
Chouteau
Chow
Chowdhury
Chowk
Choy
ChoyooLATINMODIFIERiihi
Chr
Chretien
Chris
Chris.Germany@enron.com
ChrisO
ChrisTheDude
Chrissie
Chrissy
Christ
ChristRIGHTs
Christa
Christabel
Christadelphian
Christadelphians
Christchurch
Christen
Christendom
Christensen
Christer
Christgau
Christi
Christiaan
Christian
Christiana
Christiane
Christiania
Christianity
Christianization
Christianized
Christians
Christiansborg
Christiansen
Christie
Christina
Christine
Christmas
Christo
Christoffel
Christoffer
Christology
Christoph
Christophe
Christopher
Christopherson
Christos
Christus
Christy
Chrisye
Chrome
Chromium
Chromodorididae
Chromosome
Chron
Chronic
Chronica
Chronicle
Chronicles
Chronicon
Chronik
Chrono
Chronological
Chronology
Chronos
Chrysalis
Chrysanthemum
Chrysler
Chrysostom
Chu
Chua
Chuan
Chuang
Chubb
Chubby
Chubu
Chubut
Chuck
Chuckie
Chucky
Chudaai
Chugoku
Chui
Chukchi
Chukotka
Chul
Chula
Chulainn
Chulalongkorn
Chullu
Chum
Chumash
Chumley
Chun
Chung
Chunk
Chunky
Chuo
Chup
Chur
Church
Church.
ChurchRIGHTs
ChurchThe
Churches
Churchill
Churchman
Churchyard
Chute
Chutiya
Chutiye
Chuuk
Chuvash
Chuy
Chyna
Chzz
Ci
Cia
Ciao
Ciara
Ciaran
Cibber
Cibernetico
Cicely
Cicero
Cichlidae
Ciconiiformes
Cid
Cidade
Cider
Cie
Ciechanow
Ciel
Cielo
Ciencia
Ciencias
Cienfuegos
Cieszyn
Cigar
Cigarette
Cigarettes
Cilicia
Cilician
Cilla
Cima
Cimarron
Cimetiere
Cimino
Cimmerian
Cimon
Cincinnati
Cinco
Cinder
Cinderella
Cindy
Cine
Cinema
CinemaScope
Cinemas
Cinematheque
Cinematic
Cinematographer
Cinematographers
Cinematography
Cinemax
Cineplex
Cinerama
Cingular
Cinna
Cinnamon
Cinq
Cinque
Cinquemani
Cinta
Cintra
Cintron
Cioculescu
Cioroianu
Cipher
Cipriani
Cipriano
Cir
Circa
Circassian
Circassians
Circe
Circeus
Circle
Circles
Circuit
Circuito
Circuits
Circular
Circulation
Circumcision
Circumstances
Circus
Cirencester
Ciro
Cirque
Cirrus
Cirt
Cisalpine
Cisco
Cisneros
Cisse
Cistercian
Cistercians
Citadel
Citation
Citations
Cite
Cited
Cites
Citi
Citibank
Cities
Citigroup
Citing
Citizen
CitizenRIGHTs
Citizendium
Citizens
Citizenship
Citrix
Citroen
Citron
Citrus
Citta
City
CityGate
CityRail
Citybus
Cityscape
Citytv
Ciudad
Civ
Civet
Civic
Civics
Civil
Civilian
Civilians
Civilisation
Civility
Civilization
Civilizations
Civilized
Civita
Civitas
Cixi
Cj
Cl
Cla##
Clack
Clackamas
Clackmannanshire
Clacton
Claes
Claiborne
Claim
Claimed
Claiming
Claims
Clair
Claire
Clairvaux
Clam
Clamp
Clampett
Clan
Clancy
Clandestine
Clank
Clann
Clannad
Clans
Clanton
Clap
Clapham
Clapp
Clapton
Clara
Clare
Claremont
Clarence
Clarendon
Clares
Claret
Clarice
Claridge
Clarification
Clarin
Clarinet
Clarion
Clarissa
Clarita
Clarity
Clarityfiend
Clark
ClarkRIGHTs
Clarke
Clarks
Clarksburg
Clarksdale
Clarkson
Clarkston
Clarksville
Claro
Clary
Clash
Clashes
Clasico
Class
Classe
Classes
Classic
Classical
Classicism
Classics
Classification
ClassificationThe
Classifications
Classified
Classroom
Classrooms
Claud
Claude
Claudette
Claudia
Claudian
Claudine
Claudio
Claudius
Claus
Clause
Clausen
Clauses
Clausewitz
Clausura
Clavier
Claw
Claws
Clawson
Claxton
Clay
Claydon
Claymore
Claypool
Clayson
Clayton
Clayworth
Clea
Clean
Cleaner
Cleanest
Cleaning
Cleansing
Cleanup
Clear
Clearance
Cleared
Clearfield
Clearing
Clearinghouse
Clearly
Clearwater
Cleary
Cleave
Cleaver
Cleburne
Cleese
Cleethorpes
Cleeve
Clegg
Cleland
Clem
Clemence
Clemenceau
Clemens
Clement
Clemente
Clementi
Clementina
Clementine
Clements
Clemmons
Clemons
Clemson
Cleo
Cleomenes
Cleon
Cleopatra
Clerc
Clergy
Clerical
Clerk
Clerkenwell
Clerks
Clermont
Cletus
Cleve
Clevedon
Cleveland
Clever
Cleves
Clewlow
Cliburn
Cliche
Clichy
Click
Clicking
Client
Clients
Cliff
Cliffe
Clifford
Cliffs
Clift
Clifton
Cliftonville
Clijsters
Climate
ClimateThe
Climatic
Climax
Climb
Climbers
Climbing
Clin
Clinch
Cline
Clinic
Clinical
Clinics
Clint
Clinton
Clio
Clip
Clipper
Clippers
Clips
Clique
Clitheroe
Clive
Cllr
Cloak
Cloaking
Clock
Clocks
Clockwork
Clodius
Clogher
Cloister
Clone
Clones
Cloning
Clonmel
Clontarf
Clooney
Clos
Close
Closed
Closely
Closer
Closes
Closet
Closing
Closs
Clostridium
Closure
Cloth
Clothes
Clothing
Clotilde
Cloud
Cloudbound
Clouds
Cloudy
Clough
Clouseau
Cloutier
Clove
Clover
Cloverdale
Clovis
Clow
Clowes
Clown
Clowns
Cloyne
Club
Club.
Club.The
ClubIn
ClubRIGHTs
ClubThe
Clube
Clubhouse
Clubs
Clue
Clues
Cluj
Clun
Cluniac
Cluny
Cluster
Clusters
Clutch
Clute
Clwyd
Clyde
Clydebank
Clydesdale
Clymer
Clyne
Cmdr
Cmprezm
Cnfuzd
Cnut
Co
Co.
CoA
Coach
Coached
Coachella
Coaches
Coaching
Coadjutor
Coahuila
Coakley
Coal
Coalfield
Coalition
Coalville
Coan
Coanda
Coast
Coastal
Coaster
Coasters
Coastguard
Coasts
Coat
Coatbridge
Coates
Coats
Cob
Cobain
Cobalt
Cobb
Cobbett
Cobbs
Cobden
Cobh
Cobham
Cobo
Cobos
Cobourg
Cobra
Cobras
Coburg
Coburn
Coca
Cocaine
Cochabamba
Cochin
Cochinchina
Cochise
Cochran
Cochrane
Cock
Cockatiels
Cockatoo
Cockayne
Cockburn
Cocke
Cocker
Cockerell
Cockermouth
Cockney
Cockpit
Cockrell
Cocks
Cocktail
Coco
Cocoa
Coconino
Coconut
Cocoon
Cocos
Cocteau
Cod
Coda
Codd
Coddington
Code
Codemasters
Codename
Codes
Codex
Coding
Codreanu
Codrington
Cody
Coe
Coed
Coelho
Coen
Coetzee
Coeur
Coffee
Coffey
Coffin
Coffman
Coffs
Cog
Cogan
Cogeco
Coghill
Coghlan
Cognac
Cognition
Cognitive
CognitiveScienceN...@gmail.com
Cogswell
Cohan
Coheed
Cohen
Cohn
Cohort
Coil
Coimbatore
Coimbra
Coin
Coinage
Coincidentally
Coined
Coins
Coire
Coit
Cokayne
Coke
Coker
Col
Col.
Cola
Colaiste
Colbert
Colborne
Colburn
Colby
Colchester
Colchis
Cold
Coldfield
Colditz
Coldplay
Coldstream
Coldwater
Coldwell
Cole
Colegio
Coleman
Colenso
Coleophora
Coleophoridae
Coleoptera
Coleraine
Coleridge
Coles
Colette
Coley
Colfax
Colfer
Colgan
Colgate
Coligny
Colima
Colin
Coliseum
Coll
Collaborating
Collaboration
Collaborations
Collaborative
Collaborators
Collage
Collapse
Collar
Collard
Collateral
Colle
Collect
Collected
Collectibles
Collecting
Collection
CollectionThe
Collections
CollectionsThe
Collective
Collectively
Collectonian
Collector
Collectors
Colleen
College
CollegeIn
CollegeRIGHTs
Colleges
Collegian
Collegians
Collegiate
Collegio
Collegium
Collet
Collett
Collette
Colley
Colli
Collide
Collider
Collie
Collier
Collieries
Colliers
Colliery
Collin
Collings
Collingswood
Collingwood
Collins
Collinson
Collis
Collision
Collison
Colloquium
Collyer
Colm
Colman
Colmar
Colne
Colo
Cologne
Coloma
Colombia
Colombian
Colombians
Colombo
Colon
Colonel
Colonels
Colonia
Colonial
Colonialism
Colonials
Colonie
Colonies
Colonist
Colonists
Colonization
Colonna
Colony
Color
Colorado
Colorado.
ColoradoCategory
Colored
Colorful
Colors
Colossal
Colosseum
Colossus
Colour
Coloured
Colourful
Colours
Colquhoun
Colson
Colston
Colt
Colter
Colton
Coltrane
Colts
Coluim
Colum
Columb
Columba
Columbanus
Columbia
Columbian
Columbiana
Columbidae
Columbine
Columbo
Columbus
Column
Columnist
Columns
Colville
Colvin
Colwell
Colwyn
Com
Coma
Comanche
Comanches
Comas
Comb
Comba
Combat
Combatant
Combating
Combe
Combination
Combinations
Combinatorial
Combine
Combined
Combining
Combo
Combs
Combustion
Comcast
Comdr
Come
Comeau
Comeback
Comecon
Comedian
Comedians
Comedie
Comedies
Comedy
Comenius
Comer
Comercial
Comercio
Comerica
Comes
Comet
Comets
Comex
Comfort
Comfortable
Comic
Comics
Comilla
Comin'
Coming
Comintern
Comique
Comision
Comiskey
Comite
Comix
Comm
Comma
Commagene
Command
Commandant
Commanded
Commander
Commanders
Commandery
Commanding
Commandment
Commandments
Commando
Commandos
Commands
Comme
Commedia
Commemoration
Commemorative
Commencement
Commendation
Comment
Commentaries
Commentarii
Commentary
Commentator
Commentators
Commenting
Comments
Commerce
Commercial
Commercially
Commercials
Commissar
Commissariat
Commissars
Commissary
Commission
Commissioned
Commissioner
Commissioners
Commissioning
Commissions
Commitment
Commitments
Committed
Committee
CommitteeThe
Committees
Commodities
Commodity
Commodore
Commodores
Commodus
Common
Commonly
Commons
Commonwealth
Communal
Communaute
Commune
Communes
CommunesThe
Communicate
Communicating
Communication
Communications
Communicator
Communion
Communique
Communism
Communist
Communists
Communities
Community
Commuter
Comnenus
Como
Comoros
Comox
Comp
Compact
Compagnia
Compagnie
Companhia
Compania
Companies
Companion
Companions
Company
CompanyRIGHTs
CompanyThe
Compaq
Compaq.com
Comparable
Comparative
Compare
Compared
Comparing
Comparison
Comparisons
Compass
Compassion
Compassionate
Compatibility
Compatible
Compendium
Compensation
Competence
Competency
Competing
Competition
CompetitionThe
Competitions
Competitive
Competitiveness
Competitor
Competitors
Compiegne
Compilation
Compilations
Compiled
Compiler
Complaint
Complaints
Compleat
Complementary
Complete
Completed
Completely
Completes
Completing
Completion
Complex
Complexes
Complexities
Complexity
Compliance
Complicated
Complications
Complutense
Component
Components
Composed
Composer
Composers
Composing
Composite
Composites
Composition
CompositionThe
Compositionally
Compositions
Compostela
Compound
Compounding
Compounds
Comprehensive
Compressed
Compression
Comprising
Compromise
Comptes
Compton
Comptroller
CompuServe
Compulsory
Computation
Computational
Compute
Computer
Computers
Computerworld
Computing
Comrade
Comrades
Comrie
Comstock
Comte
Comunale
Comune
Comunidad
Comunista
Comyn
Con
ConEd
Conacher
Conaill
Conakry
Conall
Conan
Conant
Conceicao
Conceived
Concentration
Concepcion
Concept
ConceptThe
Conception
Concepts
Conceptual
Concern
Concerned
ConcernedVancouverite
Concerning
Concerns
Concert
Concertante
Concertgebouw
Concerto
Concertos
Concerts
Concession
Concessionaire
Conch
ConchBooks
Concha
Conchita
Concho
Conchobair
Conchobar
Conchology
Conciliation
Concise
Conclave
Concluding
Conclusion
Conclusions
Concord
Concordance
Concordat
Concorde
Concordia
Concours
Concourse
Concrete
Concurrent
Concurrently
Conde
Condemned
Condensed
Conder
Condit
Condition
Conditional
Conditioning
Conditions
Condo
Condoleeza
Condoleezza
Condom
Condominiums
Condon
Condor
Condorcet
Condors
Conduct
Conducted
Conducting
Conductor
Conductors
Conduit
Cone
Conestoga
Coney
Conf
Conf.
Confederacion
Confederacy
Confederate
Confederates
Confederation
Confederations
Conference
Conferences
Confessing
Confession
Confessional
Confessions
Confessor
Confidence
Confidential
Confidentiality
Configuration
Confirmation
Confirmations
Confirmed
Confirms
Conflict
Conflicting
Conflicts
Confluence
Conformity
Confraternity
Confrontation
Confronting
Confucian
Confucianism
Confucius
Confused
Confusing
Confusingly
Confusion
Cong
Congdon
Congenital
Conger
Congestion
Congleton
Conglomerate
Congo
Congolese
Congos
Congrats
Congratulations
CongratulationsBharat
Congregation
Congregational
Congregationalist
Congregationalists
Congregations
Congres
Congreso
Congress
Congresses
Congressional
Congressman
Congressmen
Congresswoman
Congreve
Conidae
Coningsby
Coniston
Conjunto
Conker
Conklin
Conkling
Conley
Conlin
Conlon
Conn
Conn.
Connacht
Connally
Connaught
Connect
Connected
Connecticut
ConnecticutCategory
Connecting
Connection
Connections
Connectivity
Connector
Connell
Connelly
Connemara
Conner
Connery
Connex
Connexion
Connick
Connie
Connoisseur
Connolley
Connolly
Connor
Connors
Conny
ConocoPhillips
Conolly
Conor
Conover
Conquer
Conquering
Conqueror
Conquest
Conquests
Conquistadors
Conrad
Conradi
Conrail
Conran
Conroe
Conroy
Cons
Conscience
Conscious
Consciousness
Conscription
Conseco
Consecrated
Consecration
Consecutive
Conseguences
Conseil
Consejo
Consensus
Consent
Consequence
Consequences
Consequently
Conservancy
Conservation
ConservationThe
Conservatism
Conservative
Conservatives
Conservatoire
Conservatorio
Conservatorium
Conservatory
Consett
Consider
Considerable
Consideration
Considerations
Considered
Considering
Considine
Consiglio
Consistantly
Consistency
Consistent
Consisting
Consistory
Consolation
Console
Consolidated
Consolidation
Consonants
Consort
Consortium
Conspiracy
Const
Constable
Constables
Constabulary
Constance
Constans
Constant
Constanta
Constantia
Constantin
Constantine
Constantinescu
Constantino
Constantinople
Constantius
Constellation
Constellations
Constitucion
Constituencies
Constituency
Constituent
Constitution
Constitutional
Constitutions
Constraints
Construct
Constructed
Constructing
Construction
ConstructionThe
Constructions
Constructive
Constructivism
Constructivist
Constructor
Constructors
Consuelo
Consul
Consular
Consulate
Consulates
Consuls
Consulship
Consultancy
Consultant
Consultants
Consultation
Consultative
Consulted
Consulting
Consumer
Consumers
Consumption
Contact
Contacts
Contador
Container
Containers
Containing
Contains
Contamination
Conte
Contemporaries
Contemporary
Contempt
Contender
Contenders
Content
ContentThe
Contention
Contents
ContentsThe
Contessa
Contest
Contestant
Contestants
Contested
Contests
Context
Contexts
Contextual
Conti
Continent
Continental
Continents
Contingency
Contingent
Continuation
Continue
Continued
Continues
Continuing
Continuity
Continuous
Continuum
Contour
Contra
Contract
Contracting
Contractor
Contractors
Contracts
Contractual
Contrary
Contras
Contrast
Contrasting
Contreras
Contrib
Contribs
Contributing
Contribution
Contributions
Contributor
Contributors
Control
Controlled
Controller
Controllers
Controlling
Controls
Controversial
Controversies
ControversiesIn
Controversy
ControversyIn
ControversyOn
ControversyThe
Conus
Convair
Convenience
Convenor
Convent
Convention
Conventional
Conventions
Converge
Convergence
Conversation
Conversations
Converse
Conversely
Conversion
Conversions
Convert
Converted
Converter
Convertible
Converting
Convict
Convicted
Conviction
Convicts
Convinced
Convocation
Convoy
Convoys
Conway
Conwy
Conyers
Conyngham
Coo
Cooch
Cooder
Coogan
Coogee
Cook
Cookbook
Cooke
Cookery
Cookie
Cookies
Cooking
Cooks
Cookson
Cookstown
Cool
Cooler
Cooley
Coolidge
Cooling
Coombe
Coombes
Coombs
Coon
Coonabarabran
Cooney
Coons
Coop
Cooper
Cooperation
Cooperative
Cooperatives
Coopers
Cooperstown
Coordinate
Coordinated
Coordinates
Coordinating
Coordination
Coordinator
Coordinators
Coorg
Coors
Coos
Coosa
Coot
Coote
Cop
Copa
Copacabana
Copan
Cope
Copeland
Copelatinae
Copelatus
Copenhagen
Copernican
Copernicus
Copied
Copies
Coping
Copland
Copley
Copp
Coppa
Coppell
Copper
Copperfield
Copperhead
Coppi
Coppin
Coppola
Copps
Cops
Copsey
Coptic
Copts
Copy
Copying
Copyright
Copyrighted
Copyrights
Copyvio
Coq
Coquille
Coquimbo
Coquitlam
Cor
Cora
Coraciiformes
Coral
Corazon
Corbeil
Corbet
Corbett
Corbin
Corbusier
Corby
Corcoran
Cord
Corday
Cordelia
Cordell
Corden
Cordero
Cordially
Cordillera
Cordilleran
Cordoba
Cordon
Cordova
Core
Core\
Corea
Corel
Corell
Corelli
Coren
Coretta
Corey
Corfe
Corfu
Corgan
Corgi
Corgon
Cori
Coria
Corin
Corinna
Corinne
Corino
Corinth
Corinthian
Corinthians
Corio
Coriolanus
Coriolis
Cork
Corker
Corky
Corleone
Corley
Corliss
Cormac
Cormack
Corman
Cormier
Cormorant
Cormorants
Corn
Corneille
Cornel
Cornelia
Cornelio
Cornelis
Cornelius
Cornell
Corner
Corners
Cornerstone
Cornet
Cornett
Cornette
Cornhill
Cornhusker
Cornhuskers
Corning
Cornish
Cornwall
Cornwallis
Cornwell
Coro
Corolla
Coromandel
Corona
Coronado
Coronary
Coronas
Coronation
Coronel
Coroner
Coronet
Corot
Corp
Corp.
Corpo
Corporacion
Corporal
Corporate
Corporation
Corporation.
Corporations
Corps
Corpse
Corpus
Corr
Corrado
Corral
Corrales
Correa
Correct
Correction
Correctional
Corrections
Corrective
Corregidor
Correia
Correlation
Correll
Correspondence
Correspondent
Correspondents
Corresponding
Correze
Corrib
Corridor
Corridors
Corrie
Corrientes
Corriere
Corrigan
Corrine
Corris
Corrosion
Corrs
Corrupt
Corruption
Corry
Corsa
Corsair
Corsairs
Corse
Corsi
Corsica
Corsican
Corso
Corson
Cort
Corte
Cortes
Cortese
Cortex
Cortez
Corti
Cortina
Cortland
Cortlandt
Cortona
Corum
Coruna
Corunna
Corus
Coruscant
Corvair
Corvallis
Corvette
Corvettes
Corvidae
Corvinus
Corvus
Corwin
Cory
Corydon
Coryell
Corzine
Cos
Cosa
Cosby
Cosell
Cosenza
Cosette
Cosgrave
Cosgrove
Coshocton
Cosi
Cosima
Cosimo
Cosmas
Cosme
Cosmetic
Cosmetics
Cosmic
Cosmo
Cosmodrome
Cosmology
Cosmonaut
Cosmopolitan
Cosmopterigidae
Cosmos
Cossack
Cossacks
Cossor
Cost
Costa
Costanza
Costanzo
Costas
Costco
Costellariidae
Costello
Coster
Costigan
Costly
Costner
Costs
Costume
Costumes
Cosworth
Cota
Cotabato
Cote
Cotentin
Cotes
Cotillion
Coto
Coton
Cotonou
Cotswold
Cotswolds
Cott
Cotta
Cottage
Cottages
Cottbus
Cotten
Cotter
Cotterill
Cottingham
Cottle
Cotto
Cotton
Cottonwood
Cottrell
Coty
Coubertin
Couch
Cougar
Cougars
Coughlan
Coughlin
Could
Coulee
Coulomb
Coulon
Coulsdon
Coulson
Coulter
Coulthard
Council
Council.
Council.The
CouncilRIGHTs
CouncilThe
Councillor
Councillors
Councilman
Councilor
Councilors
Councils
Counsel
Counseling
Counselling
Counsellor
Counsellors
Counselor
Counselors
Count
Countdown
Counter
CounterPunch
Counterfeit
Counterintelligence
Countermeasures
Counteroffensive
Counterparty
Counterpoint
Counterterrorism
Countess
Counties
Counting
Countless
Countries
Country
Countryside
Countrywide
Counts
County
CountyRIGHTs
Coup
Coupe
Coupee
Coupland
Couple
Coupled
Couples
Coupling
Cour
Courage
Courageous
Courant
Courbet
Courcelles
Courcy
Couric
Courier
Courland
Cours
Course
CourseThe
Courses
Court
CourtRIGHTs
CourtThe
Courtauld
Courtenay
Courteney
Courteous
Courtesy
Courthouse
Courtland
Courtney
Courtois
Courtroom
Courts
Courtship
Courtyard
Cousin
Cousins
Cousteau
Coutances
Coutinho
Couto
Coutts
Couture
Covarrubias
Cove
Coven
Covenant
Covenanter
Covenanters
Covenants
Covent
Coventry
Cover
Coverage
Coverdale
Covered
Covering
Covers
Covert
Covey
Covina
Covington
Cow
Cowan
Coward
Cowardly
Cowboy
Cowboys
Cowdenbeath
Cowdery
Cowdrey
Cowell
Cowen
Cowes
Cowichan
Cowie
Cowl
Cowles
Cowley
Cowling
Cowlitz
Cowper
Cowpland
Cows
Cox
Coxe
Coxeter
Coxon
Coy
Coyle
Coyne
Coyote
Coyotes
Coz
Cozumel
Cozy
Cozzens
Cp
Cpl
Cptnono
Cr
Crab
Crabb
Crabbe
Crabs
Crabtree
Crack
Crackdown
Cracked
Cracker
Crackers
Cracking
Cracks
Cracovia
Cracow
Craddock
Cradle
Cradley
Cradock
Craft
Crafts
Craftsman
Craftsmen
Crag
Cragg
Craggy
Crags
Craig
Craigavon
Craigie
Craigslist
Craik
Crain
Craiova
Crake
Cram
Crambidae
Cramer
Cramp
Crampton
Cranberries
Cranberry
Cranbourne
Cranbrook
Crandall
Crane
Cranes
Cranfield
Cranford
Crank
Cranleigh
Cranmer
Cranmore
Cranston
Cranwell
Crap
Crash
Crass
Crassus
Crataegus
Crate
Crater
Craters
Craven
Craving
Craw
Crawfish
Crawford
Crawfordsville
Crawl
Crawley
Cray
Crayola
Crayon
Crazy
CrazyRussian
Cream
Creamer
Creamery
Crean
Creanga
Create
Created
Creates
Creating
Creation
Creationism
Creations
Creative
Creativity
Creator
Creators
Creature
Creatures
Crecy
Credit
Credited
Credits
Credo
Cree
Creech
Creed
Creedence
Creek
Creeks
Creekside
Creel
Creep
Creeper
Creeping
Creepy
Creighton
Crematorium
Creme
Cremer
Cremona
Crenshaw
Creole
Creoles
Creon
Crepes
Crescent
Crespi
Crespigny
Crespo
Cressida
Cresson
Cresswell
Crest
Crested
Creston
Crestview
Crestwood
Creswell
Cretaceous
Cretan
Crete
Creteil
Creuse
Crew
Crewe
Crews
Cri
Cribb
Cribs
Cricetidae
Crichton
Cricinfo
Crick
Cricket
CricketArchive
CricketEurope
Cricketer
Cricketers
Crickets
Cricklewood
Cried
Cries
Crim
Crime
Crimea
Crimean
Crimes
Criminal
Criminals
Criminology
Crimson
Crippen
Cripple
Crippled
Cripps
Crips
Cris
Crisco
Crises
Crisis
Crisler
Crisp
Crispin
Criss
Crist
Cristal
Cristian
Cristiana
Cristiano
Cristina
Cristo
Cristobal
Cristoforo
Cristovao
Critchley
Criteria
Criterion
Criterium
Critic
Critica
Critical
Critically
Criticism
CriticismIn
CriticismThe
Criticisms
Critics
Critique
Crittenden
Crni
Cro
Croall
Croat
Croatia
Croatian
Croatians
Croats
Croc
Croce
Crocker
Crockett
Crockford
Crocodile
Crocodiles
Crocus
Croesus
Croft
Crofton
Crofts
Croghan
Crohn
Croix
Croke
Croker
Cromartie
Cromarty
Crombie
Cromer
Cromford
Crompton
Cromwell
Cromwellian
Cron
Crone
Cronenberg
Cronica
Cronin
Cronkite
Cronulla
Cronus
Crook
Crooked
Crookes
Crooks
Croom
Crop
Cropped
Cropper
Crops
Croquet
Crosbie
Crosby
Crosland
Crosley
Cross
CrossCountry
Crossbow
Crosse
Crossed
Crosses
Crossfire
Crossin
Crossing
Crossings
Crossley
Crossman
Crossmr
Crossover
Crossrail
Crossroads
Crosstown
Crotalus
Croton
Crotone
Crotty
Crouch
Crouse
Crow
Crowd
Crowded
Crowder
Crowds
Crowe
Crowell
Crowes
Crowley
Crowleyan
Crown
Crowne
Crowned
Crowns
Crows
Crowsnest
Crowther
Croy
Croydon
Crozier
Cru
Cruces
Crucial
Crucible
Crucifix
Crucifixion
Crucis
Crude
CrudeStocks.pdf
Crue
Cruel
Cruelty
Cruickshank
Cruikshank
Cruise
CruiseCompete
Cruiser
Cruisers
Cruiserweight
Cruises
Cruising
Crum
Crumb
Crumlin
Crump
Crunch
Crusade
Crusader
Crusaders
Crusades
Cruse
Crush
Crusher
Crusoe
Crust
Crutchfield
Crux
Cruyff
Cruz
Cruze
Cruzeiro
Crvena
Cry
Cryer
Crying
Crypt
Cryptic
Crypto
Cryptography
Crystal
Crystals
Cs
Csaba
Ct
Ctesiphon
Cthulhu
Ctrl
Cu
Cuando
Cuatro
Cuauhtemoc
Cub
Cuba
Cuban
Cubana
Cubans
Cube
Cubes
Cubic
Cubism
Cubist
Cubitt
Cubs
Cucamonga
Cuckoo
Cuckoos
Cuculidae
Cucumber
Cucuta
Cudahy
Cuddalore
Cuddlyable#
Cuddy
Cudi
Cudworth
Cue
Cuellar
Cuenca
Cuerden
Cuernavaca
Cuervo
Cuesta
Cueva
Cuevas
Cuff
Cui
Cuisine
Cukor
Cukurova
Cul
Culbert
Culbertson
Culebra
Culiacan
Culinary
Culkin
Cullen
Cullinan
Cullman
Culloden
Cullum
Culp
Culpeper
Culpepper
Cult
Cultivars
Cultivated
Cultivation
Cults
Cultura
Cultural
Culturally
Culture
CultureThe
Cultures
Culver
Cum
Cuman
Cumann
Cumans
Cumberland
Cumbernauld
Cumbia
Cumbria
Cumbrian
Cumming
Cummings
Cummins
Cumnock
Cumulative
Cumulus
Cunard
Cundinamarca
Cuneiform
Cuneo
Cunha
Cunliffe
Cunning
Cunningham
Cunninghame
Cunxu
Cuomo
Cup
Cup.
Cup.The
CupThe
Cupen
Cupertino
Cupid
Cups
Curacao
Curate
Curator
Curb
Cure
Cures
Curia
Curie
Curiosities
Curiosity
Curious
Curiously
Curitiba
Curl
Curlew
Curley
Curling
Curly
Curps
Curr
Curragh
Curran
Currency
Current
Currently
Currents
Currey
Curricular
Curriculum
CurriculumThe
Currie
Currier
Curry
Curse
Cursed
Curt
Curtain
Curtin
Curtis
Curtiss
Curtius
Curtiz
Curve
Curveball
Curved
Curves
Curzon
Cusack
Cusco
Cuse
Cushing
Cushitic
Cushman
Cusick
Cust
Custard
Custer
Custis
Custodian
Custody
Custom
Customer
Customers
Customs
Custos
Cut
Cute
Cuthbert
Cutie
Cutlass
Cutler
Cutoff
Cutolo
Cuts
Cuttack
Cutter
Cutters
Cutting
Cutts
Cutty
Cuvier
Cuxhaven
Cuyahoga
Cuyo
Cuza
Cuzco
Cwm
Cwmbran
Cy
Cyan
Cyanide
Cyanogen
Cybele
Cyber
Cybermen
Cybernetics
Cyberspace
Cybertron
Cybertronian
Cyborg
Cyclades
Cycle
Cycles
Cyclic
Cycling
Cyclist
Cycliste
Cyclists
Cyclo
Cyclone
Cyclones
Cyclopaedia
Cyclopedia
Cyclops
Cyde
Cygni
Cygnus
Cylinder
Cylon
Cylons
Cymbals
Cymru
Cynagon
Cyndi
Cynic
Cynon
Cynthia
Cypher
Cypress
Cyprian
Cyprinidae
Cypriot
Cypriots
Cyprus
Cyr
Cyrano
Cyrenaica
Cyrene
Cyril
Cyrille
Cyrillic
Cyrus
Cys
Cystic
CzLATINuchow
Czar
Czarna
Czartoryski
Czech
Czechoslovak
Czechoslovakia
Czechoslovakian
Czechs
CzesLATINaw
Czestochowa
C}
Cécile
D
D#
D##
D###
D####
D&D
D'
D'Agostino
D'Amato
D'Amico
D'Angelo
D'Arcy
D'Onofrio
D'Oyly
D'Souza
D-Day
D-uh
D.
D.A.
D.B.
D.C
D.C.
D.C.Category
D.D.
D.E.
D.F.
D.G.
D.H.
D.II
D.J.
D.K.
D.L.
D.M.
D.O.
D.P.
D.Phil
D.R.
D.S.
D.Sc.
D.VII
D.W.
D3
D4
D7000
D:
DA
DAADRI
DAB
DABNY
DAC
DAD
DAF
DAG
DAGGER
DAILY
DAL
DANCING
DAP
DAR
DARPA
DART
DAS
DASH
DAT
DATA
DATE
DAUGHTER
DAV
DAVID
DAW
DAY
DAYS
DB
DB#
DBA
DBE
DBMS
DBS
DC
DC#
DCA
DCC
DCEdwards####
DCI
DCM
DCS
DCT
DCU
DD
DDB
DDCA
DDG
DDLJ
DDP
DDR
DDR#
DDS
DDT
DE
DEA
DEAD
DEAL
DEALER
DEATH
DEBRA
DEC
DECA
DECENT
DECOR
DEF
DEFA
DEFAULTSORT
DEFINITELY
DEI
DEKHEIN
DEL
DELETE
DELETE.
DELHI
DELL
DEM
DEMOCRACY
DENA
DENISE
DENTIST
DEP
DER
DES
DESH
DESHPREM
DEVANAGARI
DEVANAGARIDEVANAGARI
DEVANAGARIDEVANAGARIDEVANAGARI
DEVANAGARIDEVANAGARIDEVANAGARIDEVANAGARI
DEVANAGARIDEVANAGARIDEVANAGARIDEVANAGARIDEVANAGARI
DEVANAGARIDEVANAGARIDEVANAGARIDEVANAGARIDEVANAGARIDEVANAGARI
DEVANAGARIDEVANAGARIDEVANAGARIDEVANAGARIDEVANAGARIDEVANAGARIDEVANAGARI
DEVANAGARIDEVANAGARIDEVANAGARIDEVANAGARIDEVANAGARIDEVANAGARIDEVANAGARIDEVANAGARI
DEVANAGARIDEVANAGARIDEVANAGARIDEVANAGARIDEVANAGARIDEVANAGARIDEVANAGARIDEVANAGARIDEVANAGARI
DF
DFA
DFB
DFC
DFG
DFL
DFS
DFT
DFW
DG
DGA
DGG
DH
DH.#
DH.##
DHA
DHAAR
DHC
DHCP
DHL
DHONI
DHS
DHT
DI
DIA
DIC
DID
DIFFERENCE
DIGITAL
DIL
DILLI
DIN
DINING
DIP
DIRECTIONS
DIREKTOR
DIRTY
DIS
DISAPPOINTED
DISCO
DISHES
DISPLAYTITLE
DISPLAYTITLEDEFAULTSORT
DISPOSAL
DISTRICT
DIT
DIY
DJ
DJ's
DJ,
DJ.
DJing
DJs
DK
DKK
DKW
DL
DLA
DLC
DLF
DLL
DLM
DLP
DLR
DM
DM's
DMA
DMC
DMCA
DME
DMG
DMK
DMS
DMT
DMU
DMUs
DMV
DMX
DMZ
DN
DNA
DNB
DNC
DND
DNF
DNP
DNR
DNS
DO
DOA
DOB
DOC
DOCTOR
DOD
DOE
DOES
DOF
DOG
DOHC
DOI
DOING
DOIs
DOJ
DOM
DON'T
DONATIONS
DONE
DONO
DOOR
DOORS
DOR
DOS
DOS.
DOT
DOUBLE
DOWN
DOWNWARDS
DP
DP##
DPA
DPC
DPI
DPJ
DPP
DPR
DPR's
DPRK
DPS
DPhil
DQ
DQ#
DR
DR#
DR.
DRA
DRAFT
DRAM
DRC
DRDO
DREAM
DRG
DRIVE
DRM
DRN
DRS
DRV
DRV.
DS
DS#
DS.
DSA
DSB
DSC
DSE
DSG
DSL
DSLR
DSM
DSO
DSP
DSS
DST
DSV
DSc
DSi
DT
DT#
DTC
DTD
DTE
DTH
DTI
DTM
DTS
DTT
DTV
DU
DUC
DUDE
DUE
DUGC
DUI
DUMB
DUMINY
DUP
DURER
DV
DVB
DVD
DVD.
DVDs
DVI
DVR
DW
DWT
DX
DYK
DYKs
DZ
DZS.
Da
Daan
Daaru
Daayan
Dab
Dabanng
Dabney
Dabo
Dabomb##
Dabrowa
Dabrowka
Dabrowski
Dacca
Dachau
Dacia
Dacian
Dacians
Dacre
Dad
Dada
Daddies
Daddy
Dade
Dado
Dads
Dadu
Dae
Daedalus
Daegu
Daejeon
Daemon
Daewoo
Dafan
Daffy
Dafoe
Daft
Dafydd
Dag
Dagan
Dagblad
Dagbladet
Dagenham
Dagens
Dagestan
Dagger
Daggers
Daggett
Dagmar
Dagobert
Dagon
Dagupan
Dah
Dahiya
Dahl
Dahlgren
Dahlia
Dahmer
Dahn
Dahomey
Dai
Daiei
Daigo
Daihatsu
Daiichi
Dail
Dailey
Daily
Daimler
DaimlerChrysler
Dain
Dainik
Dairy
Daisies
Daisuke
Daisy
Daito
Daity
Daizong
Dak
Dakar
Daken
Daketi
Dakhne
Dakin
Dakota
DakotaTalk
Dakotas
Daksha
Dakshin
Dakshina
Dal
Dala
Dalai
Dalarna
Dalby
Dale
Dalek
Daleks
Dales
Daley
Dalglish
Dalhousie
Dali
Dalia
Dalian
Dalida
Dalit
Dalits
Dalkeith
Dalkey
Dall
Dalla
Dallaire
Dallara
Dallas
Dalles
Dally
Dalmatia
Dalmatian
Dalmatians
Dalrymple
Dalston
Dalton
Daltrey
Daly
Dalymount
Dalziel
Dam
Dama
Damaad
Damadji
Damage
Damaged
Damages
Daman
Damansara
Damas
Damascus
Dame
Damen
Dames
Damian
Damiano
Damien
Damiens
Damietta
Damir
Damm
Dammam
Damme
Damn
Damnation
Damned
Damnn
Damodar
Damoh
Damon
Dampier
Dams
Dan
Dana
Danae
Danang
Danann
Danbury
Danby
Dance
Dancehall
Dancer
Dancers
Dances
Dancin'
Dancing
Dandelion
Dandenong
Dando
Dandridge
Dandy
Dane
Danelia
Danes
Danforth
Dang
Danger
Dangerfield
Dangerous
Dangerously
Dangers
Dani
Danica
Daniel
Daniel.Bryant
Daniela
Daniele
Daniell
Daniella
Danielle
Daniels
Danielson
Danielsson
Daniil
Danilo
Danish
Dank
Danko
Danmark
Danmarks
Dann
Dannebrog
Danner
Danni
Dannii
Danny
Danny_Jones%ENRON@eott.com
Dano
Danone
Danorum
Dans
Danse
Dansk
Danske
Danson
Dante
Dantes
Danton
Danube
Danubian
Danvers
Danville
Dany
Danza
Danzig
Danziger
Dao
Daoism
Daoist
Daoud
Daphne
Daphnia
Dar
Dara
Daraa
Darasal
Darbar
Darbhanga
Darby
Darcy
Dardanelles
Darden
Dare
Daredevil
Daredevils
Daren
Darfur
Dargah
Dari
Daria
Darien
Darin
Daring
Dario
Darius
Dariusz
Darjeeling
Dark
Darke
Darker
Darkest
Darkly
Darkness
Darko
Darkseid
Darkside
Darkstar
Darla
Darlene
Darley
Darling
Darlinghurst
Darlington
Darmian
Darmstadt
Darnell
Darnley
Daron
Darood
Darpan
Darragh
Darreh
Darrel
Darrell
Darren
Darrin
Darrow
Darryl
Darshan
Dart
Darter
Dartford
Darth
Dartington
Dartmoor
Dartmouth
Darts
Darul
Darunta
Darussalam
Darwen
Darwin
Darwinek
Darwinian
Darwinism
Darwish
Darya
Daryl
Das
Dasa
Daschle
Dasgupta
Dash
Dasharath
Dashboard
Dashiell
Dasht
Dashwood
Dasovich
Dass
Dassault
Dat
Data
Database
Databases
Datamanager
Dataset
Date
DateFormat
Dated
Dateline
Datenwurfel
Dates
Dating
Dato
Datong
Datsun
Datta
Dattatreya
Datu
Datuk
Daty
Dau
Daud
Daugava
Daugavpils
Daugherty
Daughter
Daughters
Daughtry
Daula
Daum
Daun
Dauntless
Dauphin
Dauphine
Davao
Dave
Davenant
Davenport
Daventry
Davewild
Davey
David
DavidRIGHTs
Davide
Davids
Davidson
Davie
Davies
Daviess
Davila
Davin
Davina
Davio
Davis
Davison
Davitt
Davos
Davout
Davros
Davy
Davydenko
Daw
Dawa
Dawe
Dawes
Dawg
Dawkins
Dawla
Dawn
Dawood
Daws
Dawson
Dawud
Dawynn
Dax
Day
Daya
Dayak
Dayal
Dayan
Dayanand
Daybreak
Daydream
Daylight
Dayne
Days
Daystar
Daytime
Dayton
Daytona
Daz
Daze
Dazed
Dazzle
Dazzler
Dbachmann
Dbc\
Dcoetzee
De
DeBarge
DeBartolo
DeCook
DeForest
DeGeneres
DeJohnette
DeKalb
DeLand
DeLay
DeLeon
DeLong
DeLonge
DeLorean
DeLorme
DeLuca
DeMarco
DeMeo
DeMille
DePatie
DePaul
DePauw
DeSoto
DeStefano
DeVille
DeVito
DeVries
DeWitt
DeYoung
Dea
Deacon
Deacons
Dead
Deadliest
Deadline
Deadly
Deadman
Deadpool
Deadwood
Deaf
Deak
Deakin
Deal
Dealbench
Dealer
Dealers
Dealey
Dealing
Deals
Dealt
Dean
Deane
Deanery
Deanna
Deans
Dear
Dearborn
Dearest
Dearne
Deasy
Death
DeathAfter
DeathHe
DeathIn
DeathOn
DeathShe
Deathly
Deathmatch
Deathphoenix
Deaths
DeathsBirth
Deathstroke
Deauville
Deb
Debaathification
Debate
Debates
Debating
Debbie
Debby
Debehogne
Debenhams
Debi
Debian
Debica
Deborah
Debord
Debra
Debre
Debrecen
Debresser
Debrett
Debretts
Debris
Debs
Debt
Debussy
Debut
Debuted
Debuting
Debuts
Deby
Debye
Dec
Dec.
Decadal
Decade
Decadence
Decades
Decalogue
Decameron
Decathlon
Decatur
Decay
Decca
Deccan
Deceased
Deceit
December
Decemberists
Decency
Decent
Decepticon
Decepticons
Deception
Decibel
Decide
Decided
Deciding
Decimal
Decimus
Decision
Decisions
Decius
Deck
Decker
Declan
Declaration
Declared
Declassified
Decline
Declined
Declining
Deco
Decock
Decolonization
Decommissioned
Decommissioning
Deconstruction
Decor
Decorah
Decorated
Decoration
Decorations
Decorative
Decoud
Decoy
Decrease
Decree
Decrees
Decumanus
Dede
Dedekind
Dedham
Dedicated
Dedication
Dee
Deed
Deeds
Deegan
Deeley
Deemed
Deen
Deena
Deep
Deep.
Deepa
Deepak
Deepdale
Deeper
Deepesh
Deepika
Deeply
Deepti
Deepveer♥♥♥
Deepwater
Deer
Deere
Deerfield
Deering
Dees
Deeside
Deewani
Def
Defamation
Default
Defeat
Defeated
Defeating
Defects
Defence
Defend
Defendant
Defendants
Defended
Defender
Defenders
Defending
Defense
Defenses
Defensive
Defensor
Deferred
Deffner
Defiance
Defiant
Deficiency
Deficit
Definately
Define
Defined
Definetely
Defining
Definite
Definitely
Definition
DefinitionThe
Definitions
Definitive
Defoe
Deforestation
Deftones
Defunct
Defying
Degas
Degenerate
Degeneration
Degradation
Degrassi
Degree
Degrees
Degu
Degus
Deh
Deheubarth
Dehn
Dehradun
Dei
Deighton
Deimos
Deir
Deira
Deirdre
Deitch
Deities
Deity
Dej
Deja
Dejan
Deka
Dekalb
Deke
Dekh
Dekha
Dekhke
Dekhni
Dekho
Dekker
Dekne
Del
Dela
Delacroix
Delage
Delainey
Delainey@ECT
Delamere
Delaney
Delano
Delany
Delaunay
Delaware
DelawareCategory
Delay
Delayed
Delays
Delbert
Delchev
Delco
Delegate
Delegates
Delegation
Delegations
Delenn
Deletant
Delete
Deleted
Deleting
Deletion
Deleuze
Delfan
Delfin
Delfino
Delft
Delgada
Delgado
Delhi
Delhite
Delhomme
Deli
Delia
Delian
Deliberate
Delicate
Delicious
Deliciousness
Delight
Delightful
Delights
Delilah
Delimitation
Delinquency
Delirious
Delirium
Delisle
Delist
Delius
Deliver
Deliverance
Delivered
Deliveries
Delivering
Delivery
Dell
Della
Delle
Deller
Dells
Delmar
Delmarva
Delmas
Delmer
Deloitte
Delon
Delores
Delos
Delphi
Delphic
Delphine
Delray
Delta
Deluge
Delusion
Deluxe
Dem
Demand
Demands
Demarest
Dembski
Demented
Dementia
Dementieva
Demento
Demerara
Demers
Demeter
Demetrio
Demetrios
Demetrius
Demi
Demilitarized
Deming
Demir
Demise
Demiurge
Demjanjuk
Demme
Demo
Democracies
Democracy
Democrat
Democratic
Democratica
Democratico
Democrats
Democritus
Demographic
Demographics
DemographicsAccording
DemographicsAs
DemographicsAt
DemographicsBased
DemographicsIn
DemographicsInhabitants
DemographicsPopulation
DemographicsThe
Demography
DemographyThe
Demolition
Demon
Demonic
Demons
Demonstration
Demonstrations
Demos
Demosthenes
Dempsey
Dempseys
Dempster
Dems
Den
Dena
Denali
Denbigh
Denbighshire
Denby
Dench
Dene
Denelson##
Deneuve
Deng
Dengeki
Denham
Denial
Denied
Denies
Denikin
Denim
Denis
Denise
Denison
Deniz
Denizli
Denman
Denmark
Dennehy
Dennett
Denney
Denni
Denning
Dennis
Dennison
Denny
Denominations
Denotes
Dense
Densetsu
Density
Denson
Dent
Dental
Dentist
Dentistry
Denton
Denver
Deny
Denys
Denzel
Denzil
Deo
Deol
Deon
Deor
Depardieu
Departamento
Departed
Departement
Departing
Department
DepartmentRIGHTs
Departmental
Departments
Departure
Departures
Depeche
Depeches
Dependant
Dependence
Dependencies
Dependency
Dependent
Depending
Depends
Depiction
Depictions
Deployed
Deployment
Deportation
Deportes
Deportiva
Deportivo
Deposit
Deposited
Deposition
Depository
Deposits
Depot
Depots
Depp
Deprecated
Depression
Deprivation
Deprodded
Dept
Dept.
Deptford
Depth
Depths
Deputies
Deputy
Der
Dera
Derby
Derbyshire
Deregulation
Dereham
Derek
Derg
Derivation
Derivative
Derivatives
Derived
Derleth
Dermatology
Dermot
Dern
Deron
Derrick
Derrida
Derringer
Derry
Dershowitz
Derulo
Dervish
Derwent
Deryck
Deryni
Des
DesRon
Desai
Desam
Desarrollo
Descartes
Descendant
Descendants
Descendents
Descending
Descent
Descentralizado
Deschamps
Deschanel
Deschutes
Described
Describing
Description
DescriptionA
DescriptionIn
DescriptionIt
DescriptionThe
DescriptionThis
Descriptions
Descriptive
Desdemona
Deseret
Desert
Deserts
Desh
Desha
Deshmukh
Deshpande
Desi
Desiderius
Design
DesignThe
Designated
Designation
Designations
Designed
Designer
Designers
Designing
Designs
Desilu
Desire
Desired
Desiree
Desjardins
Desk
Deskana
Desktop
Desmond
Desolation
Despair
Despatches
Despenser
Desperado
Desperate
Desperation
Despina
Despite
Desportivo
Despot
Despotate
Dessau
Dessert
Destination
Destinations
Destiny
Destro
Destroy
Destroyed
Destroyer
Destroyers
Destroying
Destruction
Destructive
Destructoid
Det
Deta
Detached
Detachment
Detachments
Detail
Detailed
Details
DetailsThe
Detection
Detective
Detectives
Detector
Detention
Deteriorating
Determination
Determined
Determining
Deters
Detlef
Detlev
Detmold
Detour
Detrick
Detroit
Deuce
Deuces
Deum
Deus
Deut
Deuteronomy
Deutsch
Deutsche
Deutsched
Deutschen
Deutscher
Deutsches
Deutschland
Deutschlands
Deutz
Deux
Dev
Dev.
Deva
Deval
Devan
Devanagari
Devaney
Devas
Devastated
Devastation
Devastator
Devdas
Develop
Developed
Developer
Developers
Developing
Development
DevelopmentIn
DevelopmentThe
Developmental
Developments
Devendra
Devens
Deventer
Dever
Devereaux
Devereux
Devi
Device
Devices
Devil
Deville
Devils
Devin
Devine
Devitt
Devizes
Devlin
Devo
Devolution
Devon
Devonian
Devonport
Devonshire
Devoted
Devotees
Devotion
Devotional
Devraj
Dew
Dewa
Dewan
Dewar
Dewdney
Dewey
Dewhurst
Dewi
Dewitt
Dewsbury
Dex
Dexter
Dey
Deyu
Dez
Dezong
Dhabi
Dhahran
Dhaka
Dhakelta
Dham
Dhamaka
Dhamma
Dhan
Dhanbad
Dhani
Dhanush
Dhar
Dharam
Dharma
Dharmadeva
Dharmendra
Dharna
Dharwad
Dhawan
Dheere
Dher
Dhillon
Dhivehi
Dhofar
DhokebaazOn
Dhoni
Dhonibhaiiii
Dhruva
Dhu
Di
DiBiase
DiC
DiCaprio
DiFranco
DiMaggio
DiMera
Dia
Diabetes
Diablo
Diablos
Diageo
Diaghilev
Diagnosis
Diagnostic
Diagnostics
Diagonal
Diagram
Diagrams
Dial
Dialect
Dialectic
Dialects
Diallo
Dialog
Dialogue
Dialogues
Diamant
Diamante
Diamantina
Diameter
Diamond
Diamondback
Diamondbacks
Diamonds
Dian
Diana
Diane
Dianetics
Dianna
Dianne
Diaries
Diario
Diarmait
Diarmuid
Diarra
Diary
Dias
Diaspora
Diaz
Dibble
Dibhhai
Dibrugarh
Diccionario
Dice
Dick
Dickens
Dickenson
Dickerson
Dickey
Dickie
Dickinson
Dicklyon
Dicks
Dickson
Dicky
Dictator
Dictators
Dictatorship
Dictionaries
Dictionary
Dictionnaire
Did
Didcot
Diddley
Diddy
Diderot
Didi
Didier
Didn't
Dido
Didsbury
Die
Diebner@ECT
Diebold
Died
Diefenbaker
Diego
Diehl
Diels
Diem
Diemen
Dien
Dienst
Dieppe
Dies
Diesel
Diet
DietThe
Dietary
Dieter
Dietmar
Dietrich
Dietz
Dieu
Dieudonne
Diez
Diff
Difference
Differences
Different
Differential
Differentiation
Differing
Difficult
Difficulties
Difficulty
Diffie
Diffs
Diffusion
Dig
Digby
Digest
Digestive
Digg
Digger
Diggers
Digging
Diggs
Digi
Digicel
Digimon
Digit
Digital
Digitized
Diglipur
Dignitaries
Dignity
Digwuren
Dijk
Dijkstra
Dijon
Dik
Dike
Dikshitar
Dil
Dilbert
Dileep
Dilemma
Dili
Diligence
Diliman
Dilip
Dill
Dilla
Dillard
Dillards
Dillenburg
Diller
Dilli
Dillinger
Dillingham
Dillon
Dilwale
Dilworth
Dim
Dima
Dimag
Dimas
Dimbleby
Dime
Dimension
Dimensional
Dimensions
Dimes
Dimitar
Dimitri
Dimitrie
Dimitrios
Dimitris
Dimitrov
Dimitry
Dimmu
Din
Dina
Dinah
Dinajpur
Dinamo
Dinara
Dinaric
Dinas
Dindigul
Dine
Diner
Dinero
Dinesh
Ding
Dinghy
Dingle
Dingley
Dingo
Dingwall
Dinh
Dini
Dining
Dink
Dinka
Dinkins
Dinky
Dinner
Dinners
Dino
Dinobots
Dinos
Dinosaur
Dinosauria
Dinosaurs
Dinwiddie
Dio
DioGuardi
Diocesan
Diocese
Dioceses
Diocletian
Diodorus
Diogenes
Diogo
Diomede
Diomedes
Dion
Dione
Dionisio
Dionne
Dionysian
Dionysius
Dionysos
Dionysus
Diop
Diophantine
Dior
Dios
Diouf
Dioxide
Dip
Diplo
Diploma
Diplomacy
Diplomas
Diplomat
Diplomatic
Diplomats
Dipper
Diptera
Dipterocarpaceae
Dir
Dirac
Dire
DirecTV
Direccion
Direct
Direct#D
DirectX
Directed
Directing
Direction
Directional
Directions
Directive
Directives
Directly
Director
Directorate
Directorial
Directories
Directors
Directory
Directory####
Directv
Dirge
Dirichlet
Dirie
Dirk
Dirksen
DirkvdM
Dirt
Dirty
Dis
Disabilities
Disability
Disabled
Disadvantage
Disadvantages
Disagree
Disambiguation
Disappearance
Disappearing
Disappointed
Disappointment
Disarmament
Disaster
Disasters
Disatisfied
Disc
Discharge
Dischord
Disciple
Disciples
Disciplinary
Discipline
Disciplines
Disclaimer
Disclosure
Disco
Discography
Discogs
Discontent
Discontinued
Discount
Discourse
Discourses
Discover
Discovered
Discoverer
Discoveries
Discovering
Discovery
DiscoveryThe
Discrete
Discrimination
Discs
Discus
Discuss
Discussing
Discussion
DiscussionAll
Discussions
Discworld
Disease
Diseases
Diseno
Disgaea
Disguise
Disgusted
Disgusting
Dish
Dishes
Dishwashing
Disinformation
Disk
Dismal
Dismas
Dismissal
Dismisses
Disney
Disneyland
Disorder
Disorders
Dispatch
Dispatches
Dispensary
Dispersal
Displaced
Displacement
Display
Displayed
Displaying
Displays
Disposable
Disposal
Disposition
Dispute
Disputed
Disputes
Disqualification
Disque
Disraeli
Disruption
Disruptive
Diss
Dissatisfied
Dissemination
Dissent
Dissenters
Dissenting
Dissertation
Dissident
Dissolution
Dissolved
Dist
Distance
Distances
Distant
Distillers
Distillery
Distinct
Distinction
Distinctions
Distinctive
Distinguished
Distinguishing
Distortion
Distraught
Distress
Distributed
Distributing
Distribution
DistributionIt
DistributionThe
DistributionThis
Distributions
Distributor
Distributors
District
District.In
District.The
DistrictIncumbent
DistrictSubdistricts
DistrictThe
Districts
Distrital
Distrito
Disturbance
Disturbed
Disturbing
Dita
Ditch
Ditka
Ditko
Ditto
Ditton
Diu
Div
Div.
DivX
Diva
Divan
Divas
Dive
Diver
Divers
Diverse
Diversification
Diversion
Diversity
Dives
Divide
Divided
Dividing
Divina
Divine
Diving
Divinity
Divisao
Divisie
Division
Division.
Division.The
DivisionThe
Divisional
Divisione
Divisions
DivisionsThe
Divizia
Divorce
Divya
Divyanka
Diwali
Diwan
Diwaniya
Dix
Dixie
Dixieland
Dixit
Dixon
Diya
Diyala
DiyarbakLATINr
Dizzee
Dizzy
Dj
Django
Djibouti
Djinn
Djokovic
Djurgarden
Djurgardens
Dkhte
Dmcdevit
Dmcdevit·t
Dmitri
Dmitriy
Dmitry
Dmytro
Dnepr
Dnieper
Dniester
Dnipro
Dnipropetrovsk
Do
Do@ENRON_DEVELOPMENT
DoD
Doab
Doak
Doan
Doane
Dobbin
Dobbins
Dobbs
Dobie
Doble
Dobra
Dobrich
Dobro
Dobruja
Dobrzyn
Dobson
Doby
Doc
Doc.
Doce
Docherty
Dock
Dockers
Dockery
Docket
Docking
Docklands
Docks
Dockyard
Docs
Doctor
Doctoral
Doctorate
Doctorates
Doctorow
Doctors
Doctrinal
Doctrine
Doctrines
Document
Documenta
Documentaries
Documentary
Documentation
Documents
Dod
Doda
Dodd
Dodds
Dodecanese
Dodge
Dodger
Dodgers
Dodgson
Dodo
Dodoma
Dodson
Dodwell
Doe
Doer
Does
Dog
Dogan
Doge
Dogen
Dogg
Dogger
Doggett
Dogma
Dogon
Dogra
Dogs
Dogwood
Doh
Doha
Doheny
Doherty
Dohnanyi
Dohrn
Doi
Doig
Doin'
Doing
Dojo
Dokken
Doktor
Dol
Dolan
Dolby
Dolce
Dole
Dolenz
Dolittle
Doliver
Doll
Dollar
Dollars
Dollhouse
Dolls
Dolly
Dolna
Dolne
Dolni
Dolny
Dolomites
Dolores
Dolph
Dolphin
Dolphins
Dolphy
Dom
Domain
Domaine
Domains
Dome
Domenech
Domenico
Domer##
Domesday
Domestic
Domestically
Domhnall
Dominance
Dominant
Domination
Dominator
Domine
Domingo
Domingos
Domingue
Dominguez
Domini
Dominic
Dominica
Dominican
Dominicana
Dominicans
Dominick
Dominik
Dominion
Dominions
Dominique
Domino
Dominus
Domitian
Domitius
Domnall
Domo
Domus
Don
Don't
DonRIGHTt
Dona
Donaghy
Donahue
Donair
Donal
Donald
Donaldson
Donat
Donatello
Donati
Donation
Donations
Donato
Donatus
Donau
Doncaster
Done
Donegal
Donegan
Donelson
Donen
Donetsk
Dong
Dongguan
Donington
Donitz
Donizetti
Donja
Donji
Donkey
Donmar
Donn
Donna
Donnchad
Donnchadh
Donne
Donnell
Donnelly
Donner
Donnie
Donnington
Donny
Donnybrook
Dono
Donoghue
Donohue
Donor
Donors
Donovan
Dons
Dont
Donu
Donut
Donuts
Doo
Doobie
Doodle
Doody
Doohan
Dooley
Doolittle
Doom
Doomed
Doomsday
Doon
Door
Doordarshan
Doors
Doosan
Doosra
Doosri
Dope
Dopher
Doping
Doppelganger
Doppler
Dor
Dora
Dorada
Dorado
Doraemon
Doral
Doran
Dorcas
Dorchester
Dordogne
Dordrecht
Dore
Doreen
Doren
Dorf
Dorfman
Dorgan
Dori
Doria
Dorian
Doric
Dorion
Doris
Dorje
Dorji
Dorking
Dorling
Dorm
Dorman
Dormant
Dormer
Dormition
Dormitory
Dorn
Dorney
Dornier
Doro
Doron
Dorothea
Dorothy
Dorpat
Dorr
Dorsal
Dorset
Dorsett
Dorsey
Dorsey@ENRON_DEVELOPMENT
Dort
Dortmund
Dorval
Dory
Dos
Dose
Doss
Dossier
Dost
Dosti
DostiDil
Dostoevsky
Dostoyevsky
Dostum
Dot
Dothan
Dothideomycetes
Dots
Dotson
Dottie
Doty
Dou
Douai
Douala
Douay
Double
Doubleday
Doubles
Doubs
Doubt
Doubts
Doucet
Doug
Doug.
Dougal
Dougan
Dough
Dougherty
Doughty
Dougie
Douglas
Douglass
Dougweller
Doukas
Douro
Dov
Dove
Dover
Doves
Dovid
Dow
Dowager
Dowd
Dowden
Dowding
Dowell
Dower
Dowie
Dowling
Down
Downe
Downer
Downers
Downes
Downey
Downfall
Downham
Downhill
Downie
Downing
Download
Downloadable
Downloaded
Downloads
Downpatrick
Downs
Downside
Downstairs
Downstream
Downsview
Downton
Downtown
Downward
Doyle
Doylestown
Doyon
Dozen
Dozens
Dozier
Dp
Dr
Dr.
DrKiernan
Draco
Draconis
Dracula
Draft
Drafted
Drafting
Drafts
Drag
Dragan
Dragnet
Drago
Dragon
Dragonfly
Dragonlance
Dragons
Dragoon
Dragoons
Dragutin
Drain
Drainage
Drake
Drakensberg
Drama
Dramas
Dramatic
Dramatica
Dramatists
Drammen
Drang
Draper
Draupadi
Drava
Dravid
Dravida
Dravidian
Draw
Drawing
Drawings
Drawn
Draws
Drawsko
Drax
Drayton
Drazen
Dre
Dread
Dreadnought
Dreadstar
Dream
DreamGuy
DreamWorks
Dreamcast
Dreamcoat
Dreamer
Dreamers
Dreamgirls
Dreaming
Dreamland
Dreams
Dreamtime
Dreamwave
Dreamworks
Dreamworld
Dred
Dredd
Dreher
Drei
Dreier
Drenthe
Drescher
Dresden
Dresdner
Dress
Dressage
Dressed
Dressel
Dresser
Dressing
Dressler
Dreux
Drew
Drewry
Drews
Drexel
Drexler
Dreyer
Dreyfus
Dreyfuss
Dried
Driffield
Drift
Drifter
Drifters
Drifting
Driftwood
Drill
Drillers
Drilliidae
Drilling
Drina
Drini
Drink
Drinker
Drinking
Drinks
Drinkwater
Driscoll
Drive
Driven
Driver
Drivers
Drives
Driving
Drizzt
Drmies
Drogba
Drogheda
Drogo
Droid
Droit
Droitwich
Drome
Dromore
Drona
Drone
Drones
Drop
Droping
Dropkick
Dropped
Dropping
Drops
Dror
Drosera
Drosophila
Drought
Drove
Drowned
Drowning
Droylsden
Drs
Drs.
Dru
Drucker
Drudge
Drug
Drugs
Druid
Druids
Druitt
Druk
Drukpa
Drum
Drumcondra
Drumheller
Drummer
Drummers
Drumming
Drummond
Drums
Drunk
Drunken
Drury
Drusilla
Drusus
Druze
Dry
Dryandra
Dryden
Drydock
Drysdale
Ds
Du
DuBois
DuBose
DuMont
DuPage
DuPont
Dua
Dual
Duan
Duane
Duarte
Dub
Dubai
Dubbed
Dubbing
Dubbo
Dube
Duberman
Dubey
Dubh
Dubin
Dubious
Dublin
Dubliners
Dubna
Dubois
Dubrovnik
Dubs
Dubuque
Dubz
Duc
Duca
Ducal
Ducati
Duce
Duchamp
Duchesne
Duchess
Duchies
Duchovny
Duchy
Duck
Duckett
Ducks
Duckworth
Ducky
Duct
Duda
Dude
Dudek
Dudes
Dudgeon
Dudley
Due
Duel
Duero
Duet
Duets
Duff
Dufferin
Duffie
Duffield
Duffy
Dufour
Dufresne
Dug
Dugald
Dugan
Dugdale
Duggan
Dugu
Duguay
Dugway
Duhamel
Duin
Duisburg
Dujail
Duk
Dukakis
Dukan
Duke
Dukedom
Dukes
Dukla
Duklja
Dulaim
Dulaym
Dulaymi
Dulce
Dull
Dulles
Duluth
Dulwich
Dum
Duma
Dumas
Dumb
Dumbarton
Dumbest
Dumbledore
Dumbo
Dumezil
Dumfries
Dumfriesshire
Dumitru
Dummer
Dummies
Dummy
Dumont
Dump
Dumping
Dumpty
Dun
Dunaway
Dunbar
Dunbartonshire
Dunblane
Duncan
DuncanHill
Duncombe
Dundalk
Dundas
Dundee
Dunder
Dundonald
Dundurn
Dune
Dunedin
Dunes
Dunfermline
Dunford
Dung
Dunga
Dungan
Dungannon
Dungeness
Dungeon
Dungeons
Dungy
Dunham
Dunhill
Dunhuang
Duniya
Dunk
Dunkeld
Dunkerque
Dunkin
Dunkirk
Dunlap
Dunlop
Dunmore
Dunn
Dunne
Dunning
Dunoon
Dunphy
Duns
Dunsany
Dunsmuir
Dunst
Dunstable
Dunstan
Dunster
Dunston
Dunton
Duntroon
Dunvegan
Dunwich
Dunwoody
Duo
Duomo
Duong
Dupin
Duplessis
Duplex
Duplicate
Dupont
Dupre
Dupree
Dupri
Dupuis
Dupuy
Duque
Duquesne
Dur
Dur-Asal
Dura
Duran
Durance
Durand
Durango
Durant
Durante
Duras
Duration
Durazzo
Durban
Durbar
Durbin
Duren
Durer
Durga
Durgapur
Durham
Durie
Durin
During
Durkheim
Durkin
Durnford
Duro
Durocher
Durova
Durr
Durrani
Durrant
Durrell
Durres
Durst
Dury
Duryea
Duryodhana
Dusan
Dushanbe
Dusk
Dusky
Dusseldorf
Dust
Duster
Dustin
Dusty
Dutch
Dutchess
Dutchman
Dutchmen
Duties
Dutra
Dutt
Dutta
Dutton
Duty
Duval
Duvalier
Duvall
Duwa
Duwamish
Dux
Duxbury
Duxford
Duy
Duzy
Dvina
Dvorak
Dwan
Dwarf
Dwarfs
Dwarka
Dwarves
Dwayne
Dweller
Dwellers
Dwelling
Dwellings
Dwight
Dwor
Dworkin
Dwyane
Dwyer
Dy
Dyan
Dyar
Dyck
Dye
Dyer
Dyfed
Dyffryn
Dying
Dyk
Dyke
Dykes
Dykman
Dykstra
Dylan
Dyna
Dynamic
Dynamical
Dynamics
Dynamite
Dynamo
Dynamos
Dynastic
Dynasties
Dynasty
Dynegy
Dynkin
Dysart
Dyson
Dysprosia
Dystrophy
Dytiscidae
Dzerzhinsky
DziaLATINdowo
Dzida
Dzogchen
Dzong
Dzongkha
D}
Dæ
Déjà
E
E!
E#
E##
E###
E####
E-Mail
E-cell
E-commerce
E-mail
E.
E.###
E.A.
E.B.
E.C.
E.D.
E.E.
E.F.
E.G.
E.H.
E.J.
E.L.
E.M.
E.O.
E.ON
E.P.
E.R.
E.S.
E.T.
E.V.
E.W.
E.g
E.g.
E10
E14
E17
E5
E500's
E@tG
EA
EAA
EAC
EACH
EADS
EAM
EAP
EARTHHHHHHH
EARTHQUAKE
EAS
EAST
EAT
EATTING
EB
EB3326
EBA
EBIC
EBM
EBS
EBU
EC
ECA
ECAC
ECB
ECC
ECCL
ECE
ECG
ECHL
ECHL.
ECHO
ECHR
ECL
ECM
ECN
ECO
ECONOMIC
ECOSOC
ECOWAS
ECP
ECR
ECS
ECT
ECTS
ECU
ECW
ED
EDA
EDC
EDF
EDGE
EDI
EDIT
EDL
EDM
EDO
EDP
EDS
EDSA
EDT
EDT.
EDTA
EE
EEA
EEC
EEFTL
EEG
EEI
EES
EESI
EEZ
EF
EF#
EFA
EFF
EFI
EFTA
EG
EGA
EGF
EGM
EH
EHC
EHF
EI
EI.London
EIA
EIGHTH
EILLAN
EIR
EIS
EISA
EJ
EK
EL
ELAS
ELATINk
ELC
ELCA
ELEMENT
ELF
ELISA
ELO
ELectronics
EM
EMA
EMB
EMBkell
EMC
EMC.Fred
EMCryptic
EMD
EMDavid
EMEA
EMERCOM
EMF
EMG
EMI
EMJustin
EMKorath
EMP
EMPTY
EMPreceding
EMQuarl
EMR
EMS
EMT
EMThe
EMTom
EMU
EMUs
EMWknight##
EMa
EMan
EMand
EMas
EMhe
EMin
EMis
EMsuch
EMthe
EMwas
EMwhich
EN
EN#
EN##
EN###
EN####
ENA
END
ENDrilnoth
ENE
ENERGY
ENG
ENIAC
ENJOYABLE
ENJOYS
ENJuliancolton
ENMuZemike
ENOUGH
ENOctober
ENRON
ENRON-CPS
ENRON.XLS
ENRON@enronXgate
ENRONONLINE
ENRONR~1.DOC
ENSeptember
ENT
ENVELOPE
ENW_GCP
ENp
EO
EOD
EOL
EOS
EP
EP.
EPA
EPA.
EPC
EPG
EPI
EPIC
EPM
EPMI
EPO
EPP
EPR
EPS
EPs
EQ
EQUALITY
ER
ERA
ERA.
ERC
ERCOT
ERISA
ERM
ERP
ERS
ERT
ES
ESA
ESAI
ESB
ESC
ESCAPADES
ESD
ESF
ESI
ESL
ESO
ESP
ESPN
ESPN#
ESPN.
ESPN.com
ESPY
ESR
ESRB
ESS
ESSG
EST
EST.
ESU
ESkog
ET
ET.
ETA
ETA_revision0307.doc
ETC
ETF
ETFs
ETH
ETHIOPICETHIOPICETHIOPIC
ETO
ETR
ETS
ETSI
ETV
EU
EU.
EUR
EURO
EURO#
EURO##
EURO###
EURO###,###
EURO##,###
EURO##.#
EURO#,###
EURO#.#
EURO#.##
EV
EVA
EVE
EVEN
EVER
EVERY
EVERYONE
EVERYTHING
EVP
EW
EWC
EWCA
EWS
EWTN
EX
EXACTLY
EXCELLENT
EXCELS
EXCEPT
EXPECTING
EXPENSIVE
EXPERIENCE
EXPERIENCED
EXPERIENCES
EXTRA
EY4096.1
EY4096.3
EY4096.4
EY4096.7
EY4106.6
EY4106.7
EY4106.9
EY4108.E
EY4108.F
EY4108.H
EY4108.I
EZ
E_#
Ea
Each
Eadie
Eads
Eagan
Eager
Eagerly
Eagle
Eagles
Eagleson
Eagleton
Eakins
Ealdgyth
Ealing
Eames
Eamon
Eamonn
Ear
Earache
Eardley
Earhart
Earl
Earldom
Earle
Earley
Earlham
Earlier
Earliest
Earls
Early
Earn
Earned
Earnest
Earnhardt
Earning
Earnings
Earnshaw
Earp
Ears
Earth
Earth.
EarthRIGHTs
Eartha
Earthly
Earthquake
Earthquakes
Earths
Earthworms
Earwig
Ease
Easiest
Easily
Easington
Easka
Easley
Eason
East
East.The
EastEnders
Eastbound
Eastbourne
Easter
Eastern
Eastgate
Eastham
Eastlake
Eastland
Eastleigh
Eastman
Easton
Eastport
Easts
Eastside
Eastwick
Eastwood
Easy
Eat
Eater
Eaters
Eating
Eaton
Eats
Eau
Eaux
Eaves
Eazy
Ebay
Ebb
Ebba
Ebbe
Ebbets
Ebbsfleet
Ebbw
Eben
Ebenezer
Eber
Eberhard
Eberhardt
Eberle
Ebert
Ebionites
Ebola
Ebony
Ebrahim
Ebrey
Ebro
Ecce
Eccellenza
Eccentric
Eccles
Ecclesia
Ecclesiae
Ecclesiastes
Ecclesiastical
Eccleston
Ecclestone
Ecco
Echelon
Echevarria
Echeverria
Echidna
Echigo
Echizen
Echo
Echoes
Echoing
Echols
Echuca
Ecija
Eck
Eckart
Eckerd
Eckersley
Eckert
Eckhardt
Eckhart
Eckstein
Eclair
Eclectic
Eclipse
Eco
Ecogas
Ecole
Ecoleetage
Ecological
Ecologist
Ecology
EcologyThe
Econ
Econometric
Economic
Economica
Economically
Economics
Economies
Economist
Economists
Economy
EconomyIn
EconomyThe
Ecoregions
Ecosystem
Ecosystems
Ecstasy
Ecuador
Ecuadorian
Ecumenical
Ed
Ed.
Ed.D.
EdJohnston
Edberg
Edd
Edda
Eddie
Eddington
Eddy
Ede
Edel
Edelman
Edelstein
Edelweiss
Eden
Edens
Eder
Edessa
Edgar
Edgard
Edgardo
Edgbaston
Edge
Edgefield
Edgerton
Edges
Edgewater
Edgewood
Edgeworth
Edgware
Ediacaran
Edible
Edicion
Ediciones
Edict
Edie
Edin
Edina
Edinburg
Edinburgh
Edirne
Edison
Edison@ENRON
Edisto
Edit
Edited
Edith
Editing
Edition
Editions
Editor
Editora
Editore
Editorial
Editors
Editrice
Edits
Editura
Edizioni
Edmark
Edmond
Edmonds
Edmondson
Edmonson
Edmonton
Edmund
Edmundo
Edmunds
Edna
Edo
Edoardo
Edom
Edouard
Edrich
Eds
Edsel
Edson
Edu
Eduard
Eduardo
Educacion
Educated
Educating
Education
EducationHe
EducationIn
EducationPublic
EducationThe
EducationThere
Educational
Educator
Educators
Edvard
Edward
Edwardes
Edwardian
Edwards
Edwardsville
Edwin
Edwina
Ee
Eeeeee😝🤗
Eeks
Eel
Eelam
Eels
Een
Eerdmans
Eerie
Eero
Eerste
Eesti
Efe
Efendi
Effect
Effective
Effectively
Effectiveness
Effects
Effendi
Efficacy
Efficiency
Efficient
Effie
Effingham
Effort
Efforts
Effy
Efraim
Efrain
Efrem
Efron
Eg
Egan
Egbert
Eger
Egerton
Egg
Egger
Eggers
Eggleston
Eggman
Eggs
Egil
Eglin
Eglinton
Eglise
Egmond
Egmont
Ego
Egon
Egremont
Egret
Egypt
EgyptRIGHTs
Egyptian
Egyptians
Egyptologist
Egyptologists
Egyptology
Eh
Ehgai
Ehime
Ehlers
Ehrenberg
Ehret
Ehrlich
Ehrman
Ehsan
Ehud
Ei
Eicher
Eichler
Eichmann
Eichstatt
Eid
Eid-ul-azha
Eide
Eider
Eidos
Eidsvoll
Eifel
Eiffel
Eiger
Eight
Eighteen
Eighteenth
Eighth
Eighties
Eights
Eighty
Eiji
Eilat
Eilean
Eileen
Eimeria
Ein
Einar
Einarsson
Eindhoven
Eine
Einhorn
Einne
Einsatzgruppen
Einstein
Eintracht
Eire
Eireann
Eirik
Eisen
Eisenach
Eisenbahn
Eisenberg
Eisenhower
Eisenman
Eisenstadt
Eisenstein
Eishockey
Eisler
Eisley
Eisner
Eisteddfod
Eitan
Either
Ejercito
Ek
Ekaterina
Ekaterinburg
Ekiti
Eklund
Ekman
Eko
Ekstraklasa
El
ElBaradei
ElPaso
El_C
Ela
Elachista
Elachistidae
Elagabalus
Elahi
Elaine
Elam
Elamite
Elan
Elaqay
Elastic
Elazar
Elba
Elbasan
Elbe
Elberfeld
Elbert
Elbertson
Elbing
Elblag
Elbow
Elbridge
Elche
Eldar
Elder
Elderly
Elders
Eldest
Eldon
Eldorado
Eldred
Eldredge
Eldridge
Eldritch
Eleanor
Eleazar
Elect
Elected
Election
ElectionResults
Elections
Elective
Elector
Electoral
Electorate
Electors
Electra
Electric
Electrical
Electrician
Electricity
Electrification
Electro
Electromagnetic
Electron
Electronic
Electronica
Electronics
Electrons
Eleftherios
Elegant
Elegy
Elektra
Element
Elemental
Elementary
Elements
Elen
Elena
Eleni
Eleonora
Eleonore
Elephant
Elephants
Eleusis
Eleutherodactylus
Eleuthra
Elevated
Elevation
Elevations
Elevator
Elevators
Eleven
Eleventh
Elf
Elfin
Elfman
Elfsborg
Elgar
Elgin
Eli
Elia
Eliade
Elias
Elie
Eliezer
Eligibility
Eligible
Elihu
Elijah
Elim
Eliminated
Elimination
Eliminator
Elin
Elina
Elinor
Elio
Eliot
Elis
Elisa
Elisabeth
Elisabetta
Elise
Elisha
Elissa
Elite
EliteXC
Elites
Elitserien
Elixir
Eliya
Eliyahu
Eliza
Elizabeth
Elizabethan
Elizabethtown
Elizondo
Elk
Elke
Elkhart
Elkhorn
Elkin
Elkins
Elko
Elks
Elkton
Ella
Elland
Elle
Ellen
Ellenberger
Ellensburg
Eller
Ellerslie
Ellery
Ellesmere
Elli
Ellice
Ellicott
Ellie
Ellington
Elliot
Elliott
Elliotts
Ellis
Ellison
Ellsberg
Ellsworth
Ellwood
Elly
Elm
Elma
Elman
Elmar
Elmendorf
Elmer
Elmhurst
Elmina
Elmira
Elmo
Elmore
Elms
Elmwood
Elo
Elockid
Elohim
Eloi
Eloise
Elon
Elonka
Eloquence
Eloy
Elphaba
Elphinstone
Elric
Elrington
Elrond
Elroy
Els
Elsa
Else
Elsevier
Elsewhere
Elsie
Elsinore
Elson
Elspeth
Elst
Elster
Elston
Elstree
Elswick
Eltham
Elton
Eluchil###
Elusive
Elva
Elven
Elves
Elvin
Elvira
Elvis
Elvish
Elway
Elwell
Elwes
Elwood
Elwyn
Ely
Elyon
Elyria
Elyse
Elysee
Elysees
Elysian
Elysium
Elzbieta
Em
Em-enro2.doc
Emacs
Email
Emails
Emancipation
Emanuel
Emanuele
Emax
Embankment
Embarcadero
Embassies
Embassy
Embedded
Ember
Emberizidae
Emblem
Embrace
Embracing
Embraer
Embry
Emden
Emelianenko
Emerald
Emeralds
Emeraude
Emergence
Emergencies
Emergency
Emergent
Emerging
Emerita
Emeritus
Emerson
Emery
Emeryville
Emeterio
Emi
Emigrant
Emigrants
Emigration
Emil
Emile
Emilia
Emiliano
Emilie
Emilio
Emily
Emin
Eminem
Eminence
Eminent
Eminescu
Emir
Emirate
Emirates
Emirati
Emission
Emissions
Emlyn
Emma
Emmanuel
Emmanuelle
Emmaus
Emmeline
Emmen
Emmerdale
Emmerich
Emmerson
Emmet
Emmett
Emminence
Emmis
Emmitsburg
Emmitt
Emmons
Emmy
Emmylou
Emmys
Emo
Emory
Emotion
Emotional
Emotions
Emp
Emperor
Emperors
Emphasis
Empire
Empires
Empirical
Employed
Employee
Employees
Employer
Employers
Employing
Employment
Empoli
Emporia
Emporium
Empowerment
Empresa
Empress
Empty
Emre
Ems
Emsworth
Emu
En
Ena
Enabling
Encarnacion
Encarta
Enceladus
Enchanted
Enchantment
Enchantress
Enciclopedia
Encino
Enclave
Enclosed
Enclosure
Encoding
Encore
Encores
Encounter
Encounters
Encouraged
Encouragement
Encryption
Encyclopaedia
Encyclopedia
Encyclopedic
Encyclopedie
Encyclopædia
Encyklopedia
End
Enda
Endangered
Endate
Ende
Endeavor
Endeavour
Ended
Endemic
Endemol
Ender
Enderby
Enders
Endgame
Endicott
Ending
Endings
Endless
Endnotes
Endo
Endocrine
Endocrinology
Endor
Endorsement
Endorsements
Endowed
Endowment
Endowments
Endre
Ends
Endurance
Enduring
Enduro
Endymion
Enemies
Enemy
Energia
Energie
Energon
Energy
Energyphiles
Enescu
Enfants
Enfield
Enfolio
Enforcement
Enforcer
Enforcers
Eng
Engadget
Engage
Engaged
Engagement
Engaging
Engel
Engelberg
Engelbert
Engelhardt
Engelmann
Engels
Engine
Engineer
Engineered
Engineering
Engineers
Engines
Engl
England
England.
England.It
England.The
EnglandRIGHTs
Englanders
Engle
Englehart
Engler
Englewood
English
English.
Englishman
Englishmen
Englishwoman
Englund
Engraving
Enhanced
Enhancement
Enhancing
Eni
Enid
Enigma
Eniwetok
Enix
Enjoy
Enjoyed
Enki
Enlai
Enlarged
Enlightened
Enlightenment
Enlil
Enlisted
Enna
Ennio
Ennis
Enniscorthy
Enniskillen
Eno
Enoch
Enochlau
Enola
Enos
Enough
Enpower
Enquirer
Enquiry
Enraged
Enric
Enrichment
Enrico
Enright
Enrique
Enriquez
Enrollment
Enron
EnronEAuction
EnronOnLine
EnronOnline
Enschede
Ensemble
Ensembles
Ensenada
Ensign
Ensor
Ent
Entartete
Entebbe
Entente
Enter
Entercom
Entered
Entering
Enterprise
Enterprises
Enters
Entertainer
Entertainers
Entertaining
Entertainment
Entertainments
Enthusiasm
Enthusiast
Enthusiasts
Entire
Entirely
Entities
Entitled
Entity
Entomological
Entomology
Entourage
Entrance
Entrants
EntrantsThe
Entre
Entree
Entrepreneur
Entrepreneurial
Entrepreneurs
Entrepreneurship
Entries
Entropy
Entry
EntryLog
Entwistle
Enugu
Enumeration
Envelope
Enver
Environ
Environment
Environmental
Environments
Environs
Envoy
Envy
Enya
Enz
Enzo
Enzyme
Enzymes
Eocene
Eochaid
Eoghan
Eoin
Eon
Eos
Eotvos
Ep
Ep3/18
Epaminondas
Eparchy
Epbr###
Epcot
Epeefleche
Ephesians
Ephesus
Ephraim
Ephrem
Ephron
Epic
Epics
Epicurean
Epicurus
Epidemic
Epidemiology
Epidendrum
Epilepsy
Epilogue
Epiphanes
Epiphanius
Epiphany
Epiphone
Epirus
Episcopacy
Episcopal
Episcopalian
Episcopalians
Episcopate
Episode
Episodes
Episodic
Epistemology
Epistle
Epistles
Epitaph
Epitome
Epoch
Epoque
Eppes
Epping
Epps
Eppstein
Epsilon
Epsom
Epson
Epstein
Epub
Epworth
Eq
Equal
Equality
Equalization
Equally
Equals
Equant
Equation
Equations
Equator
Equatoria
Equatorial
Equazcion
Equestrian
Equestrianism
Equilibrium
Equilon
Equine
Equinox
Equipment
Equipped
Equistar
Equitable
Equity
Equivalence
Equivalent
Equivalently
Equus
Er
Era
Eradication
Eragon
Eran
Eras
Erasmus
Erastus
Erasure
Eratosthenes
Erb
Erbil
Ercole
Ercot
Erde
Erdman
Erdmann
Erdogan
Erdos
Erebus
Erected
Eredivisie
Erenn
Eretz
Erez
Erfurt
Ergebnisse
Ergo
Erhard
Eri
Eric
Erica
Erich
Erick
Erickson
Ericson
Ericsson
Eridani
Erie
Erik
Erika
Eriksen
Erikson
Eriksson
Erin
Erinsborough
Eris
Erith
Eritrea
Eritrean
Erlang
Erlangen
Erlanger
Erlbaum
Erle
Erlewine
Erlich
Erling
Erm
Ermine
Ermita
Erna
Ernakulam
Erne
Ernest
Ernestine
Ernesto
Ernie
Erno
Ernst
Erode
Erol
Eros
Erosion
Erotic
Erotica
Errol
Erroll
Error
Errors
Ersatz
Ershad
Erskine
Erste
Ertegun
Eruption
Ervin
Erving
Erwin
Erykah
Erzgebirge
Erzhu
Erzurum
Es
Esa
Esalen
Esau
Esbjerg
Escadrille
Escalante
Escambia
Escanaba
Escape
Escapes
Escaping
Escapist
Escarpment
Esch
Eschenbach
Escher
Escherichia
Escobar
Escola
Escondido
Escorial
Escort
Escriva
Escudero
Escuela
Esdras
Esgrima
Esher
Eshkol
Esho
Esk
Eskdale
Eskilstuna
Eskimo
Eskimos
Eskisehir
Esme
Esmeralda
Esmond
Esopus
Esoteric
Esp.
Espace
Espada
Espana
Espanol
Espanola
Espanyol
Esparza
Especial
Especially
Espen
Esperance
Esperanto
Esperanza
Espinosa
Espinoza
Espionage
Espirito
Espiritu
Esplanade
Espoo
Esporte
Esposito
Espresso
Esprit
Esq
Esq.
Esquimalt
Esquire
Esquivel
Essai
Essay
Essays
Essen
Essence
Essendon
Essential
Essentially
Essentials
Essequibo
Essex
Essie
Essington
Essjay
Esslingen
Esso
Essonne
Est
Esta
Establish
Established
Establishing
Establishment
Establishments
Estacion
Estadio
Estadistica
Estado
Estados
Estate
Estates
Este
Esteban
Estefan
Esteghlal
Estella
Estelle
Ester
Esterhazy
Estero
Estes
Estevan
Estevez
Esther
Estimate
Estimated
Estimates
Estimating
Estimation
Eston
Estonia
Estonian
Estonians
Estoril
Estrada
Estrela
Estrella
Estrellas
Estuary
Estudiantes
Estudios
Esztergom
Et
Eta
Etats
Etc.
Eternal
Eternals
Eternity
Ethan
Ethanol
Ethel
Ether
Ethereal
Etheridge
Ethernet
Ethic
Ethical
Ethics
Ethiopia
Ethiopian
Ethiopians
Ethiopic
Ethnic
Ethnicity
EthnicityThe
Ethniki
Ethnikos
Ethnographic
Ethnography
Ethnologue
Ethnology
Ethos
Ethyl
Etienne
Etihad
Etiquette
Etisalat
Etitis
Etna
Etobicoke
Etoile
Eton
Etowah
Etruria
Etruscan
Etruscans
Etta
Ettinger
Ettore
Etude
Etudes
Etymological
Etymology
EtymologyThe
Etzion
Eu
Euan
Eubank
Eubanks
Euboea
Eucalyptus
Eucharist
Eucharistic
Euclid
Euclidean
Eudes
Eudora
Eugen
Eugene
Eugenia
Eugenics
Eugenie
Eugenio
Eugenius
Eulalia
Euler
Eulogic
Eulogy
Eumenes
Eun
Eunice
Euphemia
Euphorbia
Euphorbiaceae
Euphoria
Euphrates
Eur
Eurasia
Eurasian
Eure
Eureka
Euridice
Euripides
Euro
EuroBasket
Eurobasket
Eurocopter
Eurocup
Eurodance
Eurofighter
Eurogamer
Euroleague
Eurolines
Euronext
Europa
Europaea
Europass
Europe
EuropeIn
EuropeRIGHTs
EuropeThe
European
Europeans
Europeenne
Euros
Euroseries
Eurosport
Eurostar
Eurostat
Eurovision
Eurozone
Eurydice
Eurythmics
Eusebian
Eusebio
Eusebius
Euskara
Eustace
Eustache
Eustatius
Eustis
Euston
Euthanasia
Euwe
Ev
Eva
Evacuation
Evaluating
Evaluation
Evaluations
Evan
Evancho
Evander
Evanescence
Evangelical
Evangelicals
Evangeline
Evangelion
Evangelische
Evangelism
Evangelist
Evangelista
Evangelists
Evangelization
Evans
Evanston
Evansville
Evasion
Evatt
Eve
Evelyn
Even
Evenimentul
Evening
Evenings
Event
Events
EventsThe
Eventually
Ever
EverQuest
Everard
Evercat
Everest
Everett
Everglades
Evergreen
Everhart
Everitt
Everland
Everlasting
Everly
Evers
Everson
Evert
Everton
Every
Everybody
Everyday
Everyking
Everyman
Everyone
Everything
Everytime
Everywhere
Eves
Evesham
Evgeni
Evgeny
Evian
Eviction
Evidence
Evidently
Evie
Evil
Evita
Evo
Evol
Evola
Evolution
Evolutionary
Evolve
Evolved
Evolving
Evora
Evra
Evreux
Evry1
Ewa
Ewald
Ewan
Ewart
Ewe
Ewell
Ewen
Ewing
Ewood
Ewwwww
Ex
Exact
Exactly
Exalted
Exam
Examination
Examinations
Examiner
Examiners
Examining
Example
ExampleThe
Examples
ExamplesThe
Exams
Exarch
Exarchate
Excalibur
Excavation
Excavations
Excel
Excellence
Excellency
Excellent
Excelsior
Except
Exception
Exceptional
Exceptions
Excerpt
Excerpts
Excess
Excessive
Exchange
Exchanges
Exchequer
Excise
Excited
Exciting
Exclaim
Excluding
Exclusion
Exclusive
Excursion
Excursions
Excuse
Exe
Exec
Execution
Executioner
Executions
Executive
Executives
Exemplary
Exempt
Exemption
Exercise
Exercises
Exeter
Exhaust
Exhibit
Exhibition
Exhibitions
Exhibits
Exile
Exiled
Exiles
Existence
Existing
Exit
Exits
Exley
Exmoor
Exmouth
Exner
Exocet
Exocets
Exodus
Exorcist
Exotic
Exp
Exp.doc
Expand
Expanded
Expanding
Expands
Expansion
Expect
Expectations
Expected
Expecting
Expedia
Expedition
Expeditionary
Expeditions
Expelled
Expenditure
Expenditures
Expenses
Expensive
Experience
Experienced
Experiences
Experiment
Experimental
Experimentation
Experiments
Expert
Expertise
Experts
Expires
Explain
Explained
Explaining
Explains
Explanation
Explanations
Explanatory
Explicit
Exploding
Exploitation
Exploited
Exploits
Exploration
Explorations
Exploratory
Explore
Explorer
Explorers
Exploring
Explosion
Explosions
Explosive
Explosives
Expo
Export
Exporting
Exports
Expos
Expose
Exposed
Exposition
Expositor
Exposure
Express
Expressen
Expression
Expressionism
Expressionist
Expressions
Expressway
Expulsion
Extant
Extended
Extending
Extension
Extensions
Extensive
Extent
Exterior
ExteriorThe
Extermination
External
Externally
Extinct
Extinction
Exton
Extra
Extract
Extraction
Extracts
Extracurricular
ExtracurricularsThe
Extraliga
Extraordinary
Extras
Extraterrestrial
Extravaganza
Extremadura
Extreme
Extremely
Extremes
Extremism
Exupery
Exxon
ExxonMobil
Eyal
Eyalet
Eyck
Eye
Eyed
Eyes
Eyewitness
Eyre
Eysenck
Eze
Ezekiel
Ezequiel
Ezeu
Ezio
Ezra
E||
E}
F
F#
F##
F###
F####
F#F
F#F#DC
F#U
F%#king
F&SF
F'ers
F.
F.#
F.##
F.#d
F.A.
F.B.I.
F.C
F.C.
F.C..
F.E.
F.E.A.R.
F.G.
F.J.
F.M.
F.O.B.
F.R.
F.R.S.
F.W.
F:
FA
FA.
FAA
FAB
FABULOUS
FAC
FAC.
FACAD
FACT
FACs
FAD
FAI
FAIR
FAL
FALL
FAM
FAMAS
FAME
FAMILY
FAN
FANFUCKINGTASTIC
FANTASTIC
FAO
FAP
FAQ
FAQs
FAR
FARC
FAS
FAST
FAT
FAT##
FAU
FAW
FAX
FAs
FB
FB-friend
FBA
FBC
FBI
FBO
FBS
FC
FC.
FCA
FCC
FCC.
FCE
FCI
FCK
FCM
FCO
FCP
FCS
FCW
FCYTravis
FD
FDA
FDC
FDI
FDIC
FDL
FDNY
FDP
FDR
FE
FEA
FEATHERS
FEC
FEI
FEMA
FEMALE
FERC
FEU
FEVER
FF
FF####
FF.
FFA
FFC
FFF
FFFFCC
FFG
FFS
FFT
FFs
FG
FGM
FH
FHA
FHM
FHS
FHWA
FI
FIA
FIAT
FIBA
FIBT
FIDE
FIDS
FIFA
FIFA.
FIFA.com
FIG
FIL
FILA
FILE
FILM
FIM
FINA
FINAL
FINALLY
FIP
FIPRESCI
FIPS
FIR
FIRA
FIRE
FIRST
FIS
FISA
FISH
FIT
FITNESS
FIU
FIVB
FIVE
FJ
FK
FL
FLAC
FLC
FLDS
FLMap
FLN
FLOOR
FLP
FLY
FM
FM.
FMC
FMLN
FMS
FMTalk
FMV
FMs
FN
FO
FOB
FOCUS
FOIA
FOOD
FOOTBALL
FOR
FORCE
FORGOT
FORI
FORM
FORMAL
FORTRAN
FOSS
FOUND
FOUR
FOX
FP
FPC
FPGA
FPO
FPS
FPU
FR
FRA
FRACTION
FRANCE
FRC
FRCP
FRCS
FREAK
FREE
FREEDOM
FREEMAN
FRELIMO
FRG
FRIENDLY
FRIENDS
FRIES
FRL3@pge.com
FRNDS
FROM
FRS
FRSE
FS
FSA
FSB
FSC
FSF
FSH
FSLN
FSM
FSN
FSO
FSS
FSU
FSV
FT
FT#
FTA
FTC
FTE
FTL
FTP
FTS
FTSE
FTW
FU
FUCKING
FULL
FULL_NAME
FUR
FURY
FV
FW
FWA
FWD
FWIW
FWS
FX
FY
FY##
FY####
FY04
FY05
FYI
F_#
Fa
Fab
Fabaceae
Fabbri
Faber
Faberge
Fabia
Fabian
Fabiano
Fabien
Fabio
Fabiola
Fabius
Fable
Fables
Fabolous
Fabre
Fabregas
Fabric
Fabrica
Fabrication
Fabrice
Fabricio
Fabricius
Fabrics
Fabrictramp
Fabrizio
Fabulae
Fabulous
Facade
Face
Facebook
Faced
Faceless
Faces
Fachhochschule
Facial
Facilities
FacilitiesThe
Facility
Facing
Facsimile
Fact
FactFinder
Factbook
Faction
Factions
Factor
Factories
Factors
Factory
Facts
FactsThe
Factsheet
Factual
Faculties
Faculty
Facundo
Fad
Faddle
Fade
Fading
Fadl
Fadu
Fae
Faenza
Faerie
Faerun
Faf
Fagan
Fagen
Fagin
Fahd
Fahey
Fahim
Fahrenheit
Fahy
Fai
Fail
Faila
Failed
Failing
Fails
Failure
Failures
Fain
Fair
Fairbairn
Fairbank
Fairbanks
Fairchild
Fairclough
Faire
Fairest
Fairey
Fairfax
Fairfield
Fairford
Fairgrounds
Fairhaven
Fairies
Fairlane
Fairleigh
Fairley
Fairlie
Fairlight
Fairly
Fairmont
Fairmount
Fairness
Fairport
Fairs
Fairtrade
Fairview
Fairway
Fairweather
Fairy
Fairytale
Faisal
Faisalabad
Faison
Faith
Faithful
Faithfull
Faithless
Faiths
Faiz
Faizabad
Fajardo
Fajr
Fake
Fakhr
Fakir
Falaise
Falange
Falcao
Falck
Falco
Falcon
Falcone
Falconer
Falconiformes
Falcons
Falk
Falkenberg
Falkenstein
Falkirk
Falkland
Falklands
Falkner
Fall
Falla
Fallen
Fallin'
Falling
Fallon
Fallout
Fallowfield
Falls
Fallschirmjager
Falluja
Fallujah
Fallujan
Falmouth
False
Falstaff
Faltskog
Falun
Falwell
Fama
Famagusta
Fame
Famed
Famer
Famers
Famicom
Familia
Familiar
Families
Family
FamilyHe
FamilyHis
FamilyIn
FamilyLord
FamilyOn
FamilyShe
FamilyThe
Famine
Famitsu
Famous
Fan
Fana
Fanatic
Fancy
Fandango
Fane
Fanfare
Fang
Fangio
Fangoria
Fania
Fannie
Fannin
Fanning
Fanny
Fano
Fans
Fanshawe
Fantagraphics
Fantasia
Fantasies
Fantasio
Fantastic
Fantasy
Fante
Faqeer
Far
Fara
Farabi
Faraday
Faragher
Farah
Faraj
Farallon
Farar
Farben
Farber
Farce
Fare
Fareed
Fareham
Fares
Farewell
Fargo
Farhad
Farhan
Faria
Farias
Faribault
Farid
Farida
Faridabad
Faridpur
Farina
Faris
Farish
Farishte
Fark
Farkas
Farleigh
Farley
Farm
Farman
Farmbrough
Farmer
Farmers
Farmhouse
Farming
Farmingdale
Farmington
Farms
Farmstead
Farmville
Farnborough
Farnese
Farnham
Farnsworth
Farnworth
Faro
Faroe
Faroes
Faroese
Farooq
Farouk
Farquhar
Farquharson
Farr
Farra
Farragut
Farrah
Farrakhan
Farrar
Farrell
Farrelly
Farren
Farrer
Farringdon
Farrington
Farris
Farrow
Fars
Farscape
Farsi
Farther
Farthing
Farwell
Fasach
Fascinating
Fascination
Fasciolariidae
Fascism
Fascist
Fascists
Fashion
Fashioned
Fashions
Faso
Fassbinder
Fast
Faster
Fastest
Fasti
Fasting
Fat
Fata
Fatah
Fatal
Fatale
Fatalities
Fatboy
Fate
Fateh
Fatehpur
Fates
Fath
Father
Fatherland
Fathers
Fathom
Fati
Fatigue
Fatih
Fatima
Fatimah
Fatimid
Fatimids
Fats
Fatty
Fatuorum
Faubourg
Faulk
Faulkes
Faulkner
Fault
Faun
Fauna
FaunaThe
Faunal
Fauquier
Faure
Faust
Faustina
Faustino
Fausto
Faustus
Faux
Faversham
Favor
Favorite
Favorites
Favourite
Favre
Favreau
Fawcett
Fawkes
Fawlty
Fawn
Fawr
Fax
Fax.
Fay
Fayard
Faye
Fayed
Fayette
Fayetteville
Faz
Fazal
Fazil
Fazio
Fazl
Fazlur
Fazool
Fb
Fc
Fe
Feagan
Feanor
Fear
Fearful
Fearing
Fearless
Fearnley
Fears
Feasibility
Feast
Feasts
Feat
Feather
Feathered
Feathers
Featherston
Featherstone
Featherweight
Feats
Feature
Featured
Features
FeaturesThe
Featuring
Feb
Feb.
February
FebruaryENMarch
Febuary
Fed
FedEx
Fedayeen
Feder
Federacion
Federal
Federale
Federalism
Federalist
Federalists
Federally
Federals
Federated
Federation
Federations
Federative
Federer
Federico
Fedexed
Fedor
Fedora
Fedorov
Feds
Fee
Feed
Feedback
Feeder
Feeding
Feeds
Feel
Feelgood
Feelin'
Feeling
Feelings
Feels
Feely
Feeney
Fees
Feet
Fehl
Fehr
Fei
Feilding
Fein
Feinberg
Feingold
Feinstein
Feist
Feith
Fela
Feld
Felder
Feldman
Feldspar
Feldstein
Felice
Felicia
Feliciano
Felicity
Feline
Felipe
Felis
Felix
Felixstowe
Feliz
Fell
Fella
Feller
Fellini
Fellow
Fellowes
Fellows
Fellowship
Fellowships
Fells
FeloniousMonk
Fels
Felt
Feltham
Felton
Female
Females
Femina
Feminine
Feminism
Feminist
Feminists
Femme
Femmes
Fen
Fence
Fences
Fenchurch
Fencing
Fender
Fenelon
Fenerbahce
Feng
Fengtian
Fengxiang
Fenian
Fenians
Fenice
Fenimore
Fenix
Fenn
Fennell
Fennelly
Fenner
Fennoscandia
Fens
Fenton
Fentress
Fenway
Fenwick
Feodor
Feodorovna
Fer
Feral
Ferb
Ferber
Ferdinand
Ferdinando
Ferdowsi
Ferenc
Ferencvaros
Ferengi
Fergal
Fergana
Fergie
Fergus
Ferguson
Fergusson
Feria
Fermanagh
Fermat
Fermi
Fermilab
Fermin
Fermo
Fermor
Fermoy
Fern
Fernan
Fernand
Fernanda
Fernandes
Fernandez
Fernandina
Fernando
Fernao
Ferndale
Fernie
Fernley
Ferns
Feroz
Ferran
Ferrand
Ferrante
Ferranti
Ferrar
Ferrara
Ferrari
Ferraris
Ferraro
Ferre
Ferreira
Ferrell
Ferrer
Ferrero
Ferrers
Ferret
Ferretti
Ferri
Ferrie
Ferrier
Ferries
Ferris
Ferro
Ferrocarril
Ferrol
Ferrous
Ferrovie
Ferruccio
Ferry
Ferrylodge
Ferte
Fertile
Fertility
Fertilizer
Fes
Fessenden
Fest
Festa
Festival
Festival.
Festival.The
FestivalThe
Festivals
Festive
Festschrift
Festuca
Festus
Fetal
Fete
Fetish
Fett
Fetzer
Feu
Feud
Feudal
Feuer
Feuerbach
Fever
Few
Fewer
Fey
Feyenoord
Feynman
Fez
Ffestiniog
Fi
Fianna
Fiasco
Fiat
Fiber
Fibonacci
Fibre
Fichte
Fick
Fiction
Fictional
Ficus
Fiddle
Fiddler
Fide
Fidel
Fidelio
Fidelis
Fidelity
Fidesz
Fido
Fiedler
Field
FieldTurf
Fielder
Fieldhouse
Fielding
Fields
Fiend
Fiendish
Fiends
Fiennes
Fier
Fierce
Fierro
Fiery
Fiesta
Fiestas
Fife
Fifelfoo
Fifi
Fifteen
Fifteenth
Fifth
Fifties
Fiftieth
Fifty
Fig
Figaro
Fight
Fighter
Fighters
Fightin'
Fighting
Fights
Figueiredo
Figueres
Figueroa
Figuratively
Figure
Figured
Figures
Fiji
Fijian
Fijians
Fil
Fila
Filbert
File
File:
File:Coat
File:Conus
File:The
Filed
Filene
Files
Filet
Filhaal
Filho
Filing
Filioque
Filip
Filipe
Filipina
Filipinas
Filipino
Filipinos
Filipovic
Filippo
Fill
Fille
Filled
Filler
Filling
Filll
Fillmore
Filly
Film
Film(FAN
FilmIn
FilmThe
Filmation
Filmed
Filmfare
Filming
FilmingThe
Filmmaker
Filmmakers
Filmmaking
Filmography
Films
Filmworks
Filner
Filo
Fils
Filter
Filtering
Filters
Filth
Filthy
Filton
Fin
Fina
Final
FinalThe
Finale
Finalist
Finalists
Finally
Finals
Finance
Finances
Financial
Financially
Financing
Finch
Fincher
Finchley
Find
Finder
Finding
Findings
Findlay
Findley
Finds
Fine
Fines
Finest
Finetooth
Fingal
Finger
Fingers
Fingleton
Fini
Finish
Finished
Finisher
Finishing
Finistere
Finisterre
Finite
Fink
Finke
Finkel
Finkelstein
Finland
Finlandia
Finlay
Finlayson
Finley
Finn
Finnegan
Finnegans
Finney
Finnic
Finnigan
Finnish
Finnmark
Finno
Finns
Fino
Finsbury
Fintan
Finucane
Fiona
Fionn
Fiordland
Fiore
Fiorello
Fiorentina
Fiorentino
Fiori
Fiqh
Fir
Fir####
Firangs
Fire
FireFox
FireWire
Firearms
Fireball
Firebird
Firebirds
Firebrand
Firecracker
Fired
Firefighter
Firefighters
Fireflies
Firefly
Firefox
Firehouse
Fireman
Firemen
Firenze
Firepower
Fires
Fireside
Firestar
Firestone
Firestorm
Firewall
Fireworks
Firing
Firm
Firma
Firmin
Firms
Firmware
Firpo
First
Firstly
Firsts
Firth
Firuz
Fiscal
Fischer
Fish
FishBase
Fishburne
Fisher
FisherQueen
Fisheries
Fisherman
Fishermen
Fishers
Fishery
Fishes
Fishguard
Fishing
Fishkill
Fishman
Fisichella
Fisk
Fiske
Fist
Fistfights
Fistful
Fists
Fit
Fitch
Fitchburg
Fitkin
Fitness
Fitr
Fits
Fitting
Fittipaldi
Fitton
Fitz
FitzAlan
FitzGerald
FitzRoy
Fitzalan
Fitzgerald
Fitzgibbon
Fitzherbert
Fitzhugh
Fitzmaurice
Fitzpatrick
Fitzroy
Fitzsimmons
Fitzsimons
Fitzwilliam
Fiume
Five
Fives
Fix
Fixed
Fixer
Fixing
Fixtures
Fiz
Fizazi
Fizz
Fjord
Fjordane
Fl
Fla
Fla.
Flacco
Flaccus
Flack
Flag
Flagg
Flagged
Flagler
Flags
Flagship
Flagstaff
Flaherty
Flair
Flak
Flake
Flakes
Flamborough
Flame
Flamenco
Flamengo
Flames
Flaming
Flamingo
Flamingos
Flammarion
Flamsteed
Flanagan
Flanders
Flann
Flannery
Flare
Flash
Flashback
Flashes
Flashman
Flashpoint
Flat
Flatbush
Flathead
Flatiron
Flats
Flatt
Flatts
Flaubert
Flav
Flava
Flavia
Flavian
Flavio
Flavius
Flavor
Flavors
Flax
Flay
Flea
Fleche
Fleck
Fledermaus
Fleece
Fleeing
Fleet
FleetAs
FleetThe
Fleets
Fleetwood
Fleischer
Fleischmann
Fleisher
Fleming
Flemings
Flemington
Flemish
Flemming
Flensburg
Flesh
Fletch
Fletcher
Fleur
Fleury
Flew
Flex
Flexibility
Flexible
Flick
Flicker
Flickr
Fliegerkorps
Flies
Flight
Flights
Flin
Flinders
Flinn
Flint
Flintoff
Flintshire
Flintstone
Flintstones
Flip
Flipkart
Flipped
Flipper
Flipside
Flo
Float
Floating
Flock
Flodden
Flon
Flood
Flooding
Floods
Floor
Floorball
Floors
Flop
Flor
Flora
FloraThe
Floral
Flore
Florence
Florencia
Florencio
Florent
Florentine
Florentino
Flores
Florey
Florian
Floriana
Florianopolis
Florida
Florida.
Florida.The
FloridaRIGHTs
Floridian
Florin
Florina
Florio
Floris
Flory
Flotilla
Flour
Flow
Flower
Flowering
Flowerparty
Flowers
Flowing
Flows
Floyd
Flt
Flu
Fluffy
Fluid
Fluids
Fluke
Fluminense
Fluorescent
Flush
Flushing
Flute
Flutie
Flux
Fluxus
Fly
Flycatcher
Flyer
Flyers
Flying
Flynn
Flynt
Flyweight
Fm
Fo
Foam
Foca
Focal
Foch
Fock
Focke
Focus
Focused
Focusing
Fod
Fode
Fodenge
Fodor
Foe
Foerster
Foes
Fog
Fogarty
Fogel
Fogerty
Fogg
Foggia
Foggy
Foghorn
Fogo
Foil
Foix
Fokker
Fold
Folder
Folding
Folds
Foley
Folger
Folha
Folies
Foligno
Folio
Foliot
Folk
Folke
Folkestone
Folklife
Folklore
Folks
Folkways
Follett
Follette
Follies
Follow
Followed
Followers
Following
Follows
Followup
Folly
Folsom
Fon
Fond
Fonda
Fondation
Fondazione
Fondo
Fonds
Foner
Fong
Fonseca
Fonseka
Font
Fontainbleu
Fontaine
Fontainebleau
Fontana
Fontane
Fonte
Fontenay
Fontenelle
Fontenoy
Fontes
Fonts
Foo
Foochow
Food
Foods
Fool
Foolish
Fools
Foopid
Foot
Footage
Football
FootballThe
Footballer
Footballers
Foote
Footer
Foothill
Foothills
Footlights
Footloose
Footnote
Footnotes
Footprint
Footprints
Footscray
Footsteps
Footwear
Footy
For
Fora
Foraker
Foran
Forbes
Forbes.com
Forbidden
Force
Forced
Forces
Ford
Forde
Fordham
Fords
Fordyce
Fore
Forecast
Forecasting
Forecasts
Foreign
Foreigner
Foreigners
Foreland
Foreman
Foremost
Forensic
Forensics
Forerunner
Foresight
Forest
Forester
Foresters
Forestry
Forests
Foret
Forever
Foreword
Forfar
Forge
Forged
Forges
Forget
Forgetting
Forging
Forgive
Forgiveness
Forgot
Forgotten
Fori
Fork
Forks
Forlag
Forli
Form
Formal
Formally
Forman
Format
FormatThe
Formation
FormationThe
Formations
Formative
Formats
Formatting
Formby
Formed
Former
Formerly
Formidable
Forming
Formosa
Formosan
Forms
Formula
Formulas
Formulation
Forney
Foro
Forrest
Forrestal
Forrester
Forsaken
Forsberg
Forschung
Forst
Forster
Forster@ENRON
Forsyth
Forsythe
Fort
Fortaleza
Fortas
Forte
Fortean
Fortescue
Forth
Forthcoming
Forti
Fortier
Fortifications
Fortified
Fortin
Fortis
Fortitude
Fortnight
Fortran
Fortress
Fortresses
Forts
Fortuna
Fortunate
Fortunately
Fortunato
Fortune
Fortunes
Fortuno
Fortuyn
Forty
Forum
Forums
Forward
Forwards
Forwardslash
Forza
Foshan
Foss
Fossae
Fosse
Fossey
Fossil
Fossils
Fossum
Foster
Fostering
Fotball
Fotbollforbund
Fothergill
Foto
Fou
Fouad
Foucault
Fought
Foul
Foulis
Foulkes
Foulkesstraat
Found
Foundation
FoundationRIGHTs
FoundationThe
Foundations
Founded
Founder
Founders
Founding
FoundingThe
Foundling
Foundry
Fountain
Fountains
Fouquet
Four
Fourier
Fouriers
Fournier
Fours
Foursquare
Fourteen
Fourteenth
Fourth
Fouts
Fowey
Fowl
Fowler
Fowler&fowler
Fowles
Fowley
Fox
Foxe
Foxes
Foxtel
Foxton
Foxtrot
Foxx
Foxy
Foy
Foyle
Foyt
Foz
Fr
Fra
Fractal
Fraction
Fractional
Fracture
Fraenkel
Fraga
Fragile
Fragment
Fragments
Fragrance
Fraiser
Fram
Frame
Framed
Frames
Framework
Framing
Framingham
Frampton
Fran
Franc
Franca
Francais
Francaise
France
FranceIn
FranceRIGHTs
FranceThe
Frances
Francesc
Francesca
Francesco
Franche
Franchi
Franchise
Franchitti
Francia
Francie
Francine
Francis
Francisca
Franciscan
Franciscans
Francisco
Francisco.
Franciscus
Franciszek
Franck
Francke
Franco
Francois
Francoise
Francoist
Franconia
Franconian
Francophone
Francophonie
Francorchamps
Francs
Francs####
Franjo
Frank
Franke
Frankel
Franken
Frankenstein
Frankford
Frankfort
Frankfurt
Frankfurter
Frankie
Frankish
Frankivsk
Frankland
Franklin
Frankly
Franklyn
Franko
Frankopan
Franks
Frankston
Franky
Franquin
Frans
Frantic
Frantisek
Frantz
Franz
Franzen
Franziska
Frascati
Fraser
Frasheri
Frasier
Frater
Fraternal
Fraternities
Fraternity
Fratton
Frau
Fraud
Frauen
Fraunhofer
Frawley
Fraxinus
Fray
Frazee
Frazer
Frazier
Freak
Freaks
Freaky
Freamon
Frechet
Fred
Freda
Freddie
Freddy
Frederic
Frederica
Frederick
Fredericks
Fredericksburg
Frederico
Fredericton
Frederik
Frederiksberg
Frederiksen
Fredonia
Fredric
Fredrick
Fredrik
Fredrikstad
Free
FreeBSD
Freed
Freedberg
Freedman
Freedmen
Freedom
Freedoms
Freehold
Freeholder
Freeholders
Freelance
Freeland
Freeman
Freemason
Freemasonry
Freemasons
Freemen
Freeport
Freer
Freesat
Freescale
Freese
Freestyle
Freetown
Freeview
Freeway
Freeze
Freezing
Frege
Frehley
Frei
Freiberg
Freiburg
Freie
Freight
Freighter
Freightliner
Freiheit
Freiherr
Freikorps
Freire
Freising
Freitag
Freitas
Frejus
Freleng
Frelinghuysen
Fremantle
Fremen
Fremont
French
French.
Frenchman
Frenchmen
Frenchtown
Frenkel
Frente
Frentzen
Frenzy
Frequencies
Frequency
Frequent
Frequently
Frere
Freres
Fresco
Fresh
Freshman
Freshmen
Freshwater
Fresnel
Fresno
Freud
Freudian
Freund
Frew
Frey
Freya
Freyberg
Freyja
Freyr
Freytag
Fri
Fri.
Friar
Friars
Friary
Frias
Fribourg
Frick
Fricke
Fricker
Friction
Frida
Friday
Fridays
Frideric
Fridtjof
Fried
Frieda
Friedan
Friedberg
Friedel
Friederike
Friedkin
Friedland
Friedlander
Friedman
Friedmann
Friedrich
Friedrichshafen
Friel
Friend
Friendlies
Friendliest
Friendliness
Friendly
Friends
Friendship
Fries
Friesen
Friesian
Friesland
Frietjes
Frieze
Frigate
Frigg
Fright
Frightened
Friis
Fringe
Frink
Frio
Fripp
Frisbee
Frisch
Frisco
Frisell
Frisia
Frisian
Frisians
Frist
Frith
Fritillary
Frito
Frits
Fritsch
Fritz
Fritzpoll
Friuli
Friz
Frizzell
[...]
